{
  "!": 22569,
  "\"": 22570,
  "#": 22571,
  "$": 22572,
  "%": 22573,
  "&": 22574,
  "'": 22575,
  "(": 22576,
  ")": 22577,
  "*": 22578,
  "+": 22579,
  ",": 22580,
  "-": 22581,
  ".": 22582,
  "/": 22583,
  "0": 22584,
  "1": 22585,
  "2": 22586,
  "3": 22587,
  "4": 22588,
  "5": 22589,
  "6": 22590,
  "7": 22591,
  "8": 22592,
  "9": 22593,
  ":": 22594,
  ";": 22595,
  "<": 22596,
  "=": 22597,
  ">": 22598,
  "?": 22599,
  "@": 22600,
  "[": 22601,
  "\\": 22602,
  "]": 22603,
  "^": 22604,
  "_": 22605,
  "`": 22606,
  "b": 22607,
  "c": 22608,
  "d": 22609,
  "f": 22610,
  "g": 22611,
  "h": 22612,
  "j": 22613,
  "k": 22614,
  "l": 22615,
  "p": 22616,
  "q": 22617,
  "t": 22618,
  "v": 22619,
  "w": 22620,
  "x": 22621,
  "{": 22622,
  "|": 22623,
  "}": 22624,
  "~": 22625,
  "": 22626,
  "": 22627,
  "": 22628,
  "": 22629,
  "": 22630,
  "": 22631,
  "": 22632,
  "": 22633,
  "¡": 22634,
  "¢": 22635,
  "£": 22636,
  "¤": 22637,
  "¥": 22638,
  "¦": 22639,
  "§": 22640,
  "¨": 22641,
  "©": 22642,
  "ª": 22643,
  "«": 22644,
  "¬": 22645,
  "­": 22646,
  "®": 22647,
  "¯": 22648,
  "°": 22649,
  "±": 22650,
  "²": 22651,
  "³": 22652,
  "´": 22653,
  "µ": 22654,
  "¶": 22655,
  "·": 22656,
  "¸": 22657,
  "¹": 22658,
  "º": 22659,
  "»": 22660,
  "¼": 22661,
  "½": 22662,
  "¾": 22663,
  "¿": 22664,
  "×": 22665,
  "ß": 22666,
  "à": 22667,
  "á": 22668,
  "â": 22669,
  "ã": 22670,
  "ä": 22671,
  "å": 22672,
  "æ": 22673,
  "ç": 22674,
  "è": 22675,
  "é": 22676,
  "ê": 22677,
  "ë": 22678,
  "ì": 22679,
  "í": 22680,
  "î": 22681,
  "ï": 22682,
  "ð": 22683,
  "ñ": 22684,
  "ò": 22685,
  "ó": 22686,
  "ô": 22687,
  "õ": 22688,
  "ö": 22689,
  "÷": 22690,
  "ø": 22691,
  "ù": 22692,
  "ú": 22693,
  "û": 22694,
  "ý": 22695,
  "þ": 22696,
  "ÿ": 22697,
  "ā": 22698,
  "ă": 22699,
  "ą": 22700,
  "ć": 22701,
  "č": 22702,
  "ď": 22703,
  "đ": 22704,
  "ē": 22705,
  "ė": 22706,
  "ę": 22707,
  "ě": 22708,
  "ĝ": 22709,
  "ğ": 22710,
  "ġ": 22711,
  "ģ": 22712,
  "ħ": 22713,
  "ī": 22714,
  "ķ": 22715,
  "ļ": 22716,
  "ł": 22717,
  "ń": 22718,
  "ņ": 22719,
  "ň": 22720,
  "ŋ": 22721,
  "ō": 22722,
  "ŏ": 22723,
  "ő": 22724,
  "œ": 22725,
  "ř": 22726,
  "ś": 22727,
  "ş": 22728,
  "š": 22729,
  "ţ": 22730,
  "ť": 22731,
  "ū": 22732,
  "ŭ": 22733,
  "ů": 22734,
  "ű": 22735,
  "ų": 22736,
  "ź": 22737,
  "ż": 22738,
  "ž": 22739,
  "ƅ": 22740,
  "ƒ": 22741,
  "ư": 22742,
  "ǎ": 22743,
  "ǐ": 22744,
  "ǔ": 22745,
  "ǧ": 22746,
  "ș": 22747,
  "ț": 22748,
  "ɑ": 22749,
  "ɔ": 22750,
  "ə": 22751,
  "ɛ": 22752,
  "ɡ": 22753,
  "ɪ": 22754,
  "ɾ": 22755,
  "ʁ": 22756,
  "ʃ": 22757,
  "ʒ": 22758,
  "ʔ": 22759,
  "ʰ": 22760,
  "ʲ": 22761,
  "ʷ": 22762,
  "ʻ": 22763,
  "ʼ": 22764,
  "ʾ": 22765,
  "ʿ": 22766,
  "ˆ": 22767,
  "ˈ": 22768,
  "ː": 22769,
  "̀": 22770,
  "́": 22771,
  "̂": 22772,
  "̄": 22773,
  "̆": 22774,
  "̇": 22775,
  "̈": 22776,
  "̣": 22777,
  "̧": 22778,
  "̳": 22779,
  "͡": 22780,
  "ά": 22781,
  "έ": 22782,
  "ή": 22783,
  "ί": 22784,
  "α": 22785,
  "β": 22786,
  "γ": 22787,
  "δ": 22788,
  "ε": 22789,
  "ζ": 22790,
  "η": 22791,
  "θ": 22792,
  "ι": 22793,
  "κ": 22794,
  "λ": 22795,
  "μ": 22796,
  "ν": 22797,
  "ξ": 22798,
  "ο": 22799,
  "π": 22800,
  "ρ": 22801,
  "ς": 22802,
  "σ": 22803,
  "τ": 22804,
  "υ": 22805,
  "φ": 22806,
  "χ": 22807,
  "ψ": 22808,
  "ω": 22809,
  "ό": 22810,
  "ύ": 22811,
  "ώ": 22812,
  "ϕ": 22813,
  "а": 22814,
  "б": 22815,
  "в": 22816,
  "г": 22817,
  "д": 22818,
  "е": 22819,
  "ж": 22820,
  "з": 22821,
  "и": 22822,
  "й": 22823,
  "к": 22824,
  "л": 22825,
  "м": 22826,
  "н": 22827,
  "о": 22828,
  "п": 22829,
  "р": 22830,
  "с": 22831,
  "т": 22832,
  "у": 22833,
  "ф": 22834,
  "х": 22835,
  "ц": 22836,
  "ч": 22837,
  "ш": 22838,
  "щ": 22839,
  "ъ": 22840,
  "ы": 22841,
  "ь": 22842,
  "э": 22843,
  "ю": 22844,
  "я": 22845,
  "ё": 22846,
  "є": 22847,
  "ѕ": 22848,
  "і": 22849,
  "ї": 22850,
  "ј": 22851,
  "ћ": 22852,
  "ў": 22853,
  "ѵ": 22854,
  "ғ": 22855,
  "қ": 22856,
  "ң": 22857,
  "ү": 22858,
  "ұ": 22859,
  "ӏ": 22860,
  "ә": 22861,
  "ө": 22862,
  "ԁ": 22863,
  "ա": 22864,
  "գ": 22865,
  "ե": 22866,
  "թ": 22867,
  "ի": 22868,
  "կ": 22869,
  "հ": 22870,
  "մ": 22871,
  "յ": 22872,
  "ն": 22873,
  "ո": 22874,
  "ս": 22875,
  "վ": 22876,
  "տ": 22877,
  "ր": 22878,
  "ւ": 22879,
  "ք": 22880,
  "ְ": 22881,
  "ִ": 22882,
  "ָ": 22883,
  "ּ": 22884,
  "א": 22885,
  "ב": 22886,
  "ג": 22887,
  "ד": 22888,
  "ה": 22889,
  "ו": 22890,
  "ז": 22891,
  "ח": 22892,
  "ט": 22893,
  "י": 22894,
  "ך": 22895,
  "כ": 22896,
  "ל": 22897,
  "ם": 22898,
  "מ": 22899,
  "ן": 22900,
  "נ": 22901,
  "ס": 22902,
  "ע": 22903,
  "פ": 22904,
  "צ": 22905,
  "ק": 22906,
  "ר": 22907,
  "ש": 22908,
  "ת": 22909,
  "،": 22910,
  "؟": 22911,
  "ء": 22912,
  "آ": 22913,
  "أ": 22914,
  "ؤ": 22915,
  "إ": 22916,
  "ئ": 22917,
  "ا": 22918,
  "ب": 22919,
  "ة": 22920,
  "ت": 22921,
  "ث": 22922,
  "ج": 22923,
  "ح": 22924,
  "خ": 22925,
  "د": 22926,
  "ذ": 22927,
  "ر": 22928,
  "ز": 22929,
  "س": 22930,
  "ش": 22931,
  "ص": 22932,
  "ض": 22933,
  "ط": 22934,
  "ظ": 22935,
  "ع": 22936,
  "غ": 22937,
  "ـ": 22938,
  "ف": 22939,
  "ق": 22940,
  "ك": 22941,
  "ل": 22942,
  "م": 22943,
  "ن": 22944,
  "ه": 22945,
  "و": 22946,
  "ى": 22947,
  "ي": 22948,
  "ً": 22949,
  "ٌ": 22950,
  "ٍ": 22951,
  "َ": 22952,
  "ُ": 22953,
  "ِ": 22954,
  "ّ": 22955,
  "ْ": 22956,
  "ٓ": 22957,
  "ٖ": 22958,
  "١": 22959,
  "ٰ": 22960,
  "ٱ": 22961,
  "پ": 22962,
  "چ": 22963,
  "ک": 22964,
  "گ": 22965,
  "ں": 22966,
  "ہ": 22967,
  "ی": 22968,
  "ے": 22969,
  "ە": 22970,
  "ۜ": 22971,
  "۞": 22972,
  "۩": 22973,
  "۪": 22974,
  "۱": 22975,
  "ं": 22976,
  "अ": 22977,
  "आ": 22978,
  "ए": 22979,
  "क": 22980,
  "ग": 22981,
  "च": 22982,
  "ज": 22983,
  "ट": 22984,
  "ड": 22985,
  "ण": 22986,
  "त": 22987,
  "थ": 22988,
  "द": 22989,
  "ध": 22990,
  "न": 22991,
  "प": 22992,
  "ब": 22993,
  "भ": 22994,
  "म": 22995,
  "य": 22996,
  "र": 22997,
  "ल": 22998,
  "व": 22999,
  "श": 23000,
  "ष": 23001,
  "स": 23002,
  "ह": 23003,
  "ा": 23004,
  "ि": 23005,
  "ी": 23006,
  "ु": 23007,
  "ू": 23008,
  "े": 23009,
  "ै": 23010,
  "ो": 23011,
  "्": 23012,
  "।": 23013,
  "ং": 23014,
  "আ": 23015,
  "ই": 23016,
  "এ": 23017,
  "ক": 23018,
  "গ": 23019,
  "চ": 23020,
  "জ": 23021,
  "ট": 23022,
  "ত": 23023,
  "দ": 23024,
  "ন": 23025,
  "প": 23026,
  "ব": 23027,
  "ভ": 23028,
  "ম": 23029,
  "য": 23030,
  "র": 23031,
  "ল": 23032,
  "শ": 23033,
  "স": 23034,
  "হ": 23035,
  "়": 23036,
  "া": 23037,
  "ি": 23038,
  "ী": 23039,
  "ু": 23040,
  "ে": 23041,
  "ো": 23042,
  "্": 23043,
  "ৰ": 23044,
  "ਂ": 23045,
  "ਅ": 23046,
  "ਆ": 23047,
  "ਇ": 23048,
  "ਕ": 23049,
  "ਗ": 23050,
  "ਚ": 23051,
  "ਜ": 23052,
  "ਟ": 23053,
  "ਣ": 23054,
  "ਤ": 23055,
  "ਦ": 23056,
  "ਨ": 23057,
  "ਪ": 23058,
  "ਬ": 23059,
  "ਮ": 23060,
  "ਰ": 23061,
  "ਲ": 23062,
  "ਵ": 23063,
  "ਸ": 23064,
  "ਹ": 23065,
  "਼": 23066,
  "ਾ": 23067,
  "ਿ": 23068,
  "ੀ": 23069,
  "ੁ": 23070,
  "ੂ": 23071,
  "ੇ": 23072,
  "ੈ": 23073,
  "ੋ": 23074,
  "੍": 23075,
  "ੰ": 23076,
  "ੱ": 23077,
  "ં": 23078,
  "આ": 23079,
  "ક": 23080,
  "ગ": 23081,
  "જ": 23082,
  "ટ": 23083,
  "ડ": 23084,
  "ત": 23085,
  "દ": 23086,
  "ન": 23087,
  "પ": 23088,
  "બ": 23089,
  "મ": 23090,
  "ય": 23091,
  "ર": 23092,
  "લ": 23093,
  "વ": 23094,
  "શ": 23095,
  "સ": 23096,
  "ા": 23097,
  "િ": 23098,
  "ી": 23099,
  "ુ": 23100,
  "ે": 23101,
  "ો": 23102,
  "્": 23103,
  "କ": 23104,
  "ତ": 23105,
  "ଦ": 23106,
  "ନ": 23107,
  "ପ": 23108,
  "ବ": 23109,
  "ମ": 23110,
  "ର": 23111,
  "ସ": 23112,
  "ହ": 23113,
  "ା": 23114,
  "ି": 23115,
  "ୀ": 23116,
  "ୁ": 23117,
  "େ": 23118,
  "୍": 23119,
  "ୟ": 23120,
  "அ": 23121,
  "இ": 23122,
  "உ": 23123,
  "எ": 23124,
  "க": 23125,
  "ங": 23126,
  "ச": 23127,
  "ட": 23128,
  "ண": 23129,
  "த": 23130,
  "ந": 23131,
  "ன": 23132,
  "ப": 23133,
  "ம": 23134,
  "ய": 23135,
  "ர": 23136,
  "ற": 23137,
  "ல": 23138,
  "ள": 23139,
  "ழ": 23140,
  "வ": 23141,
  "ா": 23142,
  "ி": 23143,
  "ு": 23144,
  "ூ": 23145,
  "ெ": 23146,
  "ே": 23147,
  "ை": 23148,
  "ொ": 23149,
  "ோ": 23150,
  "்": 23151,
  "ం": 23152,
  "అ": 23153,
  "క": 23154,
  "గ": 23155,
  "చ": 23156,
  "జ": 23157,
  "ట": 23158,
  "డ": 23159,
  "త": 23160,
  "ద": 23161,
  "ధ": 23162,
  "న": 23163,
  "ప": 23164,
  "బ": 23165,
  "భ": 23166,
  "మ": 23167,
  "య": 23168,
  "ర": 23169,
  "ల": 23170,
  "వ": 23171,
  "శ": 23172,
  "ష": 23173,
  "స": 23174,
  "ా": 23175,
  "ి": 23176,
  "ీ": 23177,
  "ు": 23178,
  "ూ": 23179,
  "ె": 23180,
  "ే": 23181,
  "ై": 23182,
  "ో": 23183,
  "్": 23184,
  "ಂ": 23185,
  "ಕ": 23186,
  "ಗ": 23187,
  "ಡ": 23188,
  "ತ": 23189,
  "ದ": 23190,
  "ನ": 23191,
  "ಮ": 23192,
  "ಯ": 23193,
  "ರ": 23194,
  "ಲ": 23195,
  "ವ": 23196,
  "ಸ": 23197,
  "ಾ": 23198,
  "ಿ": 23199,
  "ು": 23200,
  "ೆ": 23201,
  "್": 23202,
  "ം": 23203,
  "ക": 23204,
  "ട": 23205,
  "ത": 23206,
  "ന": 23207,
  "പ": 23208,
  "മ": 23209,
  "യ": 23210,
  "ര": 23211,
  "റ": 23212,
  "ല": 23213,
  "ള": 23214,
  "വ": 23215,
  "സ": 23216,
  "ാ": 23217,
  "ി": 23218,
  "ു": 23219,
  "െ": 23220,
  "്": 23221,
  "ก": 23222,
  "ข": 23223,
  "ค": 23224,
  "ง": 23225,
  "จ": 23226,
  "ช": 23227,
  "ด": 23228,
  "ต": 23229,
  "ท": 23230,
  "น": 23231,
  "บ": 23232,
  "ป": 23233,
  "พ": 23234,
  "ภ": 23235,
  "ม": 23236,
  "ย": 23237,
  "ร": 23238,
  "ล": 23239,
  "ว": 23240,
  "ษ": 23241,
  "ส": 23242,
  "ห": 23243,
  "อ": 23244,
  "ะ": 23245,
  "ั": 23246,
  "า": 23247,
  "ิ": 23248,
  "ี": 23249,
  "ื": 23250,
  "ุ": 23251,
  "ู": 23252,
  "เ": 23253,
  "แ": 23254,
  "โ": 23255,
  "ใ": 23256,
  "ไ": 23257,
  "่": 23258,
  "้": 23259,
  "์": 23260,
  "๑": 23261,
  "ກ": 23262,
  "ງ": 23263,
  "ດ": 23264,
  "ນ": 23265,
  "ມ": 23266,
  "ລ": 23267,
  "ວ": 23268,
  "ອ": 23269,
  "ະ": 23270,
  "ັ": 23271,
  "າ": 23272,
  "ີ": 23273,
  "ເ": 23274,
  "່": 23275,
  "້": 23276,
  "་": 23277,
  "မ": 23278,
  "ာ": 23279,
  "်": 23280,
  "ა": 23281,
  "ბ": 23282,
  "გ": 23283,
  "დ": 23284,
  "ე": 23285,
  "ვ": 23286,
  "ზ": 23287,
  "თ": 23288,
  "ი": 23289,
  "კ": 23290,
  "ლ": 23291,
  "მ": 23292,
  "ნ": 23293,
  "ო": 23294,
  "პ": 23295,
  "რ": 23296,
  "ს": 23297,
  "ტ": 23298,
  "უ": 23299,
  "ფ": 23300,
  "ქ": 23301,
  "შ": 23302,
  "ც": 23303,
  "ძ": 23304,
  "წ": 23305,
  "ხ": 23306,
  "រ": 23307,
  "ា": 23308,
  "្": 23309,
  "ḥ": 23310,
  "ḫ": 23311,
  "ḳ": 23312,
  "ṣ": 23313,
  "ṭ": 23314,
  "ạ": 23315,
  "ả": 23316,
  "ẹ": 23317,
  "ế": 23318,
  "ệ": 23319,
  "ị": 23320,
  "ọ": 23321,
  "ụ": 23322,
  "ἀ": 23323,
  "​": 23324,
  "‌": 23325,
  "‍": 23326,
  "‎": 23327,
  "‏": 23328,
  "‐": 23329,
  "–": 23330,
  "—": 23331,
  "―": 23332,
  "‘": 23333,
  "’": 23334,
  "‚": 23335,
  "“": 23336,
  "”": 23337,
  "„": 23338,
  "‟": 23339,
  "†": 23340,
  "‡": 23341,
  "•": 23342,
  "‣": 23343,
  "…": 23344,
  "‬": 23345,
  "‭": 23346,
  "′": 23347,
  "″": 23348,
  "‹": 23349,
  "›": 23350,
  "⁄": 23351,
  "⁺": 23352,
  "⁻": 23353,
  "₀": 23354,
  "₁": 23355,
  "₂": 23356,
  "₃": 23357,
  "₄": 23358,
  "ₙ": 23359,
  "€": 23360,
  "₺": 23361,
  "℃": 23362,
  "№": 23363,
  "™": 23364,
  "ℤ": 23365,
  "←": 23366,
  "↑": 23367,
  "→": 23368,
  "↓": 23369,
  "↔": 23370,
  "↘": 23371,
  "↙": 23372,
  "↳": 23373,
  "⇌": 23374,
  "⇒": 23375,
  "⇓": 23376,
  "∂": 23377,
  "∅": 23378,
  "∆": 23379,
  "∇": 23380,
  "∈": 23381,
  "∑": 23382,
  "−": 23383,
  "√": 23384,
  "∞": 23385,
  "∧": 23386,
  "∩": 23387,
  "∪": 23388,
  "∫": 23389,
  "≅": 23390,
  "≈": 23391,
  "≠": 23392,
  "≡": 23393,
  "≤": 23394,
  "≥": 23395,
  "⊆": 23396,
  "⊕": 23397,
  "⊗": 23398,
  "⋅": 23399,
  "⋊": 23400,
  "⋮": 23401,
  "─": 23402,
  "│": 23403,
  "█": 23404,
  "■": 23405,
  "▪": 23406,
  "▬": 23407,
  "▲": 23408,
  "△": 23409,
  "▶": 23410,
  "▷": 23411,
  "►": 23412,
  "▼": 23413,
  "◊": 23414,
  "●": 23415,
  "★": 23416,
  "☆": 23417,
  "☎": 23418,
  "☺": 23419,
  "♀": 23420,
  "♂": 23421,
  "♥": 23422,
  "♦": 23423,
  "♪": 23424,
  "♫": 23425,
  "⚡": 23426,
  "✂": 23427,
  "✅": 23428,
  "✌": 23429,
  "✓": 23430,
  "✔": 23431,
  "✕": 23432,
  "✨": 23433,
  "❌": 23434,
  "❤": 23435,
  "➡": 23436,
  "➤": 23437,
  "⟨": 23438,
  "⟩": 23439,
  "⠀": 23440,
  "⤓": 23441,
  "⦁": 23442,
  "⭐": 23443,
  "、": 23444,
  "。": 23445,
  "「": 23446,
  "」": 23447,
  "【": 23448,
  "】": 23449,
  "あ": 23450,
  "い": 23451,
  "う": 23452,
  "え": 23453,
  "お": 23454,
  "か": 23455,
  "が": 23456,
  "き": 23457,
  "く": 23458,
  "け": 23459,
  "こ": 23460,
  "さ": 23461,
  "し": 23462,
  "す": 23463,
  "せ": 23464,
  "そ": 23465,
  "た": 23466,
  "だ": 23467,
  "ち": 23468,
  "っ": 23469,
  "つ": 23470,
  "て": 23471,
  "で": 23472,
  "と": 23473,
  "ど": 23474,
  "な": 23475,
  "に": 23476,
  "の": 23477,
  "は": 23478,
  "ま": 23479,
  "み": 23480,
  "め": 23481,
  "も": 23482,
  "や": 23483,
  "よ": 23484,
  "ら": 23485,
  "り": 23486,
  "る": 23487,
  "れ": 23488,
  "わ": 23489,
  "を": 23490,
  "ん": 23491,
  "ア": 23492,
  "ィ": 23493,
  "イ": 23494,
  "ウ": 23495,
  "ェ": 23496,
  "エ": 23497,
  "オ": 23498,
  "カ": 23499,
  "キ": 23500,
  "ク": 23501,
  "グ": 23502,
  "コ": 23503,
  "サ": 23504,
  "シ": 23505,
  "ジ": 23506,
  "ス": 23507,
  "タ": 23508,
  "チ": 23509,
  "ッ": 23510,
  "テ": 23511,
  "デ": 23512,
  "ト": 23513,
  "ド": 23514,
  "ナ": 23515,
  "ニ": 23516,
  "ノ": 23517,
  "バ": 23518,
  "パ": 23519,
  "ビ": 23520,
  "フ": 23521,
  "ブ": 23522,
  "プ": 23523,
  "ポ": 23524,
  "マ": 23525,
  "ム": 23526,
  "メ": 23527,
  "ャ": 23528,
  "ュ": 23529,
  "ラ": 23530,
  "リ": 23531,
  "ル": 23532,
  "レ": 23533,
  "ロ": 23534,
  "ン": 23535,
  "・": 23536,
  "ー": 23537,
  "一": 23538,
  "三": 23539,
  "上": 23540,
  "不": 23541,
  "世": 23542,
  "中": 23543,
  "主": 23544,
  "事": 23545,
  "产": 23546,
  "人": 23547,
  "代": 23548,
  "会": 23549,
  "体": 23550,
  "免": 23551,
  "兒": 23552,
  "公": 23553,
  "出": 23554,
  "分": 23555,
  "北": 23556,
  "区": 23557,
  "南": 23558,
  "县": 23559,
  "可": 23560,
  "合": 23561,
  "名": 23562,
  "和": 23563,
  "国": 23564,
  "在": 23565,
  "地": 23566,
  "大": 23567,
  "天": 23568,
  "女": 23569,
  "子": 23570,
  "学": 23571,
  "安": 23572,
  "定": 23573,
  "家": 23574,
  "小": 23575,
  "山": 23576,
  "州": 23577,
  "市": 23578,
  "年": 23579,
  "彼": 23580,
  "後": 23581,
  "性": 23582,
  "情": 23583,
  "成": 23584,
  "我": 23585,
  "播": 23586,
  "放": 23587,
  "文": 23588,
  "新": 23589,
  "方": 23590,
  "族": 23591,
  "日": 23592,
  "明": 23593,
  "是": 23594,
  "時": 23595,
  "最": 23596,
  "月": 23597,
  "有": 23598,
  "本": 23599,
  "民": 23600,
  "水": 23601,
  "治": 23602,
  "法": 23603,
  "洞": 23604,
  "海": 23605,
  "物": 23606,
  "王": 23607,
  "理": 23608,
  "生": 23609,
  "用": 23610,
  "癟": 23611,
  "的": 23612,
  "社": 23613,
  "私": 23614,
  "童": 23615,
  "简": 23616,
  "繁": 23617,
  "线": 23618,
  "羹": 23619,
  "者": 23620,
  "脹": 23621,
  "自": 23622,
  "色": 23623,
  "行": 23624,
  "西": 23625,
  "要": 23626,
  "見": 23627,
  "覺": 23628,
  "视": 23629,
  "言": 23630,
  "語": 23631,
  "费": 23632,
  "通": 23633,
  "道": 23634,
  "部": 23635,
  "金": 23636,
  "間": 23637,
  "频": 23638,
  "體": 23639,
  "高": 23640,
  "가": 23641,
  "고": 23642,
  "국": 23643,
  "기": 23644,
  "나": 23645,
  "는": 23646,
  "다": 23647,
  "대": 23648,
  "동": 23649,
  "라": 23650,
  "로": 23651,
  "리": 23652,
  "마": 23653,
  "사": 23654,
  "수": 23655,
  "스": 23656,
  "시": 23657,
  "아": 23658,
  "어": 23659,
  "에": 23660,
  "의": 23661,
  "이": 23662,
  "인": 23663,
  "자": 23664,
  "정": 23665,
  "지": 23666,
  "하": 23667,
  "한": 23668,
  "": 23669,
  "": 23670,
  "": 23671,
  "": 23672,
  "": 23673,
  "": 23674,
  "": 23675,
  "": 23676,
  "": 23677,
  "": 23678,
  "": 23679,
  "": 23680,
  "": 23681,
  "": 23682,
  "": 23683,
  "": 23684,
  "": 23685,
  "": 23686,
  "": 23687,
  "": 23688,
  "": 23689,
  "": 23690,
  "": 23691,
  "": 23692,
  "﴾": 23693,
  "﴿": 23694,
  "️": 23695,
  "﻿": 23696,
  "！": 23697,
  "（": 23698,
  "）": 23699,
  "，": 23700,
  "：": 23701,
  "￦": 23702,
  "￼": 23703,
  "�": 23704,
  "🇷": 23705,
  "🇹": 23706,
  "🌈": 23707,
  "🌞": 23708,
  "🌟": 23709,
  "🌸": 23710,
  "🌹": 23711,
  "🌻": 23712,
  "🏻": 23713,
  "🏼": 23714,
  "👇": 23715,
  "👈": 23716,
  "👉": 23717,
  "👍": 23718,
  "👎": 23719,
  "👏": 23720,
  "👤": 23721,
  "💕": 23722,
  "💖": 23723,
  "💪": 23724,
  "💬": 23725,
  "📋": 23726,
  "📌": 23727,
  "📍": 23728,
  "📞": 23729,
  "🔥": 23730,
  "🖊": 23731,
  "😀": 23732,
  "😁": 23733,
  "😂": 23734,
  "😃": 23735,
  "😄": 23736,
  "😇": 23737,
  "😉": 23738,
  "😊": 23739,
  "😍": 23740,
  "😎": 23741,
  "😔": 23742,
  "😘": 23743,
  "😡": 23744,
  "😥": 23745,
  "😦": 23746,
  "😱": 23747,
  "🙁": 23748,
  "🙂": 23749,
  "🙏": 23750,
  "🚀": 23751,
  "🤍": 23752,
  "🤗": 23753,
  "🥰": 23754,
  "🥺": 23755,
  "en": 23756,
  "de": 23757,
  "da": 23758,
  "or": 23759,
  "ik": 23760,
  "ba": 23761,
  "di": 23762,
  "i̇": 23763,
  "iy": 23764,
  "ür": 23765,
  "lan": 23766,
  "20": 23767,
  "st": 23768,
  "ları": 23769,
  "ra": 23770,
  "mı": 23771,
  "du": 23772,
  "gö": 23773,
  "alı": 23774,
  "man": 23775,
  "ini": 23776,
  "leri": 23777,
  "ine": 23778,
  "inde": 23779,
  "ük": 23780,
  "şt": 23781,
  "gi": 23782,
  "va": 23783,
  "ki": 23784,
  "ro": 23785,
  "şı": 23786,
  "to": 23787,
  "ül": 23788,
  "bilir": 23789,
  "inin": 23790,
  "cak": 23791,
  "olar": 23792,
  "iniz": 23793,
  "ği": 23794,
  "19": 23795,
  "aki": 23796,
  "olarak": 23797,
  "==": 23798,
  "zı": 23799,
  "ko": 23800,
  "hi": 23801,
  "201": 23802,
  "alar": 23803,
  "oldu": 23804,
  "ması": 23805,
  "he": 23806,
  "iyor": 23807,
  "ından": 23808,
  "na": 23809,
  "unu": 23810,
  "..": 23811,
  "mi": 23812,
  "ğu": 23813,
  "mu": 23814,
  "ğr": 23815,
  "olan": 23816,
  "ola": 23817,
  "olu": 23818,
  "daki": 23819,
  "00": 23820,
  "ber": 23821,
  "ili": 23822,
  "diğ": 23823,
  "gü": 23824,
  "ort": 23825,
  "bü": 23826,
  "öy": 23827,
  "ının": 23828,
  "bah": 23829,
  "gor": 23830,
  "kullanı": 23831,
  "mer": 23832,
  "202": 23833,
  "yın": 23834,
  "pro": 23835,
  "tr": 23836,
  "mü": 23837,
  "mesi": 23838,
  "pa": 23839,
  "kate": 23840,
  "inden": 23841,
  "sp": 23842,
  "ştır": 23843,
  "kategor": 23844,
  "dım": 23845,
  "ih": 23846,
  "uk": 23847,
  "kiş": 23848,
  "i̇n": 23849,
  "am": 23850,
  "ınız": 23851,
  "imiz": 23852,
  "mar": 23853,
  "mes": 23854,
  "kü": 23855,
  "for": 23856,
  "ven": 23857,
  "uyg": 23858,
  "eleri": 23859,
  "unda": 23860,
  "10": 23861,
  "eti": 23862,
  "makta": 23863,
  "res": 23864,
  "lo": 23865,
  "ku": 23866,
  "200": 23867,
  "2022": 23868,
  "dığı": 23869,
  "dik": 23870,
  "esc": 23871,
  "bur": 23872,
  "lara": 23873,
  "escort": 23874,
  "ceva": 23875,
  "stan": 23876,
  "mekte": 23877,
  "imi": 23878,
  "siniz": 23879,
  "ist": 23880,
  "sında": 23881,
  "ço": 23882,
  "gra": 23883,
  "olduğ": 23884,
  "tarafından": 23885,
  "hiz": 23886,
  "ğını": 23887,
  "olma": 23888,
  "ştur": 23889,
  "i̇l": 23890,
  "nak": 23891,
  "maktadır": 23892,
  "lerini": 23893,
  "öğr": 23894,
  "lığı": 23895,
  "orta": 23896,
  "sız": 23897,
  "doğr": 23898,
  "so": 23899,
  "edil": 23900,
  "if": 23901,
  "şekilde": 23902,
  "olo": 23903,
  "bilirsiniz": 23904,
  "iyet": 23905,
  "...": 23906,
  "mektedir": 23907,
  "ştir": 23908,
  "ab": 23909,
  "12": 23910,
  "usu": 23911,
  "ilg": 23912,
  "18": 23913,
  "arak": 23914,
  "com": 23915,
  "hir": 23916,
  "meye": 23917,
  "diği": 23918,
  "bilg": 23919,
  "deki": 23920,
  "lere": 23921,
  "sitesi": 23922,
  "esi": 23923,
  "ck": 23924,
  "we": 23925,
  "i̇ş": 23926,
  "15": 23927,
  "ing": 23928,
  "elik": 23929,
  "sonu": 23930,
  "larda": 23931,
  "ans": 23932,
  "ceğ": 23933,
  "the": 23934,
  "liği": 23935,
  "por": 23936,
  "ji": 23937,
  "aret": 23938,
  "mayı": 23939,
  "kası": 23940,
  "yanı": 23941,
  "hakk": 23942,
  "etti": 23943,
  "--": 23944,
  "unun": 23945,
  "çocu": 23946,
  "11": 23947,
  "kö": 23948,
  "olduğu": 23949,
  "go": 23950,
  "üş": 23951,
  "çev": 23952,
  "ren": 23953,
  "get": 23954,
  "ilgili": 23955,
  "tekn": 23956,
  "leştir": 23957,
  "larının": 23958,
  "malar": 23959,
  "una": 23960,
  "etk": 23961,
  "gı": 23962,
  "14": 23963,
  "ünü": 23964,
  "mp": 23965,
  "ni": 23966,
  "larına": 23967,
  "miştir": 23968,
  "olduğunu": 23969,
  "16": 23970,
  "mıştır": 23971,
  "13": 23972,
  "kita": 23973,
  "leme": 23974,
  "cüm": 23975,
  "ht": 23976,
  "oluştur": 23977,
  "sta": 23978,
  "aşa": 23979,
  "eye": 23980,
  "likle": 23981,
  "lerinin": 23982,
  "),": 23983,
  "lay": 23984,
  "tes": 23985,
  "tığı": 23986,
  "i̇stan": 23987,
  "resi": 23988,
  "lendir": 23989,
  "iti": 23990,
  "17": 23991,
  "i̇stanbul": 23992,
  "ga": 23993,
  "farklı": 23994,
  "ilir": 23995,
  "arasında": 23996,
  "gu": 23997,
  "30": 23998,
  "gru": 23999,
  "mut": 24000,
  "25": 24001,
  "şık": 24002,
  "bon": 24003,
  "şir": 24004,
  "etim": 24005,
  "mad": 24006,
  "masına": 24007,
  "tıl": 24008,
  "tama": 24009,
  "i̇z": 24010,
  "med": 24011,
  "199": 24012,
  "i̇s": 24013,
  "aları": 24014,
  "hesa": 24015,
  "larında": 24016,
  "taki": 24017,
  "ilerin": 24018,
  "üy": 24019,
  "dığ": 24020,
  "olmak": 24021,
  "tari": 24022,
  "şi": 24023,
  "rek": 24024,
  "lardan": 24025,
  "esinde": 24026,
  "çık": 24027,
  "gan": 24028,
  "lerine": 24029,
  "gelen": 24030,
  "izi": 24031,
  "siyon": 24032,
  "lantı": 24033,
  "maları": 24034,
  "=\"": 24035,
  "lığ": 24036,
  "birlikte": 24037,
  "eme": 24038,
  "pe": 24039,
  "24": 24040,
  "pla": 24041,
  "2021": 24042,
  "om": 24043,
  "küç": 24044,
  "tion": 24045,
  "eden": 24046,
  "masını": 24047,
  "iver": 24048,
  "tış": 24049,
  "dığını": 24050,
  "etmek": 24051,
  "kullanıl": 24052,
  "inizi": 24053,
  "umlu": 24054,
  "çeş": 24055,
  "ğun": 24056,
  "yılında": 24057,
  "erek": 24058,
  "arım": 24059,
  "olabilir": 24060,
  "müşt": 24061,
  "mev": 24062,
  "adresi": 24063,
  "lis": 24064,
  "indeki": 24065,
  "ünde": 24066,
  "aralık": 24067,
  "===": 24068,
  "cağı": 24069,
  "içinde": 24070,
  "seçen": 24071,
  "kullanıcı": 24072,
  "50": 24073,
  "yayınları": 24074,
  "ap": 24075,
  "larla": 24076,
  "asyon": 24077,
  "müz": 24078,
  "bes": 24079,
  "caktır": 24080,
  "bunun": 24081,
  "af": 24082,
  "2020": 24083,
  "okulları": 24084,
  "sino": 24085,
  "lül": 24086,
  "cum": 24087,
  "lanan": 24088,
  "layı": 24089,
  "üniver": 24090,
  "tra": 24091,
  "yoruz": 24092,
  "23": 24093,
  "cen": 24094,
  "anaokulları": 24095,
  "tah": 24096,
  "ner": 24097,
  "üne": 24098,
  ").": 24099,
  "şim": 24100,
  "yin": 24101,
  "pu": 24102,
  "i̇ngil": 24103,
  "ındaki": 24104,
  "rak": 24105,
  "yardımcı": 24106,
  "22": 24107,
  "yapılan": 24108,
  "dö": 24109,
  "manın": 24110,
  "lerinde": 24111,
  "umu": 24112,
  "oloji": 24113,
  "val": 24114,
  "isel": 24115,
  "tesi": 24116,
  "istan": 24117,
  "blo": 24118,
  "fik": 24119,
  "nis": 24120,
  "lerden": 24121,
  "ps": 24122,
  "tele": 24123,
  "usunda": 24124,
  "ğü": 24125,
  "yür": 24126,
  "nok": 24127,
  "incel": 24128,
  "198": 24129,
  "olması": 24130,
  "arası": 24131,
  "ebilir": 24132,
  "hen": 24133,
  "2019": 24134,
  "cil": 24135,
  "fin": 24136,
  "paz": 24137,
  "bulunan": 24138,
  "syon": 24139,
  "teş": 24140,
  "bilecek": 24141,
  "sanı": 24142,
  "000": 24143,
  "21": 24144,
  "ayd": 24145,
  "bır": 24146,
  "vide": 24147,
  "col": 24148,
  ".|": 24149,
  "2018": 24150,
  "gal": 24151,
  "i̇ç": 24152,
  "mesine": 24153,
  "yapa": 24154,
  "elektr": 24155,
  "fran": 24156,
  "veril": 24157,
  "bunu": 24158,
  "dedi": 24159,
  "size": 24160,
  "başkanı": 24161,
  "ülk": 24162,
  "siteleri": 24163,
  "ternet": 24164,
  "mesini": 24165,
  "enin": 24166,
  "28": 24167,
  "op": 24168,
  "bilgiler": 24169,
  "ep": 24170,
  "2017": 24171,
  "mesa": 24172,
  "26": 24173,
  "proj": 24174,
  "verilen": 24175,
  "üzerinde": 24176,
  "etmen": 24177,
  "gın": 24178,
  "ete": 24179,
  "mon": 24180,
  "isinde": 24181,
  "27": 24182,
  "nedir": 24183,
  "bilin": 24184,
  "gn": 24185,
  "tım": 24186,
  "fe": 24187,
  "oloj": 24188,
  "kün": 24189,
  "larından": 24190,
  ".\"": 24191,
  "laşı": 24192,
  "yasa": 24193,
  "lıyor": 24194,
  "ciler": 24195,
  "manı": 24196,
  "ize": 24197,
  "i̇m": 24198,
  "con": 24199,
  "ekon": 24200,
  "diğini": 24201,
  "ww": 24202,
  "gin": 24203,
  "str": 24204,
  "ağu": 24205,
  "avru": 24206,
  "tiya": 24207,
  "kurulu": 24208,
  "lerinden": 24209,
  "2016": 24210,
  "dül": 24211,
  "hük": 24212,
  "stos": 24213,
  "geçir": 24214,
  "ğini": 24215,
  "ğin": 24216,
  "unuz": 24217,
  "meler": 24218,
  "landır": 24219,
  "lah": 24220,
  "iyorum": 24221,
  "lerle": 24222,
  "sınız": 24223,
  "olduk": 24224,
  "kut": 24225,
  "bileceğ": 24226,
  "güvenilir": 24227,
  "uluk": 24228,
  "mey": 24229,
  "2015": 24230,
  "29": 24231,
  "ediyor": 24232,
  "rar": 24233,
  "mağ": 24234,
  "veren": 24235,
  "edilen": 24236,
  "cılık": 24237,
  "topl": 24238,
  "wit": 24239,
  "//": 24240,
  "etme": 24241,
  "bakan": 24242,
  "ja": 24243,
  "asında": 24244,
  "tılı": 24245,
  "urt": 24246,
  "çün": 24247,
  "ihtiya": 24248,
  "ortaya": 24249,
  "jo": 24250,
  "ziy": 24251,
  "197": 24252,
  "nes": 24253,
  "i̇ngiliz": 24254,
  "aşağıdaki": 24255,
  "oğlu": 24256,
  "ener": 24257,
  "lenen": 24258,
  "gerçekleştir": 24259,
  "2014": 24260,
  "zamanda": 24261,
  "ft": 24262,
  "çeşitli": 24263,
  "qu": 24264,
  "100": 24265,
  "i̇r": 24266,
  "biy": 24267,
  "num": 24268,
  "ori": 24269,
  "üzerine": 24270,
  "ici": 24271,
  "şeh": 24272,
  "yaptığı": 24273,
  "değiştir": 24274,
  "duğu": 24275,
  "tic": 24276,
  "huk": 24277,
  "yerine": 24278,
  "40": 24279,
  "yapan": 24280,
  "kre": 24281,
  "lerimiz": 24282,
  "2013": 24283,
  "i̇lk": 24284,
  "----": 24285,
  "ğraf": 24286,
  "htt": 24287,
  "günü": 24288,
  "terci": 24289,
  "nedeniyle": 24290,
  "nüf": 24291,
  "sebe": 24292,
  "madan": 24293,
  "konusunda": 24294,
  "nek": 24295,
  "abilir": 24296,
  "gerekli": 24297,
  "dos": 24298,
  "ted": 24299,
  "si̇": 24300,
  "diğiniz": 24301,
  "olup": 24302,
  "ceği": 24303,
  "özellikle": 24304,
  "pen": 24305,
  "müm": 24306,
  "vardır": 24307,
  "i̇k": 24308,
  "ardından": 24309,
  "yım": 24310,
  "ex": 24311,
  "benim": 24312,
  "tarihi": 24313,
  "değerlendir": 24314,
  "sanız": 24315,
  "rü": 24316,
  "tası": 24317,
  "üp": 24318,
  "fet": 24319,
  "60": 24320,
  "2012": 24321,
  "sındaki": 24322,
  "anda": 24323,
  "ildi": 24324,
  "meyi": 24325,
  "adan": 24326,
  "eyi": 24327,
  "burada": 24328,
  "dak": 24329,
  "span": 24330,
  "üniversitesi": 24331,
  "alım": 24332,
  "dis": 24333,
  "sından": 24334,
  "yeniden": 24335,
  "dırı": 24336,
  "elerin": 24337,
  "evi": 24338,
  "nız": 24339,
  "align": 24340,
  "lüt": 24341,
  "jan": 24342,
  "alama": 24343,
  "üzerinden": 24344,
  "des": 24345,
  "lilik": 24346,
  "olacak": 24347,
  "ts": 24348,
  "politi": 24349,
  "laştır": 24350,
  "og": 24351,
  "ümüz": 24352,
  "meli": 24353,
  "ic": 24354,
  "**": 24355,
  "cut": 24356,
  "biliyor": 24357,
  "görül": 24358,
  "ilmesi": 24359,
  "://": 24360,
  "\",": 24361,
  "2011": 24362,
  "one": 24363,
  "matik": 24364,
  "2010": 24365,
  "ğa": 24366,
  "uyla": 24367,
  "vis": 24368,
  "sının": 24369,
  "35": 24370,
  "merkezi": 24371,
  "ilişk": 24372,
  "futbolcu": 24373,
  "lamak": 24374,
  "makal": 24375,
  "ly": 24376,
  "talya": 24377,
  "ölç": 24378,
  "haberler": 24379,
  "esine": 24380,
  "visi": 24381,
  "raki": 24382,
  "dağı": 24383,
  "bonus": 24384,
  "tarihinde": 24385,
  "çif": 24386,
  "erli": 24387,
  "manız": 24388,
  "bl": 24389,
  "larımız": 24390,
  "ss": 24391,
  "muştur": 24392,
  "malz": 24393,
  "undan": 24394,
  "olmayan": 24395,
  "alanlar": 24396,
  "landı": 24397,
  "book": 24398,
  "labilir": 24399,
  "ameri": 24400,
  "dör": 24401,
  "ünün": 24402,
  "kırı": 24403,
  "yordu": 24404,
  "hari": 24405,
  "196": 24406,
  "amacı": 24407,
  "yapmak": 24408,
  "gereken": 24409,
  "ladı": 24410,
  "kali": 24411,
  "altında": 24412,
  "di̇": 24413,
  "lat": 24414,
  "wor": 24415,
  "taj": 24416,
  "sey": 24417,
  "içerisinde": 24418,
  "siteler": 24419,
  "konusu": 24420,
  "05": 24421,
  "dığında": 24422,
  "yaptı": 24423,
  "aliyet": 24424,
  "üler": 24425,
  "i̇let": 24426,
  "gerekir": 24427,
  "laşık": 24428,
  "isini": 24429,
  "işi": 24430,
  "geler": 24431,
  "çalışma": 24432,
  "sıyla": 24433,
  "neler": 24434,
  "örne": 24435,
  "sinde": 24436,
  "almak": 24437,
  "win": 24438,
  "söy": 24439,
  "muh": 24440,
  "geçen": 24441,
  "ec": 24442,
  "değildir": 24443,
  "tarifi": 24444,
  "45": 24445,
  "ilmiş": 24446,
  "nor": 24447,
  "amer": 24448,
  "ent": 24449,
  "aldı": 24450,
  "edile": 24451,
  "doğan": 24452,
  "isyon": 24453,
  "profes": 24454,
  "ğrı": 24455,
  "2009": 24456,
  "uluslar": 24457,
  "ıntı": 24458,
  "alış": 24459,
  "aların": 24460,
  "31": 24461,
  "est": 24462,
  "amerik": 24463,
  "twitter": 24464,
  "nit": 24465,
  "lış": 24466,
  "umuz": 24467,
  "sunuz": 24468,
  "sırasında": 24469,
  "genellikle": 24470,
  "bası": 24471,
  "stra": 24472,
  "ces": 24473,
  "vil": 24474,
  "luğu": 24475,
  "uğ": 24476,
  "ğe": 24477,
  "36": 24478,
  "cağını": 24479,
  "sitemiz": 24480,
  "90": 24481,
  "başladı": 24482,
  "mur": 24483,
  "mda": 24484,
  "ımı": 24485,
  "laya": 24486,
  "malıdır": 24487,
  "veriler": 24488,
  "lacak": 24489,
  "bölg": 24490,
  "masının": 24491,
  "alma": 24492,
  "iyeti": 24493,
  "lenme": 24494,
  "sizin": 24495,
  "bana": 24496,
  "ekonom": 24497,
  "fo": 24498,
  "müşter": 24499,
  "i̇nsan": 24500,
  "açıklama": 24501,
  "oldukça": 24502,
  "rağ": 24503,
  "duğ": 24504,
  "mağaz": 24505,
  "türkçe": 24506,
  "fiyatları": 24507,
  "hakkı": 24508,
  "i̇yi": 24509,
  "yıcı": 24510,
  "oyn": 24511,
  "iyoruz": 24512,
  "33": 24513,
  "uml": 24514,
  "ght": 24515,
  "bağlantılar": 24516,
  "inize": 24517,
  "keli": 24518,
  "i̇ngilizce": 24519,
  "lardır": 24520,
  "diler": 24521,
  "içi": 24522,
  "ef": 24523,
  "sistemi": 24524,
  "yolu": 24525,
  "isinin": 24526,
  "layan": 24527,
  "dele": 24528,
  "44": 24529,
  "arasındaki": 24530,
  "menin": 24531,
  "yanın": 24532,
  "rip": 24533,
  "pre": 24534,
  "vir": 24535,
  "bra": 24536,
  "ödeme": 24537,
  "gun": 24538,
  "medi": 24539,
  "ıyor": 24540,
  "2008": 24541,
  "mm": 24542,
  "lamalar": 24543,
  "teh": 24544,
  "ırken": 24545,
  "omi": 24546,
  "dra": 24547,
  "80": 24548,
  "lığını": 24549,
  "https": 24550,
  "plat": 24551,
  "nedenle": 24552,
  "ettiği": 24553,
  "iddi": 24554,
  "yıldı": 24555,
  "sipar": 24556,
  "müca": 24557,
  "izm": 24558,
  "sul": 24559,
  "üyor": 24560,
  "geldi": 24561,
  "meyen": 24562,
  "bilgileri": 24563,
  "pr": 24564,
  "birliği": 24565,
  "kullanarak": 24566,
  "''": 24567,
  "kullanılan": 24568,
  "zu": 24569,
  "sinin": 24570,
  "olsun": 24571,
  "anın": 24572,
  "larıyla": 24573,
  "oper": 24574,
  "kişinin": 24575,
  "anti": 24576,
  "sayısı": 24577,
  "bizim": 24578,
  "celik": 24579,
  "onik": 24580,
  "üncü": 24581,
  "face": 24582,
  "37": 24583,
  "cevabı": 24584,
  "kişiler": 24585,
  "fı": 24586,
  "eği": 24587,
  "bilmek": 24588,
  "yalnızca": 24589,
  "leriyle": 24590,
  "durumda": 24591,
  "34": 24592,
  "dışı": 24593,
  "olun": 24594,
  "hastan": 24595,
  "soruml": 24596,
  "ital": 24597,
  "utu": 24598,
  "larak": 24599,
  "i̇zmir": 24600,
  "hizmeti": 24601,
  "izyon": 24602,
  "sas": 24603,
  "teda": 24604,
  "içeri": 24605,
  "perfor": 24606,
  "cılar": 24607,
  ".”": 24608,
  "esel": 24609,
  "online": 24610,
  "sex": 24611,
  "istik": 24612,
  "olacaktır": 24613,
  "kızı": 24614,
  "39": 24615,
  "performan": 24616,
  "bize": 24617,
  "gre": 24618,
  "buna": 24619,
  "01": 24620,
  "i̇letişim": 24621,
  "zin": 24622,
  "sahibi": 24623,
  "osu": 24624,
  "sürdür": 24625,
  "ınızı": 24626,
  "ああ": 24627,
  "sayılı": 24628,
  "şamp": 24629,
  "sonraki": 24630,
  "eki": 24631,
  "lanma": 24632,
  "hbet": 24633,
  "tesp": 24634,
  "09": 24635,
  "mızda": 24636,
  "facebook": 24637,
  "ünden": 24638,
  "bonusu": 24639,
  "ücretsiz": 24640,
  "teşek": 24641,
  "fiz": 24642,
  "tekli": 24643,
  "durumu": 24644,
  "cevapla": 24645,
  "paylaşı": 24646,
  "yonel": 24647,
  "195": 24648,
  "meleri": 24649,
  "çiler": 24650,
  "pra": 24651,
  "ucu": 24652,
  "',": 24653,
  "hâ": 24654,
  "lon": 24655,
  "hmet": 24656,
  "kalı": 24657,
  "cm": 24658,
  "2007": 24659,
  "tiği": 24660,
  "ilecek": 24661,
  "olojik": 24662,
  "miyor": 24663,
  "38": 24664,
  "çalışmalar": 24665,
  "www": 24666,
  "08": 24667,
  "stik": 24668,
  "sh": 24669,
  "çıkan": 24670,
  "kalit": 24671,
  "esinin": 24672,
  "dışında": 24673,
  "partisi": 24674,
  "aray": 24675,
  "diyor": 24676,
  "anan": 24677,
  "32": 24678,
  "lemek": 24679,
  "lerdir": 24680,
  "sayf": 24681,
  "fayd": 24682,
  "soruyu": 24683,
  "oyunları": 24684,
  "söyledi": 24685,
  "umsuz": 24686,
  "dığınız": 24687,
  "teki": 24688,
  "halinde": 24689,
  "mesinin": 24690,
  "eve": 24691,
  "cisi": 24692,
  "bera": 24693,
  "başlan": 24694,
  "kâ": 24695,
  "jin": 24696,
  "mahke": 24697,
  "gro": 24698,
  "ydı": 24699,
  "kale": 24700,
  "insanlar": 24701,
  "anlamına": 24702,
  "02": 24703,
  "osmanlı": 24704,
  "bağım": 24705,
  "unan": 24706,
  "seniz": 24707,
  "liğini": 24708,
  "cor": 24709,
  "kelim": 24710,
  "hüc": 24711,
  "stagram": 24712,
  "|-": 24713,
  "lüğü": 24714,
  "hizmetleri": 24715,
  "ry": 24716,
  "mıyor": 24717,
  "lanması": 24718,
  "şıl": 24719,
  "mıza": 24720,
  "kaliteli": 24721,
  "und": 24722,
  "değişiklik": 24723,
  "lenmiş": 24724,
  "ilç": 24725,
  "alanı": 24726,
  "ederek": 24727,
  "ştu": 24728,
  "65": 24729,
  "kuv": 24730,
  "şım": 24731,
  "i̇lg": 24732,
  "malzem": 24733,
  "isine": 24734,
  "oz": 24735,
  "beni": 24736,
  "öncek": 24737,
  "lili": 24738,
  "person": 24739,
  "48": 24740,
  "adlı": 24741,
  "yazın": 24742,
  "jen": 24743,
  "gisi": 24744,
  "yanıtla": 24745,
  "bilen": 24746,
  "ty": 24747,
  "türlü": 24748,
  "gerekiyor": 24749,
  "edilir": 24750,
  "örneğin": 24751,
  "hipo": 24752,
  "i̇nternet": 24753,
  ");": 24754,
  "07": 24755,
  "meniz": 24756,
  "ilerini": 24757,
  "parç": 24758,
  "haberleri": 24759,
  "diğinde": 24760,
  "ilendir": 24761,
  "03": 24762,
  "||": 24763,
  "nerede": 24764,
  "aldığı": 24765,
  "istiyor": 24766,
  "imize": 24767,
  "lıkla": 24768,
  "lenmesi": 24769,
  "uyor": 24770,
  "lâ": 24771,
  "bri": 24772,
  "duk": 24773,
  "uygulan": 24774,
  "olmadığını": 24775,
  "önceki": 24776,
  "önc": 24777,
  "km": 24778,
  "ws": 24779,
  "are": 24780,
  "işe": 24781,
  "yapılır": 24782,
  "ınıza": 24783,
  "i̇h": 24784,
  "korun": 24785,
  "ple": 24786,
  "47": 24787,
  "sc": 24788,
  "ürünler": 24789,
  "geliyor": 24790,
  "açıl": 24791,
  "06": 24792,
  "yerek": 24793,
  "masında": 24794,
  "inizin": 24795,
  "__": 24796,
  "99": 24797,
  "laması": 24798,
  "sağlamak": 24799,
  "yeş": 24800,
  "sahiptir": 24801,
  "kla": 24802,
  "alır": 24803,
  "taşıma": 24804,
  "goog": 24805,
  "anlaş": 24806,
  "lari": 24807,
  "adresimi": 24808,
  "dünyanın": 24809,
  "google": 24810,
  "ettiğ": 24811,
  "oluşan": 24812,
  "yılı": 24813,
  "amacıyla": 24814,
  "tıcı": 24815,
  "sağlar": 24816,
  "açısından": 24817,
  "ranı": 24818,
  "okra": 24819,
  "verdi": 24820,
  "çiç": 24821,
  "tasyon": 24822,
  "verileri": 24823,
  "yapar": 24824,
  "içeren": 24825,
  "bulunmaktadır": 24826,
  "futbolcuları": 24827,
  "lanır": 24828,
  "yaşayan": 24829,
  "katılı": 24830,
  "imizin": 24831,
  "kariy": 24832,
  "fan": 24833,
  "46": 24834,
  "yız": 24835,
  "kampan": 24836,
  "tec": 24837,
  "leyen": 24838,
  "larınız": 24839,
  "gerçekten": 24840,
  "verir": 24841,
  "üyelik": 24842,
  "anım": 24843,
  "esini": 24844,
  "sok": 24845,
  "siyle": 24846,
  "kapsamında": 24847,
  "wil": 24848,
  "49": 24849,
  "olsa": 24850,
  "doğumlu": 24851,
  "sayesinde": 24852,
  "hika": 24853,
  "elere": 24854,
  "bileceği": 24855,
  "fu": 24856,
  "diğimiz": 24857,
  "etkil": 24858,
  "mayacak": 24859,
  "tanın": 24860,
  "üşt": 24861,
  "lıdır": 24862,
  "onları": 24863,
  "cal": 24864,
  "04": 24865,
  "mıştı": 24866,
  "etkili": 24867,
  "ail": 24868,
  "muha": 24869,
  "imde": 24870,
  "yata": 24871,
  "araya": 24872,
  "hakları": 24873,
  "gs": 24874,
  "instagram": 24875,
  "etic": 24876,
  "teknoloj": 24877,
  "bahse": 24878,
  "yapımı": 24879,
  "işlet": 24880,
  "günümüz": 24881,
  "i̇t": 24882,
  "dıktan": 24883,
  "başarılı": 24884,
  "55": 24885,
  "abilirsiniz": 24886,
  "dile": 24887,
  "2000": 24888,
  "ity": 24889,
  "i̇çin": 24890,
  "jap": 24891,
  "başlangı": 24892,
  "ürünleri": 24893,
  "ilmiştir": 24894,
  "left": 24895,
  "servisi": 24896,
  "leyi": 24897,
  "cının": 24898,
  "bb": 24899,
  "sever": 24900,
  "sho": 24901,
  "isteyen": 24902,
  "yeri": 24903,
  "oluyor": 24904,
  "bro": 24905,
  "haline": 24906,
  "gerektir": 24907,
  "pin": 24908,
  "uro": 24909,
  "inç": 24910,
  "ste": 24911,
  "leye": 24912,
  "yeten": 24913,
  "üle": 24914,
  "kütüp": 24915,
  "tiğini": 24916,
  "sk": 24917,
  "yorumlar": 24918,
  "elerini": 24919,
  "gazet": 24920,
  "yapma": 24921,
  "organiz": 24922,
  "moder": 24923,
  "şun": 24924,
  "cid": 24925,
  "yalar": 24926,
  "hikay": 24927,
  "kısı": 24928,
  "color": 24929,
  "prob": 24930,
  "formu": 24931,
  "sep": 24932,
  "biliriz": 24933,
  "dij": 24934,
  "makin": 24935,
  "les": 24936,
  "mol": 24937,
  "iyim": 24938,
  "edilmesi": 24939,
  "sidir": 24940,
  "sizlere": 24941,
  "mic": 24942,
  "mür": 24943,
  "ebilirsiniz": 24944,
  "telev": 24945,
  "eksiyon": 24946,
  "i̇şte": 24947,
  "jinal": 24948,
  "aslında": 24949,
  "ulaşa": 24950,
  "grubu": 24951,
  "şıyor": 24952,
  "wn": 24953,
  "hd": 24954,
  "meydana": 24955,
  "sonucu": 24956,
  "vardı": 24957,
  "dıkları": 24958,
  "yeterli": 24959,
  "e9": 24960,
  "gus": 24961,
  "seçenekler": 24962,
  "ınca": 24963,
  "imizi": 24964,
  "che": 24965,
  "vel": 24966,
  "vol": 24967,
  "progra": 24968,
  "siyel": 24969,
  "filmi": 24970,
  "70": 24971,
  "abet": 24972,
  "edecek": 24973,
  "75": 24974,
  "char": 24975,
  "ment": 24976,
  "leniyor": 24977,
  "güvenli": 24978,
  "bileceğiniz": 24979,
  "eb": 24980,
  "yıllık": 24981,
  "lez": 24982,
  "yapıyor": 24983,
  "my": 24984,
  "seviy": 24985,
  "üstü": 24986,
  "strate": 24987,
  "tiv": 24988,
  "şid": 24989,
  "isi": 24990,
  "elerde": 24991,
  "2006": 24992,
  "i̇ncel": 24993,
  "böylece": 24994,
  "liyor": 24995,
  "davranı": 24996,
  "alığı": 24997,
  "arkada": 24998,
  "olduğundan": 24999,
  "potan": 25000,
  "alıyor": 25001,
  "int": 25002,
  "vik": 25003,
  "düşünü": 25004,
  "merha": 25005,
  "diy": 25006,
  "demokra": 25007,
  "müşteriler": 25008,
  "bla": 25009,
  "cısı": 25010,
  "onya": 25011,
  "varsa": 25012,
  "terna": 25013,
  "ğın": 25014,
  "larınızı": 25015,
  "edildi": 25016,
  "ıs": 25017,
  "py": 25018,
  "yana": 25019,
  "etkile": 25020,
  "mühen": 25021,
  "yaptır": 25022,
  "42": 25023,
  "uluğu": 25024,
  "emiz": 25025,
  "tma": 25026,
  "best": 25027,
  "modelleri": 25028,
  "adana": 25029,
  "500": 25030,
  "sayıda": 25031,
  "land": 25032,
  "dikleri": 25033,
  "etmiş": 25034,
  "politikası": 25035,
  "psik": 25036,
  "adına": 25037,
  "elerinin": 25038,
  "vid": 25039,
  "imli": 25040,
  "musta": 25041,
  "htar": 25042,
  "lığıyla": 25043,
  "kullanılır": 25044,
  "i̇kin": 25045,
  "reh": 25046,
  "vaş": 25047,
  "lanmış": 25048,
  "yanında": 25049,
  "px": 25050,
  "amerikalı": 25051,
  "back": 25052,
  "bunların": 25053,
  "lendi": 25054,
  "sanatçı": 25055,
  "ff": 25056,
  "lana": 25057,
  "wo": 25058,
  "i̇ki": 25059,
  "seçin": 25060,
  "vermek": 25061,
  "alarda": 25062,
  "bilmektedir": 25063,
  "colspan": 25064,
  "tarayıcı": 25065,
  "önüne": 25066,
  "ticar": 25067,
  "tutar": 25068,
  "bilinen": 25069,
  "sizi": 25070,
  "sonrasında": 25071,
  "ümü": 25072,
  "ılması": 25073,
  "tle": 25074,
  "sağlıklı": 25075,
  "onların": 25076,
  "öğ": 25077,
  "avan": 25078,
  "chi": 25079,
  "aj": 25080,
  "fre": 25081,
  "zorunda": 25082,
  "ağı": 25083,
  "fra": 25084,
  "yağı": 25085,
  "i̇ngiltere": 25086,
  "listesi": 25087,
  "resimleri": 25088,
  "mada": 25089,
  "sy": 25090,
  "rad": 25091,
  "dönüşt": 25092,
  "....": 25093,
  "kaçak": 25094,
  "gesi": 25095,
  "kategoriler": 25096,
  "i̇span": 25097,
  "savaşı": 25098,
  "alarını": 25099,
  "41": 25100,
  "şüp": 25101,
  "yetk": 25102,
  "öncelikle": 25103,
  "arşi": 25104,
  "eg": 25105,
  "isten": 25106,
  "yaşında": 25107,
  "olmaya": 25108,
  "liye": 25109,
  "imleri": 25110,
  "masından": 25111,
  "şikay": 25112,
  "lenir": 25113,
  "belediyesi": 25114,
  "day": 25115,
  "azal": 25116,
  "kendini": 25117,
  "başına": 25118,
  ".)": 25119,
  "katılım": 25120,
  "günde": 25121,
  "altına": 25122,
  "çevrim": 25123,
  "kütüphan": 25124,
  "li̇": 25125,
  "huku": 25126,
  "demek": 25127,
  "lığın": 25128,
  "66": 25129,
  "xt": 25130,
  "i̇lçe": 25131,
  "kullanımı": 25132,
  "cilik": 25133,
  "ilebilir": 25134,
  "filmleri": 25135,
  "lamaya": 25136,
  "bulunduğu": 25137,
  "yayıncılık": 25138,
  "gizlilik": 25139,
  "zey": 25140,
  "sch": 25141,
  "admin": 25142,
  "asyonu": 25143,
  "programı": 25144,
  "insanların": 25145,
  "yüzden": 25146,
  "müs": 25147,
  "alarında": 25148,
  "lerce": 25149,
  "lığına": 25150,
  "şeklinde": 25151,
  "karşılaştır": 25152,
  "--------": 25153,
  "lamaz": 25154,
  "devletleri": 25155,
  "bakanlığı": 25156,
  "sig": 25157,
  "all": 25158,
  "numar": 25159,
  "blogspot": 25160,
  "vie": 25161,
  "yoktur": 25162,
  "gh": 25163,
  "vin": 25164,
  "vey": 25165,
  "bundan": 25166,
  "cağız": 25167,
  "ct": 25168,
  "taşın": 25169,
  "önemlidir": 25170,
  "bileceğini": 25171,
  "hack": 25172,
  "bulunur": 25173,
  "you": 25174,
  "iyile": 25175,
  "vas": 25176,
  "43": 25177,
  "düğü": 25178,
  "yerde": 25179,
  "durumunda": 25180,
  "öğrenciler": 25181,
  "kararı": 25182,
  "parator": 25183,
  "verilerin": 25184,
  "ult": 25185,
  "sonrası": 25186,
  "bö": 25187,
  "etmeye": 25188,
  "las": 25189,
  "şır": 25190,
  "değerli": 25191,
  "lerinizi": 25192,
  "lenin": 25193,
  "tarihli": 25194,
  "enf": 25195,
  "bulundu": 25196,
  "alya": 25197,
  "detaylı": 25198,
  "parçası": 25199,
  "özellikleri": 25200,
  "seya": 25201,
  "öne": 25202,
  "him": 25203,
  "yararlan": 25204,
  "yeme": 25205,
  "lığa": 25206,
  "krip": 25207,
  "restor": 25208,
  "i̇lan": 25209,
  "2005": 25210,
  "sağlaya": 25211,
  "yolc": 25212,
  "http": 25213,
  "sorunun": 25214,
  "olmadan": 25215,
  "bilmesi": 25216,
  "melidir": 25217,
  "diğim": 25218,
  "hayatı": 25219,
  "tre": 25220,
  "yse": 25221,
  "coin": 25222,
  "</": 25223,
  "heye": 25224,
  "ıntılı": 25225,
  "i̇kinci": 25226,
  "kodu": 25227,
  "kesi": 25228,
  "kli": 25229,
  "bulunu": 25230,
  "ınızda": 25231,
  "siten": 25232,
  "kesinlikle": 25233,
  "58": 25234,
  "öğrenc": 25235,
  "disi": 25236,
  "mükem": 25237,
  "78": 25238,
  "tiyat": 25239,
  "ücü": 25240,
  "olmadığı": 25241,
  "dayanı": 25242,
  "çalışmaları": 25243,
  "bölgeler": 25244,
  "sevg": 25245,
  "filmin": 25246,
  "bula": 25247,
  "masıyla": 25248,
  "konuda": 25249,
  "bizi": 25250,
  "zev": 25251,
  "bakanı": 25252,
  "feder": 25253,
  "style": 25254,
  "gerekmektedir": 25255,
  "keti": 25256,
  "uyun": 25257,
  "kk": 25258,
  "\";": 25259,
  "elerine": 25260,
  "ction": 25261,
  "zet": 25262,
  "kadınlar": 25263,
  "alanında": 25264,
  "kahra": 25265,
  "sistemleri": 25266,
  "üzerindeki": 25267,
  "itir": 25268,
  "oyunu": 25269,
  "alarının": 25270,
  "2004": 25271,
  "alarına": 25272,
  "ju": 25273,
  "i̇sim": 25274,
  "cir": 25275,
  "yönetimi": 25276,
  "şeyi": 25277,
  "bulmak": 25278,
  "cağım": 25279,
  "görevi": 25280,
  "tehlik": 25281,
  "evden": 25282,
  "dikten": 25283,
  "madı": 25284,
  "olmuştur": 25285,
  "yere": 25286,
  "inizde": 25287,
  "kağı": 25288,
  "lasyon": 25289,
  "grafi": 25290,
  "takımı": 25291,
  "57": 25292,
  "öncül": 25293,
  "i̇slam": 25294,
  "i̇st": 25295,
  "gizli": 25296,
  "ğan": 25297,
  "ladığı": 25298,
  "59": 25299,
  "mahallesi": 25300,
  "senin": 25301,
  "kurumsal": 25302,
  "belirtilen": 25303,
  "verdiği": 25304,
  "kendisine": 25305,
  "istediğiniz": 25306,
  "veriyor": 25307,
  "haval": 25308,
  "):": 25309,
  "evde": 25310,
  "siklet": 25311,
  "endü": 25312,
  "sağlayan": 25313,
  "dep": 25314,
  "firmalar": 25315,
  "yazıl": 25316,
  "gele": 25317,
  "aracılığıyla": 25318,
  "what": 25319,
  "umak": 25320,
  "kaldı": 25321,
  "işleri": 25322,
  "fonk": 25323,
  "alarak": 25324,
  "ue": 25325,
  "üyesi": 25326,
  "düzenle": 25327,
  "read": 25328,
  "ura": 25329,
  "ünüz": 25330,
  "yiye": 25331,
  "cook": 25332,
  "youtu": 25333,
  "mate": 25334,
  "ödülü": 25335,
  "56": 25336,
  "i̇p": 25337,
  "cat": 25338,
  "}}": 25339,
  "yiz": 25340,
  "çekme": 25341,
  "müda": 25342,
  "köp": 25343,
  "iter": 25344,
  "i̇le": 25345,
  "oyunc": 25346,
  "kılı": 25347,
  "tıyor": 25348,
  "aktarı": 25349,
  "i̇lgili": 25350,
  "ayda": 25351,
  "adımı": 25352,
  "pri": 25353,
  "doğumlular": 25354,
  "alterna": 25355,
  "alınan": 25356,
  "yıldır": 25357,
  "süresi": 25358,
  "devamını": 25359,
  "ajansı": 25360,
  "vü": 25361,
  "gören": 25362,
  "home": 25363,
  "bilgilendir": 25364,
  "wer": 25365,
  "sigor": 25366,
  "halde": 25367,
  "iydi": 25368,
  "ron": 25369,
  "oluşturun": 25370,
  "ilerek": 25371,
  "yerleştir": 25372,
  "dor": 25373,
  "ayrıntılı": 25374,
  "turk": 25375,
  "graf": 25376,
  "öğretim": 25377,
  "rik": 25378,
  "ılan": 25379,
  "i̇çer": 25380,
  "mişti": 25381,
  "ie": 25382,
  "mam": 25383,
  "sırada": 25384,
  "(\"": 25385,
  "weet": 25386,
  "olog": 25387,
  "vücu": 25388,
  "iği": 25389,
  "çeve": 25390,
  "okulu": 25391,
  "atör": 25392,
  "cad": 25393,
  "mamış": 25394,
  "biyo": 25395,
  "zayı": 25396,
  "eğitimi": 25397,
  "lemi": 25398,
  "wa": 25399,
  "lıklar": 25400,
  "verme": 25401,
  "meş": 25402,
  "gul": 25403,
  "landa": 25404,
  "tiler": 25405,
  "youtube": 25406,
  "vo": 25407,
  "ürünü": 25408,
  "etkisi": 25409,
  "yöneti": 25410,
  "başlayan": 25411,
  "larım": 25412,
  "i̇d": 25413,
  "mızın": 25414,
  "press": 25415,
  "anlar": 25416,
  "filmler": 25417,
  "ulması": 25418,
  "anlayı": 25419,
  "ğer": 25420,
  "hacklink": 25421,
  "akıllı": 25422,
  "düzenlenen": 25423,
  "kupası": 25424,
  "layarak": 25425,
  "şet": 25426,
  "kendisi": 25427,
  "ell": 25428,
  "duğunu": 25429,
  "yapın": 25430,
  "bölümü": 25431,
  "ılır": 25432,
  "tıklayın": 25433,
  "98": 25434,
  "ıcı": 25435,
  "right": 25436,
  "birleştir": 25437,
  "görmek": 25438,
  "yaparak": 25439,
  "kulü": 25440,
  "kanunu": 25441,
  "kitapları": 25442,
  "leri̇": 25443,
  "desi": 25444,
  "istiyorum": 25445,
  "bunları": 25446,
  "başlar": 25447,
  "uygulamalar": 25448,
  "önünde": 25449,
  "dro": 25450,
  "sürede": 25451,
  "mesinde": 25452,
  "pg": 25453,
  "şirketi": 25454,
  "ああああ": 25455,
  "yapılacak": 25456,
  "içerir": 25457,
  "gon": 25458,
  "otik": 25459,
  "olmaz": 25460,
  "geçer": 25461,
  "etmektedir": 25462,
  "til": 25463,
  "imin": 25464,
  "slot": 25465,
  "yanıtlar": 25466,
  "yaptık": 25467,
  "seçenekleri": 25468,
  "coun": 25469,
  "oranı": 25470,
  "ettik": 25471,
  "derne": 25472,
  "siyet": 25473,
  "çoğun": 25474,
  "edebilir": 25475,
  "sona": 25476,
  "uluğ": 25477,
  "inanı": 25478,
  "görünü": 25479,
  "mac": 25480,
  "oluşturmak": 25481,
  "ilerine": 25482,
  "kişilerin": 25483,
  "iliği": 25484,
  "cağınız": 25485,
  "use": 25486,
  "şeyler": 25487,
  "uni": 25488,
  "milletvek": 25489,
  "cümleyi": 25490,
  "gösteren": 25491,
  "askeri": 25492,
  "porn": 25493,
  "pazarlama": 25494,
  "urum": 25495,
  "gat": 25496,
  "yazılar": 25497,
  "eyen": 25498,
  "dönemde": 25499,
  "cez": 25500,
  "dili": 25501,
  "kütüphanesi": 25502,
  "68": 25503,
  "bür": 25504,
  "bül": 25505,
  "\":": 25506,
  "fiziksel": 25507,
  "ğunuz": 25508,
  "taz": 25509,
  "cumhuriyeti": 25510,
  "dergisi": 25511,
  "leyici": 25512,
  "rahatsız": 25513,
  "77": 25514,
  "anlaşıl": 25515,
  "windo": 25516,
  "2023": 25517,
  "büs": 25518,
  "ukray": 25519,
  "yoluyla": 25520,
  "sizlik": 25521,
  "fiyatı": 25522,
  "ferans": 25523,
  "hus": 25524,
  "stratej": 25525,
  "liğe": 25526,
  "sağlığı": 25527,
  "aça": 25528,
  "kullanılmak": 25529,
  "gr": 25530,
  "almaktadır": 25531,
  "ecektir": 25532,
  "malat": 25533,
  "edilmiş": 25534,
  "vurg": 25535,
  "yaklaşı": 25536,
  "hesabınız": 25537,
  "adını": 25538,
  "mıyla": 25539,
  "sorunu": 25540,
  "imz": 25541,
  "bala": 25542,
  "alındığında": 25543,
  "yaşan": 25544,
  "veç": 25545,
  "ayında": 25546,
  "nedeni": 25547,
  "work": 25548,
  "afri": 25549,
  "çerezler": 25550,
  "2002": 25551,
  "bulunma": 25552,
  "ehir": 25553,
  "komp": 25554,
  "andro": 25555,
  "nat": 25556,
  "asını": 25557,
  "çıka": 25558,
  "onlara": 25559,
  "edebilirsiniz": 25560,
  "2003": 25561,
  "birden": 25562,
  "beklen": 25563,
  "bölgesi": 25564,
  "nelerdir": 25565,
  "lıkları": 25566,
  "distan": 25567,
  "işime": 25568,
  "88": 25569,
  "edilebilir": 25570,
  "erz": 25571,
  "leriniz": 25572,
  "latma": 25573,
  "müslü": 25574,
  "alacak": 25575,
  "yapılması": 25576,
  "gerektiğini": 25577,
  "kişehir": 25578,
  "sefere": 25579,
  "e9e9": 25580,
  "{{": 25581,
  "iyan": 25582,
  "bulu": 25583,
  "mün": 25584,
  "sapp": 25585,
  "başında": 25586,
  "edilmiştir": 25587,
  "etiketler": 25588,
  "53": 25589,
  "işlemi": 25590,
  "tığını": 25591,
  "bulunuyor": 25592,
  "mc": 25593,
  "yapmış": 25594,
  "akadem": 25595,
  "denizli": 25596,
  "olmasına": 25597,
  "kun": 25598,
  "irken": 25599,
  "67": 25600,
  "amaz": 25601,
  "i̇ran": 25602,
  "lanıyor": 25603,
  "ştan": 25604,
  "mesinden": 25605,
  "belirleyin": 25606,
  "52": 25607,
  "54": 25608,
  "ederim": 25609,
  "max": 25610,
  "kitabı": 25611,
  "kendine": 25612,
  "tezi": 25613,
  "hy": 25614,
  "tri": 25615,
  "makinesi": 25616,
  "olduğuna": 25617,
  "yazarın": 25618,
  "dikkate": 25619,
  "pren": 25620,
  "bakış": 25621,
  "yerinde": 25622,
  "ground": 25623,
  "düzenli": 25624,
  "etmesi": 25625,
  "whatsapp": 25626,
  "ligi": 25627,
  "ilere": 25628,
  "liğine": 25629,
  "liğin": 25630,
  "ediyorum": 25631,
  "bolu": 25632,
  "küçükresim": 25633,
  "iliyor": 25634,
  "elerinde": 25635,
  "ulur": 25636,
  "?\"": 25637,
  "olduğunuz": 25638,
  "kenin": 25639,
  "dahaki": 25640,
  "düşünce": 25641,
  "jack": 25642,
  "i̇mparator": 25643,
  "bün": 25644,
  "lığında": 25645,
  "çocuklar": 25646,
  "tro": 25647,
  "this": 25648,
  "bununla": 25649,
  "kısmı": 25650,
  "kesim": 25651,
  "söylemek": 25652,
  "i̇ndir": 25653,
  "eni": 25654,
  "ary": 25655,
  "ceğini": 25656,
  "traf": 25657,
  "ıldı": 25658,
  "bilgisi": 25659,
  "alanda": 25660,
  "97": 25661,
  "buraya": 25662,
  ".,": 25663,
  "fun": 25664,
  "kurulan": 25665,
  "isyen": 25666,
  "que": 25667,
  "))": 25668,
  "ish": 25669,
  "tweet": 25670,
  "süreci": 25671,
  "misiniz": 25672,
  "51": 25673,
  "seni": 25674,
  "üsü": 25675,
  "orada": 25676,
  "td": 25677,
  "inc": 25678,
  "lisi": 25679,
  "ny": 25680,
  "dat": 25681,
  "arda": 25682,
  "hut": 25683,
  "oksi": 25684,
  "kartı": 25685,
  "prote": 25686,
  "…]": 25687,
  "vasyon": 25688,
  "ihtiyacı": 25689,
  "cektir": 25690,
  "pub": 25691,
  "olmuş": 25692,
  "başvurucu": 25693,
  "asına": 25694,
  "lardı": 25695,
  "kıb": 25696,
  "konus": 25697,
  "ân": 25698,
  "64": 25699,
  "1990": 25700,
  "tedav": 25701,
  "ene": 25702,
  "başta": 25703,
  "ves": 25704,
  "[…]": 25705,
  "sözleşme": 25706,
  "editör": 25707,
  "çevres": 25708,
  "buk": 25709,
  "ülebilir": 25710,
  "roma": 25711,
  "ğla": 25712,
  "vası": 25713,
  "cevaplayın": 25714,
  "tecrü": 25715,
  "lığının": 25716,
  "cınız": 25717,
  "ğine": 25718,
  "maktan": 25719,
  "kazandı": 25720,
  "lanmıştır": 25721,
  "firmaları": 25722,
  "uma": 25723,
  "takipçi": 25724,
  "i̇zle": 25725,
  "gücü": 25726,
  "seo": 25727,
  "2001": 25728,
  "bitir": 25729,
  "girdi": 25730,
  "başkanlığı": 25731,
  "aylık": 25732,
  "mutl": 25733,
  "varı": 25734,
  "bbi": 25735,
  "döneminde": 25736,
  "artış": 25737,
  "uldu": 25738,
  "sana": 25739,
  "yumu": 25740,
  "300": 25741,
  "imizde": 25742,
  "millî": 25743,
  "69": 25744,
  "yaları": 25745,
  "arkadaşı": 25746,
  "cümlenin": 25747,
  "zih": 25748,
  "huz": 25749,
  "manızı": 25750,
  "tesli": 25751,
  "dünyada": 25752,
  "malara": 25753,
  "cla": 25754,
  "projesi": 25755,
  "yıllara": 25756,
  "hr": 25757,
  "sonuçları": 25758,
  "adlandır": 25759,
  "malısınız": 25760,
  "kayde": 25761,
  "cev": 25762,
  "düşür": 25763,
  "eral": 25764,
  "layıcı": 25765,
  "sikiş": 25766,
  "duygus": 25767,
  "topluluk": 25768,
  "yıllar": 25769,
  "ölçüde": 25770,
  "tb": 25771,
  "hücr": 25772,
  "alara": 25773,
  "iyileştir": 25774,
  "suyu": 25775,
  "katkıda": 25776,
  "ilip": 25777,
  "yorumları": 25778,
  "sti": 25779,
  "akti": 25780,
  "yaşındaki": 25781,
  "masyon": 25782,
  "nö": 25783,
  "tarayıcıya": 25784,
  "gibiy": 25785,
  "====": 25786,
  "yazarlar": 25787,
  "liam": 25788,
  "kıbrı": 25789,
  "yerler": 25790,
  "yılın": 25791,
  "korunması": 25792,
  "oker": 25793,
  "ikti": 25794,
  "android": 25795,
  "bahç": 25796,
  "aklı": 25797,
  "oyuncak": 25798,
  "ölen": 25799,
  "kullanılabilir": 25800,
  "gösteriyor": 25801,
  "gide": 25802,
  "yerli": 25803,
  "klı": 25804,
  "ılmış": 25805,
  "içine": 25806,
  "dayanarak": 25807,
  "ademi": 25808,
  "df": 25809,
  "daa": 25810,
  "yönlendir": 25811,
  "atan": 25812,
  "enerj": 25813,
  "bilimsel": 25814,
  "liğinde": 25815,
  "diven": 25816,
  "ag": 25817,
  "yaptığımda": 25818,
  "müdürlüğü": 25819,
  "geleneksel": 25820,
  "i̇talya": 25821,
  "wi": 25822,
  "etkilen": 25823,
  "yayını": 25824,
  "arayı": 25825,
  "savunma": 25826,
  "dığından": 25827,
  "giyim": 25828,
  "ble": 25829,
  "yandan": 25830,
  "bran": 25831,
  "odası": 25832,
  "stur": 25833,
  "ilerinin": 25834,
  "paylaşım": 25835,
  "lanmaktadır": 25836,
  "kimyasal": 25837,
  "ortadan": 25838,
  "uygulaması": 25839,
  "yapmaya": 25840,
  "gran": 25841,
  "undaki": 25842,
  "yayınlanan": 25843,
  "günümüzde": 25844,
  "gösterir": 25845,
  "yav": 25846,
  "serg": 25847,
  "ildiği": 25848,
  "yatırma": 25849,
  "alına": 25850,
  "chp": 25851,
  "ülkenin": 25852,
  "sözleri": 25853,
  "kazandır": 25854,
  "lit": 25855,
  "bilme": 25856,
  "sö": 25857,
  "cha": 25858,
  "işlemleri": 25859,
  "bölgesinde": 25860,
  "kaynağı": 25861,
  "ettir": 25862,
  "köyü": 25863,
  "elerden": 25864,
  "kuralları": 25865,
  "beslenme": 25866,
  "sonucunda": 25867,
  "sınırlı": 25868,
  "95": 25869,
  "babası": 25870,
  "geçiş": 25871,
  "alanları": 25872,
  "sırala": 25873,
  "laşma": 25874,
  "finan": 25875,
  "tanıtım": 25876,
  "muhtemelen": 25877,
  "anında": 25878,
  "yur": 25879,
  "anlama": 25880,
  "artan": 25881,
  "fakültesi": 25882,
  "pencer": 25883,
  "sinden": 25884,
  "hattı": 25885,
  "durumlarda": 25886,
  "uyucu": 25887,
  "ülü": 25888,
  "konut": 25889,
  "sunucu": 25890,
  "belgeler": 25891,
  "log": 25892,
  "kişiye": 25893,
  "sitemizde": 25894,
  "sözleşmesi": 25895,
  "derneği": 25896,
  "html": 25897,
  "olursa": 25898,
  "ündeki": 25899,
  "tarifleri": 25900,
  "sorular": 25901,
  "ulaşım": 25902,
  "more": 25903,
  "sitede": 25904,
  "verilir": 25905,
  "tih": 25906,
  "bireysel": 25907,
  "magaz": 25908,
  "1999": 25909,
  "sunulan": 25910,
  "felse": 25911,
  "yukarıdaki": 25912,
  "nef": 25913,
  "with": 25914,
  "şartları": 25915,
  "lerim": 25916,
  "kullana": 25917,
  "temizlik": 25918,
  "çö": 25919,
  "amik": 25920,
  "efen": 25921,
  "yayımlan": 25922,
  "wal": 25923,
  "stit": 25924,
  "bi̇r": 25925,
  "birini": 25926,
  "tey": 25927,
  "olmalıdır": 25928,
  "kendisini": 25929,
  "açıkça": 25930,
  "ettiğini": 25931,
  "numarası": 25932,
  "kiralama": 25933,
  "ırlar": 25934,
  "city": 25935,
  "anasayfa": 25936,
  "i̇la": 25937,
  "windows": 25938,
  "96": 25939,
  "wid": 25940,
  "güvenliği": 25941,
  "düşünün": 25942,
  "sitesinde": 25943,
  "geleri": 25944,
  "kullanmak": 25945,
  "karıştır": 25946,
  "yapıla": 25947,
  "değeri": 25948,
  "ınar": 25949,
  "time": 25950,
  "kalıcı": 25951,
  "i̇tal": 25952,
  "taları": 25953,
  "email": 25954,
  "malzemeleri": 25955,
  "war": 25956,
  "saklıdır": 25957,
  "şanlı": 25958,
  "250": 25959,
  "your": 25960,
  "iletişime": 25961,
  "biridir": 25962,
  "yardımcısı": 25963,
  "devamı": 25964,
  "king": 25965,
  "verilecek": 25966,
  "hesapla": 25967,
  "elbette": 25968,
  "io": 25969,
  "yöner": 25970,
  "i̇şlem": 25971,
  "zorluk": 25972,
  "bart": 25973,
  "esinden": 25974,
  "aca": 25975,
  "açıklaması": 25976,
  "liliği": 25977,
  "150": 25978,
  "yıllarda": 25979,
  "aşağıda": 25980,
  "özelliği": 25981,
  "bn": 25982,
  "way": 25983,
  "i̇spanyol": 25984,
  "ullah": 25985,
  "\\.": 25986,
  "ust": 25987,
  "rail": 25988,
  ":#": 25989,
  "kra": 25990,
  "ülkemiz": 25991,
  "=>": 25992,
  "malarını": 25993,
  "ld": 25994,
  "okuma": 25995,
  "öncesi": 25996,
  "mediği": 25997,
  "düm": 25998,
  "üyle": 25999,
  "gazetesi": 26000,
  "metni": 26001,
  "hayatını": 26002,
  "molek": 26003,
  "sion": 26004,
  "dığımız": 26005,
  "benzeri": 26006,
  "söylüyor": 26007,
  "ments": 26008,
  "wat": 26009,
  "olim": 26010,
  "word": 26011,
  "edici": 26012,
  "üreti": 26013,
  "endüstr": 26014,
  "ale": 26015,
  "sizler": 26016,
  "koşulları": 26017,
  "ürünün": 26018,
  "varlık": 26019,
  "was": 26020,
  "durdur": 26021,
  "tifi": 26022,
  "i̇çerik": 26023,
  "dv": 26024,
  "belirlemek": 26025,
  "edildiği": 26026,
  "alak": 26027,
  "63": 26028,
  "yaşanan": 26029,
  "seb": 26030,
  "müştür": 26031,
  "yazarı": 26032,
  "​​": 26033,
  "biçimde": 26034,
  "içindeki": 26035,
  "i̇liş": 26036,
  "birinin": 26037,
  "edir": 26038,
  "pl": 26039,
  "ob": 26040,
  "ting": 26041,
  "dayalı": 26042,
  "almış": 26043,
  "koltu": 26044,
  "eklen": 26045,
  "feri": 26046,
  "dönüşüm": 26047,
  "firmamız": 26048,
  "ilmektedir": 26049,
  "ward": 26050,
  "erkekler": 26051,
  "1000": 26052,
  "çalışıyor": 26053,
  "ies": 26054,
  "hizmetler": 26055,
  "liğinin": 26056,
  "takv": 26057,
  "bankası": 26058,
  "kolayla": 26059,
  "i̇talyan": 26060,
  "kullanma": 26061,
  "olmasını": 26062,
  "kültürel": 26063,
  "yenilen": 26064,
  "vı": 26065,
  "hayata": 26066,
  "ınızın": 26067,
  "api": 26068,
  "depre": 26069,
  "azer": 26070,
  "1997": 26071,
  "stri": 26072,
  "yorumunuz": 26073,
  "rock": 26074,
  "shar": 26075,
  "yardı": 26076,
  "eng": 26077,
  "üyeleri": 26078,
  "maktayız": 26079,
  "()": 26080,
  "larındaki": 26081,
  "promos": 26082,
  "bitk": 26083,
  "geçti": 26084,
  "kalma": 26085,
  "aa": 26086,
  "alınır": 26087,
  "şın": 26088,
  "coğraf": 26089,
  "şehri": 26090,
  "tedavisi": 26091,
  "yerini": 26092,
  "uar": 26093,
  "yılları": 26094,
  "fl": 26095,
  "rem": 26096,
  "hayatta": 26097,
  "rep": 26098,
  "bileşen": 26099,
  "uzmanı": 26100,
  "tıbbi": 26101,
  "iyiz": 26102,
  "yapabilirsiniz": 26103,
  "imler": 26104,
  "ilgilen": 26105,
  "kurumu": 26106,
  "yıka": 26107,
  "ilçesine": 26108,
  "____": 26109,
  "leşme": 26110,
  "ges": 26111,
  "dılar": 26112,
  "ulmuş": 26113,
  "giden": 26114,
  "yılda": 26115,
  "günün": 26116,
  "cunun": 26117,
  "sınıflandır": 26118,
  "jı": 26119,
  "görülen": 26120,
  "ceğim": 26121,
  "iyordu": 26122,
  "gibiyim": 26123,
  "mesiyle": 26124,
  "ğinde": 26125,
  "yıp": 26126,
  "dâ": 26127,
  "ihra": 26128,
  "sonuçlar": 26129,
  "uygulamaları": 26130,
  "ükle": 26131,
  "çey": 26132,
  "1998": 26133,
  "laşa": 26134,
  "noktası": 26135,
  "mr": 26136,
  "bine": 26137,
  "kullanan": 26138,
  "low": 26139,
  "verecek": 26140,
  "firması": 26141,
  "konular": 26142,
  "bulma": 26143,
  "85": 26144,
  "avustr": 26145,
  "ulaşabilirsiniz": 26146,
  "içeriği": 26147,
  "yapıldı": 26148,
  "aittir": 26149,
  "seçeneği": 26150,
  "tions": 26151,
  "yola": 26152,
  "okun": 26153,
  "sıcaklık": 26154,
  "güzellik": 26155,
  "doğrult": 26156,
  "sepete": 26157,
  "üyeler": 26158,
  "rit": 26159,
  "alıcı": 26160,
  "sunan": 26161,
  "müdürü": 26162,
  "width": 26163,
  "asistanı": 26164,
  "düşt": 26165,
  "binlerce": 26166,
  "ceğiz": 26167,
  "çağı": 26168,
  "dığım": 26169,
  "teri": 26170,
  "hazırlık": 26171,
  "ğında": 26172,
  "duyar": 26173,
  "ediyoruz": 26174,
  "fabri": 26175,
  "mektu": 26176,
  "sorunları": 26177,
  "reti": 26178,
  "poziti": 26179,
  "los": 26180,
  "önceden": 26181,
  "jpg": 26182,
  "lea": 26183,
  "takdirde": 26184,
  "insanın": 26185,
  "yöntemi": 26186,
  "renkli": 26187,
  "vere": 26188,
  "nokt": 26189,
  "cüml": 26190,
  "ağırlık": 26191,
  "sov": 26192,
  "desteği": 26193,
  "depola": 26194,
  "black": 26195,
  "zamanı": 26196,
  "72": 26197,
  "konuştu": 26198,
  "deliyim": 26199,
  "ers": 26200,
  "bt": 26201,
  "röp": 26202,
  "tedar": 26203,
  "deliyimgibiyim": 26204,
  "şehrin": 26205,
  "görünüyor": 26206,
  "genin": 26207,
  "dırma": 26208,
  "akses": 26209,
  "spa": 26210,
  "ğinin": 26211,
  "kullanıcılar": 26212,
  "peygam": 26213,
  "psi": 26214,
  "rüz": 26215,
  "röporta": 26216,
  "hakkımızda": 26217,
  "div": 26218,
  "bazıları": 26219,
  "hızla": 26220,
  "led": 26221,
  "adaki": 26222,
  "meyecek": 26223,
  "ire": 26224,
  "muham": 26225,
  "dığına": 26226,
  "amaçlı": 26227,
  "!!": 26228,
  "elazı": 26229,
  "bakımı": 26230,
  "azalt": 26231,
  "hing": 26232,
  "etkileşim": 26233,
  "olgun": 26234,
  "yürütül": 26235,
  "super": 26236,
  "yenilik": 26237,
  "79": 26238,
  "oturum": 26239,
  "verin": 26240,
  "bi̇": 26241,
  "yüzü": 26242,
  "manıza": 26243,
  "olmaktadır": 26244,
  "herkesin": 26245,
  "i̇dar": 26246,
  "berg": 26247,
  "kelimeler": 26248,
  "ann": 26249,
  "astr": 26250,
  "doğrultusunda": 26251,
  "tasarlan": 26252,
  "sport": 26253,
  "evlilik": 26254,
  "kısaca": 26255,
  "çıkara": 26256,
  "kv": 26257,
  "belediy": 26258,
  "yakalan": 26259,
  "i̇nceleme": 26260,
  "karşısında": 26261,
  "sing": 26262,
  "”,": 26263,
  "lerimizi": 26264,
  "verimli": 26265,
  "yetkil": 26266,
  "alabilirsiniz": 26267,
  "sızlık": 26268,
  "layınız": 26269,
  "olimpi": 26270,
  "toplumsal": 26271,
  "ks": 26272,
  "tanış": 26273,
  "çalışı": 26274,
  "çalışması": 26275,
  "tional": 26276,
  "güçlendir": 26277,
  "geçici": 26278,
  "futbolcular": 26279,
  "kolaylaştır": 26280,
  "ermen": 26281,
  "bitcoin": 26282,
  "modeli": 26283,
  "geor": 26284,
  "hali": 26285,
  "işlen": 26286,
  "deneyimi": 26287,
  "cerra": 26288,
  "ong": 26289,
  "76": 26290,
  "döndür": 26291,
  "verici": 26292,
  "kullanabilir": 26293,
  "görünüm": 26294,
  "verilmiştir": 26295,
  "lou": 26296,
  "insanları": 26297,
  "almaya": 26298,
  "400": 26299,
  "istiyorsanız": 26300,
  "korumak": 26301,
  "iyel": 26302,
  "kapsamlı": 26303,
  "birisi": 26304,
  "yumur": 26305,
  "yapacak": 26306,
  "alıp": 26307,
  "arken": 26308,
  "bilirler": 26309,
  "arna": 26310,
  "anlamda": 26311,
  "bilirim": 26312,
  "pişir": 26313,
  "lanabilir": 26314,
  "gue": 26315,
  "videolar": 26316,
  "view": 26317,
  "famil": 26318,
  "kullanın": 26319,
  "düğünü": 26320,
  "cra": 26321,
  "comments": 26322,
  "landığı": 26323,
  "kolayca": 26324,
  "kapısı": 26325,
  "i̇y": 26326,
  "vi̇": 26327,
  "ruk": 26328,
  "memiz": 26329,
  "değerlendirme": 26330,
  "i̇srail": 26331,
  "website": 26332,
  "sorus": 26333,
  "hayir": 26334,
  "okuyun": 26335,
  "bg": 26336,
  "elazığ": 26337,
  "çalıştır": 26338,
  "havalim": 26339,
  "aydınlatma": 26340,
  "krallık": 26341,
  "etmiştir": 26342,
  "yürür": 26343,
  "kurab": 26344,
  "cia": 26345,
  "hikayeleri": 26346,
  "teşem": 26347,
  "yaralan": 26348,
  "benzersiz": 26349,
  "anlamak": 26350,
  "dönemi": 26351,
  "yaparken": 26352,
  "tasarru": 26353,
  "çalışır": 26354,
  "oyuncular": 26355,
  "geldiği": 26356,
  "dıklarını": 26357,
  "burg": 26358,
  "steri": 26359,
  "ederken": 26360,
  "i̇şlet": 26361,
  "öldürül": 26362,
  "sitenin": 26363,
  "yukarıda": 26364,
  "baycan": 26365,
  "fc": 26366,
  "rezer": 26367,
  "1996": 26368,
  "cıları": 26369,
  "katıldı": 26370,
  "pasa": 26371,
  "soft": 26372,
  "maması": 26373,
  "yanıtlasil": 26374,
  "etkileye": 26375,
  "düşünüyor": 26376,
  "hri": 26377,
  "text": 26378,
  "sitesinin": 26379,
  "yayımlanmayacak": 26380,
  "pur": 26381,
  "uyumlu": 26382,
  "\".": 26383,
  "ente": 26384,
  "izleme": 26385,
  "61": 26386,
  "bilgilere": 26387,
  "yaklaşım": 26388,
  "egzer": 26389,
  "yapısı": 26390,
  "dolaşı": 26391,
  "katal": 26392,
  "akış": 26393,
  "world": 26394,
  "89": 26395,
  "yürüy": 26396,
  "incelem": 26397,
  "teşekkürler": 26398,
  "ano": 26399,
  "kullanılması": 26400,
  "zamanlar": 26401,
  "(-": 26402,
  "buradan": 26403,
  "unca": 26404,
  "isiniz": 26405,
  "air": 26406,
  "ülkeler": 26407,
  "sevgili": 26408,
  "alınması": 26409,
  "endi": 26410,
  "from": 26411,
  "wood": 26412,
  "1995": 26413,
  "devrim": 26414,
  "diniz": 26415,
  "vic": 26416,
  "eğlenceli": 26417,
  "yabilirsiniz": 26418,
  "maddesi": 26419,
  "giren": 26420,
  "ence": 26421,
  "stır": 26422,
  "teslimat": 26423,
  "vermektedir": 26424,
  "oyunlar": 26425,
  "tamiri": 26426,
  "hastalığı": 26427,
  "i̇ade": 26428,
  "faydalan": 26429,
  "seksi": 26430,
  "çıkıyor": 26431,
  "lamı": 26432,
  "cağına": 26433,
  "yapılmış": 26434,
  "tasarımı": 26435,
  "network": 26436,
  "tum": 26437,
  "isimli": 26438,
  "yükümlül": 26439,
  "liler": 26440,
  "mesaf": 26441,
  "ung": 26442,
  "verildi": 26443,
  "angel": 26444,
  "büy": 26445,
  "lev": 26446,
  "özetle": 26447,
  "işleme": 26448,
  "1994": 26449,
  "hp": 26450,
  "işaretlenmiş": 26451,
  "kullanıcıların": 26452,
  "1980": 26453,
  "vermeye": 26454,
  "örneği": 26455,
  "kiralık": 26456,
  "62": 26457,
  "lum": 26458,
  "koor": 26459,
  "paul": 26460,
  "öğrenme": 26461,
  "ismi": 26462,
  "belirlen": 26463,
  "ilmesine": 26464,
  "başlat": 26465,
  "inter": 26466,
  "larımızın": 26467,
  "kanada": 26468,
  "apple": 26469,
  "oyu": 26470,
  "ang": 26471,
  "vurgula": 26472,
  "chris": 26473,
  "malarına": 26474,
  "jer": 26475,
  "yaratıcı": 26476,
  "haft": 26477,
  "teor": 26478,
  "rehberi": 26479,
  "diğinden": 26480,
  "giderek": 26481,
  "ürünlerin": 26482,
  "diklerini": 26483,
  "köken": 26484,
  "muyor": 26485,
  "87": 26486,
  "ölü": 26487,
  "tercü": 26488,
  "chan": 26489,
  "çet": 26490,
  "gelişmiş": 26491,
  "kitaplar": 26492,
  "izleyi": 26493,
  "tacak": 26494,
  "oluşur": 26495,
  "eliği": 26496,
  "canlandır": 26497,
  "mun": 26498,
  "belg": 26499,
  "oid": 26500,
  "şunu": 26501,
  "düzenlen": 26502,
  "kazanan": 26503,
  "brahim": 26504,
  "bakınız": 26505,
  "edilmektedir": 26506,
  "81": 26507,
  "niha": 26508,
  "kaydı": 26509,
  "sayısını": 26510,
  "uyarınca": 26511,
  "işaretlenmişlerdir": 26512,
  "cial": 26513,
  "denin": 26514,
  "monu": 26515,
  "uluyor": 26516,
  "içe": 26517,
  "sporcu": 26518,
  "maksim": 26519,
  "mero": 26520,
  "82": 26521,
  "ime": 26522,
  "tho": 26523,
  "david": 26524,
  "anlamı": 26525,
  "1992": 26526,
  "yılından": 26527,
  "bölümde": 26528,
  "ilmesini": 26529,
  "gerçe": 26530,
  "lıkta": 26531,
  "miz": 26532,
  "çocuğun": 26533,
  "mag": 26534,
  "okur": 26535,
  "bende": 26536,
  "larca": 26537,
  "parta": 26538,
  "kaynakları": 26539,
  "dünyaya": 26540,
  "geliştirme": 26541,
  "indirim": 26542,
  "ederiz": 26543,
  "açıkladı": 26544,
  "türleri": 26545,
  "bayra": 26546,
  "mevcuttur": 26547,
  "mahkemesi": 26548,
  "cos": 26549,
  "olmalı": 26550,
  "beğenbeğen": 26551,
  "sic": 26552,
  "isinden": 26553,
  "etmeyi": 26554,
  "macer": 26555,
  "di̇r": 26556,
  "sunul": 26557,
  "kulübü": 26558,
  "kenti": 26559,
  "alex": 26560,
  "ino": 26561,
  "gitti": 26562,
  "cre": 26563,
  "i̇spanya": 26564,
  "vara": 26565,
  "gençlik": 26566,
  "yolları": 26567,
  "rul": 26568,
  "atık": 26569,
  "copy": 26570,
  "çerçevesinde": 26571,
  "ulaştır": 26572,
  "boyutu": 26573,
  "çıl": 26574,
  "görüntül": 26575,
  "jim": 26576,
  "kullanabilirsiniz": 26577,
  "finansal": 26578,
  "\"]": 26579,
  "büny": 26580,
  "maçı": 26581,
  "tılan": 26582,
  "yakıt": 26583,
  "zamanlarda": 26584,
  "86": 26585,
  "anlayış": 26586,
  "çekir": 26587,
  "sağlayıcı": 26588,
  "bölgede": 26589,
  "hael": 26590,
  "çocukların": 26591,
  "bilgilerin": 26592,
  "enstit": 26593,
  "sunuyor": 26594,
  "vakfı": 26595,
  "ese": 26596,
  "kayb": 26597,
  "yazılan": 26598,
  ":)": 26599,
  "tahya": 26600,
  "ebevey": 26601,
  "glo": 26602,
  "attı": 26603,
  "tiğimiz": 26604,
  "karşıya": 26605,
  "1993": 26606,
  "çisi": 26607,
  "elendir": 26608,
  "incelen": 26609,
  "şuyor": 26610,
  "120": 26611,
  "die": 26612,
  "genişlet": 26613,
  "çalışa": 26614,
  "ülkede": 26615,
  "platformu": 26616,
  "kullanıcının": 26617,
  "söyleye": 26618,
  "yör": 26619,
  "muk": 26620,
  "gas": 26621,
  "hastalıkları": 26622,
  "geze": 26623,
  "evler": 26624,
  "ami": 26625,
  "işler": 26626,
  "doğdu": 26627,
  "bonusları": 26628,
  "74": 26629,
  "yüzyılda": 26630,
  "faydalı": 26631,
  "üretimi": 26632,
  "dae": 26633,
  "okyan": 26634,
  "kadınların": 26635,
  "sağlanan": 26636,
  "tarafı": 26637,
  "71": 26638,
  "düştü": 26639,
  "adıyla": 26640,
  "box": 26641,
  "olabilirolabilir": 26642,
  "olabilirolabilirmero": 26643,
  "bölün": 26644,
  "turnu": 26645,
  "i̇nşa": 26646,
  "şehirler": 26647,
  "mekteyiz": 26648,
  "lmaz": 26649,
  "soğ": 26650,
  "amas": 26651,
  "açtı": 26652,
  "yemekleri": 26653,
  "istih": 26654,
  "abon": 26655,
  "stü": 26656,
  "yenin": 26657,
  "cılığı": 26658,
  "kullanır": 26659,
  "ihtim": 26660,
  "kullanılarak": 26661,
  "taah": 26662,
  "ng": 26663,
  "çeken": 26664,
  "bildirim": 26665,
  "duygusal": 26666,
  "asistanısınız": 26667,
  "olduğunda": 26668,
  "james": 26669,
  "oldukları": 26670,
  "miktarda": 26671,
  "sky": 26672,
  "unutmayın": 26673,
  "merkezine": 26674,
  "belgesi": 26675,
  "michael": 26676,
  "itibarı": 26677,
  "açıdan": 26678,
  "i̇ler": 26679,
  "asans": 26680,
  "adında": 26681,
  "kadının": 26682,
  "rut": 26683,
  "birbirine": 26684,
  "alardan": 26685,
  "aran": 26686,
  "etkiler": 26687,
  "makla": 26688,
  "açıklamada": 26689,
  "herkese": 26690,
  "[\"": 26691,
  "bgcolor": 26692,
  "kullanılmaktadır": 26693,
  "numaralı": 26694,
  "sızın": 26695,
  "gözden": 26696,
  "annesi": 26697,
  "cümlede": 26698,
  "nüfusu": 26699,
  "function": 26700,
  "ortamda": 26701,
  "şeyin": 26702,
  "areti": 26703,
  "ücreti": 26704,
  "vermiş": 26705,
  "84": 26706,
  "alımı": 26707,
  "elle": 26708,
  "drum": 26709,
  "yolculuk": 26710,
  "hastalı": 26711,
  "sha": 26712,
  "tale": 26713,
  "ilişkiler": 26714,
  "lardaki": 26715,
  "hone": 26716,
  "gerektiği": 26717,
  "olduğumuz": 26718,
  "1991": 26719,
  "satan": 26720,
  "galatas": 26721,
  "danışmanlık": 26722,
  "univer": 26723,
  "taşıyan": 26724,
  "salonu": 26725,
  "dikkatli": 26726,
  "here": 26727,
  "kullanıla": 26728,
  "eleme": 26729,
  "1985": 26730,
  "sorunsuz": 26731,
  "etkileri": 26732,
  "xy": 26733,
  "hastanesi": 26734,
  "cok": 26735,
  "yöntemleri": 26736,
  "kâr": 26737,
  "ambala": 26738,
  "söyler": 26739,
  "ling": 26740,
  "tüketi": 26741,
  "almıştır": 26742,
  "anon": 26743,
  "show": 26744,
  "brik": 26745,
  "ağacı": 26746,
  "malzemeler": 26747,
  "arkadaşlar": 26748,
  "düşünc": 26749,
  "çorum": 26750,
  "\")": 26751,
  "çekmek": 26752,
  "şirketin": 26753,
  "bizimle": 26754,
  "şunları": 26755,
  "73": 26756,
  "endiş": 26757,
  "xbet": 26758,
  "dizisi": 26759,
  "ekibi": 26760,
  "derecede": 26761,
  "diğine": 26762,
  "menizi": 26763,
  "kasta": 26764,
  "bekliyor": 26765,
  "şampiyonası": 26766,
  "taahhü": 26767,
  "siteye": 26768,
  "madığı": 26769,
  "::": 26770,
  "iyo": 26771,
  "covid": 26772,
  "özellikler": 26773,
  "trum": 26774,
  "tive": 26775,
  "müsa": 26776,
  "devleti": 26777,
  "kazanı": 26778,
  "gerekç": 26779,
  "gelişmeler": 26780,
  "kendilerini": 26781,
  "çikola": 26782,
  "sesi": 26783,
  "izleye": 26784,
  "sto": 26785,
  "yaşadığı": 26786,
  "uygul": 26787,
  "amı": 26788,
  "iphone": 26789,
  "alarından": 26790,
  "mümkündür": 26791,
  "şüph": 26792,
  "i̇brahim": 26793,
  "çeşitleri": 26794,
  "hesabı": 26795,
  "şirketleri": 26796,
  "oluşum": 26797,
  "kalites": 26798,
  "tran": 26799,
  "işç": 26800,
  "başlıyor": 26801,
  "sonucuna": 26802,
  "ydi": 26803,
  "><": 26804,
  "duyg": 26805,
  "dd": 26806,
  "guldak": 26807,
  "kelimeleri": 26808,
  "ilmez": 26809,
  "url": 26810,
  "haberi": 26811,
  "esun": 26812,
  "pinter": 26813,
  "kendilerine": 26814,
  "ettiğiniz": 26815,
  "çoğunlukla": 26816,
  "olabil": 26817,
  "seven": 26818,
  "i̇lanları": 26819,
  "pier": 26820,
  "birbirinden": 26821,
  "olacağını": 26822,
  "micro": 26823,
  "i̇sveç": 26824,
  "doma": 26825,
  "oluşturur": 26826,
  "ti̇": 26827,
  "adamı": 26828,
  "kasyon": 26829,
  "grubun": 26830,
  "uçuş": 26831,
  "görür": 26832,
  "izlemek": 26833,
  "yemeği": 26834,
  "indi": 26835,
  "koordin": 26836,
  "ediliyor": 26837,
  "tis": 26838,
  "dördün": 26839,
  "bulabilirsiniz": 26840,
  "ndeki": 26841,
  "atmos": 26842,
  "psikolojik": 26843,
  "olanlar": 26844,
  "next": 26845,
  "copyright": 26846,
  "java": 26847,
  "sco": 26848,
  "muhafaz": 26849,
  "sebebi": 26850,
  "mekaniz": 26851,
  "süren": 26852,
  "bs": 26853,
  "elektrikli": 26854,
  "çözün": 26855,
  "ingir": 26856,
  "ödülleri": 26857,
  "92": 26858,
  "terek": 26859,
  "cookies": 26860,
  "tegor": 26861,
  "şöyledir": 26862,
  "seyin": 26863,
  "ous": 26864,
  "çerezleri": 26865,
  "ilinin": 26866,
  "83": 26867,
  "blu": 26868,
  "âr": 26869,
  "ırım": 26870,
  "kuy": 26871,
  "süley": 26872,
  "adımları": 26873,
  "serisi": 26874,
  "ğına": 26875,
  "ölenler": 26876,
  "çalıştı": 26877,
  "fatur": 26878,
  "pdf": 26879,
  "1970": 26880,
  "telefonu": 26881,
  "yabilir": 26882,
  "beli": 26883,
  "emre": 26884,
  "opt": 26885,
  "eşi": 26886,
  "dt": 26887,
  "hâl": 26888,
  "jon": 26889,
  "ikisi": 26890,
  "nükle": 26891,
  "sürdürülebilir": 26892,
  "sayede": 26893,
  "analizi": 26894,
  "bayanlar": 26895,
  "93": 26896,
  "cn": 26897,
  "yürüyüş": 26898,
  "pinterest": 26899,
  "burcu": 26900,
  "yıkama": 26901,
  "depolama": 26902,
  "vanın": 26903,
  "sunar": 26904,
  "forex": 26905,
  "ailesi": 26906,
  "cle": 26907,
  "bağımlı": 26908,
  "altyazılı": 26909,
  "??": 26910,
  "peyn": 26911,
  "getiren": 26912,
  "kişilere": 26913,
  "düzeyde": 26914,
  "fri": 26915,
  "cap": 26916,
  "ülkemizde": 26917,
  "planı": 26918,
  "aley": 26919,
  "cro": 26920,
  "ğlu": 26921,
  "ea": 26922,
  "aktiv": 26923,
  "hakkındaki": 26924,
  "şıklık": 26925,
  "cast": 26926,
  "tılması": 26927,
  "94": 26928,
  "frac": 26929,
  "iştir": 26930,
  "mater": 26931,
  "belirten": 26932,
  "başa": 26933,
  "yken": 26934,
  "açılış": 26935,
  "asıyla": 26936,
  "fav": 26937,
  "memesi": 26938,
  "açılan": 26939,
  "cumar": 26940,
  "seçimi": 26941,
  "cileri": 26942,
  "kaları": 26943,
  "tt": 26944,
  "kuvvetleri": 26945,
  "güncelleme": 26946,
  "fah": 26947,
  "müdahal": 26948,
  "avustur": 26949,
  "şamba": 26950,
  "ls": 26951,
  "mediğini": 26952,
  "tit": 26953,
  "kalır": 26954,
  "olik": 26955,
  "buldu": 26956,
  "kos": 26957,
  "ال": 26958,
  "i̇mparatorluğu": 26959,
  "kararlı": 26960,
  "alındı": 26961,
  "onunla": 26962,
  "ekleyin": 26963,
  "i̇laç": 26964,
  "dördüncü": 26965,
  "real": 26966,
  "gördü": 26967,
  "asının": 26968,
  "aktivi": 26969,
  "sevgi": 26970,
  "esn": 26971,
  "kalab": 26972,
  "gecik": 26973,
  "nel": 26974,
  "özgürlük": 26975,
  "cus": 26976,
  "araştırmalar": 26977,
  "aler": 26978,
  "tutu": 26979,
  "bunlardan": 26980,
  "randev": 26981,
  "algor": 26982,
  "yakası": 26983,
  "gb": 26984,
  "getirmek": 26985,
  "pel": 26986,
  "arch": 26987,
  "yorumu": 26988,
  "?”": 26989,
  "ああああああああ": 26990,
  "perşem": 26991,
  "iner": 26992,
  "----------------": 26993,
  "ramaz": 26994,
  "1989": 26995,
  "dıköy": 26996,
  "oyuncuları": 26997,
  "dondur": 26998,
  "veriliyor": 26999,
  "dünyası": 27000,
  "tıldı": 27001,
  "mî": 27002,
  "olaylar": 27003,
  "kardeşi": 27004,
  "bitkiler": 27005,
  "sonuna": 27006,
  "yerleşim": 27007,
  "hoşgel": 27008,
  "getirdi": 27009,
  "algorit": 27010,
  "redde": 27011,
  "mızdan": 27012,
  "sağlıyor": 27013,
  "kimdir": 27014,
  "ustası": 27015,
  "eşyalar": 27016,
  "yıkı": 27017,
  "öğrenim": 27018,
  "koltuğu": 27019,
  "göstermektedir": 27020,
  "ulaşmak": 27021,
  "dostu": 27022,
  "anlamlı": 27023,
  "sürücü": 27024,
  "satışı": 27025,
  "fla": 27026,
  "ig": 27027,
  "cını": 27028,
  "zim": 27029,
  "buğ": 27030,
  "yil": 27031,
  "ğde": 27032,
  "yazıları": 27033,
  "göğü": 27034,
  "keyifli": 27035,
  "string": 27036,
  "91": 27037,
  "bilgilendirme": 27038,
  "ebilecek": 27039,
  "efsan": 27040,
  "hatırla": 27041,
  "güne": 27042,
  "sitesine": 27043,
  "günler": 27044,
  "diğince": 27045,
  "festiv": 27046,
  "sürüm": 27047,
  "tanımlayın": 27048,
  "lerimizin": 27049,
  "silahlı": 27050,
  "ales": 27051,
  "bakımından": 27052,
  "cıların": 27053,
  "festivali": 27054,
  "biliyoruz": 27055,
  "büyüme": 27056,
  "enter": 27057,
  "boşluk": 27058,
  "görevde": 27059,
  "i̇nşaat": 27060,
  "başk": 27061,
  "noktada": 27062,
  "bölümünde": 27063,
  "tekiz": 27064,
  "önde": 27065,
  "müzesi": 27066,
  "lideri": 27067,
  "dalg": 27068,
  "ure": 27069,
  "raporu": 27070,
  "labor": 27071,
  "lendirme": 27072,
  "geliştirmek": 27073,
  "çocukları": 27074,
  "lamış": 27075,
  "verebilir": 27076,
  "sorumluluğu": 27077,
  "antren": 27078,
  "shi": 27079,
  "lamalı": 27080,
  "dukları": 27081,
  "hang": 27082,
  "olabilirsiniz": 27083,
  "lamayı": 27084,
  "……": 27085,
  "donanım": 27086,
  "bilgiye": 27087,
  "news": 27088,
  "sıklıkla": 27089,
  "gelmiş": 27090,
  "slo": 27091,
  "şunlardır": 27092,
  "öldü": 27093,
  "ite": 27094,
  "scrip": 27095,
  "=\"#": 27096,
  "dolaylı": 27097,
  "duruş": 27098,
  "sahipleri": 27099,
  "oranları": 27100,
  "olabilecek": 27101,
  "brezil": 27102,
  "klin": 27103,
  "adamın": 27104,
  "üretilen": 27105,
  "vit": 27106,
  "melerini": 27107,
  "sisteminin": 27108,
  "uygulana": 27109,
  "yorlar": 27110,
  "imkanı": 27111,
  "ation": 27112,
  "evin": 27113,
  "alakalı": 27114,
  "kimi": 27115,
  "yaza": 27116,
  "ns": 27117,
  "atif": 27118,
  "belirlenen": 27119,
  "üstüne": 27120,
  "tedir": 27121,
  "tımı": 27122,
  ".'": 27123,
  "albümü": 27124,
  "festi": 27125,
  "arayan": 27126,
  "aldım": 27127,
  "kalitesi": 27128,
  "burdur": 27129,
  "that": 27130,
  "celeri": 27131,
  "zincan": 27132,
  "sınırsız": 27133,
  "gördüğ": 27134,
  "eld": 27135,
  "eczan": 27136,
  "şekli": 27137,
  "hediy": 27138,
  "].": 27139,
  "mağazası": 27140,
  "miyorum": 27141,
  "elinde": 27142,
  "ordusu": 27143,
  "halkı": 27144,
  "mutfa": 27145,
  "imkâ": 27146,
  "muay": 27147,
  "dedim": 27148,
  "hire": 27149,
  "ciha": 27150,
  "now": 27151,
  "sayıl": 27152,
  "istiyan": 27153,
  "george": 27154,
  "1960": 27155,
  "aktarıl": 27156,
  "stre": 27157,
  "ilçesinde": 27158,
  "köş": 27159,
  "bünyesinde": 27160,
  "oyuncusu": 27161,
  "basının": 27162,
  "makya": 27163,
  "detaylar": 27164,
  "medim": 27165,
  "kvkk": 27166,
  "ülen": 27167,
  "çapında": 27168,
  "yerden": 27169,
  "hızı": 27170,
  "fli": 27171,
  "duğumuz": 27172,
  "varsayı": 27173,
  "ondan": 27174,
  "esnasında": 27175,
  "cing": 27176,
  "\"]=>": 27177,
  "try": 27178,
  "yerleri": 27179,
  "betçi": 27180,
  "ase": 27181,
  "müte": 27182,
  "bi̇l": 27183,
  "kariyeri": 27184,
  "e9e9e9": 27185,
  "spesi": 27186,
  "sorunlar": 27187,
  "insanı": 27188,
  "sw": 27189,
  "hazırlanan": 27190,
  "kayıtlı": 27191,
  "çıkarmak": 27192,
  "melerine": 27193,
  "ago": 27194,
  "****": 27195,
  "heps": 27196,
  "ilişkili": 27197,
  "hiper": 27198,
  "600": 27199,
  "istat": 27200,
  "meclisi": 27201,
  "süreli": 27202,
  "robert": 27203,
  "atlan": 27204,
  "yapmanız": 27205,
  "yaşar": 27206,
  "unuzu": 27207,
  "bilmeniz": 27208,
  "çamaş": 27209,
  "107": 27210,
  "gereği": 27211,
  "lemeler": 27212,
  "sum": 27213,
  "tiğinde": 27214,
  "odaklan": 27215,
  "!”": 27216,
  "katılan": 27217,
  "öğrenmek": 27218,
  "sunmaktadır": 27219,
  "kendinizi": 27220,
  "tavsiy": 27221,
  "bilinir": 27222,
  "bağlan": 27223,
  "inceleye": 27224,
  "yolo": 27225,
  "li̇k": 27226,
  "konuyu": 27227,
  "tutul": 27228,
  "izler": 27229,
  "cezası": 27230,
  "çizg": 27231,
  "verilmesi": 27232,
  "değişikliği": 27233,
  "araçları": 27234,
  "öğrencilerin": 27235,
  "lıp": 27236,
  "ettim": 27237,
  "}{": 27238,
  "gari": 27239,
  "işin": 27240,
  "ektif": 27241,
  "kong": 27242,
  "süredir": 27243,
  "verg": 27244,
  "değildi": 27245,
  "istin": 27246,
  "olmayı": 27247,
  "1988": 27248,
  "isterseniz": 27249,
  "sertifi": 27250,
  "layacak": 27251,
  "tarzı": 27252,
  "elb": 27253,
  "soruşturma": 27254,
  "alması": 27255,
  "varlığı": 27256,
  "yazan": 27257,
  "gah": 27258,
  "işbirliği": 27259,
  "yazdır": 27260,
  "örgütü": 27261,
  "hon": 27262,
  "i̇ste": 27263,
  "sektöründe": 27264,
  "layıp": 27265,
  "cho": 27266,
  "oluşturulan": 27267,
  "atma": 27268,
  "zorlu": 27269,
  "açıklamalar": 27270,
  "başlıklı": 27271,
  "itibarıyla": 27272,
  "ğının": 27273,
  "insanlara": 27274,
  "yayınlandı": 27275,
  "sekret": 27276,
  "maktır": 27277,
  "demektir": 27278,
  "açabilir": 27279,
  "değişimi": 27280,
  "viç": 27281,
  "ümin": 27282,
  "imum": 27283,
  "kahval": 27284,
  "erke": 27285,
  "düşünüyorum": 27286,
  "3d": 27287,
  "1987": 27288,
  "mutluluk": 27289,
  "değerini": 27290,
  "atu": 27291,
  "tarihleri": 27292,
  "ux": 27293,
  "günlerde": 27294,
  "gelmektedir": 27295,
  "yönünde": 27296,
  "liy": 27297,
  "tehlikeli": 27298,
  "yaşamı": 27299,
  "sevgil": 27300,
  "dâhil": 27301,
  "sağlayacak": 27302,
  "yakından": 27303,
  "gini": 27304,
  "farkı": 27305,
  "evinde": 27306,
  "tamamı": 27307,
  "digit": 27308,
  "döndü": 27309,
  "ilerden": 27310,
  "genelinde": 27311,
  "tüz": 27312,
  "kesinti": 27313,
  "yapabilir": 27314,
  "ai": 27315,
  "muhar": 27316,
  "kanunun": 27317,
  "oluşturan": 27318,
  "girişi": 27319,
  "gerilim": 27320,
  "sahn": 27321,
  "programları": 27322,
  "yapılmıştır": 27323,
  "ıldığında": 27324,
  "i̇ncele": 27325,
  "masın": 27326,
  "taşımacılık": 27327,
  "silin": 27328,
  "alana": 27329,
  "faydaları": 27330,
  "sürece": 27331,
  "ess": 27332,
  "sorg": 27333,
  "melisiniz": 27334,
  "i̇spanyolca": 27335,
  "kaybe": 27336,
  "''''": 27337,
  "ýn": 27338,
  "end": 27339,
  "cusu": 27340,
  "atöl": 27341,
  "yükselt": 27342,
  "yazma": 27343,
  "arasından": 27344,
  "sayfası": 27345,
  "vererek": 27346,
  "i̇nsanlar": 27347,
  "birimi": 27348,
  "maye": 27349,
  "maların": 27350,
  "kızlar": 27351,
  "fikri": 27352,
  "jik": 27353,
  "wordpress": 27354,
  "âyet": 27355,
  "kurulum": 27356,
  "projeler": 27357,
  "cis": 27358,
  "bozul": 27359,
  "ect": 27360,
  "forni": 27361,
  "utma": 27362,
  "çileri": 27363,
  "larınıza": 27364,
  "1986": 27365,
  "yolda": 27366,
  "engelli": 27367,
  "kullanmaya": 27368,
  "diyal": 27369,
  "ğinden": 27370,
  "für": 27371,
  "isteye": 27372,
  "oyunun": 27373,
  "dri": 27374,
  "belirtti": 27375,
  "spon": 27376,
  "piyasaya": 27377,
  "tutan": 27378,
  "çalıştığı": 27379,
  "sn": 27380,
  "kullanıyor": 27381,
  "masıdır": 27382,
  "altındaki": 27383,
  "şeye": 27384,
  "olduğum": 27385,
  "kullandı": 27386,
  "bulur": 27387,
  "soruları": 27388,
  "pon": 27389,
  "bilgiyi": 27390,
  "kazana": 27391,
  "temizliği": 27392,
  "yapmayı": 27393,
  "mıyorum": 27394,
  "cli": 27395,
  "yaşamak": 27396,
  "ston": 27397,
  "ib": 27398,
  "peter": 27399,
  "i̇ddaa": 27400,
  "etrafında": 27401,
  "tıklayınız": 27402,
  "değişiklikler": 27403,
  "oli": 27404,
  "koruyucu": 27405,
  "solu": 27406,
  "girer": 27407,
  "imizden": 27408,
  "yusu": 27409,
  "well": 27410,
  "hocam": 27411,
  "denir": 27412,
  "i̇şi̇m": 27413,
  "destekle": 27414,
  "('": 27415,
  "görme": 27416,
  "hikâ": 27417,
  "kadını": 27418,
  "isindeki": 27419,
  "aralarında": 27420,
  "row": 27421,
  "halısı": 27422,
  "pc": 27423,
  "atın": 27424,
  "1984": 27425,
  "bilgilerini": 27426,
  "iyer": 27427,
  "enstitüsü": 27428,
  "lacaktır": 27429,
  "diyerek": 27430,
  "lanacak": 27431,
  "inceley": 27432,
  "type": 27433,
  "ej": 27434,
  "views": 27435,
  "hâlâ": 27436,
  "sq": 27437,
  "kaybı": 27438,
  "fırsatı": 27439,
  "got": 27440,
  "dk": 27441,
  "mekten": 27442,
  "birine": 27443,
  "bill": 27444,
  "parlamen": 27445,
  "comment": 27446,
  "bakın": 27447,
  "yapılmaktadır": 27448,
  "etmeniz": 27449,
  "akp": 27450,
  "alabilir": 27451,
  "i̇ka": 27452,
  "çocuğu": 27453,
  "eniz": 27454,
  "puanı": 27455,
  "konumu": 27456,
  "genelde": 27457,
  "dge": 27458,
  "share": 27459,
  "kullandığı": 27460,
  "üminyum": 27461,
  "çalışmaya": 27462,
  "tev": 27463,
  "almanca": 27464,
  "i̇çi̇n": 27465,
  "tümü": 27466,
  "paylaşmak": 27467,
  "irt": 27468,
  "kişiyi": 27469,
  "ore": 27470,
  "diyen": 27471,
  "ende": 27472,
  "gerçekleştirilen": 27473,
  "lüğe": 27474,
  "ölçek": 27475,
  "esnek": 27476,
  "dağıtım": 27477,
  "bugüne": 27478,
  "saati": 27479,
  "cher": 27480,
  "ulaşı": 27481,
  "ki̇": 27482,
  "zamanlı": 27483,
  "apa": 27484,
  "suyun": 27485,
  "kalkınma": 27486,
  "ena": 27487,
  "sitesini": 27488,
  "larımızı": 27489,
  "dalık": 27490,
  "beğeni": 27491,
  "pho": 27492,
  "meyin": 27493,
  "semin": 27494,
  "sözler": 27495,
  "limi": 27496,
  "yaşıyor": 27497,
  "misin": 27498,
  "zamanında": 27499,
  "produ": 27500,
  "bölgesel": 27501,
  "resimler": 27502,
  "mın": 27503,
  "biyet": 27504,
  "kuran": 27505,
  "trump": 27506,
  "gg": 27507,
  "baybur": 27508,
  "geçtiğimiz": 27509,
  "tabilir": 27510,
  "mede": 27511,
  "luğun": 27512,
  "arnav": 27513,
  "hükû": 27514,
  "gidiyor": 27515,
  "şirketler": 27516,
  "biliyorum": 27517,
  "kuşa": 27518,
  "moto": 27519,
  "aleti": 27520,
  "sizleri": 27521,
  "enler": 27522,
  "clu": 27523,
  "çıkma": 27524,
  "open": 27525,
  "linkedin": 27526,
  "phi": 27527,
  "liyoruz": 27528,
  "öre": 27529,
  "bahsedil": 27530,
  "halkın": 27531,
  "ülkem": 27532,
  "önümüz": 27533,
  "suretiyle": 27534,
  "whi": 27535,
  "uzan": 27536,
  "alanlarda": 27537,
  "protok": 27538,
  "şişli": 27539,
  "kazanmak": 27540,
  "ian": 27541,
  "bunlara": 27542,
  "vadeli": 27543,
  "menize": 27544,
  "kurdu": 27545,
  "sili": 27546,
  "britan": 27547,
  "pahalı": 27548,
  "istediği": 27549,
  "~~": 27550,
  "önemi": 27551,
  "edik": 27552,
  "dınız": 27553,
  "idar": 27554,
  "başarısız": 27555,
  "\"|": 27556,
  "müziği": 27557,
  "yönetic": 27558,
  "tılmış": 27559,
  "demi": 27560,
  "bini": 27561,
  "vakı": 27562,
  "bron": 27563,
  "annes": 27564,
  "kurucu": 27565,
  "zamanla": 27566,
  "başvurucunun": 27567,
  "laboratu": 27568,
  "istedi": 27569,
  "script": 27570,
  "sergil": 27571,
  "field": 27572,
  "zel": 27573,
  "duruma": 27574,
  "izlen": 27575,
  "bağlama": 27576,
  "samsung": 27577,
  "ilanları": 27578,
  "doğrula": 27579,
  "merkezli": 27580,
  "çalışmak": 27581,
  "seti": 27582,
  "seçe": 27583,
  "dıran": 27584,
  "getirir": 27585,
  "farklılık": 27586,
  "i̇ye": 27587,
  "sahipliği": 27588,
  "ae": 27589,
  "koron": 27590,
  "ox": 27591,
  "1983": 27592,
  "önlemek": 27593,
  "gereklidir": 27594,
  "yılına": 27595,
  "stem": 27596,
  "sözcü": 27597,
  "videoları": 27598,
  "farkın": 27599,
  "bâ": 27600,
  "rengi": 27601,
  "load": 27602,
  "spe": 27603,
  "hukuku": 27604,
  "tüketim": 27605,
  "yağlı": 27606,
  "lerdeki": 27607,
  "rüyada": 27608,
  "kontrolü": 27609,
  "dom": 27610,
  "fın": 27611,
  "kaçın": 27612,
  "urn": 27613,
  "101": 27614,
  "tici": 27615,
  "tanesi": 27616,
  "sürüyor": 27617,
  "pp": 27618,
  "tifak": 27619,
  "kaplama": 27620,
  "yazdı": 27621,
  "iyorlar": 27622,
  "hidro": 27623,
  "uyuşturucu": 27624,
  "tral": 27625,
  "bahs": 27626,
  "yüzyılın": 27627,
  "microsoft": 27628,
  "hareketi": 27629,
  "uzaktan": 27630,
  "power": 27631,
  "chel": 27632,
  "luğunu": 27633,
  "üğ": 27634,
  "sitemize": 27635,
  "bik": 27636,
  "açılır": 27637,
  "araçlar": 27638,
  "urken": 27639,
  "mesajı": 27640,
  "opat": 27641,
  "elerle": 27642,
  "yarışması": 27643,
  "avir": 27644,
  "türbanlı": 27645,
  "belirterek": 27646,
  "nehri": 27647,
  "gatif": 27648,
  "çılık": 27649,
  "mimari": 27650,
  "nesn": 27651,
  ")'": 27652,
  "pazarı": 27653,
  "konsan": 27654,
  "uzaklıkta": 27655,
  "kaşı": 27656,
  "tadını": 27657,
  "noktas": 27658,
  "hareketli": 27659,
  "mağazaları": 27660,
  "maddesinin": 27661,
  "yapmaktadır": 27662,
  "söylen": 27663,
  "edilecek": 27664,
  "ailen": 27665,
  "makaleler": 27666,
  "sonuçta": 27667,
  "une": 27668,
  "parçaları": 27669,
  "ky": 27670,
  "sper": 27671,
  "haftalık": 27672,
  "ning": 27673,
  "istler": 27674,
  "aksine": 27675,
  "karışık": 27676,
  "banın": 27677,
  "duyarlı": 27678,
  "1982": 27679,
  "şifr": 27680,
  "ilişkileri": 27681,
  "adresleri": 27682,
  "grand": 27683,
  "lie": 27684,
  "ndaki": 27685,
  "değişen": 27686,
  "talebi": 27687,
  "geli": 27688,
  "yazılımı": 27689,
  "bildiği": 27690,
  "açan": 27691,
  "başlığı": 27692,
  "kana": 27693,
  "beklenen": 27694,
  "kaydedil": 27695,
  "sika": 27696,
  "konuları": 27697,
  "tıktan": 27698,
  "ök": 27699,
  "çözümü": 27700,
  "sesli": 27701,
  "gitmek": 27702,
  "yükümlülük": 27703,
  "garant": 27704,
  "miktarı": 27705,
  "vip": 27706,
  "plin": 27707,
  "çiğ": 27708,
  "count": 27709,
  "prensi": 27710,
  "sports": 27711,
  "lır": 27712,
  "},": 27713,
  "yöneticisi": 27714,
  "şma": 27715,
  "devletin": 27716,
  "eserleri": 27717,
  "saatleri": 27718,
  "i̇şleri": 27719,
  "duktan": 27720,
  "vita": 27721,
  "unutul": 27722,
  "app": 27723,
  "dikal": 27724,
  "tutarlı": 27725,
  "ios": 27726,
  "şarkıcı": 27727,
  "kombin": 27728,
  "doları": 27729,
  "sebeple": 27730,
  "west": 27731,
  "sorulan": 27732,
  "eur": 27733,
  "uluğunu": 27734,
  "vision": 27735,
  "andre": 27736,
  "larınızın": 27737,
  "hington": 27738,
  "görüyor": 27739,
  "anlaşı": 27740,
  "haberdar": 27741,
  "anızı": 27742,
  "öncesinde": 27743,
  "eseri": 27744,
  "premi": 27745,
  "mul": 27746,
  "benimle": 27747,
  "bonuslar": 27748,
  "tespiti": 27749,
  "olayı": 27750,
  "değerleri": 27751,
  "oynan": 27752,
  "yıla": 27753,
  "metr": 27754,
  "info": 27755,
  "özelliklerini": 27756,
  "hayvanlar": 27757,
  "leşe": 27758,
  "yıllardır": 27759,
  "kutusu": 27760,
  "ayın": 27761,
  "ifadesi": 27762,
  "united": 27763,
  "lish": 27764,
  "fifa": 27765,
  "istiyoruz": 27766,
  "lanacaktır": 27767,
  "arke": 27768,
  "leştirme": 27769,
  "i̇smail": 27770,
  "sürecinde": 27771,
  "alandır": 27772,
  "harekete": 27773,
  "okumak": 27774,
  "bulunması": 27775,
  "evine": 27776,
  "gelip": 27777,
  "kaynaklar": 27778,
  "yüzünden": 27779,
  "olabildiğince": 27780,
  "dikçe": 27781,
  "elerinden": 27782,
  "ülasyon": 27783,
  "lemesi": 27784,
  "işlemler": 27785,
  "hükûmet": 27786,
  "çözmek": 27787,
  "masi": 27788,
  "kaybetti": 27789,
  "i̇sviç": 27790,
  "cookie": 27791,
  "başkenti": 27792,
  "washington": 27793,
  "poli": 27794,
  "başlangıçta": 27795,
  "uri": 27796,
  "hayatın": 27797,
  "yapması": 27798,
  "olmaması": 27799,
  "madığını": 27800,
  "yoktu": 27801,
  "i̇f": 27802,
  "loj": 27803,
  "lil": 27804,
  "gara": 27805,
  "egem": 27806,
  "haklı": 27807,
  "tlar": 27808,
  "baları": 27809,
  "manu": 27810,
  "fazlası": 27811,
  "lamanın": 27812,
  "kurmak": 27813,
  "0000": 27814,
  "siste": 27815,
  "lım": 27816,
  "temizleme": 27817,
  "hakkari": 27818,
  "house": 27819,
  "dia": 27820,
  "yaptıkları": 27821,
  "kendisinin": 27822,
  "zararlı": 27823,
  "leştirilmiş": 27824,
  "hazırlan": 27825,
  "dou": 27826,
  "uygulanan": 27827,
  "iddaa": 27828,
  "aktivit": 27829,
  "kanalı": 27830,
  "açar": 27831,
  "bağışıklık": 27832,
  "conten": 27833,
  "ander": 27834,
  "alarla": 27835,
  "tına": 27836,
  "mann": 27837,
  "kimin": 27838,
  "memektedir": 27839,
  "gösterdi": 27840,
  "bütç": 27841,
  "notlar": 27842,
  "tılır": 27843,
  "tıkları": 27844,
  "hakkını": 27845,
  "lisesi": 27846,
  "komisyonu": 27847,
  "düşüş": 27848,
  "arıyor": 27849,
  "mahkem": 27850,
  "parkı": 27851,
  "inda": 27852,
  "üme": 27853,
  "sunum": 27854,
  "yerlerde": 27855,
  "noktaları": 27856,
  "bahisleri": 27857,
  "dî": 27858,
  "oc": 27859,
  "yanına": 27860,
  "arkadaşları": 27861,
  "düşünül": 27862,
  "civarında": 27863,
  "lerindeki": 27864,
  "via": 27865,
  "league": 27866,
  "reply": 27867,
  "olduklarını": 27868,
  "aldığınız": 27869,
  "1974": 27870,
  "adresine": 27871,
  "sity": 27872,
  "meb": 27873,
  "php": 27874,
  "pit": 27875,
  "nereden": 27876,
  "richar": 27877,
  "kaynaklanan": 27878,
  "maddeleri": 27879,
  "kütle": 27880,
  "ekimi": 27881,
  "odaklı": 27882,
  "trasyon": 27883,
  "dosyalar": 27884,
  "yazdığı": 27885,
  "anıyor": 27886,
  "kılav": 27887,
  "cilere": 27888,
  "etli": 27889,
  "galer": 27890,
  "görüşmeler": 27891,
  "kavu": 27892,
  "maliyeti": 27893,
  "paketi": 27894,
  "love": 27895,
  "board": 27896,
  "kurtulu": 27897,
  "1979": 27898,
  "sanırım": 27899,
  "lıyoruz": 27900,
  "getiriyor": 27901,
  "viz": 27902,
  "pod": 27903,
  "800": 27904,
  "mühendislik": 27905,
  "thon": 27906,
  "protest": 27907,
  "yolunda": 27908,
  "etmez": 27909,
  "aralı": 27910,
  "voley": 27911,
  "kendimi": 27912,
  "buzdola": 27913,
  "vakti": 27914,
  "astron": 27915,
  "bulunduğunu": 27916,
  "hipotezi": 27917,
  "istis": 27918,
  "inizden": 27919,
  "ory": 27920,
  "1981": 27921,
  "cey": 27922,
  "almayı": 27923,
  "mesleki": 27924,
  "yaptığ": 27925,
  "lerimize": 27926,
  "yir": 27927,
  "olacağı": 27928,
  "lamadan": 27929,
  "süreçte": 27930,
  "eceğiz": 27931,
  "duyurdu": 27932,
  "özgün": 27933,
  "güvence": 27934,
  "gönderilen": 27935,
  "yüzlerce": 27936,
  "tarihinden": 27937,
  "yarışma": 27938,
  "ği̇": 27939,
  "yetersiz": 27940,
  "anlatan": 27941,
  "oynadı": 27942,
  "sunduğu": 27943,
  "konuşan": 27944,
  "lâm": 27945,
  "başvurusu": 27946,
  "yaşama": 27947,
  "göv": 27948,
  "yapılmasına": 27949,
  "add": 27950,
  "eğr": 27951,
  "değiştirme": 27952,
  "pic": 27953,
  "yapıldığı": 27954,
  "ziyaretçiler": 27955,
  "obj": 27956,
  "onarım": 27957,
  "$$": 27958,
  "laşması": 27959,
  "teknolojik": 27960,
  "merdiveni": 27961,
  "tamamlan": 27962,
  "lerinize": 27963,
  "cevabını": 27964,
  "fiyata": 27965,
  "ihtiyacınız": 27966,
  "dry": 27967,
  "dışına": 27968,
  "kuruldu": 27969,
  "lamaları": 27970,
  "turkey": 27971,
  "dakikada": 27972,
  "sürecin": 27973,
  "sû": 27974,
  "manz": 27975,
  "gençler": 27976,
  "yönetmelik": 27977,
  "açmak": 27978,
  "cilerin": 27979,
  "yazarak": 27980,
  "dolaşımı": 27981,
  "hatalı": 27982,
  "long": 27983,
  "eşsiz": 27984,
  "hikayesi": 27985,
  "dışındaki": 27986,
  "yılının": 27987,
  "fazlasını": 27988,
  "ci̇": 27989,
  "i̇sa": 27990,
  "mesle": 27991,
  "sman": 27992,
  "i̇rlanda": 27993,
  "anılan": 27994,
  "âh": 27995,
  "düşen": 27996,
  "gi̇r": 27997,
  "1950": 27998,
  "sizden": 27999,
  "olabileceğini": 28000,
  "ysa": 28001,
  "grupları": 28002,
  "sektörü": 28003,
  "güler": 28004,
  "otomo": 28005,
  "sınavı": 28006,
  "i̇lç": 28007,
  "tamamlamak": 28008,
  "sınırları": 28009,
  "stal": 28010,
  "yıldızı": 28011,
  "caddesi": 28012,
  "bizlere": 28013,
  "kl": 28014,
  "endek": 28015,
  "sıralama": 28016,
  "cation": 28017,
  "our": 28018,
  "lezzetli": 28019,
  "tanır": 28020,
  "tanımı": 28021,
  "jor": 28022,
  "diyorum": 28023,
  "federasyonu": 28024,
  "irti": 28025,
  "tipik": 28026,
  "f2": 28027,
  "duğunuz": 28028,
  "büyüsü": 28029,
  "merkezinde": 28030,
  "çilerin": 28031,
  "alanına": 28032,
  "birer": 28033,
  "haritası": 28034,
  "sayfalar": 28035,
  "1975": 28036,
  "göstermek": 28037,
  "zik": 28038,
  "kaşığı": 28039,
  "isteme": 28040,
  "110": 28041,
  "clo": 28042,
  "piyan": 28043,
  "english": 28044,
  "miyiz": 28045,
  "üğü": 28046,
  "geldiğini": 28047,
  "cent": 28048,
  "söyleyen": 28049,
  "gayrim": 28050,
  "ture": 28051,
  "paylaşıl": 28052,
  "ardı": 28053,
  "oynamak": 28054,
  "ltd": 28055,
  "kısmını": 28056,
  "dolandırı": 28057,
  "mb": 28058,
  "terap": 28059,
  "rid": 28060,
  "oynayan": 28061,
  "uzunluğu": 28062,
  "anlatıyor": 28063,
  "rolü": 28064,
  "şiddetli": 28065,
  "gelebilir": 28066,
  "kırklar": 28067,
  "okuyucu": 28068,
  "ğiyle": 28069,
  "tain": 28070,
  "oks": 28071,
  "tamamla": 28072,
  "turu": 28073,
  "rt": 28074,
  "çorbası": 28075,
  "konseyi": 28076,
  "cket": 28077,
  "tüketici": 28078,
  "kazanma": 28079,
  "dyo": 28080,
  "açıldı": 28081,
  "isbn": 28082,
  "vermiştir": 28083,
  "1978": 28084,
  "->": 28085,
  "sistemini": 28086,
  "kanın": 28087,
  "durumun": 28088,
  "bets": 28089,
  "phil": 28090,
  "gelişen": 28091,
  "üstünde": 28092,
  "yapmıştır": 28093,
  "sezonu": 28094,
  "over": 28095,
  "günden": 28096,
  "çekti": 28097,
  "1973": 28098,
  "lisanslı": 28099,
  "kısal": 28100,
  "sağlayın": 28101,
  "ateşli": 28102,
  "çıkarın": 28103,
  "bec": 28104,
  "kesme": 28105,
  "geçirmek": 28106,
  "ulaştı": 28107,
  "vitam": 28108,
  "ther": 28109,
  "ceğiniz": 28110,
  "bozukluk": 28111,
  "eceğini": 28112,
  "anlaya": 28113,
  "sunmak": 28114,
  "resmî": 28115,
  "seçilen": 28116,
  "kaldırı": 28117,
  "değin": 28118,
  "konularda": 28119,
  "fiyatlar": 28120,
  "charles": 28121,
  "kris": 28122,
  "amaçla": 28123,
  "önümüzdeki": 28124,
  "old": 28125,
  "i̇çeri": 28126,
  "thomas": 28127,
  "life": 28128,
  "gelmiştir": 28129,
  "üyeli": 28130,
  "bakter": 28131,
  "memlek": 28132,
  "sitemizi": 28133,
  "ica": 28134,
  "köf": 28135,
  "görülür": 28136,
  "ılmıştır": 28137,
  "sözü": 28138,
  "tikten": 28139,
  "sağladı": 28140,
  "title": 28141,
  "yesi": 28142,
  "liliğini": 28143,
  "gerekirse": 28144,
  "ettiler": 28145,
  "yn": 28146,
  "makineleri": 28147,
  "babasının": 28148,
  "edi̇": 28149,
  "diğerleri": 28150,
  "yıllarında": 28151,
  "tutmak": 28152,
  "teknolojileri": 28153,
  "okal": 28154,
  "duğunda": 28155,
  "1972": 28156,
  "vent": 28157,
  "fez": 28158,
  "bağlamda": 28159,
  "sıdır": 28160,
  "si̇te": 28161,
  "dökül": 28162,
  "yapılabilir": 28163,
  "diğin": 28164,
  "arasına": 28165,
  "hakkının": 28166,
  "padi": 28167,
  "yanlı": 28168,
  "kiz": 28169,
  "non": 28170,
  "işini": 28171,
  "dani": 28172,
  "iyileş": 28173,
  "larımıza": 28174,
  "kültürü": 28175,
  "emez": 28176,
  "çekin": 28177,
  "oranında": 28178,
  "yeni̇": 28179,
  "sizinle": 28180,
  "sınıfı": 28181,
  "yeterince": 28182,
  "age": 28183,
  "basa": 28184,
  "1977": 28185,
  "mith": 28186,
  "ötes": 28187,
  "larken": 28188,
  "tex": 28189,
  "ortasında": 28190,
  "green": 28191,
  "layabilir": 28192,
  "kalmış": 28193,
  "iyice": 28194,
  "gelmesi": 28195,
  "buradaki": 28196,
  "şansı": 28197,
  "sea": 28198,
  "şö": 28199,
  "performansı": 28200,
  "aşağıdak": 28201,
  "maçta": 28202,
  "tag": 28203,
  "alınarak": 28204,
  "game": 28205,
  "frek": 28206,
  "mühendisliği": 28207,
  "cili": 28208,
  "itibariyle": 28209,
  "adsız": 28210,
  "bileti": 28211,
  "cas": 28212,
  "koronavir": 28213,
  "bırakın": 28214,
  "luğunda": 28215,
  "eğilim": 28216,
  "bağlantılı": 28217,
  "tarihsel": 28218,
  "kapsamda": 28219,
  "homeopat": 28220,
  "gidip": 28221,
  "etkinlikler": 28222,
  "tuzla": 28223,
  "yayınlan": 28224,
  "chen": 28225,
  "mhp": 28226,
  "pasi": 28227,
  "i̇si̇": 28228,
  "sağlanması": 28229,
  "sağlamaktadır": 28230,
  "1976": 28231,
  "imkansız": 28232,
  "nereye": 28233,
  "1965": 28234,
  "cevaplar": 28235,
  "paylaşa": 28236,
  "hist": 28237,
  "gerektirir": 28238,
  "perak": 28239,
  "emedi": 28240,
  "işletmeler": 28241,
  "hij": 28242,
  "offi": 28243,
  "icin": 28244,
  "posted": 28245,
  "bulabilir": 28246,
  "hesaplan": 28247,
  "vasıtası": 28248,
  "eksiksiz": 28249,
  "queen": 28250,
  "espor": 28251,
  "prose": 28252,
  "lığından": 28253,
  "tarihte": 28254,
  "cinin": 28255,
  "kralı": 28256,
  "hesaplama": 28257,
  "ness": 28258,
  "180": 28259,
  "pem": 28260,
  "atmak": 28261,
  "anlayışı": 28262,
  "reg": 28263,
  "eşlik": 28264,
  "imzalan": 28265,
  "yaşaya": 28266,
  "annem": 28267,
  "i̇sviçre": 28268,
  "dig": 28269,
  "günleri": 28270,
  "sağlan": 28271,
  "bulama": 28272,
  "stel": 28273,
  "\");": 28274,
  "yazılmış": 28275,
  "i̇ne": 28276,
  "gerektiren": 28277,
  "........": 28278,
  "çıkardı": 28279,
  "olmanın": 28280,
  "1971": 28281,
  "tank": 28282,
  "danışmanlığı": 28283,
  "ayarlan": 28284,
  "alırken": 28285,
  "eyici": 28286,
  "likleri": 28287,
  "koşullar": 28288,
  "halif": 28289,
  "bilimleri": 28290,
  "publi": 28291,
  "karan": 28292,
  "vücudun": 28293,
  "ulaşın": 28294,
  "colle": 28295,
  "faaliyetleri": 28296,
  "faf": 28297,
  "sanın": 28298,
  "sistemin": 28299,
  "bağlıdır": 28300,
  "belirtir": 28301,
  "olmasa": 28302,
  "ст": 28303,
  "filtr": 28304,
  "university": 28305,
  "tutulamaz": 28306,
  "topu": 28307,
  "ederler": 28308,
  "fed": 28309,
  "semp": 28310,
  "sürül": 28311,
  "şlı": 28312,
  "saydı": 28313,
  "kursu": 28314,
  "dıkça": 28315,
  "steroid": 28316,
  "geriye": 28317,
  "1968": 28318,
  "yapılandır": 28319,
  "hurdacı": 28320,
  "phy": 28321,
  "cihazı": 28322,
  "yetik": 28323,
  "yükle": 28324,
  "protec": 28325,
  "teknolojisi": 28326,
  "how": 28327,
  "pkk": 28328,
  "oluşa": 28329,
  "çika": 28330,
  "çilik": 28331,
  "etkisini": 28332,
  "apache": 28333,
  "arkadaşım": 28334,
  "ğra": 28335,
  "ll": 28336,
  "görünür": 28337,
  "like": 28338,
  "gördük": 28339,
  "kiyat": 28340,
  "okunan": 28341,
  "stin": 28342,
  "rok": 28343,
  "teklifi": 28344,
  "eceği": 28345,
  "şeyleri": 28346,
  "gücünü": 28347,
  "tartışma": 28348,
  "karşılığında": 28349,
  "yarda": 28350,
  "geb": 28351,
  "olanı": 28352,
  "görüşme": 28353,
  "user": 28354,
  "imkân": 28355,
  "liber": 28356,
  "yapımcı": 28357,
  "uncu": 28358,
  "kolaylıkla": 28359,
  "dirme": 28360,
  "tiş": 28361,
  "orth": 28362,
  "yönetmeli": 28363,
  "olmanız": 28364,
  "belik": 28365,
  "dışarıda": 28366,
  "hayatına": 28367,
  "mekle": 28368,
  "lüğünü": 28369,
  "kalmak": 28370,
  "detayları": 28371,
  "yönde": 28372,
  "nitelikli": 28373,
  "ilişkisi": 28374,
  "i̇slâm": 28375,
  "gayrimen": 28376,
  "izasyon": 28377,
  "ortamı": 28378,
  "çözümler": 28379,
  "celen": 28380,
  "görüntüleme": 28381,
  "artırmak": 28382,
  "başlamıştır": 28383,
  "betsat": 28384,
  "yazısı": 28385,
  "sürük": 28386,
  "kurallarına": 28387,
  "önemini": 28388,
  "temsilcisi": 28389,
  "dairesi": 28390,
  "yaptığını": 28391,
  "iğdır": 28392,
  "istenen": 28393,
  "ölçümü": 28394,
  "tığında": 28395,
  "adası": 28396,
  "gelişimi": 28397,
  "tüketic": 28398,
  "di̇n": 28399,
  "],": 28400,
  "atar": 28401,
  "türüdür": 28402,
  "etkinliği": 28403,
  "sezonunda": 28404,
  "bulan": 28405,
  "belirtmek": 28406,
  "bulunabilir": 28407,
  "oynanan": 28408,
  "ısın": 28409,
  "gibidir": 28410,
  "oluşturma": 28411,
  "sizlerin": 28412,
  "eği̇t": 28413,
  "geride": 28414,
  "arayın": 28415,
  "olmaları": 28416,
  "deneyimli": 28417,
  "ayrıc": 28418,
  "sigortası": 28419,
  "!\"": 28420,
  "göreviniz": 28421,
  "avcılar": 28422,
  "geldiğinde": 28423,
  "üman": 28424,
  "inceleyebilirsiniz": 28425,
  "yaptığımız": 28426,
  "hukuka": 28427,
  "ril": 28428,
  "ceksiniz": 28429,
  "ülkes": 28430,
  "çevresel": 28431,
  "cell": 28432,
  "medyada": 28433,
  "unuza": 28434,
  "benimse": 28435,
  "konusundaki": 28436,
  "i̇leti̇şi̇m": 28437,
  "suy": 28438,
  "karş": 28439,
  "incelemesi": 28440,
  "yardımıyla": 28441,
  "füz": 28442,
  "milletler": 28443,
  "markası": 28444,
  "derken": 28445,
  "geo": 28446,
  "nep": 28447,
  "kurulmuş": 28448,
  "yolunu": 28449,
  "alda": 28450,
  "likler": 28451,
  "muam": 28452,
  "live": 28453,
  "yararlı": 28454,
  "verileriniz": 28455,
  "seviyorum": 28456,
  "bulunmuştur": 28457,
  "tarayı": 28458,
  "most": 28459,
  "publis": 28460,
  "i̇stat": 28461,
  "mantıklı": 28462,
  "adayı": 28463,
  "sırasıyla": 28464,
  "olmaktan": 28465,
  "content": 28466,
  "kırıl": 28467,
  "gerçekleşen": 28468,
  "categor": 28469,
  "lılar": 28470,
  "bölgenin": 28471,
  "sizlerle": 28472,
  "özeti": 28473,
  "lerken": 28474,
  "iso": 28475,
  "kaynaklı": 28476,
  "halen": 28477,
  "metik": 28478,
  "si̇z": 28479,
  "hâkim": 28480,
  "piz": 28481,
  "irim": 28482,
  "davası": 28483,
  "1969": 28484,
  "rahatlıkla": 28485,
  "katılımcı": 28486,
  "uefa": 28487,
  "dünyayı": 28488,
  "galibiyet": 28489,
  "baştan": 28490,
  "interna": 28491,
  "geçerek": 28492,
  "konulu": 28493,
  "adaları": 28494,
  "muhale": 28495,
  "edilerek": 28496,
  "isimleri": 28497,
  "jes": 28498,
  "tisi": 28499,
  "şüpheli": 28500,
  "ilişkilendir": 28501,
  "gla": 28502,
  "konuyla": 28503,
  "gerçekleşti": 28504,
  "bahçeli": 28505,
  "bayramı": 28506,
  "eği̇ti̇m": 28507,
  "lerdi": 28508,
  "üskü": 28509,
  "group": 28510,
  "dyum": 28511,
  "yapıyoruz": 28512,
  "lanmaz": 28513,
  "bölgeye": 28514,
  "mesajlar": 28515,
  "kuruc": 28516,
  "durumlar": 28517,
  "maddeler": 28518,
  "yaralı": 28519,
  "çılar": 28520,
  "store": 28521,
  "şekliyle": 28522,
  "ziyaretçi": 28523,
  "denizi": 28524,
  "isin": 28525,
  "tmak": 28526,
  "lemeleri": 28527,
  "vi̇tra": 28528,
  "memeli": 28529,
  "i̇kti": 28530,
  "büyükel": 28531,
  "çevirin": 28532,
  "parçacık": 28533,
  "familyasına": 28534,
  "last": 28535,
  "çalışmalarını": 28536,
  "inanılmaz": 28537,
  "solun": 28538,
  "0535": 28539,
  "olasılığı": 28540,
  "i̇skoç": 28541,
  "strük": 28542,
  "fred": 28543,
  "sunun": 28544,
  "tılar": 28545,
  "she": 28546,
  "rich": 28547,
  "geçiyor": 28548,
  "imzala": 28549,
  "haftada": 28550,
  "motoru": 28551,
  "mi̇": 28552,
  "networkdry": 28553,
  "şartlar": 28554,
  "2x": 28555,
  "kullanımını": 28556,
  "krizi": 28557,
  "recor": 28558,
  ".[": 28559,
  "gülüm": 28560,
  "zamana": 28561,
  "açıklandı": 28562,
  "liğinden": 28563,
  "enerjisi": 28564,
  "çözül": 28565,
  "kelimesi": 28566,
  "kaliforni": 28567,
  "></": 28568,
  "olmakla": 28569,
  "vious": 28570,
  "{\\": 28571,
  "telegram": 28572,
  "``": 28573,
  "contin": 28574,
  "örnekleri": 28575,
  "atış": 28576,
  "dre": 28577,
  "balı": 28578,
  "doğur": 28579,
  "noktal": 28580,
  "kulu": 28581,
  "etkileyebilir": 28582,
  "i̇llegal": 28583,
  "milyonlarca": 28584,
  "cular": 28585,
  "soruya": 28586,
  "duğum": 28587,
  "karşılıklı": 28588,
  "will": 28589,
  "daroğlu": 28590,
  "depart": 28591,
  "von": 28592,
  "bedeli": 28593,
  "javascript": 28594,
  "stro": 28595,
  ".’": 28596,
  "ach": 28597,
  "uth": 28598,
  "başlamış": 28599,
  "pobet": 28600,
  "kampanyalar": 28601,
  "ettikleri": 28602,
  "oldum": 28603,
  "buluna": 28604,
  "akışı": 28605,
  "place": 28606,
  "açıklayın": 28607,
  "yükselen": 28608,
  "gebelik": 28609,
  "sebz": 28610,
  "arkasında": 28611,
  "rick": 28612,
  "satışa": 28613,
  "şefimiz": 28614,
  "toplumun": 28615,
  "gy": 28616,
  "hikayeler": 28617,
  "usa": 28618,
  "cess": 28619,
  "kısmında": 28620,
  "masız": 28621,
  "glik": 28622,
  "eline": 28623,
  "oton": 28624,
  "konaklama": 28625,
  "depres": 28626,
  "ugh": 28627,
  "kadin": 28628,
  "puz": 28629,
  "görüntüle": 28630,
  "previous": 28631,
  "dizileri": 28632,
  "görevleri": 28633,
  "verilmektedir": 28634,
  "1967": 28635,
  "sayım": 28636,
  "125": 28637,
  "danim": 28638,
  "yükseldi": 28639,
  "çalışırken": 28640,
  "yenile": 28641,
  "under": 28642,
  "eklenen": 28643,
  "i̇şletme": 28644,
  "hede": 28645,
  "suya": 28646,
  "oyuna": 28647,
  "yayımlanan": 28648,
  "geçersiz": 28649,
  "stein": 28650,
  "beklent": 28651,
  "filmde": 28652,
  "ölümü": 28653,
  "braz": 28654,
  "uzaklaştır": 28655,
  "lg": 28656,
  "seçildi": 28657,
  "i̇mi̇z": 28658,
  "bru": 28659,
  "aşamasında": 28660,
  "cenaz": 28661,
  "seçmen": 28662,
  "tabanlı": 28663,
  "neti": 28664,
  "cümledeki": 28665,
  "onwin": 28666,
  "fabrik": 28667,
  "çıktığı": 28668,
  "düşünür": 28669,
  "kendinize": 28670,
  ")^": 28671,
  "dedek": 28672,
  "dönemin": 28673,
  "hafı": 28674,
  "yanıtı": 28675,
  "metab": 28676,
  "geçirdi": 28677,
  "hizmetlerimiz": 28678,
  "sanatçısı": 28679,
  "görüntülen": 28680,
  "olmasıdır": 28681,
  "doç": 28682,
  "gördüğü": 28683,
  "tarafında": 28684,
  "hotel": 28685,
  "sayıları": 28686,
  "boyutlu": 28687,
  "eyim": 28688,
  "bölgedeki": 28689,
  "sorumlusu": 28690,
  "das": 28691,
  "oluşturul": 28692,
  "bilimi": 28693,
  "sağladığı": 28694,
  "geçin": 28695,
  "layabilirsiniz": 28696,
  "oynadığı": 28697,
  "verildiğinde": 28698,
  "night": 28699,
  "beslen": 28700,
  "kimsenin": 28701,
  "senary": 28702,
  "dünyadaki": 28703,
  "________": 28704,
  "ero": 28705,
  "i̇nsanların": 28706,
  "azından": 28707,
  "aylarında": 28708,
  "eç": 28709,
  "olamaz": 28710,
  "bizler": 28711,
  "ezya": 28712,
  "toplamda": 28713,
  "canı": 28714,
  "ğrafi": 28715,
  "danışmanı": 28716,
  "sms": 28717,
  "ira": 28718,
  "toplantısı": 28719,
  "tikçe": 28720,
  "lıyorum": 28721,
  "görüle": 28722,
  "merkezleri": 28723,
  "etmenin": 28724,
  "gurbetçi": 28725,
  "anlatım": 28726,
  "dolarlık": 28727,
  "kıv": 28728,
  "görevlendir": 28729,
  "sendi": 28730,
  "tics": 28731,
  "nie": 28732,
  "sistemine": 28733,
  "saint": 28734,
  "olmadı": 28735,
  "liyorum": 28736,
  "chester": 28737,
  "sunuyoruz": 28738,
  "eceğim": 28739,
  "brow": 28740,
  "ortada": 28741,
  "önerilen": 28742,
  "tags": 28743,
  "ağrısı": 28744,
  "başladım": 28745,
  "mesajları": 28746,
  "pantol": 28747,
  "club": 28748,
  "ettiğimiz": 28749,
  "edilmesini": 28750,
  "aket": 28751,
  "i̇ster": 28752,
  "kaldığı": 28753,
  "360": 28754,
  "önü": 28755,
  "tecav": 28756,
  "denli": 28757,
  "oranda": 28758,
  "i̇klim": 28759,
  "si̇n": 28760,
  "üniversiteler": 28761,
  "sürecini": 28762,
  "benden": 28763,
  "üretic": 28764,
  "hürr": 28765,
  "aranan": 28766,
  "hangisi": 28767,
  "çocuklara": 28768,
  "search": 28769,
  "angeles": 28770,
  "yaptım": 28771,
  "ortamında": 28772,
  "sv": 28773,
  "tıklayarak": 28774,
  "gos": 28775,
  "uluğun": 28776,
  "mazlık": 28777,
  "kurumlar": 28778,
  "maçında": 28779,
  "yayla": 28780,
  "çıkarı": 28781,
  "zul": 28782,
  "akla": 28783,
  "kurtarı": 28784,
  "düğünde": 28785,
  "***": 28786,
  "sağlayabilir": 28787,
  "mektir": 28788,
  "faktörler": 28789,
  "kutlu": 28790,
  "i̇ngilizceye": 28791,
  "numaraları": 28792,
  "dio": 28793,
  "edebiyatı": 28794,
  "brek": 28795,
  "vitamini": 28796,
  "tamamını": 28797,
  "yazarları": 28798,
  "raptiye_": 28799,
  "belirsiz": 28800,
  "tabanı": 28801,
  "evleri": 28802,
  "edilemez": 28803,
  "takımın": 28804,
  "tte": 28805,
  "zihinsel": 28806,
  "mıdır": 28807,
  "biliyorsunuz": 28808,
  "aralığı": 28809,
  "ailesinin": 28810,
  "gi̇ri̇ş": 28811,
  "isterim": 28812,
  "sikis": 28813,
  "international": 28814,
  "çocuğa": 28815,
  "item": 28816,
  "çıkmış": 28817,
  "raft": 28818,
  "varlığını": 28819,
  "yim": 28820,
  "metrek": 28821,
  "okula": 28822,
  "tarihine": 28823,
  "öğretmenler": 28824,
  "akademisi": 28825,
  "duran": 28826,
  "kurallar": 28827,
  "etkinlikleri": 28828,
  "eşleş": 28829,
  "tığınız": 28830,
  "korkut": 28831,
  "altını": 28832,
  "emen": 28833,
  "ск": 28834,
  "öm": 28835,
  "şartı": 28836,
  "aldığını": 28837,
  "uygulamayı": 28838,
  "sayısının": 28839,
  "gecesi": 28840,
  "şehirde": 28841,
  "gazeteci": 28842,
  "hoc": 28843,
  "gündeme": 28844,
  "ato": 28845,
  "topluluğu": 28846,
  "tanınan": 28847,
  "erkeklerin": 28848,
  "kurulumu": 28849,
  "dinin": 28850,
  "ball": 28851,
  "iba": 28852,
  "ofi": 28853,
  "adımlar": 28854,
  "olursunuz": 28855,
  "derek": 28856,
  "derecelen": 28857,
  "sürdü": 28858,
  "cker": 28859,
  "fili": 28860,
  "sigort": 28861,
  "asay": 28862,
  "çısı": 28863,
  "ath": 28864,
  "ilecektir": 28865,
  "130": 28866,
  "başlayın": 28867,
  "işareti": 28868,
  "sistemler": 28869,
  "bulunmak": 28870,
  "bireylerin": 28871,
  "ral": 28872,
  "pasap": 28873,
  "hızlandır": 28874,
  "metri": 28875,
  "pedi": 28876,
  "olayın": 28877,
  "irler": 28878,
  "hidr": 28879,
  "cül": 28880,
  "gezin": 28881,
  "gelince": 28882,
  "dosyası": 28883,
  "etkileyen": 28884,
  "yayınlar": 28885,
  "maales": 28886,
  "emi": 28887,
  "araştırmaları": 28888,
  "gerekse": 28889,
  "konsep": 28890,
  "kaydetti": 28891,
  "öğrencileri": 28892,
  "getirilen": 28893,
  "gold": 28894,
  "wol": 28895,
  "page": 28896,
  "okumaya": 28897,
  "akra": 28898,
  "gelecekte": 28899,
  "olayları": 28900,
  "arttı": 28901,
  "kurtuluş": 28902,
  "bi̇lg": 28903,
  "göndermek": 28904,
  "ized": 28905,
  "bilmiyor": 28906,
  "amaya": 28907,
  "bağlantısı": 28908,
  "kuruluşu": 28909,
  "studi": 28910,
  "gerçeği": 28911,
  "tasarlanmış": 28912,
  "planlama": 28913,
  "kitabın": 28914,
  "unk": 28915,
  "times": 28916,
  "personeli": 28917,
  "hemşir": 28918,
  "ville": 28919,
  "haberlerin": 28920,
  "cümleler": 28921,
  "tutun": 28922,
  "bulunmamaktadır": 28923,
  "bugünkü": 28924,
  "istediğini": 28925,
  "türkç": 28926,
  "noktasında": 28927,
  "törü": 28928,
  "teknikleri": 28929,
  "liğiyle": 28930,
  "6519": 28931,
  "yürürlüğe": 28932,
  "luğa": 28933,
  "bilinmeyen": 28934,
  "bekleniyor": 28935,
  "tikleri": 28936,
  "mühendisi": 28937,
  "sci": 28938,
  "netic": 28939,
  "danı": 28940,
  "çıkarma": 28941,
  "başkanlık": 28942,
  "ât": 28943,
  "6519107": 28944,
  "05356519107": 28945,
  "1966": 28946,
  "cına": 28947,
  "\">": 28948,
  "musunuz": 28949,
  "ücretleri": 28950,
  "çayı": 28951,
  "i̇li̇": 28952,
  "kullanımına": 28953,
  "stu": 28954,
  "izni": 28955,
  "zorunl": 28956,
  "severler": 28957,
  "şimdiye": 28958,
  "fotoğrafları": 28959,
  "beşinci": 28960,
  "adınız": 28961,
  "karışım": 28962,
  "yapıp": 28963,
  "yayınladı": 28964,
  "beyler": 28965,
  "pss": 28966,
  "görülmektedir": 28967,
  "direc": 28968,
  "galaxy": 28969,
  "portak": 28970,
  "taraftar": 28971,
  "i̇statistik": 28972,
  "cevabınızı": 28973,
  "700": 28974,
  "talimatlar": 28975,
  "camii": 28976,
  "kadına": 28977,
  "kurulmuştur": 28978,
  "kullanıcıları": 28979,
  "dahilinde": 28980,
  "kurucusu": 28981,
  "bilinmektedir": 28982,
  "fox": 28983,
  "kilisesi": 28984,
  "protected": 28985,
  "riski": 28986,
  "seslendir": 28987,
  "isteyenler": 28988,
  "abonelik": 28989,
  "spek": 28990,
  "zorla": 28991,
  "alici": 28992,
  "kurma": 28993,
  "sünü": 28994,
  "çıkacak": 28995,
  "imizle": 28996,
  "artması": 28997,
  "1964": 28998,
  "tabel": 28999,
  "bekleme": 29000,
  "gölü": 29001,
  "şarkısı": 29002,
  "yitir": 29003,
  "vermesi": 29004,
  "price": 29005,
  "hükümeti": 29006,
  "i̇ptal": 29007,
  "ledi": 29008,
  "bio": 29009,
  "yaptığınız": 29010,
  "uzaklıktadır": 29011,
  "….": 29012,
  "çekiyor": 29013,
  "taşına": 29014,
  "yüklen": 29015,
  "dın": 29016,
  "görünen": 29017,
  "çoktan": 29018,
  "okudum": 29019,
  "lib": 29020,
  "yenilikçi": 29021,
  "kullanıcılara": 29022,
  "ras": 29023,
  "на": 29024,
  "ра": 29025,
  "plana": 29026,
  "bardağı": 29027,
  "drama": 29028,
  "iyeli": 29029,
  "içinden": 29030,
  "cema": 29031,
  "listesini": 29032,
  "müsabak": 29033,
  "yönlü": 29034,
  "projeleri": 29035,
  "usunu": 29036,
  "evrensel": 29037,
  "yatırımcı": 29038,
  "fot": 29039,
  "kalacak": 29040,
  "haklarına": 29041,
  "cın": 29042,
  "suçlu": 29043,
  "eksikliği": 29044,
  "değilse": 29045,
  "sağlayarak": 29046,
  "yası": 29047,
  "izde": 29048,
  "cit": 29049,
  "ermeni": 29050,
  "adlandırılan": 29051,
  "county": 29052,
  "piercing": 29053,
  "vanı": 29054,
  "imle": 29055,
  "sayfaları": 29056,
  "kıyasla": 29057,
  "ware": 29058,
  "uygulanması": 29059,
  "görülüyor": 29060,
  "wei": 29061,
  "rat": 29062,
  "arjan": 29063,
  "eller": 29064,
  "sektörde": 29065,
  "anlayın": 29066,
  "i̇yi̇": 29067,
  "önerme": 29068,
  "başladığı": 29069,
  "malze": 29070,
  "söylem": 29071,
  "َا": 29072,
  "1961": 29073,
  "odaları": 29074,
  "hatt": 29075,
  "yapılıyor": 29076,
  "lami": 29077,
  "bahsediyor": 29078,
  "şarkıları": 29079,
  "kesintisiz": 29080,
  "reddedil": 29081,
  "imden": 29082,
  "elbis": 29083,
  "yarışı": 29084,
  "francis": 29085,
  "ild": 29086,
  "dünyasında": 29087,
  "şeyden": 29088,
  "metinde": 29089,
  "vermeden": 29090,
  "listesinde": 29091,
  "miyim": 29092,
  "osunu": 29093,
  "yemekler": 29094,
  "inizle": 29095,
  "selçuklu": 29096,
  "suzluk": 29097,
  "suresi": 29098,
  "ee": 29099,
  "i̇şçi": 29100,
  "gösterilen": 29101,
  "lambası": 29102,
  "anlamını": 29103,
  "temsilciler": 29104,
  "plus": 29105,
  "ilgilidir": 29106,
  "vatanda": 29107,
  "i̇ha": 29108,
  "gördüm": 29109,
  "siteyi": 29110,
  "haftanın": 29111,
  "saatte": 29112,
  "nasil": 29113,
  "ildiğinde": 29114,
  "block": 29115,
  "sergile": 29116,
  "gösterdiği": 29117,
  "date": 29118,
  "analy": 29119,
  "nedenleri": 29120,
  "kullanabiliriz": 29121,
  "çığ": 29122,
  "head": 29123,
  "ışığı": 29124,
  "i̇nan": 29125,
  "css": 29126,
  "ctor": 29127,
  "hakkına": 29128,
  "ayakta": 29129,
  "kılıçdaroğlu": 29130,
  "hazırla": 29131,
  "hası": 29132,
  "ane": 29133,
  "i̇fa": 29134,
  "x_": 29135,
  "buluştur": 29136,
  "bilimler": 29137,
  "ekleye": 29138,
  "dot": 29139,
  "etkileyici": 29140,
  "sanatı": 29141,
  "müd": 29142,
  "joe": 29143,
  "usunun": 29144,
  "yardımı": 29145,
  "kaçı": 29146,
  "şehi̇r": 29147,
  "malarının": 29148,
  "şof": 29149,
  "1963": 29150,
  "elemeleri": 29151,
  "taki̇p": 29152,
  "ve": 29153,
  "bir": 29154,
  "bu": 29155,
  "in": 29156,
  "için": 29157,
  "a": 29158,
  "ile": 29159,
  "ın": 29160,
  "lar": 29161,
  "e": 29162,
  "ya": 29163,
  "çok": 29164,
  "nin": 29165,
  "türkiye": 29166,
  "o": 29167,
  "ler": 29168,
  "daha": 29169,
  "ta": 29170,
  "i": 29171,
  "s": 29172,
  "an": 29173,
  "la": 29174,
  "ma": 29175,
  "le": 29176,
  "den": 29177,
  "dan": 29178,
  "m": 29179,
  "ise": 29180,
  "is": 29181,
  "ların": 29182,
  "er": 29183,
  "un": 29184,
  "ne": 29185,
  "ilk": 29186,
  "te": 29187,
  "nın": 29188,
  "bin": 29189,
  "sonra": 29190,
  "iz": 29191,
  "al": 29192,
  "li": 29193,
  "var": 29194,
  "ak": 29195,
  "her": 29196,
  "son": 29197,
  "büyük": 29198,
  "u": 29199,
  "kadar": 29200,
  "et": 29201,
  "ama": 29202,
  "iş": 29203,
  "lı": 29204,
  "yıl": 29205,
  "gibi": 29206,
  "lerin": 29207,
  "el": 29208,
  "ı": 29209,
  "sa": 29210,
  "bul": 29211,
  "il": 29212,
  "ye": 29213,
  "iyi": 29214,
  "yeni": 29215,
  "yer": 29216,
  "iki": 29217,
  "sı": 29218,
  "ay": 29219,
  "ancak": 29220,
  "yüzde": 29221,
  "larını": 29222,
  "türk": 29223,
  "ını": 29224,
  "diye": 29225,
  "gün": 29226,
  "y": 29227,
  "at": 29228,
  "mak": 29229,
  "ka": 29230,
  "tan": 29231,
  "göre": 29232,
  "ar": 29233,
  "ver": 29234,
  "spor": 29235,
  "me": 29236,
  "n": 29237,
  "im": 29238,
  "ifade": 29239,
  "önce": 29240,
  "yla": 29241,
  "z": 29242,
  "se": 29243,
  "r": 29244,
  "yor": 29245,
  "karşı": 29246,
  "ben": 29247,
  "ca": 29248,
  "alan": 29249,
  "ına": 29250,
  "milyon": 29251,
  "önemli": 29252,
  "devam": 29253,
  "genel": 29254,
  "ında": 29255,
  "abd": 29256,
  "ten": 29257,
  "ü": 29258,
  "yı": 29259,
  "ün": 29260,
  "lık": 29261,
  "it": 29262,
  "dı": 29263,
  "ek": 29264,
  "zaman": 29265,
  "takım": 29266,
  "değil": 29267,
  "maya": 29268,
  "ev": 29269,
  "em": 29270,
  "ara": 29271,
  "yan": 29272,
  "nde": 29273,
  "cı": 29274,
  "maç": 29275,
  "avrupa": 29276,
  "biz": 29277,
  "ti": 29278,
  "lik": 29279,
  "mek": 29280,
  "kal": 29281,
  "su": 29282,
  "tüm": 29283,
  "şu": 29284,
  "aynı": 29285,
  "baş": 29286,
  "es": 29287,
  "on": 29288,
  "mız": 29289,
  "dünya": 29290,
  "iyle": 29291,
  "si": 29292,
  "nun": 29293,
  "yok": 29294,
  "ce": 29295,
  "ci": 29296,
  "saat": 29297,
  "lu": 29298,
  "diğer": 29299,
  "ken": 29300,
  "ir": 29301,
  "tek": 29302,
  "ip": 29303,
  "fazla": 29304,
  "özel": 29305,
  "der": 29306,
  "hem": 29307,
  "kar": 29308,
  "as": 29309,
  "iye": 29310,
  "ol": 29311,
  "iç": 29312,
  "ankara": 29313,
  "şey": 29314,
  "yorum": 29315,
  "az": 29316,
  "gel": 29317,
  "devlet": 29318,
  "nda": 29319,
  "dir": 29320,
  "dır": 29321,
  "bugün": 29322,
  "bil": 29323,
  "ha": 29324,
  "şöyle": 29325,
  "san": 29326,
  "re": 29327,
  "sadece": 29328,
  "tı": 29329,
  "din": 29330,
  "gol": 29331,
  "öz": 29332,
  "ur": 29333,
  "göster": 29334,
  "mir": 29335,
  "gir": 29336,
  "can": 29337,
  "polis": 29338,
  "han": 29339,
  "karar": 29340,
  "kez": 29341,
  "görüş": 29342,
  "sen": 29343,
  "yüksek": 29344,
  "bazı": 29345,
  "gül": 29346,
  "para": 29347,
  "ul": 29348,
  "başkan": 29349,
  "ter": 29350,
  "kendi": 29351,
  "ileri": 29352,
  "milli": 29353,
  "iler": 29354,
  "um": 29355,
  "ali": 29356,
  "ede": 29357,
  "tl": 29358,
  "eler": 29359,
  "ge": 29360,
  "kan": 29361,
  "dur": 29362,
  "uzun": 29363,
  "üç": 29364,
  "kişi": 29365,
  "neden": 29366,
  "ön": 29367,
  "lerde": 29368,
  "eğitim": 29369,
  "top": 29370,
  "yol": 29371,
  "be": 29372,
  "böyle": 29373,
  "kon": 29374,
  "ikinci": 29375,
  "mış": 29376,
  "ana": 29377,
  "ecek": 29378,
  "tır": 29379,
  "plan": 29380,
  "söz": 29381,
  "sahip": 29382,
  "eli": 29383,
  "hafta": 29384,
  "getir": 29385,
  "len": 29386,
  "geç": 29387,
  "ad": 29388,
  "başbakan": 29389,
  "sını": 29390,
  "siz": 29391,
  "konuş": 29392,
  "erdoğan": 29393,
  "haber": 29394,
  "destek": 29395,
  "çek": 29396,
  "açık": 29397,
  "yap": 29398,
  "sayı": 29399,
  "bile": 29400,
  "atı": 29401,
  "olay": 29402,
  "ri": 29403,
  "fa": 29404,
  "yi": 29405,
  "tur": 29406,
  "ayrı": 29407,
  "yakın": 29408,
  "üzere": 29409,
  "yaş": 29410,
  "dün": 29411,
  "göz": 29412,
  "futbol": 29413,
  "oyuncu": 29414,
  "lama": 29415,
  "kara": 29416,
  "gil": 29417,
  "yaklaşık": 29418,
  "miş": 29419,
  "bar": 29420,
  "anı": 29421,
  "milyar": 29422,
  "genç": 29423,
  "sun": 29424,
  "za": 29425,
  "mehmet": 29426,
  "dolar": 29427,
  "ser": 29428,
  "sin": 29429,
  "ğı": 29430,
  "çıktı": 29431,
  "eş": 29432,
  "nasıl": 29433,
  "yen": 29434,
  "men": 29435,
  "teknik": 29436,
  "yönetim": 29437,
  "biri": 29438,
  "başka": 29439,
  "beşiktaş": 29440,
  "sür": 29441,
  "pazar": 29442,
  "doğru": 29443,
  "üst": 29444,
  "görev": 29445,
  "eski": 29446,
  "sezon": 29447,
  "oy": 29448,
  "zor": 29449,
  "grup": 29450,
  "kur": 29451,
  "kabul": 29452,
  "taş": 29453,
  "çocuk": 29454,
  "fenerbahçe": 29455,
  "sev": 29456,
  "uz": 29457,
  "yatırım": 29458,
  "insan": 29459,
  "düşün": 29460,
  "bi": 29461,
  "os": 29462,
  "ayrıca": 29463,
  "bütün": 29464,
  "süre": 29465,
  "belediye": 29466,
  "bak": 29467,
  "eylül": 29468,
  "per": 29469,
  "ban": 29470,
  "sal": 29471,
  "oyna": 29472,
  "dikkat": 29473,
  "dr": 29474,
  "parti": 29475,
  "tanı": 29476,
  "güvenlik": 29477,
  "hedef": 29478,
  "ke": 29479,
  "hiç": 29480,
  "yapı": 29481,
  "sağlık": 29482,
  "gör": 29483,
  "karşılaş": 29484,
  "mez": 29485,
  "dil": 29486,
  "dık": 29487,
  "merkez": 29488,
  "iran": 29489,
  "veya": 29490,
  "kadın": 29491,
  "suç": 29492,
  "hazır": 29493,
  "hava": 29494,
  "bulun": 29495,
  "hal": 29496,
  "sına": 29497,
  "us": 29498,
  "sıra": 29499,
  "tü": 29500,
  "artık": 29501,
  "sel": 29502,
  "galatasaray": 29503,
  "tut": 29504,
  "bo": 29505,
  "kız": 29506,
  "xx": 29507,
  "ağır": 29508,
  "ot": 29509,
  "tu": 29510,
  "kazan": 29511,
  "ton": 29512,
  "açı": 29513,
  "rağmen": 29514,
  "güzel": 29515,
  "hakkında": 29516,
  "yazı": 29517,
  "eri": 29518,
  "tak": 29519,
  "kı": 29520,
  "sağ": 29521,
  "küçük": 29522,
  "acak": 29523,
  "lira": 29524,
  "ldı": 29525,
  "bel": 29526,
  "ala": 29527,
  "hiçbir": 29528,
  "çünkü": 29529,
  "arı": 29530,
  "av": 29531,
  "basın": 29532,
  "kat": 29533,
  "maz": 29534,
  "oyun": 29535,
  "tür": 29536,
  "sarı": 29537,
  "yardım": 29538,
  "lması": 29539,
  "tir": 29540,
  "demir": 29541,
  "sor": 29542,
  "almanya": 29543,
  "ch": 29544,
  "do": 29545,
  "deniz": 29546,
  "ır": 29547,
  "luk": 29548,
  "ziyaret": 29549,
  "par": 29550,
  "ele": 29551,
  "dön": 29552,
  "onun": 29553,
  "ey": 29554,
  "uluslararası": 29555,
  "kes": 29556,
  "van": 29557,
  "fi": 29558,
  "hak": 29559,
  "durum": 29560,
  "kısa": 29561,
  "film": 29562,
  "toplam": 29563,
  "şimdi": 29564,
  "lü": 29565,
  "yarı": 29566,
  "yönelik": 29567,
  "üz": 29568,
  "dim": 29569,
  "çıkar": 29570,
  "kurul": 29571,
  "yine": 29572,
  "otomobil": 29573,
  "sorun": 29574,
  "lig": 29575,
  "çin": 29576,
  "çi": 29577,
  "çı": 29578,
  "cam": 29579,
  "tam": 29580,
  "ok": 29581,
  "ut": 29582,
  "pat": 29583,
  "klarını": 29584,
  "ça": 29585,
  "söyle": 29586,
  "birçok": 29587,
  "konu": 29588,
  "ada": 29589,
  "güven": 29590,
  "yargı": 29591,
  "anayasa": 29592,
  "kap": 29593,
  "ortak": 29594,
  "bek": 29595,
  "ülke": 29596,
  "olur": 29597,
  "elde": 29598,
  "gelir": 29599,
  "ham": 29600,
  "mücadele": 29601,
  "okul": 29602,
  "sak": 29603,
  "fiyat": 29604,
  "cumhuriyet": 29605,
  "kasım": 29606,
  "git": 29607,
  "şa": 29608,
  "hareket": 29609,
  "kim": 29610,
  "gelecek": 29611,
  "aya": 29612,
  "ait": 29613,
  "araç": 29614,
  "belirtildi": 29615,
  "bey": 29616,
  "yaz": 29617,
  "başarı": 29618,
  "kullan": 29619,
  "duy": 29620,
  "dar": 29621,
  "ses": 29622,
  "bal": 29623,
  "ekim": 29624,
  "ho": 29625,
  "euro": 29626,
  "tar": 29627,
  "har": 29628,
  "şirket": 29629,
  "yıldız": 29630,
  "mal": 29631,
  "tim": 29632,
  "bağlı": 29633,
  "kaya": 29634,
  "yurt": 29635,
  "istem": 29636,
  "fotoğraf": 29637,
  "üm": 29638,
  "ger": 29639,
  "sonuç": 29640,
  "dakika": 29641,
  "bırak": 29642,
  "taşı": 29643,
  "değer": 29644,
  "tik": 29645,
  "oto": 29646,
  "kültür": 29647,
  "geri": 29648,
  "lider": 29649,
  "ilişkin": 29650,
  "ilen": 29651,
  "kay": 29652,
  "çalış": 29653,
  "lük": 29654,
  "fer": 29655,
  "internet": 29656,
  "ata": 29657,
  "iste": 29658,
  "hizmet": 29659,
  "pan": 29660,
  "bay": 29661,
  "hep": 29662,
  "aç": 29663,
  "tamam": 29664,
  "ran": 29665,
  "şampiyon": 29666,
  "öğren": 29667,
  "taraf": 29668,
  "po": 29669,
  "gönder": 29670,
  "yarış": 29671,
  "yüz": 29672,
  "satış": 29673,
  "yoğun": 29674,
  "anla": 29675,
  "alın": 29676,
  "engel": 29677,
  "muş": 29678,
  "kontrol": 29679,
  "dü": 29680,
  "kalan": 29681,
  "ceza": 29682,
  "ştı": 29683,
  "koy": 29684,
  "hat": 29685,
  "takip": 29686,
  "cek": 29687,
  "arkadaş": 29688,
  "puan": 29689,
  "bit": 29690,
  "çalışan": 29691,
  "bağ": 29692,
  "kor": 29693,
  "no": 29694,
  "dönem": 29695,
  "düş": 29696,
  "uygun": 29697,
  "yu": 29698,
  "aydın": 29699,
  "talep": 29700,
  "kamu": 29701,
  "köy": 29702,
  "ekonomik": 29703,
  "mustafa": 29704,
  "gece": 29705,
  "oda": 29706,
  "kadro": 29707,
  "yüksel": 29708,
  "ahmet": 29709,
  "hükümet": 29710,
  "bilgi": 29711,
  "yabancı": 29712,
  "co": 29713,
  "kları": 29714,
  "min": 29715,
  "tay": 29716,
  "sosyal": 29717,
  "id": 29718,
  "ünlü": 29719,
  "kapı": 29720,
  "ayı": 29721,
  "güç": 29722,
  "siyasi": 29723,
  "ince": 29724,
  "rı": 29725,
  "isim": 29726,
  "mo": 29727,
  "rusya": 29728,
  "dev": 29729,
  "adam": 29730,
  "fil": 29731,
  "savcı": 29732,
  "net": 29733,
  "ciddi": 29734,
  "sonunda": 29735,
  "tere": 29736,
  "emniyet": 29737,
  "bor": 29738,
  "sar": 29739,
  "aş": 29740,
  "transfer": 29741,
  "erken": 29742,
  "mem": 29743,
  "izin": 29744,
  "şan": 29745,
  "arada": 29746,
  "met": 29747,
  "büyükşehir": 29748,
  "kötü": 29749,
  "basketbol": 29750,
  "başı": 29751,
  "gerek": 29752,
  "fir": 29753,
  "dal": 29754,
  "dum": 29755,
  "belir": 29756,
  "alt": 29757,
  "cu": 29758,
  "adı": 29759,
  "art": 29760,
  "mil": 29761,
  "üretim": 29762,
  "giy": 29763,
  "dağ": 29764,
  "yayın": 29765,
  "başla": 29766,
  "ık": 29767,
  "hur": 29768,
  "otur": 29769,
  "onu": 29770,
  "sanat": 29771,
  "çe": 29772,
  "silah": 29773,
  "malı": 29774,
  "kulüp": 29775,
  "götür": 29776,
  "barış": 29777,
  "satı": 29778,
  "ticaret": 29779,
  "dolayı": 29780,
  "hemen": 29781,
  "vi": 29782,
  "sın": 29783,
  "katı": 29784,
  "bas": 29785,
  "seç": 29786,
  "atatürk": 29787,
  "sıkıntı": 29788,
  "mızı": 29789,
  "meden": 29790,
  "tv": 29791,
  "dört": 29792,
  "mayan": 29793,
  "altın": 29794,
  "seçim": 29795,
  "prof": 29796,
  "yani": 29797,
  "uy": 29798,
  "işlem": 29799,
  "pek": 29800,
  "gen": 29801,
  "akşam": 29802,
  "ası": 29803,
  "sit": 29804,
  "ulu": 29805,
  "otel": 29806,
  "erkek": 29807,
  "cumhurbaşkanı": 29808,
  "eğer": 29809,
  "ürün": 29810,
  "gündem": 29811,
  "gerçek": 29812,
  "sabah": 29813,
  "kurum": 29814,
  "aday": 29815,
  "kent": 29816,
  "sem": 29817,
  "mutlu": 29818,
  "altı": 29819,
  "dem": 29820,
  "tekrar": 29821,
  "bildirdi": 29822,
  "ldığı": 29823,
  "yacak": 29824,
  "tel": 29825,
  "kredi": 29826,
  "kol": 29827,
  "biraz": 29828,
  "güney": 29829,
  "arka": 29830,
  "eleştir": 29831,
  "sakat": 29832,
  "boyunca": 29833,
  "uzak": 29834,
  "ona": 29835,
  "ağ": 29836,
  "gözaltına": 29837,
  "kul": 29838,
  "soru": 29839,
  "sınır": 29840,
  "yemek": 29841,
  "resmi": 29842,
  "yarın": 29843,
  "dava": 29844,
  "şen": 29845,
  "değiş": 29846,
  "kart": 29847,
  "beraber": 29848,
  "işte": 29849,
  "rol": 29850,
  "geliş": 29851,
  "ör": 29852,
  "anlattı": 29853,
  "alman": 29854,
  "evet": 29855,
  "araştırma": 29856,
  "savaş": 29857,
  "yılmaz": 29858,
  "park": 29859,
  "toplantı": 29860,
  "sek": 29861,
  "bank": 29862,
  "halk": 29863,
  "tespit": 29864,
  "ağustos": 29865,
  "öner": 29866,
  "müzik": 29867,
  "vur": 29868,
  "ez": 29869,
  "önem": 29870,
  "bildir": 29871,
  "zaten": 29872,
  "dış": 29873,
  "iddia": 29874,
  "hukuk": 29875,
  "fark": 29876,
  "inan": 29877,
  "car": 29878,
  "hayat": 29879,
  "hayır": 29880,
  "ah": 29881,
  "boş": 29882,
  "herkes": 29883,
  "yar": 29884,
  "zarar": 29885,
  "fransa": 29886,
  "edi": 29887,
  "terör": 29888,
  "ulaş": 29889,
  "tercih": 29890,
  "yapıl": 29891,
  "sektör": 29892,
  "uğra": 29893,
  "ekipleri": 29894,
  "yum": 29895,
  "güçlü": 29896,
  "katkı": 29897,
  "rapor": 29898,
  "kuzey": 29899,
  "şehir": 29900,
  "henüz": 29901,
  "hale": 29902,
  "bayram": 29903,
  "mor": 29904,
  "part": 29905,
  "çöz": 29906,
  "tin": 29907,
  "mümkün": 29908,
  "ekip": 29909,
  "kaza": 29910,
  "new": 29911,
  "enerji": 29912,
  "kemal": 29913,
  "tal": 29914,
  "saldırı": 29915,
  "sayın": 29916,
  "of": 29917,
  "batı": 29918,
  "baba": 29919,
  "sokak": 29920,
  "oku": 29921,
  "uçak": 29922,
  "ard": 29923,
  "antalya": 29924,
  "yıldırım": 29925,
  "faaliyet": 29926,
  "sık": 29927,
  "tor": 29928,
  "boz": 29929,
  "boy": 29930,
  "oran": 29931,
  "kir": 29932,
  "dışişleri": 29933,
  "ru": 29934,
  "başvur": 29935,
  "lazım": 29936,
  "uş": 29937,
  "beyaz": 29938,
  "kaynak": 29939,
  "kriz": 29940,
  "indir": 29941,
  "küresel": 29942,
  "trabzonspor": 29943,
  "adet": 29944,
  "telefon": 29945,
  "tem": 29946,
  "serbest": 29947,
  "adım": 29948,
  "eğ": 29949,
  "davet": 29950,
  "yön": 29951,
  "hakim": 29952,
  "herhangi": 29953,
  "obama": 29954,
  "operasyon": 29955,
  "hay": 29956,
  "sır": 29957,
  "anadolu": 29958,
  "tartış": 29959,
  "geniş": 29960,
  "kaç": 29961,
  "borç": 29962,
  "lam": 29963,
  "gök": 29964,
  "üret": 29965,
  "program": 29966,
  "asker": 29967,
  "mas": 29968,
  "yara": 29969,
  "teklif": 29970,
  "aile": 29971,
  "yaşam": 29972,
  "kır": 29973,
  "ldığını": 29974,
  "hızlı": 29975,
  "öyle": 29976,
  "od": 29977,
  "imza": 29978,
  "çift": 29979,
  "televizyon": 29980,
  "ödül": 29981,
  "konser": 29982,
  "up": 29983,
  "sistem": 29984,
  "temel": 29985,
  "yunanistan": 29986,
  "çevre": 29987,
  "toplum": 29988,
  "yem": 29989,
  "doğu": 29990,
  "dahil": 29991,
  "let": 29992,
  "itibaren": 29993,
  "dük": 29994,
  "yanlış": 29995,
  "bildirildi": 29996,
  "ilgi": 29997,
  "beri": 29998,
  "ihracat": 29999,
  "leş": 30000,
  "acı": 30001,
  "tarih": 30002,
  "beş": 30003,
  "meclis": 30004,
  "elektrik": 30005,
  "doğ": 30006,
  "yetkililer": 30007,
  "kürt": 30008,
  "kitap": 30009,
  "ker": 30010,
  "sene": 30011,
  "suz": 30012,
  "normal": 30013,
  "işaret": 30014,
  "kolay": 30015,
  "yas": 30016,
  "belirt": 30017,
  "lin": 30018,
  "gaz": 30019,
  "ocak": 30020,
  "tedavi": 30021,
  "yat": 30022,
  "kış": 30023,
  "nden": 30024,
  "zi": 30025,
  "gez": 30026,
  "koru": 30027,
  "zan": 30028,
  "karı": 30029,
  "dair": 30030,
  "yak": 30031,
  "laş": 30032,
  "yanıt": 30033,
  "referandum": 30034,
  "ateş": 30035,
  "metre": 30036,
  "doktor": 30037,
  "ide": 30038,
  "kardeş": 30039,
  "dav": 30040,
  "inci": 30041,
  "geliştir": 30042,
  "üniversit": 30043,
  "izle": 30044,
  "bunlar": 30045,
  "madde": 30046,
  "salon": 30047,
  "gider": 30048,
  "inşaat": 30049,
  "eylem": 30050,
  "ilçesi": 30051,
  "rahat": 30052,
  "çözüm": 30053,
  "çu": 30054,
  "ov": 30055,
  "güneş": 30056,
  "gar": 30057,
  "tıp": 30058,
  "toprak": 30059,
  "eyle": 30060,
  "dolayısıyla": 30061,
  "sıcak": 30062,
  "sürekli": 30063,
  "üçüncü": 30064,
  "sol": 30065,
  "yeşil": 30066,
  "ölüm": 30067,
  "saray": 30068,
  "direktör": 30069,
  "girişim": 30070,
  "birinci": 30071,
  "belli": 30072,
  "kuruluş": 30073,
  "sam": 30074,
  "don": 30075,
  "hala": 30076,
  "rahim": 30077,
  "düşük": 30078,
  "ihtiyaç": 30079,
  "yazılı": 30080,
  "rakam": 30081,
  "murat": 30082,
  "birkaç": 30083,
  "tık": 30084,
  "kırmızı": 30085,
  "giriş": 30086,
  "ed": 30087,
  "panya": 30088,
  "yon": 30089,
  "hatta": 30090,
  "pi": 30091,
  "kah": 30092,
  "tutuk": 30093,
  "emin": 30094,
  "öğretmen": 30095,
  "turizm": 30096,
  "ders": 30097,
  "bursaspor": 30098,
  "mahkeme": 30099,
  "ndan": 30100,
  "cel": 30101,
  "bol": 30102,
  "dür": 30103,
  "proje": 30104,
  "derece": 30105,
  "soy": 30106,
  "lmış": 30107,
  "üstün": 30108,
  "rken": 30109,
  "piyasa": 30110,
  "saha": 30111,
  "yasal": 30112,
  "geçmiş": 30113,
  "süper": 30114,
  "sivil": 30115,
  "kişilik": 30116,
  "öğrenildi": 30117,
  "temsil": 30118,
  "uç": 30119,
  "lem": 30120,
  "ret": 30121,
  "müş": 30122,
  "tamamen": 30123,
  "tabii": 30124,
  "yönet": 30125,
  "yaşa": 30126,
  "ster": 30127,
  "bm": 30128,
  "öl": 30129,
  "sınav": 30130,
  "kuru": 30131,
  "öde": 30132,
  "recep": 30133,
  "diz": 30134,
  "anne": 30135,
  "kaydeden": 30136,
  "diyarbakır": 30137,
  "say": 30138,
  "sanayi": 30139,
  "pol": 30140,
  "hayvan": 30141,
  "sil": 30142,
  "model": 30143,
  "çağ": 30144,
  "ac": 30145,
  "set": 30146,
  "yet": 30147,
  "şart": 30148,
  "mah": 30149,
  "dönüş": 30150,
  "çevr": 30151,
  "onlar": 30152,
  "bölge": 30153,
  "tesis": 30154,
  "hakem": 30155,
  "üs": 30156,
  "paşa": 30157,
  "forma": 30158,
  "rakip": 30159,
  "kuş": 30160,
  "tas": 30161,
  "baskı": 30162,
  "osman": 30163,
  "tif": 30164,
  "rum": 30165,
  "maçın": 30166,
  "içer": 30167,
  "tepe": 30168,
  "alışveriş": 30169,
  "ım": 30170,
  "dost": 30171,
  "kıbrıs": 30172,
  "pakistan": 30173,
  "şahin": 30174,
  "bursa": 30175,
  "kaybet": 30176,
  "hüseyin": 30177,
  "savun": 30178,
  "canlı": 30179,
  "teşekkür": 30180,
  "gür": 30181,
  "mat": 30182,
  "mesaj": 30183,
  "eder": 30184,
  "ramazan": 30185,
  "hasta": 30186,
  "ttı": 30187,
  "çan": 30188,
  "çelik": 30189,
  "sanık": 30190,
  "ömer": 30191,
  "gazete": 30192,
  "saygı": 30193,
  "fakat": 30194,
  "lak": 30195,
  "kesin": 30196,
  "sert": 30197,
  "yarar": 30198,
  "mevcut": 30199,
  "örnek": 30200,
  "yağ": 30201,
  "kapalı": 30202,
  "cem": 30203,
  "teslim": 30204,
  "banka": 30205,
  "bölüm": 30206,
  "amaç": 30207,
  "kayıt": 30208,
  "hasan": 30209,
  "öte": 30210,
  "yansı": 30211,
  "bırakı": 30212,
  "sıkı": 30213,
  "ilçe": 30214,
  "alık": 30215,
  "emek": 30216,
  "yo": 30217,
  "olumlu": 30218,
  "tehdit": 30219,
  "politika": 30220,
  "arap": 30221,
  "konya": 30222,
  "düzey": 30223,
  "web": 30224,
  "siyah": 30225,
  "olumsuz": 30226,
  "maden": 30227,
  "general": 30228,
  "esiyle": 30229,
  "öldür": 30230,
  "lim": 30231,
  "jandarma": 30232,
  "seyir": 30233,
  "hangi": 30234,
  "kilo": 30235,
  "nükleer": 30236,
  "uyarı": 30237,
  "kore": 30238,
  "sınıf": 30239,
  "york": 30240,
  "hız": 30241,
  "örgüt": 30242,
  "saatlerinde": 30243,
  "fatih": 30244,
  "cep": 30245,
  "bı": 30246,
  "birbir": 30247,
  "risk": 30248,
  "satın": 30249,
  "mali": 30250,
  "yolcu": 30251,
  "ley": 30252,
  "milletvekili": 30253,
  "kimse": 30254,
  "avukat": 30255,
  "temmuz": 30256,
  "kaz": 30257,
  "adalet": 30258,
  "antrenman": 30259,
  "çiz": 30260,
  "bat": 30261,
  "fırsat": 30262,
  "tahmin": 30263,
  "diren": 30264,
  "günlük": 30265,
  "siyaset": 30266,
  "petrol": 30267,
  "vatandaş": 30268,
  "uzman": 30269,
  "plakalı": 30270,
  "tarak": 30271,
  "eskişehir": 30272,
  "sıralarında": 30273,
  "artır": 30274,
  "araştır": 30275,
  "şarkı": 30276,
  "değişik": 30277,
  "vak": 30278,
  "nu": 30279,
  "gem": 30280,
  "nato": 30281,
  "demokratik": 30282,
  "hisse": 30283,
  "kamp": 30284,
  "görüntü": 30285,
  "hesap": 30286,
  "büyü": 30287,
  "cevap": 30288,
  "final": 30289,
  "nün": 30290,
  "bilim": 30291,
  "ister": 30292,
  "meslek": 30293,
  "motor": 30294,
  "vergi": 30295,
  "hayal": 30296,
  "sim": 30297,
  "çağrı": 30298,
  "yük": 30299,
  "çay": 30300,
  "elen": 30301,
  "tatil": 30302,
  "unut": 30303,
  "üniversite": 30304,
  "tepki": 30305,
  "özgür": 30306,
  "üye": 30307,
  "sorumlu": 30308,
  "hav": 30309,
  "zengin": 30310,
  "afganistan": 30311,
  "ligde": 30312,
  "gaziantep": 30313,
  "konuk": 30314,
  "tav": 30315,
  "müdür": 30316,
  "nı": 30317,
  "başbakanı": 30318,
  "skor": 30319,
  "kurban": 30320,
  "trafik": 30321,
  "yarak": 30322,
  "büyüm": 30323,
  "dp": 30324,
  "millet": 30325,
  "lma": 30326,
  "uygula": 30327,
  "bilgisayar": 30328,
  "lmasına": 30329,
  "ordu": 30330,
  "hane": 30331,
  "hakan": 30332,
  "faiz": 30333,
  "sav": 30334,
  "servis": 30335,
  "sevk": 30336,
  "vurgulayan": 30337,
  "aşırı": 30338,
  "artı": 30339,
  "ia": 30340,
  "cer": 30341,
  "soruştur": 30342,
  "öğrenci": 30343,
  "göl": 30344,
  "onur": 30345,
  "eksik": 30346,
  "çıkış": 30347,
  "tuğ": 30348,
  "mel": 30349,
  "balık": 30350,
  "edin": 30351,
  "ktan": 30352,
  "bağış": 30353,
  "sefer": 30354,
  "kil": 30355,
  "zer": 30356,
  "landığını": 30357,
  "kaydedildi": 30358,
  "ulusal": 30359,
  "tarım": 30360,
  "hol": 30361,
  "pil": 30362,
  "dek": 30363,
  "ilaç": 30364,
  "kamyon": 30365,
  "elim": 30366,
  "amerika": 30367,
  "belki": 30368,
  "abdullah": 30369,
  "imkan": 30370,
  "ege": 30371,
  "tayyip": 30372,
  "şube": 30373,
  "ışık": 30374,
  "tara": 30375,
  "yöntem": 30376,
  "onay": 30377,
  "uygulama": 30378,
  "pas": 30379,
  "organizasyon": 30380,
  "def": 30381,
  "pınar": 30382,
  "ayak": 30383,
  "koca": 30384,
  "benzer": 30385,
  "başlayacak": 30386,
  "rekor": 30387,
  "tasarım": 30388,
  "cin": 30389,
  "dola": 30390,
  "benz": 30391,
  "umut": 30392,
  "hapis": 30393,
  "paket": 30394,
  "memur": 30395,
  "yasak": 30396,
  "filistin": 30397,
  "hürriyet": 30398,
  "naz": 30399,
  "otobüs": 30400,
  "karak": 30401,
  "avantaj": 30402,
  "şikayet": 30403,
  "abilecek": 30404,
  "kurt": 30405,
  "protesto": 30406,
  "sat": 30407,
  "bekle": 30408,
  "stadı": 30409,
  "ekonomi": 30410,
  "hil": 30411,
  "yle": 30412,
  "yetkilileri": 30413,
  "yalı": 30414,
  "bakı": 30415,
  "etkinlik": 30416,
  "inşa": 30417,
  "sah": 30418,
  "kav": 30419,
  "th": 30420,
  "mail": 30421,
  "açıkla": 30422,
  "rus": 30423,
  "uğur": 30424,
  "oluş": 30425,
  "bet": 30426,
  "gay": 30427,
  "vali": 30428,
  "nur": 30429,
  "sü": 30430,
  "mayıs": 30431,
  "çar": 30432,
  "yerel": 30433,
  "kural": 30434,
  "müdahale": 30435,
  "istifa": 30436,
  "cuma": 30437,
  "masa": 30438,
  "his": 30439,
  "buluş": 30440,
  "polat": 30441,
  "rım": 30442,
  "yavaş": 30443,
  "peş": 30444,
  "fen": 30445,
  "kalp": 30446,
  "mart": 30447,
  "birlik": 30448,
  "şiddet": 30449,
  "attığı": 30450,
  "ğimiz": 30451,
  "hükümetin": 30452,
  "toplantısında": 30453,
  "devr": 30454,
  "müslüman": 30455,
  "kilometre": 30456,
  "haziran": 30457,
  "doğal": 30458,
  "vet": 30459,
  "sine": 30460,
  "çalı": 30461,
  "bilet": 30462,
  "kaldırıldı": 30463,
  "yürüt": 30464,
  "dayan": 30465,
  "albüm": 30466,
  "ze": 30467,
  "etin": 30468,
  "hoş": 30469,
  "başvuru": 30470,
  "karşılık": 30471,
  "hastalık": 30472,
  "kom": 30473,
  "yakal": 30474,
  "takı": 30475,
  "yönetimindeki": 30476,
  "ihal": 30477,
  "yapacağı": 30478,
  "toplu": 30479,
  "merak": 30480,
  "görün": 30481,
  "vurguladı": 30482,
  "londra": 30483,
  "yangın": 30484,
  "koç": 30485,
  "kala": 30486,
  "yayım": 30487,
  "bakım": 30488,
  "öden": 30489,
  "tük": 30490,
  "ayrıldı": 30491,
  "aşı": 30492,
  "pay": 30493,
  "pozisyon": 30494,
  "düzen": 30495,
  "uyu": 30496,
  "kın": 30497,
  "mutlaka": 30498,
  "dy": 30499,
  "bebek": 30500,
  "br": 30501,
  "kaldır": 30502,
  "asıl": 30503,
  "kanal": 30504,
  "fon": 30505,
  "eser": 30506,
  "kafa": 30507,
  "zar": 30508,
  "tamamladı": 30509,
  "ücret": 30510,
  "ildiğini": 30511,
  "kel": 30512,
  "duyur": 30513,
  "sahne": 30514,
  "şehit": 30515,
  "düzenlediği": 30516,
  "kanun": 30517,
  "politik": 30518,
  "trib": 30519,
  "kulüb": 30520,
  "lmasını": 30521,
  "kas": 30522,
  "personel": 30523,
  "gıda": 30524,
  "not": 30525,
  "direktörü": 30526,
  "ilerle": 30527,
  "brezilya": 30528,
  "tepk": 30529,
  "ilik": 30530,
  "yaralandı": 30531,
  "yağış": 30532,
  "ğından": 30533,
  "acil": 30534,
  "memnun": 30535,
  "üzer": 30536,
  "şans": 30537,
  "bulut": 30538,
  "memiş": 30539,
  "kin": 30540,
  "kop": 30541,
  "lek": 30542,
  "orman": 30543,
  "başar": 30544,
  "ani": 30545,
  "performans": 30546,
  "iktidar": 30547,
  "emekli": 30548,
  "başlattı": 30549,
  "tbmm": 30550,
  "temiz": 30551,
  "dam": 30552,
  "uygu": 30553,
  "esindeki": 30554,
  "medya": 30555,
  "denetim": 30556,
  "ağrı": 30557,
  "cami": 30558,
  "antrenör": 30559,
  "rakib": 30560,
  "beğen": 30561,
  "çetin": 30562,
  "artırı": 30563,
  "katıldığı": 30564,
  "dışarı": 30565,
  "derin": 30566,
  "çekil": 30567,
  "tat": 30568,
  "marka": 30569,
  "tören": 30570,
  "bom": 30571,
  "tip": 30572,
  "japonya": 30573,
  "ülkelerin": 30574,
  "anlaşma": 30575,
  "federasyon": 30576,
  "sunu": 30577,
  "doğum": 30578,
  "festival": 30579,
  "hac": 30580,
  "iptal": 30581,
  "iletişim": 30582,
  "defa": 30583,
  "şeker": 30584,
  "lırken": 30585,
  "gurur": 30586,
  "ortam": 30587,
  "adnan": 30588,
  "asya": 30589,
  "hafif": 30590,
  "rekabet": 30591,
  "uyum": 30592,
  "arama": 30593,
  "kapatı": 30594,
  "suriye": 30595,
  "cü": 30596,
  "organ": 30597,
  "isti": 30598,
  "bun": 30599,
  "elem": 30600,
  "kök": 30601,
  "kayseri": 30602,
  "ova": 30603,
  "mensup": 30604,
  "amerikan": 30605,
  "kazada": 30606,
  "diş": 30607,
  "pet": 30608,
  "özür": 30609,
  "sözlerine": 30610,
  "cinsel": 30611,
  "sağlam": 30612,
  "laciver": 30613,
  "dikkati": 30614,
  "kapasit": 30615,
  "kamer": 30616,
  "ameliyat": 30617,
  "şimşek": 30618,
  "hiss": 30619,
  "bülent": 30620,
  "istihdam": 30621,
  "ulan": 30622,
  "gec": 30623,
  "kılıç": 30624,
  "kür": 30625,
  "hoca": 30626,
  "basket": 30627,
  "başkent": 30628,
  "yönetmen": 30629,
  "tane": 30630,
  "sorgu": 30631,
  "del": 30632,
  "test": 30633,
  "tun": 30634,
  "ortalama": 30635,
  "çiçek": 30636,
  "bıçak": 30637,
  "demokrasi": 30638,
  "yal": 30639,
  "ruh": 30640,
  "fır": 30641,
  "kr": 30642,
  "kongre": 30643,
  "şe": 30644,
  "bütçe": 30645,
  "kum": 30646,
  "düz": 30647,
  "kanser": 30648,
  "tasarı": 30649,
  "davutoğlu": 30650,
  "dizi": 30651,
  "ilan": 30652,
  "ayla": 30653,
  "giz": 30654,
  "aşk": 30655,
  "aracı": 30656,
  "renk": 30657,
  "tutuklu": 30658,
  "turist": 30659,
  "önlem": 30660,
  "list": 30661,
  "trabzon": 30662,
  "hastaneye": 30663,
  "yatı": 30664,
  "boyut": 30665,
  "aşağı": 30666,
  "acağız": 30667,
  "aykırı": 30668,
  "dolara": 30669,
  "tiyatro": 30670,
  "tez": 30671,
  "sur": 30672,
  "olası": 30673,
  "gerekçesiyle": 30674,
  "belirlendi": 30675,
  "düğ": 30676,
  "ümit": 30677,
  "zafer": 30678,
  "eşit": 30679,
  "devre": 30680,
  "reklam": 30681,
  "gerçekleş": 30682,
  "çekim": 30683,
  "ödem": 30684,
  "tarı": 30685,
  "fransız": 30686,
  "yetiştir": 30687,
  "çab": 30688,
  "heyecan": 30689,
  "komisyon": 30690,
  "ris": 30691,
  "luğ": 30692,
  "madalya": 30693,
  "allah": 30694,
  "olayla": 30695,
  "kayıp": 30696,
  "hast": 30697,
  "may": 30698,
  "rah": 30699,
  "güc": 30700,
  "itiraz": 30701,
  "tep": 30702,
  "ticari": 30703,
  "yetkili": 30704,
  "lemeye": 30705,
  "oğ": 30706,
  "sinema": 30707,
  "yaratı": 30708,
  "dans": 30709,
  "alet": 30710,
  "beyazlı": 30711,
  "koş": 30712,
  "çak": 30713,
  "liraya": 30714,
  "zam": 30715,
  "inanıyorum": 30716,
  "örü": 30717,
  "yazar": 30718,
  "koruma": 30719,
  "maliyet": 30720,
  "zirve": 30721,
  "lanarak": 30722,
  "takıma": 30723,
  "hü": 30724,
  "vurgu": 30725,
  "çevir": 30726,
  "işçi": 30727,
  "sigorta": 30728,
  "kimlik": 30729,
  "deplasmanda": 30730,
  "gönül": 30731,
  "arz": 30732,
  "sözleş": 30733,
  "modern": 30734,
  "det": 30735,
  "mus": 30736,
  "hu": 30737,
  "roman": 30738,
  "ettiklerini": 30739,
  "madrid": 30740,
  "konuşma": 30741,
  "koz": 30742,
  "organize": 30743,
  "itfaiye": 30744,
  "duygu": 30745,
  "mit": 30746,
  "baz": 30747,
  "sivasspor": 30748,
  "ortadoğu": 30749,
  "mersin": 30750,
  "karakter": 30751,
  "lübnan": 30752,
  "huzur": 30753,
  "cinayet": 30754,
  "ğunu": 30755,
  "and": 30756,
  "bağımsız": 30757,
  "doğrudan": 30758,
  "altyapı": 30759,
  "ekib": 30760,
  "süreç": 30761,
  "bahçe": 30762,
  "muhalefet": 30763,
  "vazgeç": 30764,
  "marmara": 30765,
  "harca": 30766,
  "dolu": 30767,
  "hollanda": 30768,
  "sözlerini": 30769,
  "amir": 30770,
  "avcı": 30771,
  "diplo": 30772,
  "landırı": 30773,
  "kaf": 30774,
  "bazen": 30775,
  "doldur": 30776,
  "peki": 30777,
  "aziz": 30778,
  "süz": 30779,
  "aldık": 30780,
  "sürdürdü": 30781,
  "tekin": 30782,
  "bodrum": 30783,
  "edildiğini": 30784,
  "etkin": 30785,
  "şük": 30786,
  "verdiğini": 30787,
  "seri": 30788,
  "akar": 30789,
  "ece": 30790,
  "vat": 30791,
  "kuvvet": 30792,
  "tren": 30793,
  "akı": 30794,
  "kam": 30795,
  "aslan": 30796,
  "şah": 30797,
  "karşılaştı": 30798,
  "alay": 30799,
  "has": 30800,
  "boğ": 30801,
  "şar": 30802,
  "sus": 30803,
  "hır": 30804,
  "sahaya": 30805,
  "yağmur": 30806,
  "mis": 30807,
  "toplantıda": 30808,
  "sini": 30809,
  "metin": 30810,
  "kavga": 30811,
  "moda": 30812,
  "yaşamını": 30813,
  "sahada": 30814,
  "akdeniz": 30815,
  "salı": 30816,
  "koşul": 30817,
  "zayıf": 30818,
  "ğim": 30819,
  "telekom": 30820,
  "standart": 30821,
  "cumartesi": 30822,
  "yaralanan": 30823,
  "saç": 30824,
  "paris": 30825,
  "tabi": 30826,
  "far": 30827,
  "zen": 30828,
  "hüküm": 30829,
  "hel": 30830,
  "cezalandırı": 30831,
  "vaz": 30832,
  "yoksa": 30833,
  "ilginç": 30834,
  "karadeniz": 30835,
  "pazartesi": 30836,
  "cihaz": 30837,
  "kurtul": 30838,
  "afrika": 30839,
  "halka": 30840,
  "mağdur": 30841,
  "konum": 30842,
  "mısır": 30843,
  "yedi": 30844,
  "key": 30845,
  "komşu": 30846,
  "adli": 30847,
  "çarp": 30848,
  "alkol": 30849,
  "edip": 30850,
  "dol": 30851,
  "kullanım": 30852,
  "gökhan": 30853,
  "tanık": 30854,
  "teknoloji": 30855,
  "mimar": 30856,
  "ina": 30857,
  "sinan": 30858,
  "yacağı": 30859,
  "koydu": 30860,
  "yargıtay": 30861,
  "dere": 30862,
  "kork": 30863,
  "şaşır": 30864,
  "nan": 30865,
  "sap": 30866,
  "kampanya": 30867,
  "lacağı": 30868,
  "yerleş": 30869,
  "daş": 30870,
  "tanım": 30871,
  "yaptıklarını": 30872,
  "nci": 30873,
  "yapıldığını": 30874,
  "ligin": 30875,
  "yalan": 30876,
  "mağlup": 30877,
  "gazi": 30878,
  "tör": 30879,
  "gelin": 30880,
  "sözcüsü": 30881,
  "gümüş": 30882,
  "terk": 30883,
  "çoğu": 30884,
  "kus": 30885,
  "deprem": 30886,
  "rektör": 30887,
  "istikrar": 30888,
  "istediklerini": 30889,
  "kad": 30890,
  "hindistan": 30891,
  "dini": 30892,
  "emeyen": 30893,
  "derec": 30894,
  "bebe": 30895,
  "nam": 30896,
  "bıraktı": 30897,
  "fikir": 30898,
  "netanyahu": 30899,
  "akın": 30900,
  "mahalle": 30901,
  "panyol": 30902,
  "kırık": 30903,
  "hit": 30904,
  "yapım": 30905,
  "bağlantı": 30906,
  "yay": 30907,
  "turnuva": 30908,
  "direk": 30909,
  "niyet": 30910,
  "dey": 30911,
  "maça": 30912,
  "arın": 30913,
  "karşın": 30914,
  "taleb": 30915,
  "dede": 30916,
  "mayın": 30917,
  "kurtar": 30918,
  "sohbet": 30919,
  "profesyonel": 30920,
  "uyar": 30921,
  "zeytin": 30922,
  "böl": 30923,
  "portekiz": 30924,
  "racak": 30925,
  "mekan": 30926,
  "çaba": 30927,
  "şampiyonluk": 30928,
  "basına": 30929,
  "bomba": 30930,
  "birim": 30931,
  "dakik": 30932,
  "nisan": 30933,
  "ney": 30934,
  "kem": 30935,
  "asist": 30936,
  "soğuk": 30937,
  "kitab": 30938,
  "sultan": 30939,
  "mavi": 30940,
  "maddi": 30941,
  "yürü": 30942,
  "yaşı": 30943,
  "problem": 30944,
  "üt": 30945,
  "yalnız": 30946,
  "ladığını": 30947,
  "korku": 30948,
  "konak": 30949,
  "kadir": 30950,
  "yaşlı": 30951,
  "ifadesini": 30952,
  "nüfus": 30953,
  "demokrat": 30954,
  "çeyrek": 30955,
  "işle": 30956,
  "yaşandı": 30957,
  "pilot": 30958,
  "neredeyse": 30959,
  "yunan": 30960,
  "teşvik": 30961,
  "heyet": 30962,
  "düzenlem": 30963,
  "laştırı": 30964,
  "cık": 30965,
  "ağaç": 30966,
  "genelkurmay": 30967,
  "çam": 30968,
  "samsun": 30969,
  "istasyon": 30970,
  "yetiş": 30971,
  "laştı": 30972,
  "mark": 30973,
  "çatı": 30974,
  "toto": 30975,
  "süleyman": 30976,
  "dosya": 30977,
  "süt": 30978,
  "hekim": 30979,
  "inceleme": 30980,
  "nokta": 30981,
  "sinir": 30982,
  "makam": 30983,
  "yusuf": 30984,
  "miktar": 30985,
  "ağa": 30986,
  "tazminat": 30987,
  "polise": 30988,
  "koleksiyon": 30989,
  "önder": 30990,
  "asla": 30991,
  "gidecek": 30992,
  "polisin": 30993,
  "yöneticiler": 30994,
  "bulundur": 30995,
  "darbe": 30996,
  "adres": 30997,
  "buz": 30998,
  "sigara": 30999,
  "alını": 31000,
  "holding": 31001,
  "mobil": 31002,
  "kupa": 31003,
  "aktif": 31004,
  "ph": 31005,
  "şiş": 31006,
  "sayfa": 31007,
  "kok": 31008,
  "hepsi": 31009,
  "yönündeki": 31010,
  "röportaj": 31011,
  "müzaker": 31012,
  "üzün": 31013,
  "konuşmada": 31014,
  "lav": 31015,
  "fabrika": 31016,
  "mesut": 31017,
  "vatandaşlar": 31018,
  "orhan": 31019,
  "gazetecilerin": 31020,
  "sanay": 31021,
  "sün": 31022,
  "istihbarat": 31023,
  "ştığı": 31024,
  "iri": 31025,
  "bot": 31026,
  "hor": 31027,
  "öğle": 31028,
  "hatırlatan": 31029,
  "kalk": 31030,
  "kıyı": 31031,
  "olimpiyat": 31032,
  "hediye": 31033,
  "tasar": 31034,
  "sahte": 31035,
  "temas": 31036,
  "tartışı": 31037,
  "bence": 31038,
  "göçmen": 31039,
  "yalçın": 31040,
  "lacağını": 31041,
  "ekran": 31042,
  "ispor": 31043,
  "sırbistan": 31044,
  "maliye": 31045,
  "gösteri": 31046,
  "puanla": 31047,
  "yakala": 31048,
  "duvar": 31049,
  "denildi": 31050,
  "lüğ": 31051,
  "rast": 31052,
  "özcan": 31053,
  "yenil": 31054,
  "projenin": 31055,
  "ayır": 31056,
  "yel": 31057,
  "lok": 31058,
  "kızıl": 31059,
  "ekledi": 31060,
  "valisi": 31061,
  "belge": 31062,
  "erdem": 31063,
  "sağla": 31064,
  "şubat": 31065,
  "gergin": 31066,
  "vatandaşların": 31067,
  "arslan": 31068,
  "gelerek": 31069,
  "ülkeye": 31070,
  "edeceğiz": 31071,
  "kanı": 31072,
  "boğaz": 31073,
  "sorumluluk": 31074,
  "stat": 31075,
  "hes": 31076,
  "protokol": 31077,
  "mini": 31078,
  "komutanı": 31079,
  "galip": 31080,
  "lmaya": 31081,
  "piş": 31082,
  "şeri": 31083,
  "büyükelç": 31084,
  "piyas": 31085,
  "lmasının": 31086,
  "yapacağız": 31087,
  "davran": 31088,
  "kapan": 31089,
  "reform": 31090,
  "emeye": 31091,
  "bekliyoruz": 31092,
  "komutanlığı": 31093,
  "nar": 31094,
  "zanlı": 31095,
  "selçuk": 31096,
  "kaygı": 31097,
  "lamadı": 31098,
  "beden": 31099,
  "düzenlenecek": 31100,
  "unsur": 31101,
  "bedel": 31102,
  "öztürk": 31103,
  "liğ": 31104,
  "bara": 31105,
  "seyahat": 31106,
  "nik": 31107,
  "şampiyonu": 31108,
  "tuk": 31109,
  "yakı": 31110,
  "sorularını": 31111,
  "meydan": 31112,
  "inşallah": 31113,
  "çal": 31114,
  "topar": 31115,
  "çor": 31116,
  "çalışıyoruz": 31117,
  "hine": 31118,
  "lmak": 31119,
  "çeşit": 31120,
  "metro": 31121,
  "firma": 31122,
  "özdemir": 31123,
  "hastanede": 31124,
  "maaş": 31125,
  "bosna": 31126,
  "ds": 31127,
  "sorusuna": 31128,
  "belediyespor": 31129,
  "ucuz": 31130,
  "resim": 31131,
  "sattı": 31132,
  "kov": 31133,
  "keyi": 31134,
  "ergen": 31135,
  "çer": 31136,
  "bayrak": 31137,
  "elektronik": 31138,
  "enflasyon": 31139,
  "ayan": 31140,
  "avukatı": 31141,
  "suna": 31142,
  "hata": 31143,
  "kırmızılı": 31144,
  "saf": 31145,
  "market": 31146,
  "acağı": 31147,
  "iftar": 31148,
  "ant": 31149,
  "ithal": 31150,
  "oturan": 31151,
  "thy": 31152,
  "finans": 31153,
  "kararını": 31154,
  "yarat": 31155,
  "yakınları": 31156,
  "algı": 31157,
  "kurtarma": 31158,
  "ihbar": 31159,
  "şer": 31160,
  "ülüyor": 31161,
  "görevli": 31162,
  "raz": 31163,
  "kaybeden": 31164,
  "rüzgar": 31165,
  "isiyle": 31166,
  "sakin": 31167,
  "eğlen": 31168,
  "ştırı": 31169,
  "kenar": 31170,
  "turan": 31171,
  "ört": 31172,
  "tuz": 31173,
  "ğünü": 31174,
  "danışman": 31175,
  "anlatı": 31176,
  "perşembe": 31177,
  "helikopter": 31178,
  "hap": 31179,
  "kayser": 31180,
  "ürken": 31181,
  "alev": 31182,
  "anal": 31183,
  "göç": 31184,
  "anlat": 31185,
  "bekleyen": 31186,
  "motosiklet": 31187,
  "füze": 31188,
  "bahar": 31189,
  "sponsor": 31190,
  "müdürlüğ": 31191,
  "çarpı": 31192,
  "dok": 31193,
  "emir": 31194,
  "denet": 31195,
  "mücadel": 31196,
  "sahil": 31197,
  "tom": 31198,
  "payı": 31199,
  "hı": 31200,
  "çarşamba": 31201,
  "esnaf": 31202,
  "çıkartı": 31203,
  "özellik": 31204,
  "volkan": 31205,
  "hür": 31206,
  "gazze": 31207,
  "hid": 31208,
  "kıyafet": 31209,
  "raporda": 31210,
  "niye": 31211,
  "kaçır": 31212,
  "görüldü": 31213,
  "esas": 31214,
  "belçika": 31215,
  "ifadelerini": 31216,
  "çocuğ": 31217,
  "intihar": 31218,
  "nihat": 31219,
  "ağab": 31220,
  "dağıtı": 31221,
  "mezar": 31222,
  "yaygın": 31223,
  "kendim": 31224,
  "ram": 31225,
  "anket": 31226,
  "doğalgaz": 31227,
  "diyoruz": 31228,
  "yedek": 31229,
  "avustralya": 31230,
  "başından": 31231,
  "savundu": 31232,
  "patlama": 31233,
  "çap": 31234,
  "kavuş": 31235,
  "idare": 31236,
  "işbir": 31237,
  "ilerde": 31238,
  "erzurum": 31239,
  "çarptı": 31240,
  "derg": 31241,
  "başladığını": 31242,
  "ikili": 31243,
  "çoğ": 31244,
  "izledi": 31245,
  "göreve": 31246,
  "sürpriz": 31247,
  "halil": 31248,
  "hey": 31249,
  "mesela": 31250,
  "pal": 31251,
  "ayşe": 31252,
  "yanıtladı": 31253,
  "başardı": 31254,
  "engin": 31255,
  "olduğunun": 31256,
  "muştu": 31257,
  "takımının": 31258,
  "sebep": 31259,
  "şener": 31260,
  "kilometr": 31261,
  "lisans": 31262,
  "yukarı": 31263,
  "kişisel": 31264,
  "üste": 31265,
  "çağır": 31266,
  "paylaş": 31267,
  "talimat": 31268,
  "çıkı": 31269,
  "ülkeleri": 31270,
  "babam": 31271,
  "yatak": 31272,
  "tatlı": 31273,
  "serdar": 31274,
  "malarda": 31275,
  "isimler": 31276,
  "alkış": 31277,
  "ilet": 31278,
  "eren": 31279,
  "güreş": 31280,
  "arac": 31281,
  "bakanlık": 31282,
  "keş": 31283,
  "vatandaşı": 31284,
  "esiz": 31285,
  "hayran": 31286,
  "temin": 31287,
  "şampiyonlar": 31288,
  "tecavüz": 31289,
  "danış": 31290,
  "yaşadı": 31291,
  "işletme": 31292,
  "idari": 31293,
  "kariyer": 31294,
  "terörist": 31295,
  "ima": 31296,
  "dönüştür": 31297,
  "olurken": 31298,
  "sermaye": 31299,
  "gittik": 31300,
  "boyu": 31301,
  "sorum": 31302,
  "adeta": 31303,
  "kuz": 31304,
  "manisa": 31305,
  "döv": 31306,
  "yecek": 31307,
  "kulübün": 31308,
  "yarım": 31309,
  "düzenleme": 31310,
  "çıktığını": 31311,
  "ilirken": 31312,
  "alınacak": 31313,
  "hakaret": 31314,
  "lmıştı": 31315,
  "kazı": 31316,
  "havalimanı": 31317,
  "karabük": 31318,
  "özen": 31319,
  "gazetecilere": 31320,
  "borsa": 31321,
  "kanıt": 31322,
  "değilim": 31323,
  "geçmişte": 31324,
  "avro": 31325,
  "özkan": 31326,
  "nü": 31327,
  "oynanacak": 31328,
  "kral": 31329,
  "olmayacak": 31330,
  "demirel": 31331,
  "belirtiliyor": 31332,
  "açıklamaya": 31333,
  "muz": 31334,
  "sekreteri": 31335,
  "namaz": 31336,
  "kartal": 31337,
  "arjantin": 31338,
  "geçiren": 31339,
  "prim": 31340,
  "gali": 31341,
  "dernek": 31342,
  "aşık": 31343,
  "köprü": 31344,
  "haberde": 31345,
  "açıklamasında": 31346,
  "azerbaycan": 31347,
  "yacağını": 31348,
  "geçecek": 31349,
  "getiril": 31350,
  "kör": 31351,
  "vizyon": 31352,
  "cay": 31353,
  "değişim": 31354,
  "fur": 31355,
  "serkan": 31356,
  "edeceğini": 31357,
  "ray": 31358,
  "mesel": 31359,
  "ayet": 31360,
  "meydanı": 31361,
  "görevini": 31362,
  "fat": 31363,
  "lediği": 31364,
  "çatış": 31365,
  "bankacılık": 31366,
  "turgut": 31367,
  "çıkması": 31368,
  "araz": 31369,
  "ülkelerde": 31370,
  "dahi": 31371,
  "hacı": 31372,
  "görüyoruz": 31373,
  "kapa": 31374,
  "hasar": 31375,
  "ade": 31376,
  "düşünüyoruz": 31377,
  "sezonun": 31378,
  "kaptan": 31379,
  "mahkum": 31380,
  "yınca": 31381,
  "söndür": 31382,
  "rız": 31383,
  "au": 31384,
  "mühendis": 31385,
  "liralık": 31386,
  "hisar": 31387,
  "sandal": 31388,
  "saldır": 31389,
  "köylü": 31390,
  "ikna": 31391,
  "form": 31392,
  "daire": 31393,
  "sekiz": 31394,
  "öğrencisi": 31395,
  "caz": 31396,
  "minibüs": 31397,
  "oluştu": 31398,
  "milletvekil": 31399,
  "ceo": 31400,
  "tının": 31401,
  "boşan": 31402,
  "mezun": 31403,
  "verdik": 31404,
  "barcelona": 31405,
  "parlamento": 31406,
  "yatırı": 31407,
  "düğün": 31408,
  "maalesef": 31409,
  "incisi": 31410,
  "etik": 31411,
  "müştü": 31412,
  "ket": 31413,
  "ithalat": 31414,
  "karşısına": 31415,
  "kentinde": 31416,
  "ışı": 31417,
  "dönen": 31418,
  "odak": 31419,
  "olmuştu": 31420,
  "araba": 31421,
  "tedbir": 31422,
  "dun": 31423,
  "katıl": 31424,
  "taşıyor": 31425,
  "acağını": 31426,
  "davranış": 31427,
  "alacağı": 31428,
  "işim": 31429,
  "edirne": 31430,
  "kendiler": 31431,
  "hükümetinin": 31432,
  "giyen": 31433,
  "evlen": 31434,
  "rakibi": 31435,
  "lor": 31436,
  "kaleci": 31437,
  "çıkıp": 31438,
  "mektup": 31439,
  "dilekç": 31440,
  "mardin": 31441,
  "haz": 31442,
  "red": 31443,
  "ahmed": 31444,
  "dönüm": 31445,
  "lendiği": 31446,
  "sivas": 31447,
  "çıkarak": 31448,
  "devreye": 31449,
  "fener": 31450,
  "aldıklarını": 31451,
  "salih": 31452,
  "kıs": 31453,
  "aktör": 31454,
  "otomotiv": 31455,
  "metrekar": 31456,
  "fuar": 31457,
  "eyecek": 31458,
  "dilek": 31459,
  "baskın": 31460,
  "kktc": 31461,
  "uyan": 31462,
  "fak": 31463,
  "rüş": 31464,
  "getirildi": 31465,
  "memek": 31466,
  "ekli": 31467,
  "harcam": 31468,
  "oğuz": 31469,
  "kaldığını": 31470,
  "yaptırım": 31471,
  "ertuğrul": 31472,
  "kahve": 31473,
  "eşliğinde": 31474,
  "alternatif": 31475,
  "ambulans": 31476,
  "şam": 31477,
  "kısm": 31478,
  "ayakkabı": 31479,
  "lüks": 31480,
  "saniye": 31481,
  "tesisleri": 31482,
  "bre": 31483,
  "aldıkları": 31484,
  "toplanan": 31485,
  "isa": 31486,
  "omuz": 31487,
  "mec": 31488,
  "oyla": 31489,
  "gelişme": 31490,
  "uc": 31491,
  "denk": 31492,
  "haf": 31493,
  "mamak": 31494,
  "geril": 31495,
  "heyeti": 31496,
  "muğla": 31497,
  "misafir": 31498,
  "çağdaş": 31499,
  "stratejik": 31500,
  "taban": 31501,
  "ziya": 31502,
  "şok": 31503,
  "geçerli": 31504,
  "mamız": 31505,
  "idi": 31506,
  "suçundan": 31507,
  "başlangıç": 31508,
  "hayati": 31509,
  "port": 31510,
  "hastane": 31511,
  "görü": 31512,
  "yıldan": 31513,
  "kayı": 31514,
  "arız": 31515,
  "meyve": 31516,
  "işsiz": 31517,
  "bunda": 31518,
  "ekipler": 31519,
  "tab": 31520,
  "icra": 31521,
  "başladık": 31522,
  "hin": 31523,
  "etmişti": 31524,
  "götürüldü": 31525,
  "egemen": 31526,
  "fatma": 31527,
  "ihtimal": 31528,
  "yaklaş": 31529,
  "çeyre": 31530,
  "zorunlu": 31531,
  "koltuk": 31532,
  "damar": 31533,
  "deplasman": 31534,
  "tarz": 31535,
  "pir": 31536,
  "pak": 31537,
  "tın": 31538,
  "özer": 31539,
  "lus": 31540,
  "emeği": 31541,
  "parça": 31542,
  "lilerin": 31543,
  "ast": 31544,
  "yarattı": 31545,
  "gönderildi": 31546,
  "leyecek": 31547,
  "gittiği": 31548,
  "nefes": 31549,
  "eceğ": 31550,
  "yır": 31551,
  "kapat": 31552,
  "yunus": 31553,
  "moskova": 31554,
  "mahkemeye": 31555,
  "bulgaristan": 31556,
  "tap": 31557,
  "nişan": 31558,
  "heykel": 31559,
  "ekmek": 31560,
  "kül": 31561,
  "gözlem": 31562,
  "potansiyel": 31563,
  "cadde": 31564,
  "evli": 31565,
  "uçağ": 31566,
  "cihan": 31567,
  "frank": 31568,
  "elinden": 31569,
  "atlet": 31570,
  "sekreter": 31571,
  "adamları": 31572,
  "üyelerinin": 31573,
  "maruz": 31574,
  "zeynep": 31575,
  "kalem": 31576,
  "eleriyle": 31577,
  "koşu": 31578,
  "babacan": 31579,
  "ulduğunu": 31580,
  "sergi": 31581,
  "muhammed": 31582,
  "duyu": 31583,
  "olmasının": 31584,
  "girecek": 31585,
  "açtığı": 31586,
  "antalyaspor": 31587,
  "ebil": 31588,
  "işsizlik": 31589,
  "birleş": 31590,
  "liste": 31591,
  "lanı": 31592,
  "takımlar": 31593,
  "anlam": 31594,
  "cengiz": 31595,
  "şeref": 31596,
  "hanım": 31597,
  "barın": 31598,
  "taliban": 31599,
  "tarif": 31600,
  "olayda": 31601,
  "bakır": 31602,
  "ihlal": 31603,
  "yacağız": 31604,
  "birik": 31605,
  "köpek": 31606,
  "gelişim": 31607,
  "saldırgan": 31608,
  "vücut": 31609,
  "istemedi": 31610,
  "yapama": 31611,
  "öf": 31612,
  "slogan": 31613,
  "törende": 31614,
  "zem": 31615,
  "zehir": 31616,
  "sonuc": 31617,
  "olacağız": 31618,
  "gur": 31619,
  "ış": 31620,
  "rey": 31621,
  "iledi": 31622,
  "yeter": 31623,
  "disiplin": 31624,
  "liman": 31625,
  "aracın": 31626,
  "metrekare": 31627,
  "yerinden": 31628,
  "ulus": 31629,
  "kasa": 31630,
  "dalı": 31631,
  "yumurta": 31632,
  "ayhan": 31633,
  "yiğit": 31634,
  "kağıt": 31635,
  "raf": 31636,
  "bis": 31637,
  "türkler": 31638,
  "fes": 31639,
  "kuruş": 31640,
  "sahneye": 31641,
  "altay": 31642,
  "evren": 31643,
  "gazeteciler": 31644,
  "şikayetçi": 31645,
  "mıyoruz": 31646,
  "hedefimiz": 31647,
  "bekir": 31648,
  "ilişki": 31649,
  "getirdiği": 31650,
  "uf": 31651,
  "ayrılan": 31652,
  "ülmesi": 31653,
  "yavuz": 31654,
  "geldik": 31655,
  "penaltı": 31656,
  "rıza": 31657,
  "çalışmalarına": 31658,
  "yönel": 31659,
  "sürecek": 31660,
  "coş": 31661,
  "haberine": 31662,
  "sahasında": 31663,
  "atılan": 31664,
  "görünce": 31665,
  "itan": 31666,
  "açıklan": 31667,
  "binden": 31668,
  "tanıtı": 31669,
  "tos": 31670,
  "sürücüsü": 31671,
  "başsavcı": 31672,
  "adliyeye": 31673,
  "duman": 31674,
  "endişe": 31675,
  "uydu": 31676,
  "bozuk": 31677,
  "kentin": 31678,
  "illa": 31679,
  "polisi": 31680,
  "tüket": 31681,
  "tok": 31682,
  "akıl": 31683,
  "lanmak": 31684,
  "katılacak": 31685,
  "kenan": 31686,
  "latı": 31687,
  "pamuk": 31688,
  "restoran": 31689,
  "arzu": 31690,
  "iv": 31691,
  "bizden": 31692,
  "klasik": 31693,
  "öv": 31694,
  "söylediği": 31695,
  "getirerek": 31696,
  "bilinç": 31697,
  "hırvat": 31698,
  "oktay": 31699,
  "vekili": 31700,
  "sektörün": 31701,
  "fel": 31702,
  "memuru": 31703,
  "ülkeden": 31704,
  "gidece": 31705,
  "halkının": 31706,
  "miting": 31707,
  "toplan": 31708,
  "zım": 31709,
  "davanın": 31710,
  "büyüy": 31711,
  "hatırlatı": 31712,
  "yazıcı": 31713,
  "açıklamalarda": 31714,
  "trans": 31715,
  "kurşun": 31716,
  "kararın": 31717,
  "müşteri": 31718,
  "aşkın": 31719,
  "tuttu": 31720,
  "oyuncunun": 31721,
  "konuşmasında": 31722,
  "tabanca": 31723,
  "sordu": 31724,
  "eşinin": 31725,
  "hazine": 31726,
  "dediği": 31727,
  "ısrar": 31728,
  "kısıt": 31729,
  "ism": 31730,
  "iddiaları": 31731,
  "isabet": 31732,
  "ulaşan": 31733,
  "deste": 31734,
  "hazırladığı": 31735,
  "suudi": 31736,
  "çik": 31737,
  "ısı": 31738,
  "ekiplerinin": 31739,
  "parayı": 31740,
  "cenaze": 31741,
  "mevsim": 31742,
  "bağır": 31743,
  "pt": 31744,
  "demirtaş": 31745,
  "yoksul": 31746,
  "lise": 31747,
  "mükemmel": 31748,
  "şap": 31749,
  "ertel": 31750,
  "fayda": 31751,
  "nec": 31752,
  "ajans": 31753,
  "erkan": 31754,
  "yang": 31755,
  "partinin": 31756,
  "beyin": 31757,
  "112": 31758,
  "voleybol": 31759,
  "sektörünün": 31760,
  "analiz": 31761,
  "deney": 31762,
  "şirketlerin": 31763,
  "görevl": 31764,
  "döviz": 31765,
  "lal": 31766,
  "müzi": 31767,
  "avusturya": 31768,
  "faş": 31769,
  "durumunun": 31770,
  "konuya": 31771,
  "yönetiminin": 31772,
  "liradan": 31773,
  "değinen": 31774,
  "tavır": 31775,
  "dokuz": 31776,
  "global": 31777,
  "alındığını": 31778,
  "belirtiyor": 31779,
  "ihraç": 31780,
  "merkel": 31781,
  "eroğlu": 31782,
  "çekerek": 31783,
  "mayacağını": 31784,
  "faruk": 31785,
  "yanıtını": 31786,
  "değ": 31787,
  "sergilen": 31788,
  "laik": 31789,
  "kendileri": 31790,
  "yık": 31791,
  "levent": 31792,
  "geçtiği": 31793,
  "luluğu": 31794,
  "apart": 31795,
  "mahmut": 31796,
  "vurgulayarak": 31797,
  "kalabalık": 31798,
  "serv": 31799,
  "ate": 31800,
  "tekstil": 31801,
  "mamalı": 31802,
  "beraberlik": 31803,
  "ila": 31804,
  "alındığı": 31805,
  "gram": 31806,
  "gemi": 31807,
  "inanç": 31808,
  "zemin": 31809,
  "komitesi": 31810,
  "deng": 31811,
  "tüsü": 31812,
  "kilit": 31813,
  "oğlum": 31814,
  "nuri": 31815,
  "değiliz": 31816,
  "iken": 31817,
  "kocaeli": 31818,
  "cezaevi": 31819,
  "polisler": 31820,
  "maddes": 31821,
  "bisiklet": 31822,
  "birleşmiş": 31823,
  "tipi": 31824,
  "abileceğini": 31825,
  "ziraat": 31826,
  "vakıf": 31827,
  "kup": 31828,
  "polonya": 31829,
  "etki": 31830,
  "kamuoyu": 31831,
  "yolun": 31832,
  "araştırı": 31833,
  "vatan": 31834,
  "ayrıntı": 31835,
  "imal": 31836,
  "burak": 31837,
  "ülkeyi": 31838,
  "parmak": 31839,
  "ettin": 31840,
  "star": 31841,
  "verdim": 31842,
  "artıyor": 31843,
  "terörle": 31844,
  "konferans": 31845,
  "delil": 31846,
  "sıfır": 31847,
  "blok": 31848,
  "eskiden": 31849,
  "dilen": 31850,
  "kayna": 31851,
  "geçirdiği": 31852,
  "çanakkale": 31853,
  "dök": 31854,
  "emem": 31855,
  "manchester": 31856,
  "erol": 31857,
  "oyunda": 31858,
  "girdiği": 31859,
  "haftasında": 31860,
  "müzakere": 31861,
  "poz": 31862,
  "dönemine": 31863,
  "ösym": 31864,
  "john": 31865,
  "tahliye": 31866,
  "başbakanlık": 31867,
  "tüp": 31868,
  "trafi": 31869,
  "usta": 31870,
  "sos": 31871,
  "gerçekleştirilecek": 31872,
  "ailenin": 31873,
  "çel": 31874,
  "şanlıurfa": 31875,
  "aradan": 31876,
  "ermenistan": 31877,
  "şak": 31878,
  "play": 31879,
  "ikram": 31880,
  "usul": 31881,
  "cezasına": 31882,
  "uygulamaya": 31883,
  "santral": 31884,
  "emeyecek": 31885,
  "şiir": 31886,
  "eyalet": 31887,
  "geçtik": 31888,
  "berlin": 31889,
  "by": 31890,
  "sorusu": 31891,
  "yönetiminde": 31892,
  "esen": 31893,
  "geçtiğini": 31894,
  "çalışmalarının": 31895,
  "je": 31896,
  "başlatı": 31897,
  "ünal": 31898,
  "çalıştığını": 31899,
  "sancak": 31900,
  "sis": 31901,
  "kalıyor": 31902,
  "komutan": 31903,
  "kahraman": 31904,
  "detay": 31905,
  "abileceği": 31906,
  "sessiz": 31907,
  "sanki": 31908,
  "sürülen": 31909,
  "tablo": 31910,
  "alp": 31911,
  "garanti": 31912,
  "post": 31913,
  "meksika": 31914,
  "ekonomisi": 31915,
  "usuna": 31916,
  "girmek": 31917,
  "ihale": 31918,
  "otop": 31919,
  "görüştü": 31920,
  "erdi": 31921,
  "söyleyerek": 31922,
  "seyre": 31923,
  "hatır": 31924,
  "burası": 31925,
  "elif": 31926,
  "otomobilin": 31927,
  "oysa": 31928,
  "aktar": 31929,
  "nas": 31930,
  "ika": 31931,
  "dediler": 31932,
  "şekil": 31933,
  "geleceği": 31934,
  "ambulansla": 31935,
  "savunan": 31936,
  "istek": 31937,
  "macı": 31938,
  "almıştı": 31939,
  "selim": 31940,
  "yolunun": 31941,
  "ülkelere": 31942,
  "tün": 31943,
  "siyas": 31944,
  "sakarya": 31945,
  "büro": 31946,
  "felaket": 31947,
  "ercan": 31948,
  "deneyim": 31949,
  "bina": 31950,
  "atarak": 31951,
  "ilişkilerin": 31952,
  "nal": 31953,
  "toprağa": 31954,
  "bildiğini": 31955,
  "konunun": 31956,
  "bitti": 31957,
  "sez": 31958,
  "olağanüstü": 31959,
  "avrupalı": 31960,
  "basit": 31961,
  "değerlendirmeler": 31962,
  "bizde": 31963,
  "meme": 31964,
  "sürdüren": 31965,
  "krizin": 31966,
  "niteli": 31967,
  "mevki": 31968,
  "çıkarıldı": 31969,
  "izleyen": 31970,
  "karara": 31971,
  "kamera": 31972,
  "medik": 31973,
  "çalışmalara": 31974,
  "nba": 31975,
  "çekilen": 31976,
  "kere": 31977,
  "şeklindeki": 31978,
  "uçağı": 31979,
  "kanat": 31980,
  "arabistan": 31981,
  "biber": 31982,
  "sandık": 31983,
  "telefonla": 31984,
  "başlandı": 31985,
  "çim": 31986,
  "yakalandı": 31987,
  "gündüz": 31988,
  "açılı": 31989,
  "yarısında": 31990,
  "ruhsat": 31991,
  "üldü": 31992,
  "vah": 31993,
  "kadıköy": 31994,
  "tıra": 31995,
  "hazı": 31996,
  "oluşturuyor": 31997,
  "düşman": 31998,
  "mikro": 31999,
  "ulduğu": 32000,
  "eğlence": 32001,
  "kaymakam": 32002,
  "bulunduğ": 32003,
  "sunda": 32004,
  "hedefi": 32005,
  "dışından": 32006,
  "özet": 32007,
  "geçirildi": 32008,
  "romanya": 32009,
  "nem": 32010,
  "süs": 32011,
  "mos": 32012,
  "manevi": 32013,
  "gön": 32014,
  "uzmanlar": 32015,
  "denize": 32016,
  "lanmasının": 32017,
  "çalışmaların": 32018,
  "doğa": 32019,
  "kemer": 32020,
  "barı": 32021,
  "ileceğini": 32022,
  "çat": 32023,
  "katılmak": 32024,
  "mara": 32025,
  "itiraf": 32026,
  "büyükelçisi": 32027,
  "katılma": 32028,
  "hazırladı": 32029,
  "havay": 32030,
  "yarısı": 32031,
  "memnuniyet": 32032,
  "hun": 32033,
  "emeklilik": 32034,
  "giderken": 32035,
  "oluşuyor": 32036,
  "bakanlar": 32037,
  "şubesi": 32038,
  "işçiler": 32039,
  "ünc": 32040,
  "şif": 32041,
  "kalın": 32042,
  "karayolu": 32043,
  "zda": 32044,
  "ayrım": 32045,
  "metal": 32046,
  "çarşı": 32047,
  "aman": 32048,
  "melik": 32049,
  "mutfak": 32050,
  "yaşadığını": 32051,
  "yapılacağı": 32052,
  "etkisiyle": 32053,
  "takdir": 32054,
  "süm": 32055,
  "müyor": 32056,
  "açılması": 32057,
  "sir": 32058,
  "koalisyon": 32059,
  "şaş": 32060,
  "başkanları": 32061,
  "aydır": 32062,
  "anç": 32063,
  "çıkarılan": 32064,
  "vurdu": 32065,
  "mahall": 32066,
  "dükkan": 32067,
  "bırakıldı": 32068,
  "bbc": 32069,
  "kimliği": 32070,
  "muhteşem": 32071,
  "taç": 32072,
  "toplantıya": 32073,
  "hırsızlık": 32074,
  "balkan": 32075,
  "kararının": 32076,
  "anları": 32077,
  "haksız": 32078,
  "baktığı": 32079,
  "nil": 32080,
  "milletin": 32081,
  "malatya": 32082,
  "yaptırı": 32083,
  "teb": 32084,
  "geleceğini": 32085,
  "gönüllü": 32086,
  "farkında": 32087,
  "hip": 32088,
  "atla": 32089,
  "bilmiyorum": 32090,
  "selam": 32091,
  "olanak": 32092,
  "yayıl": 32093,
  "gönderdi": 32094,
  "gümrük": 32095,
  "zek": 32096,
  "cenazesi": 32097,
  "türkmen": 32098,
  "açıklayan": 32099,
  "etap": 32100,
  "adil": 32101,
  "yitirdi": 32102,
  "esince": 32103,
  "gününde": 32104,
  "fakül": 32105,
  "kazandığı": 32106,
  "diyorlar": 32107,
  "seçimlerde": 32108,
  "edebiyat": 32109,
  "suçu": 32110,
  "nöbet": 32111,
  "dokun": 32112,
  "mağlu": 32113,
  "tm": 32114,
  "gözyaş": 32115,
  "hatırlattı": 32116,
  "ciye": 32117,
  "kerem": 32118,
  "zeki": 32119,
  "pop": 32120,
  "töreni": 32121,
  "hukuki": 32122,
  "gayret": 32123,
  "baraj": 32124,
  "çöp": 32125,
  "operasyonda": 32126,
  "düzenlendi": 32127,
  "çektir": 32128,
  "sürüldü": 32129,
  "subay": 32130,
  "plak": 32131,
  "fırtına": 32132,
  "yakınlarında": 32133,
  "abil": 32134,
  "değerlendiren": 32135,
  "kuvvetli": 32136,
  "emine": 32137,
  "yaka": 32138,
  "bağı": 32139,
  "ilgisi": 32140,
  "masraf": 32141,
  "ford": 32142,
  "gördüğünü": 32143,
  "forvet": 32144,
  "ismini": 32145,
  "diğinin": 32146,
  "lezzet": 32147,
  "ukrayna": 32148,
  "gürül": 32149,
  "talimatı": 32150,
  "uşak": 32151,
  "oranının": 32152,
  "lanmasına": 32153,
  "brezilyalı": 32154,
  "birinc": 32155,
  "geçmek": 32156,
  "ağırlıklı": 32157,
  "coşkun": 32158,
  "anlaşması": 32159,
  "video": 32160,
  "diplomatik": 32161,
  "baha": 32162,
  "tutuklandı": 32163,
  "hırsız": 32164,
  "teker": 32165,
  "emiyor": 32166,
  "maçına": 32167,
  "uştur": 32168,
  "şimdiden": 32169,
  "cesaret": 32170,
  "ters": 32171,
  "japon": 32172,
  "kosova": 32173,
  "eyerek": 32174,
  "işgal": 32175,
  "yolsuzluk": 32176,
  "keskin": 32177,
  "sabit": 32178,
  "hesab": 32179,
  "taraftan": 32180,
  "çök": 32181,
  "yürek": 32182,
  "abile": 32183,
  "afet": 32184,
  "sundu": 32185,
  "nez": 32186,
  "trt": 32187,
  "zincir": 32188,
  "katlı": 32189,
  "tüs": 32190,
  "nev": 32191,
  "kaçtı": 32192,
  "seçil": 32193,
  "ceğine": 32194,
  "ebiliyor": 32195,
  "istedik": 32196,
  "sürdüğü": 32197,
  "arttığını": 32198,
  "kritik": 32199,
  "öğret": 32200,
  "verim": 32201,
  "adliye": 32202,
  "bab": 32203,
  "yayı": 32204,
  "kını": 32205,
  "yaşandığı": 32206,
  "ülkelerden": 32207,
  "lıktan": 32208,
  "gençlerin": 32209,
  "site": 32210,
  "lenerek": 32211,
  "kaçan": 32212,
  "demişti": 32213,
  "taksi": 32214,
  "yahudi": 32215,
  "oradan": 32216,
  "hedi": 32217,
  "hassas": 32218,
  "dönemlerde": 32219,
  "org": 32220,
  "malıyız": 32221,
  "sayısında": 32222,
  "öcalan": 32223,
  "boya": 32224,
  "üstelik": 32225,
  "yürüten": 32226,
  "layık": 32227,
  "platform": 32228,
  "olabileceği": 32229,
  "bürokra": 32230,
  "görevlileri": 32231,
  "diyalog": 32232,
  "hz": 32233,
  "olunca": 32234,
  "anıt": 32235,
  "veli": 32236,
  "pey": 32237,
  "ileceği": 32238,
  "numara": 32239,
  "yazılım": 32240,
  "etraf": 32241,
  "hepimiz": 32242,
  "araçların": 32243,
  "mik": 32244,
  "off": 32245,
  "enfeksiyon": 32246,
  "ömür": 32247,
  "stres": 32248,
  "faktör": 32249,
  "arazi": 32250,
  "yetenek": 32251,
  "sürdürüyor": 32252,
  "şampiyonluğu": 32253,
  "atörü": 32254,
  "düzenledi": 32255,
  "atak": 32256,
  "dha": 32257,
  "vakit": 32258,
  "balıkesir": 32259,
  "tebrik": 32260,
  "iddiasıyla": 32261,
  "göm": 32262,
  "veriyoruz": 32263,
  "burhan": 32264,
  "cenin": 32265,
  "şoför": 32266,
  "kurulması": 32267,
  "cemal": 32268,
  "seçenek": 32269,
  "kurduğu": 32270,
  "dildi": 32271,
  "beraberinde": 32272,
  "kapattı": 32273,
  "sığın": 32274,
  "taksim": 32275,
  "uzay": 32276,
  "başlatıldı": 32277,
  "mesin": 32278,
  "planlanan": 32279,
  "çukur": 32280,
  "kampanyası": 32281,
  "tehdi": 32282,
  "öğrencilere": 32283,
  "artarak": 32284,
  "düzelt": 32285,
  "çakır": 32286,
  "oraya": 32287,
  "görüşmede": 32288,
  "yiy": 32289,
  "açıklamaları": 32290,
  "vicdan": 32291,
  "ülük": 32292,
  "hek": 32293,
  "aldığımız": 32294,
  "eh": 32295,
  "ülkedeki": 32296,
  "pres": 32297,
  "saldırıda": 32298,
  "chr": 32299,
  "oğul": 32300,
  "partisinin": 32301,
  "üstlen": 32302,
  "radyo": 32303,
  "zirv": 32304,
  "görünt": 32305,
  "törene": 32306,
  "önlemleri": 32307,
  "noktaya": 32308,
  "bankalar": 32309,
  "tasarruf": 32310,
  "ihracatı": 32311,
  "yasanın": 32312,
  "kalması": 32313,
  "tunç": 32314,
  "havuz": 32315,
  "vermedi": 32316,
  "hitap": 32317,
  "ayar": 32318,
  "atina": 32319,
  "antik": 32320,
  "söylemişti": 32321,
  "çekici": 32322,
  "yönetici": 32323,
  "sırt": 32324,
  "ülkesi": 32325,
  "mert": 32326,
  "yazık": 32327,
  "aka": 32328,
  "binanın": 32329,
  "bok": 32330,
  "kulak": 32331,
  "şem": 32332,
  "cr": 32333,
  "yoz": 32334,
  "kökenli": 32335,
  "hastanın": 32336,
  "kişiden": 32337,
  "deri": 32338,
  "rahi": 32339,
  "duruşmada": 32340,
  "boru": 32341,
  "ortala": 32342,
  "amadı": 32343,
  "üb": 32344,
  "albay": 32345,
  "vekil": 32346,
  "kesint": 32347,
  "mülk": 32348,
  "ayının": 32349,
  "oğlunun": 32350,
  "tayı": 32351,
  "sad": 32352,
  "edeceği": 32353,
  "milletvekilleri": 32354,
  "sembol": 32355,
  "siyonu": 32356,
  "asayiş": 32357,
  "bölgelerde": 32358,
  "akl": 32359,
  "fonu": 32360,
  "tamamlandı": 32361,
  "opera": 32362,
  "nesil": 32363,
  "yerlere": 32364,
  "ziyareti": 32365,
  "sarayı": 32366,
  "çıkmak": 32367,
  "binin": 32368,
  "savcılık": 32369,
  "fırat": 32370,
  "duydu": 32371,
  "cağının": 32372,
  "kazakistan": 32373,
  "belirledi": 32374,
  "elini": 32375,
  "eğe": 32376,
  "trafiğe": 32377,
  "landalı": 32378,
  "belirli": 32379,
  "kalkı": 32380,
  "pekin": 32381,
  "herkesi": 32382,
  "kabil": 32383,
  "siy": 32384,
  "yiyecek": 32385,
  "üreten": 32386,
  "cd": 32387,
  "orkestra": 32388,
  "zat": 32389,
  "yarattığı": 32390,
  "cik": 32391,
  "alanya": 32392,
  "sağanak": 32393,
  "veda": 32394,
  "eğit": 32395,
  "lanırken": 32396,
  "dedik": 32397,
  "veri": 32398,
  "mayacağı": 32399,
  "cs": 32400,
  "trilyon": 32401,
  "vücud": 32402,
  "sporcular": 32403,
  "çerçevede": 32404,
  "stadyum": 32405,
  "tartı": 32406,
  "hikmet": 32407,
  "söylüyorum": 32408,
  "yöneticileri": 32409,
  "evinin": 32410,
  "alışkan": 32411,
  "güçleri": 32412,
  "ortağı": 32413,
  "kilogram": 32414,
  "tavsiye": 32415,
  "tatbi": 32416,
  "tarihinin": 32417,
  "ülkemizin": 32418,
  "hazırlanıyor": 32419,
  "rin": 32420,
  "ebileceğini": 32421,
  "isyan": 32422,
  "yoldan": 32423,
  "başlatılan": 32424,
  "bert": 32425,
  "dırdı": 32426,
  "pozitif": 32427,
  "kapsa": 32428,
  "sevinç": 32429,
  "torun": 32430,
  "finale": 32431,
  "arif": 32432,
  "oluşturduğu": 32433,
  "sorunların": 32434,
  "binası": 32435,
  "istendi": 32436,
  "görevden": 32437,
  "ilerleyen": 32438,
  "kula": 32439,
  "yürütülen": 32440,
  "önündeki": 32441,
  "yıllarca": 32442,
  "şebek": 32443,
  "kerim": 32444,
  "partiler": 32445,
  "nadir": 32446,
  "etnik": 32447,
  "pist": 32448,
  "çarptırı": 32449,
  "miyoruz": 32450,
  "ulaştırma": 32451,
  "kamuoyuna": 32452,
  "luluğ": 32453,
  "güneydoğu": 32454,
  "uzu": 32455,
  "kimseye": 32456,
  "çevresinde": 32457,
  "yoluna": 32458,
  "kaplan": 32459,
  "asl": 32460,
  "müze": 32461,
  "ufak": 32462,
  "kıran": 32463,
  "temsilcileri": 32464,
  "gerektiğine": 32465,
  "çen": 32466,
  "tuval": 32467,
  "azaltı": 32468,
  "ifadeleri": 32469,
  "kendis": 32470,
  "okulda": 32471,
  "müvek": 32472,
  "kriter": 32473,
  "çizen": 32474,
  "görevlisi": 32475,
  "william": 32476,
  "borcu": 32477,
  "teşkilat": 32478,
  "şehr": 32479,
  "siyasal": 32480,
  "bos": 32481,
  "sırp": 32482,
  "ms": 32483,
  "cıoğlu": 32484,
  "artışı": 32485,
  "oluşturdu": 32486,
  "verdikleri": 32487,
  "karaman": 32488,
  "gönderdiği": 32489,
  "bakıldığında": 32490,
  "kurtu": 32491,
  "muhalef": 32492,
  "zla": 32493,
  "büyüklüğ": 32494,
  "kömür": 32495,
  "rezerv": 32496,
  "tol": 32497,
  "sürüc": 32498,
  "bayer": 32499,
  "mill": 32500,
  "okan": 32501,
  "muhtar": 32502,
  "eriş": 32503,
  "rahatsızlık": 32504,
  "tecr": 32505,
  "partili": 32506,
  "özgürlüğü": 32507,
  "pasaport": 32508,
  "ayn": 32509,
  "iddianamede": 32510,
  "kapsam": 32511,
  "çekildi": 32512,
  "özerk": 32513,
  "reddetti": 32514,
  "kemik": 32515,
  "diya": 32516,
  "mevzu": 32517,
  "tabl": 32518,
  "lmıştır": 32519,
  "tarihlerinde": 32520,
  "ulacak": 32521,
  "askerlik": 32522,
  "kalkan": 32523,
  "başkanvekili": 32524,
  "lir": 32525,
  "sahib": 32526,
  "vatandaşın": 32527,
  "üzüm": 32528,
  "sebze": 32529,
  "yakalanan": 32530,
  "demiş": 32531,
  "ören": 32532,
  "arta": 32533,
  "eğin": 32534,
  "törenine": 32535,
  "popüler": 32536,
  "iklim": 32537,
  "ğiniz": 32538,
  "anlaşmaya": 32539,
  "hadi": 32540,
  "töreninde": 32541,
  "şek": 32542,
  "yaşadıklarını": 32543,
  "propaganda": 32544,
  "işten": 32545,
  "yalım": 32546,
  "olmasından": 32547,
  "güzer": 32548,
  "özbek": 32549,
  "adaylar": 32550,
  "batman": 32551,
  "yönetmeni": 32552,
  "köpr": 32553,
  "mahkemenin": 32554,
  "sabır": 32555,
  "kapanı": 32556,
  "duyurusunda": 32557,
  "fit": 32558,
  "üyeliği": 32559,
  "ref": 32560,
  "onlarla": 32561,
  "ihmal": 32562,
  "nitelendir": 32563,
  "anacak": 32564,
  "hamil": 32565,
  "kendin": 32566,
  "tahran": 32567,
  "olayların": 32568,
  "tutum": 32569,
  "buluyor": 32570,
  "katılımıyla": 32571,
  "şef": 32572,
  "yapılmasını": 32573,
  "kaldırılması": 32574,
  "olaydan": 32575,
  "düzel": 32576,
  "endeksi": 32577,
  "başara": 32578,
  "yaban": 32579,
  "kırk": 32580,
  "brüksel": 32581,
  "ediyorlar": 32582,
  "mücadelede": 32583,
  "düzenleyen": 32584,
  "bastı": 32585,
  "lanacağını": 32586,
  "meliyiz": 32587,
  "labilecek": 32588,
  "deli": 32589,
  "semt": 32590,
  "kaçırı": 32591,
  "menderes": 32592,
  "yuvar": 32593,
  "umuzu": 32594,
  "mücadelesi": 32595,
  "havacılık": 32596,
  "göstererek": 32597,
  "imar": 32598,
  "geleceğ": 32599,
  "kına": 32600,
  "mül": 32601,
  "rize": 32602,
  "lanıp": 32603,
  "kader": 32604,
  "ozan": 32605,
  "hariç": 32606,
  "hizmete": 32607,
  "reuters": 32608,
  "zir": 32609,
  "ou": 32610,
  "aşan": 32611,
  "çektiği": 32612,
  "tamamlayan": 32613,
  "saatlik": 32614,
  "larsa": 32615,
  "paylaştı": 32616,
  "atıldı": 32617,
  "böbrek": 32618,
  "imam": 32619,
  "sürecinin": 32620,
  "martin": 32621,
  "vri": 32622,
  "başarıyla": 32623,
  "inen": 32624,
  "böyl": 32625,
  "gayet": 32626,
  "yaklaştı": 32627,
  "macaristan": 32628,
  "deme": 32629,
  "içerik": 32630,
  "tartışmalar": 32631,
  "makine": 32632,
  "programına": 32633,
  "jandar": 32634,
  "cnn": 32635,
  "haklarını": 32636,
  "ayına": 32637,
  "başrol": 32638,
  "kararlar": 32639,
  "demokras": 32640,
  "yip": 32641,
  "ödülünü": 32642,
  "fuarı": 32643,
  "küs": 32644,
  "kalmadı": 32645,
  "gözük": 32646,
  "diyanet": 32647,
  "müzisyen": 32648,
  "uyoruz": 32649,
  "vize": 32650,
  "desteğiyle": 32651,
  "vermişti": 32652,
  "başarılar": 32653,
  "rö": 32654,
  "gala": 32655,
  "ameli": 32656,
  "köprüsü": 32657,
  "gözler": 32658,
  "ski": 32659,
  "dursun": 32660,
  "kender": 32661,
  "kele": 32662,
  "putin": 32663,
  "görüntüler": 32664,
  "celi": 32665,
  "vuruş": 32666,
  "birey": 32667,
  "lanmaya": 32668,
  "münih": 32669,
  "gerekti": 32670,
  "dünyaca": 32671,
  "duruşma": 32672,
  "aksi": 32673,
  "ittifak": 32674,
  "seviyede": 32675,
  "ilave": 32676,
  "valilik": 32677,
  "kod": 32678,
  "istatistik": 32679,
  "ebilmek": 32680,
  "ihtimali": 32681,
  "verilerine": 32682,
  "kendisinden": 32683,
  "öldüğü": 32684,
  "etmiyor": 32685,
  "kardeşim": 32686,
  "güncel": 32687,
  "duyduğu": 32688,
  "çü": 32689,
  "pik": 32690,
  "operasyonu": 32691,
  "beyoğlu": 32692,
  "hatay": 32693,
  "cezaevinde": 32694,
  "fotoğrafı": 32695,
  "çil": 32696,
  "kilis": 32697,
  "durak": 32698,
  "eyiz": 32699,
  "adem": 32700,
  "paralel": 32701,
  "artışla": 32702,
  "desteğini": 32703,
  "radikal": 32704,
  "lilere": 32705,
  "ilmişti": 32706,
  "tokat": 32707,
  "tarihe": 32708,
  "kıl": 32709,
  "skan": 32710,
  "hamile": 32711,
  "ekrem": 32712,
  "katil": 32713,
  "anah": 32714,
  "yapmıştı": 32715,
  "kazanç": 32716,
  "karaca": 32717,
  "yönelt": 32718,
  "hüs": 32719,
  "masaya": 32720,
  "finansman": 32721,
  "cumhurbaşkanlığı": 32722,
  "teşkilatı": 32723,
  "konuşuyor": 32724,
  "özlem": 32725,
  "üyü": 32726,
  "başlattığı": 32727,
  "dilik": 32728,
  "başlama": 32729,
  "cezaevine": 32730,
  "kentte": 32731,
  "esk": 32732,
  "erzincan": 32733,
  "karış": 32734,
  "ülkelerinin": 32735,
  "bölümünü": 32736,
  "jose": 32737,
  "etmesini": 32738,
  "uyruklu": 32739,
  "oğl": 32740,
  "çalışmanın": 32741,
  "ambulan": 32742,
  "aktardı": 32743,
  "acaba": 32744,
  "açığa": 32745,
  "stad": 32746,
  "çiftç": 32747,
  "gerçekleştirdiği": 32748,
  "oruç": 32749,
  "lanmıştı": 32750,
  "takımına": 32751,
  "isiz": 32752,
  "valiliği": 32753,
  "inler": 32754,
  "tehlike": 32755,
  "yürüm": 32756,
  "trak": 32757,
  "topla": 32758,
  "duruyor": 32759,
  "karanlık": 32760,
  "ülkelerine": 32761,
  "dua": 32762,
  "istikamet": 32763,
  "eyin": 32764,
  "plastik": 32765,
  "onlarca": 32766,
  "evlerine": 32767,
  "tanrı": 32768
}