{
    "!": 22869,
    "\"": 22870,
    "#": 22871,
    "$": 22872,
    "%": 22873,
    "&": 22874,
    "'": 22875,
    "(": 22876,
    ")": 22877,
    "*": 22878,
    "+": 22879,
    ",": 22880,
    "-": 22881,
    ".": 22882,
    "/": 22883,
    "0": 22884,
    "1": 22885,
    "2": 22886,
    "3": 22887,
    "4": 22888,
    "5": 22889,
    "6": 22890,
    "7": 22891,
    "8": 22892,
    "9": 22893,
    ":": 22894,
    ";": 22895,
    "<": 22896,
    "=": 22897,
    ">": 22898,
    "?": 22899,
    "@": 22900,
    "[": 22901,
    "\\": 22902,
    "]": 22903,
    "^": 22904,
    "_": 22905,
    "`": 22906,
    "b": 22907,
    "c": 22908,
    "d": 22909,
    "f": 22910,
    "g": 22911,
    "h": 22912,
    "j": 22913,
    "k": 22914,
    "l": 22915,
    "p": 22916,
    "q": 22917,
    "t": 22918,
    "v": 22919,
    "w": 22920,
    "x": 22921,
    "{": 22922,
    "|": 22923,
    "}": 22924,
    "~": 22925,
    "": 22926,
    "": 22927,
    "": 22928,
    "": 22929,
    "": 22930,
    "": 22931,
    "": 22932,
    "": 22933,
    "¡": 22934,
    "¢": 22935,
    "£": 22936,
    "¤": 22937,
    "¥": 22938,
    "¦": 22939,
    "§": 22940,
    "¨": 22941,
    "©": 22942,
    "ª": 22943,
    "«": 22944,
    "¬": 22945,
    "­": 22946,
    "®": 22947,
    "¯": 22948,
    "°": 22949,
    "±": 22950,
    "²": 22951,
    "³": 22952,
    "´": 22953,
    "µ": 22954,
    "¶": 22955,
    "·": 22956,
    "¸": 22957,
    "¹": 22958,
    "º": 22959,
    "»": 22960,
    "¼": 22961,
    "½": 22962,
    "¾": 22963,
    "¿": 22964,
    "×": 22965,
    "ß": 22966,
    "à": 22967,
    "á": 22968,
    "â": 22969,
    "ã": 22970,
    "ä": 22971,
    "å": 22972,
    "æ": 22973,
    "ç": 22974,
    "è": 22975,
    "é": 22976,
    "ê": 22977,
    "ë": 22978,
    "ì": 22979,
    "í": 22980,
    "î": 22981,
    "ï": 22982,
    "ð": 22983,
    "ñ": 22984,
    "ò": 22985,
    "ó": 22986,
    "ô": 22987,
    "õ": 22988,
    "ö": 22989,
    "÷": 22990,
    "ø": 22991,
    "ù": 22992,
    "ú": 22993,
    "û": 22994,
    "ý": 22995,
    "þ": 22996,
    "ÿ": 22997,
    "ā": 22998,
    "ă": 22999,
    "ą": 23000,
    "ć": 23001,
    "č": 23002,
    "ď": 23003,
    "đ": 23004,
    "ē": 23005,
    "ė": 23006,
    "ę": 23007,
    "ě": 23008,
    "ĝ": 23009,
    "ğ": 23010,
    "ġ": 23011,
    "ģ": 23012,
    "ħ": 23013,
    "ī": 23014,
    "ķ": 23015,
    "ļ": 23016,
    "ł": 23017,
    "ń": 23018,
    "ņ": 23019,
    "ň": 23020,
    "ŋ": 23021,
    "ō": 23022,
    "ŏ": 23023,
    "ő": 23024,
    "œ": 23025,
    "ř": 23026,
    "ś": 23027,
    "ş": 23028,
    "š": 23029,
    "ţ": 23030,
    "ť": 23031,
    "ū": 23032,
    "ŭ": 23033,
    "ů": 23034,
    "ű": 23035,
    "ų": 23036,
    "ź": 23037,
    "ż": 23038,
    "ž": 23039,
    "ƅ": 23040,
    "ƒ": 23041,
    "ư": 23042,
    "ǎ": 23043,
    "ǐ": 23044,
    "ǔ": 23045,
    "ǧ": 23046,
    "ș": 23047,
    "ț": 23048,
    "ɑ": 23049,
    "ɔ": 23050,
    "ə": 23051,
    "ɛ": 23052,
    "ɡ": 23053,
    "ɪ": 23054,
    "ɾ": 23055,
    "ʁ": 23056,
    "ʃ": 23057,
    "ʒ": 23058,
    "ʔ": 23059,
    "ʰ": 23060,
    "ʲ": 23061,
    "ʷ": 23062,
    "ʻ": 23063,
    "ʼ": 23064,
    "ʾ": 23065,
    "ʿ": 23066,
    "ˆ": 23067,
    "ˈ": 23068,
    "ː": 23069,
    "̀": 23070,
    "́": 23071,
    "̂": 23072,
    "̄": 23073,
    "̆": 23074,
    "̇": 23075,
    "̈": 23076,
    "̣": 23077,
    "̧": 23078,
    "̳": 23079,
    "͡": 23080,
    "ά": 23081,
    "έ": 23082,
    "ή": 23083,
    "ί": 23084,
    "α": 23085,
    "β": 23086,
    "γ": 23087,
    "δ": 23088,
    "ε": 23089,
    "ζ": 23090,
    "η": 23091,
    "θ": 23092,
    "ι": 23093,
    "κ": 23094,
    "λ": 23095,
    "μ": 23096,
    "ν": 23097,
    "ξ": 23098,
    "ο": 23099,
    "π": 23100,
    "ρ": 23101,
    "ς": 23102,
    "σ": 23103,
    "τ": 23104,
    "υ": 23105,
    "φ": 23106,
    "χ": 23107,
    "ψ": 23108,
    "ω": 23109,
    "ό": 23110,
    "ύ": 23111,
    "ώ": 23112,
    "ϕ": 23113,
    "а": 23114,
    "б": 23115,
    "в": 23116,
    "г": 23117,
    "д": 23118,
    "е": 23119,
    "ж": 23120,
    "з": 23121,
    "и": 23122,
    "й": 23123,
    "к": 23124,
    "л": 23125,
    "м": 23126,
    "н": 23127,
    "о": 23128,
    "п": 23129,
    "р": 23130,
    "с": 23131,
    "т": 23132,
    "у": 23133,
    "ф": 23134,
    "х": 23135,
    "ц": 23136,
    "ч": 23137,
    "ш": 23138,
    "щ": 23139,
    "ъ": 23140,
    "ы": 23141,
    "ь": 23142,
    "э": 23143,
    "ю": 23144,
    "я": 23145,
    "ё": 23146,
    "є": 23147,
    "ѕ": 23148,
    "і": 23149,
    "ї": 23150,
    "ј": 23151,
    "ћ": 23152,
    "ў": 23153,
    "ѵ": 23154,
    "ғ": 23155,
    "қ": 23156,
    "ң": 23157,
    "ү": 23158,
    "ұ": 23159,
    "ӏ": 23160,
    "ә": 23161,
    "ө": 23162,
    "ԁ": 23163,
    "ա": 23164,
    "գ": 23165,
    "ե": 23166,
    "թ": 23167,
    "ի": 23168,
    "կ": 23169,
    "հ": 23170,
    "մ": 23171,
    "յ": 23172,
    "ն": 23173,
    "ո": 23174,
    "ս": 23175,
    "վ": 23176,
    "տ": 23177,
    "ր": 23178,
    "ւ": 23179,
    "ք": 23180,
    "ְ": 23181,
    "ִ": 23182,
    "ָ": 23183,
    "ּ": 23184,
    "א": 23185,
    "ב": 23186,
    "ג": 23187,
    "ד": 23188,
    "ה": 23189,
    "ו": 23190,
    "ז": 23191,
    "ח": 23192,
    "ט": 23193,
    "י": 23194,
    "ך": 23195,
    "כ": 23196,
    "ל": 23197,
    "ם": 23198,
    "מ": 23199,
    "ן": 23200,
    "נ": 23201,
    "ס": 23202,
    "ע": 23203,
    "פ": 23204,
    "צ": 23205,
    "ק": 23206,
    "ר": 23207,
    "ש": 23208,
    "ת": 23209,
    "،": 23210,
    "؟": 23211,
    "ء": 23212,
    "آ": 23213,
    "أ": 23214,
    "ؤ": 23215,
    "إ": 23216,
    "ئ": 23217,
    "ا": 23218,
    "ب": 23219,
    "ة": 23220,
    "ت": 23221,
    "ث": 23222,
    "ج": 23223,
    "ح": 23224,
    "خ": 23225,
    "د": 23226,
    "ذ": 23227,
    "ر": 23228,
    "ز": 23229,
    "س": 23230,
    "ش": 23231,
    "ص": 23232,
    "ض": 23233,
    "ط": 23234,
    "ظ": 23235,
    "ع": 23236,
    "غ": 23237,
    "ـ": 23238,
    "ف": 23239,
    "ق": 23240,
    "ك": 23241,
    "ل": 23242,
    "م": 23243,
    "ن": 23244,
    "ه": 23245,
    "و": 23246,
    "ى": 23247,
    "ي": 23248,
    "ً": 23249,
    "ٌ": 23250,
    "ٍ": 23251,
    "َ": 23252,
    "ُ": 23253,
    "ِ": 23254,
    "ّ": 23255,
    "ْ": 23256,
    "ٓ": 23257,
    "ٖ": 23258,
    "١": 23259,
    "ٰ": 23260,
    "ٱ": 23261,
    "پ": 23262,
    "چ": 23263,
    "ک": 23264,
    "گ": 23265,
    "ں": 23266,
    "ہ": 23267,
    "ی": 23268,
    "ے": 23269,
    "ە": 23270,
    "ۜ": 23271,
    "۞": 23272,
    "۩": 23273,
    "۪": 23274,
    "۱": 23275,
    "ं": 23276,
    "अ": 23277,
    "आ": 23278,
    "ए": 23279,
    "क": 23280,
    "ग": 23281,
    "च": 23282,
    "ज": 23283,
    "ट": 23284,
    "ड": 23285,
    "ण": 23286,
    "त": 23287,
    "थ": 23288,
    "द": 23289,
    "ध": 23290,
    "न": 23291,
    "प": 23292,
    "ब": 23293,
    "भ": 23294,
    "म": 23295,
    "य": 23296,
    "र": 23297,
    "ल": 23298,
    "व": 23299,
    "श": 23300,
    "ष": 23301,
    "स": 23302,
    "ह": 23303,
    "ा": 23304,
    "ि": 23305,
    "ी": 23306,
    "ु": 23307,
    "ू": 23308,
    "े": 23309,
    "ै": 23310,
    "ो": 23311,
    "्": 23312,
    "।": 23313,
    "ং": 23314,
    "আ": 23315,
    "ই": 23316,
    "এ": 23317,
    "ক": 23318,
    "গ": 23319,
    "চ": 23320,
    "জ": 23321,
    "ট": 23322,
    "ত": 23323,
    "দ": 23324,
    "ন": 23325,
    "প": 23326,
    "ব": 23327,
    "ভ": 23328,
    "ম": 23329,
    "য": 23330,
    "র": 23331,
    "ল": 23332,
    "শ": 23333,
    "স": 23334,
    "হ": 23335,
    "়": 23336,
    "া": 23337,
    "ি": 23338,
    "ী": 23339,
    "ু": 23340,
    "ে": 23341,
    "ো": 23342,
    "্": 23343,
    "ৰ": 23344,
    "ਂ": 23345,
    "ਅ": 23346,
    "ਆ": 23347,
    "ਇ": 23348,
    "ਕ": 23349,
    "ਗ": 23350,
    "ਚ": 23351,
    "ਜ": 23352,
    "ਟ": 23353,
    "ਣ": 23354,
    "ਤ": 23355,
    "ਦ": 23356,
    "ਨ": 23357,
    "ਪ": 23358,
    "ਬ": 23359,
    "ਮ": 23360,
    "ਰ": 23361,
    "ਲ": 23362,
    "ਵ": 23363,
    "ਸ": 23364,
    "ਹ": 23365,
    "਼": 23366,
    "ਾ": 23367,
    "ਿ": 23368,
    "ੀ": 23369,
    "ੁ": 23370,
    "ੂ": 23371,
    "ੇ": 23372,
    "ੈ": 23373,
    "ੋ": 23374,
    "੍": 23375,
    "ੰ": 23376,
    "ੱ": 23377,
    "ં": 23378,
    "આ": 23379,
    "ક": 23380,
    "ગ": 23381,
    "જ": 23382,
    "ટ": 23383,
    "ડ": 23384,
    "ત": 23385,
    "દ": 23386,
    "ન": 23387,
    "પ": 23388,
    "બ": 23389,
    "મ": 23390,
    "ય": 23391,
    "ર": 23392,
    "લ": 23393,
    "વ": 23394,
    "શ": 23395,
    "સ": 23396,
    "ા": 23397,
    "િ": 23398,
    "ી": 23399,
    "ુ": 23400,
    "ે": 23401,
    "ો": 23402,
    "્": 23403,
    "କ": 23404,
    "ତ": 23405,
    "ଦ": 23406,
    "ନ": 23407,
    "ପ": 23408,
    "ବ": 23409,
    "ମ": 23410,
    "ର": 23411,
    "ସ": 23412,
    "ହ": 23413,
    "ା": 23414,
    "ି": 23415,
    "ୀ": 23416,
    "ୁ": 23417,
    "େ": 23418,
    "୍": 23419,
    "ୟ": 23420,
    "அ": 23421,
    "இ": 23422,
    "உ": 23423,
    "எ": 23424,
    "க": 23425,
    "ங": 23426,
    "ச": 23427,
    "ட": 23428,
    "ண": 23429,
    "த": 23430,
    "ந": 23431,
    "ன": 23432,
    "ப": 23433,
    "ம": 23434,
    "ய": 23435,
    "ர": 23436,
    "ற": 23437,
    "ல": 23438,
    "ள": 23439,
    "ழ": 23440,
    "வ": 23441,
    "ா": 23442,
    "ி": 23443,
    "ு": 23444,
    "ூ": 23445,
    "ெ": 23446,
    "ே": 23447,
    "ை": 23448,
    "ொ": 23449,
    "ோ": 23450,
    "்": 23451,
    "ం": 23452,
    "అ": 23453,
    "క": 23454,
    "గ": 23455,
    "చ": 23456,
    "జ": 23457,
    "ట": 23458,
    "డ": 23459,
    "త": 23460,
    "ద": 23461,
    "ధ": 23462,
    "న": 23463,
    "ప": 23464,
    "బ": 23465,
    "భ": 23466,
    "మ": 23467,
    "య": 23468,
    "ర": 23469,
    "ల": 23470,
    "వ": 23471,
    "శ": 23472,
    "ష": 23473,
    "స": 23474,
    "ా": 23475,
    "ి": 23476,
    "ీ": 23477,
    "ు": 23478,
    "ూ": 23479,
    "ె": 23480,
    "ే": 23481,
    "ై": 23482,
    "ో": 23483,
    "్": 23484,
    "ಂ": 23485,
    "ಕ": 23486,
    "ಗ": 23487,
    "ಡ": 23488,
    "ತ": 23489,
    "ದ": 23490,
    "ನ": 23491,
    "ಮ": 23492,
    "ಯ": 23493,
    "ರ": 23494,
    "ಲ": 23495,
    "ವ": 23496,
    "ಸ": 23497,
    "ಾ": 23498,
    "ಿ": 23499,
    "ು": 23500,
    "ೆ": 23501,
    "್": 23502,
    "ം": 23503,
    "ക": 23504,
    "ട": 23505,
    "ത": 23506,
    "ന": 23507,
    "പ": 23508,
    "മ": 23509,
    "യ": 23510,
    "ര": 23511,
    "റ": 23512,
    "ല": 23513,
    "ള": 23514,
    "വ": 23515,
    "സ": 23516,
    "ാ": 23517,
    "ി": 23518,
    "ു": 23519,
    "െ": 23520,
    "്": 23521,
    "ก": 23522,
    "ข": 23523,
    "ค": 23524,
    "ง": 23525,
    "จ": 23526,
    "ช": 23527,
    "ด": 23528,
    "ต": 23529,
    "ท": 23530,
    "น": 23531,
    "บ": 23532,
    "ป": 23533,
    "พ": 23534,
    "ภ": 23535,
    "ม": 23536,
    "ย": 23537,
    "ร": 23538,
    "ล": 23539,
    "ว": 23540,
    "ษ": 23541,
    "ส": 23542,
    "ห": 23543,
    "อ": 23544,
    "ะ": 23545,
    "ั": 23546,
    "า": 23547,
    "ิ": 23548,
    "ี": 23549,
    "ื": 23550,
    "ุ": 23551,
    "ู": 23552,
    "เ": 23553,
    "แ": 23554,
    "โ": 23555,
    "ใ": 23556,
    "ไ": 23557,
    "่": 23558,
    "้": 23559,
    "์": 23560,
    "๑": 23561,
    "ກ": 23562,
    "ງ": 23563,
    "ດ": 23564,
    "ນ": 23565,
    "ມ": 23566,
    "ລ": 23567,
    "ວ": 23568,
    "ອ": 23569,
    "ະ": 23570,
    "ັ": 23571,
    "າ": 23572,
    "ີ": 23573,
    "ເ": 23574,
    "່": 23575,
    "້": 23576,
    "་": 23577,
    "မ": 23578,
    "ာ": 23579,
    "်": 23580,
    "ა": 23581,
    "ბ": 23582,
    "გ": 23583,
    "დ": 23584,
    "ე": 23585,
    "ვ": 23586,
    "ზ": 23587,
    "თ": 23588,
    "ი": 23589,
    "კ": 23590,
    "ლ": 23591,
    "მ": 23592,
    "ნ": 23593,
    "ო": 23594,
    "პ": 23595,
    "რ": 23596,
    "ს": 23597,
    "ტ": 23598,
    "უ": 23599,
    "ფ": 23600,
    "ქ": 23601,
    "შ": 23602,
    "ც": 23603,
    "ძ": 23604,
    "წ": 23605,
    "ხ": 23606,
    "រ": 23607,
    "ា": 23608,
    "្": 23609,
    "ḥ": 23610,
    "ḫ": 23611,
    "ḳ": 23612,
    "ṣ": 23613,
    "ṭ": 23614,
    "ạ": 23615,
    "ả": 23616,
    "ẹ": 23617,
    "ế": 23618,
    "ệ": 23619,
    "ị": 23620,
    "ọ": 23621,
    "ụ": 23622,
    "ἀ": 23623,
    "​": 23624,
    "‌": 23625,
    "‍": 23626,
    "‎": 23627,
    "‏": 23628,
    "‐": 23629,
    "–": 23630,
    "—": 23631,
    "―": 23632,
    "‘": 23633,
    "’": 23634,
    "‚": 23635,
    "“": 23636,
    "”": 23637,
    "„": 23638,
    "‟": 23639,
    "†": 23640,
    "‡": 23641,
    "•": 23642,
    "‣": 23643,
    "…": 23644,
    "‬": 23645,
    "‭": 23646,
    "′": 23647,
    "″": 23648,
    "‹": 23649,
    "›": 23650,
    "⁄": 23651,
    "⁺": 23652,
    "⁻": 23653,
    "₀": 23654,
    "₁": 23655,
    "₂": 23656,
    "₃": 23657,
    "₄": 23658,
    "ₙ": 23659,
    "€": 23660,
    "₺": 23661,
    "℃": 23662,
    "№": 23663,
    "™": 23664,
    "ℤ": 23665,
    "←": 23666,
    "↑": 23667,
    "→": 23668,
    "↓": 23669,
    "↔": 23670,
    "↘": 23671,
    "↙": 23672,
    "↳": 23673,
    "⇌": 23674,
    "⇒": 23675,
    "⇓": 23676,
    "∂": 23677,
    "∅": 23678,
    "∆": 23679,
    "∇": 23680,
    "∈": 23681,
    "∑": 23682,
    "−": 23683,
    "√": 23684,
    "∞": 23685,
    "∧": 23686,
    "∩": 23687,
    "∪": 23688,
    "∫": 23689,
    "≅": 23690,
    "≈": 23691,
    "≠": 23692,
    "≡": 23693,
    "≤": 23694,
    "≥": 23695,
    "⊆": 23696,
    "⊕": 23697,
    "⊗": 23698,
    "⋅": 23699,
    "⋊": 23700,
    "⋮": 23701,
    "─": 23702,
    "│": 23703,
    "█": 23704,
    "■": 23705,
    "▪": 23706,
    "▬": 23707,
    "▲": 23708,
    "△": 23709,
    "▶": 23710,
    "▷": 23711,
    "►": 23712,
    "▼": 23713,
    "◊": 23714,
    "●": 23715,
    "★": 23716,
    "☆": 23717,
    "☎": 23718,
    "☺": 23719,
    "♀": 23720,
    "♂": 23721,
    "♥": 23722,
    "♦": 23723,
    "♪": 23724,
    "♫": 23725,
    "⚡": 23726,
    "✂": 23727,
    "✅": 23728,
    "✌": 23729,
    "✓": 23730,
    "✔": 23731,
    "✕": 23732,
    "✨": 23733,
    "❌": 23734,
    "❤": 23735,
    "➡": 23736,
    "➤": 23737,
    "⟨": 23738,
    "⟩": 23739,
    "⠀": 23740,
    "⤓": 23741,
    "⦁": 23742,
    "⭐": 23743,
    "、": 23744,
    "。": 23745,
    "「": 23746,
    "」": 23747,
    "【": 23748,
    "】": 23749,
    "あ": 23750,
    "い": 23751,
    "う": 23752,
    "え": 23753,
    "お": 23754,
    "か": 23755,
    "が": 23756,
    "き": 23757,
    "く": 23758,
    "け": 23759,
    "こ": 23760,
    "さ": 23761,
    "し": 23762,
    "す": 23763,
    "せ": 23764,
    "そ": 23765,
    "た": 23766,
    "だ": 23767,
    "ち": 23768,
    "っ": 23769,
    "つ": 23770,
    "て": 23771,
    "で": 23772,
    "と": 23773,
    "ど": 23774,
    "な": 23775,
    "に": 23776,
    "の": 23777,
    "は": 23778,
    "ま": 23779,
    "み": 23780,
    "め": 23781,
    "も": 23782,
    "や": 23783,
    "よ": 23784,
    "ら": 23785,
    "り": 23786,
    "る": 23787,
    "れ": 23788,
    "わ": 23789,
    "を": 23790,
    "ん": 23791,
    "ア": 23792,
    "ィ": 23793,
    "イ": 23794,
    "ウ": 23795,
    "ェ": 23796,
    "エ": 23797,
    "オ": 23798,
    "カ": 23799,
    "キ": 23800,
    "ク": 23801,
    "グ": 23802,
    "コ": 23803,
    "サ": 23804,
    "シ": 23805,
    "ジ": 23806,
    "ス": 23807,
    "タ": 23808,
    "チ": 23809,
    "ッ": 23810,
    "テ": 23811,
    "デ": 23812,
    "ト": 23813,
    "ド": 23814,
    "ナ": 23815,
    "ニ": 23816,
    "ノ": 23817,
    "バ": 23818,
    "パ": 23819,
    "ビ": 23820,
    "フ": 23821,
    "ブ": 23822,
    "プ": 23823,
    "ポ": 23824,
    "マ": 23825,
    "ム": 23826,
    "メ": 23827,
    "ャ": 23828,
    "ュ": 23829,
    "ラ": 23830,
    "リ": 23831,
    "ル": 23832,
    "レ": 23833,
    "ロ": 23834,
    "ン": 23835,
    "・": 23836,
    "ー": 23837,
    "一": 23838,
    "三": 23839,
    "上": 23840,
    "不": 23841,
    "世": 23842,
    "中": 23843,
    "主": 23844,
    "事": 23845,
    "产": 23846,
    "人": 23847,
    "代": 23848,
    "会": 23849,
    "体": 23850,
    "免": 23851,
    "兒": 23852,
    "公": 23853,
    "出": 23854,
    "分": 23855,
    "北": 23856,
    "区": 23857,
    "南": 23858,
    "县": 23859,
    "可": 23860,
    "合": 23861,
    "名": 23862,
    "和": 23863,
    "国": 23864,
    "在": 23865,
    "地": 23866,
    "大": 23867,
    "天": 23868,
    "女": 23869,
    "子": 23870,
    "学": 23871,
    "安": 23872,
    "定": 23873,
    "家": 23874,
    "小": 23875,
    "山": 23876,
    "州": 23877,
    "市": 23878,
    "年": 23879,
    "彼": 23880,
    "後": 23881,
    "性": 23882,
    "情": 23883,
    "成": 23884,
    "我": 23885,
    "播": 23886,
    "放": 23887,
    "文": 23888,
    "新": 23889,
    "方": 23890,
    "族": 23891,
    "日": 23892,
    "明": 23893,
    "是": 23894,
    "時": 23895,
    "最": 23896,
    "月": 23897,
    "有": 23898,
    "本": 23899,
    "民": 23900,
    "水": 23901,
    "治": 23902,
    "法": 23903,
    "洞": 23904,
    "海": 23905,
    "物": 23906,
    "王": 23907,
    "理": 23908,
    "生": 23909,
    "用": 23910,
    "癟": 23911,
    "的": 23912,
    "社": 23913,
    "私": 23914,
    "童": 23915,
    "简": 23916,
    "繁": 23917,
    "线": 23918,
    "羹": 23919,
    "者": 23920,
    "脹": 23921,
    "自": 23922,
    "色": 23923,
    "行": 23924,
    "西": 23925,
    "要": 23926,
    "見": 23927,
    "覺": 23928,
    "视": 23929,
    "言": 23930,
    "語": 23931,
    "费": 23932,
    "通": 23933,
    "道": 23934,
    "部": 23935,
    "金": 23936,
    "間": 23937,
    "频": 23938,
    "體": 23939,
    "高": 23940,
    "가": 23941,
    "고": 23942,
    "국": 23943,
    "기": 23944,
    "나": 23945,
    "는": 23946,
    "다": 23947,
    "대": 23948,
    "동": 23949,
    "라": 23950,
    "로": 23951,
    "리": 23952,
    "마": 23953,
    "사": 23954,
    "수": 23955,
    "스": 23956,
    "시": 23957,
    "아": 23958,
    "어": 23959,
    "에": 23960,
    "의": 23961,
    "이": 23962,
    "인": 23963,
    "자": 23964,
    "정": 23965,
    "지": 23966,
    "하": 23967,
    "한": 23968,
    "": 23969,
    "": 23970,
    "": 23971,
    "": 23972,
    "": 23973,
    "": 23974,
    "": 23975,
    "": 23976,
    "": 23977,
    "": 23978,
    "": 23979,
    "": 23980,
    "": 23981,
    "": 23982,
    "": 23983,
    "": 23984,
    "": 23985,
    "": 23986,
    "": 23987,
    "": 23988,
    "": 23989,
    "": 23990,
    "": 23991,
    "": 23992,
    "﴾": 23993,
    "﴿": 23994,
    "️": 23995,
    "﻿": 23996,
    "！": 23997,
    "（": 23998,
    "）": 23999,
    "，": 24000,
    "：": 24001,
    "￦": 24002,
    "￼": 24003,
    "�": 24004,
    "🇷": 24005,
    "🇹": 24006,
    "🌈": 24007,
    "🌞": 24008,
    "🌟": 24009,
    "🌸": 24010,
    "🌹": 24011,
    "🌻": 24012,
    "🏻": 24013,
    "🏼": 24014,
    "👇": 24015,
    "👈": 24016,
    "👉": 24017,
    "👍": 24018,
    "👎": 24019,
    "👏": 24020,
    "👤": 24021,
    "💕": 24022,
    "💖": 24023,
    "💪": 24024,
    "💬": 24025,
    "📋": 24026,
    "📌": 24027,
    "📍": 24028,
    "📞": 24029,
    "🔥": 24030,
    "🖊": 24031,
    "😀": 24032,
    "😁": 24033,
    "😂": 24034,
    "😃": 24035,
    "😄": 24036,
    "😇": 24037,
    "😉": 24038,
    "😊": 24039,
    "😍": 24040,
    "😎": 24041,
    "😔": 24042,
    "😘": 24043,
    "😡": 24044,
    "😥": 24045,
    "😦": 24046,
    "😱": 24047,
    "🙁": 24048,
    "🙂": 24049,
    "🙏": 24050,
    "🚀": 24051,
    "🤍": 24052,
    "🤗": 24053,
    "🥰": 24054,
    "🥺": 24055,
    "en": 24056,
    "de": 24057,
    "da": 24058,
    "or": 24059,
    "ik": 24060,
    "ba": 24061,
    "di": 24062,
    "i̇": 24063,
    "iy": 24064,
    "ür": 24065,
    "lan": 24066,
    "20": 24067,
    "st": 24068,
    "ları": 24069,
    "ra": 24070,
    "mı": 24071,
    "du": 24072,
    "gö": 24073,
    "alı": 24074,
    "man": 24075,
    "ini": 24076,
    "leri": 24077,
    "ine": 24078,
    "inde": 24079,
    "ük": 24080,
    "şt": 24081,
    "gi": 24082,
    "va": 24083,
    "ki": 24084,
    "ro": 24085,
    "şı": 24086,
    "to": 24087,
    "ül": 24088,
    "bilir": 24089,
    "inin": 24090,
    "cak": 24091,
    "olar": 24092,
    "iniz": 24093,
    "ği": 24094,
    "19": 24095,
    "aki": 24096,
    "olarak": 24097,
    "==": 24098,
    "zı": 24099,
    "ko": 24100,
    "hi": 24101,
    "201": 24102,
    "alar": 24103,
    "oldu": 24104,
    "ması": 24105,
    "he": 24106,
    "iyor": 24107,
    "ından": 24108,
    "na": 24109,
    "unu": 24110,
    "..": 24111,
    "mi": 24112,
    "ğu": 24113,
    "mu": 24114,
    "ğr": 24115,
    "olan": 24116,
    "ola": 24117,
    "olu": 24118,
    "daki": 24119,
    "00": 24120,
    "ber": 24121,
    "ili": 24122,
    "diğ": 24123,
    "gü": 24124,
    "ort": 24125,
    "bü": 24126,
    "öy": 24127,
    "ının": 24128,
    "bah": 24129,
    "gor": 24130,
    "kullanı": 24131,
    "mer": 24132,
    "202": 24133,
    "yın": 24134,
    "pro": 24135,
    "tr": 24136,
    "mü": 24137,
    "mesi": 24138,
    "pa": 24139,
    "kate": 24140,
    "inden": 24141,
    "sp": 24142,
    "ştır": 24143,
    "kategor": 24144,
    "dım": 24145,
    "ih": 24146,
    "uk": 24147,
    "kiş": 24148,
    "i̇n": 24149,
    "am": 24150,
    "ınız": 24151,
    "imiz": 24152,
    "mar": 24153,
    "mes": 24154,
    "kü": 24155,
    "for": 24156,
    "ven": 24157,
    "uyg": 24158,
    "eleri": 24159,
    "unda": 24160,
    "10": 24161,
    "eti": 24162,
    "makta": 24163,
    "res": 24164,
    "lo": 24165,
    "ku": 24166,
    "200": 24167,
    "2022": 24168,
    "dığı": 24169,
    "dik": 24170,
    "esc": 24171,
    "bur": 24172,
    "lara": 24173,
    "escort": 24174,
    "ceva": 24175,
    "stan": 24176,
    "mekte": 24177,
    "imi": 24178,
    "siniz": 24179,
    "ist": 24180,
    "sında": 24181,
    "ço": 24182,
    "gra": 24183,
    "olduğ": 24184,
    "tarafından": 24185,
    "hiz": 24186,
    "ğını": 24187,
    "olma": 24188,
    "ştur": 24189,
    "i̇l": 24190,
    "nak": 24191,
    "maktadır": 24192,
    "lerini": 24193,
    "öğr": 24194,
    "lığı": 24195,
    "orta": 24196,
    "sız": 24197,
    "doğr": 24198,
    "so": 24199,
    "edil": 24200,
    "if": 24201,
    "şekilde": 24202,
    "olo": 24203,
    "bilirsiniz": 24204,
    "iyet": 24205,
    "...": 24206,
    "mektedir": 24207,
    "ştir": 24208,
    "ab": 24209,
    "12": 24210,
    "usu": 24211,
    "ilg": 24212,
    "18": 24213,
    "arak": 24214,
    "com": 24215,
    "hir": 24216,
    "meye": 24217,
    "diği": 24218,
    "bilg": 24219,
    "deki": 24220,
    "lere": 24221,
    "sitesi": 24222,
    "esi": 24223,
    "ck": 24224,
    "we": 24225,
    "i̇ş": 24226,
    "15": 24227,
    "ing": 24228,
    "elik": 24229,
    "sonu": 24230,
    "larda": 24231,
    "ans": 24232,
    "ceğ": 24233,
    "the": 24234,
    "liği": 24235,
    "por": 24236,
    "ji": 24237,
    "aret": 24238,
    "mayı": 24239,
    "kası": 24240,
    "yanı": 24241,
    "hakk": 24242,
    "etti": 24243,
    "--": 24244,
    "unun": 24245,
    "çocu": 24246,
    "11": 24247,
    "kö": 24248,
    "olduğu": 24249,
    "go": 24250,
    "üş": 24251,
    "çev": 24252,
    "ren": 24253,
    "get": 24254,
    "ilgili": 24255,
    "tekn": 24256,
    "leştir": 24257,
    "larının": 24258,
    "malar": 24259,
    "una": 24260,
    "etk": 24261,
    "gı": 24262,
    "14": 24263,
    "ünü": 24264,
    "mp": 24265,
    "ni": 24266,
    "larına": 24267,
    "miştir": 24268,
    "olduğunu": 24269,
    "16": 24270,
    "mıştır": 24271,
    "13": 24272,
    "kita": 24273,
    "leme": 24274,
    "cüm": 24275,
    "ht": 24276,
    "oluştur": 24277,
    "sta": 24278,
    "aşa": 24279,
    "eye": 24280,
    "likle": 24281,
    "lerinin": 24282,
    "),": 24283,
    "lay": 24284,
    "tes": 24285,
    "tığı": 24286,
    "i̇stan": 24287,
    "resi": 24288,
    "lendir": 24289,
    "iti": 24290,
    "17": 24291,
    "i̇stanbul": 24292,
    "ga": 24293,
    "farklı": 24294,
    "ilir": 24295,
    "arasında": 24296,
    "gu": 24297,
    "30": 24298,
    "gru": 24299,
    "mut": 24300,
    "25": 24301,
    "şık": 24302,
    "bon": 24303,
    "şir": 24304,
    "etim": 24305,
    "mad": 24306,
    "masına": 24307,
    "tıl": 24308,
    "tama": 24309,
    "i̇z": 24310,
    "med": 24311,
    "199": 24312,
    "i̇s": 24313,
    "aları": 24314,
    "hesa": 24315,
    "larında": 24316,
    "taki": 24317,
    "ilerin": 24318,
    "üy": 24319,
    "dığ": 24320,
    "olmak": 24321,
    "tari": 24322,
    "şi": 24323,
    "rek": 24324,
    "lardan": 24325,
    "esinde": 24326,
    "çık": 24327,
    "gan": 24328,
    "lerine": 24329,
    "gelen": 24330,
    "izi": 24331,
    "siyon": 24332,
    "lantı": 24333,
    "maları": 24334,
    "=\"": 24335,
    "lığ": 24336,
    "birlikte": 24337,
    "eme": 24338,
    "pe": 24339,
    "24": 24340,
    "pla": 24341,
    "2021": 24342,
    "om": 24343,
    "küç": 24344,
    "tion": 24345,
    "eden": 24346,
    "masını": 24347,
    "iver": 24348,
    "tış": 24349,
    "dığını": 24350,
    "etmek": 24351,
    "kullanıl": 24352,
    "inizi": 24353,
    "umlu": 24354,
    "çeş": 24355,
    "ğun": 24356,
    "yılında": 24357,
    "erek": 24358,
    "arım": 24359,
    "olabilir": 24360,
    "müşt": 24361,
    "mev": 24362,
    "adresi": 24363,
    "lis": 24364,
    "indeki": 24365,
    "ünde": 24366,
    "aralık": 24367,
    "===": 24368,
    "cağı": 24369,
    "içinde": 24370,
    "seçen": 24371,
    "kullanıcı": 24372,
    "50": 24373,
    "yayınları": 24374,
    "ap": 24375,
    "larla": 24376,
    "asyon": 24377,
    "müz": 24378,
    "bes": 24379,
    "caktır": 24380,
    "bunun": 24381,
    "af": 24382,
    "2020": 24383,
    "okulları": 24384,
    "sino": 24385,
    "lül": 24386,
    "cum": 24387,
    "lanan": 24388,
    "layı": 24389,
    "üniver": 24390,
    "tra": 24391,
    "yoruz": 24392,
    "23": 24393,
    "cen": 24394,
    "anaokulları": 24395,
    "tah": 24396,
    "ner": 24397,
    "üne": 24398,
    ").": 24399,
    "şim": 24400,
    "yin": 24401,
    "pu": 24402,
    "i̇ngil": 24403,
    "ındaki": 24404,
    "rak": 24405,
    "yardımcı": 24406,
    "22": 24407,
    "yapılan": 24408,
    "dö": 24409,
    "manın": 24410,
    "lerinde": 24411,
    "umu": 24412,
    "oloji": 24413,
    "val": 24414,
    "isel": 24415,
    "tesi": 24416,
    "istan": 24417,
    "blo": 24418,
    "fik": 24419,
    "nis": 24420,
    "lerden": 24421,
    "ps": 24422,
    "tele": 24423,
    "usunda": 24424,
    "ğü": 24425,
    "yür": 24426,
    "nok": 24427,
    "incel": 24428,
    "198": 24429,
    "olması": 24430,
    "arası": 24431,
    "ebilir": 24432,
    "hen": 24433,
    "2019": 24434,
    "cil": 24435,
    "fin": 24436,
    "paz": 24437,
    "bulunan": 24438,
    "syon": 24439,
    "teş": 24440,
    "bilecek": 24441,
    "sanı": 24442,
    "000": 24443,
    "21": 24444,
    "ayd": 24445,
    "bır": 24446,
    "vide": 24447,
    "col": 24448,
    ".|": 24449,
    "2018": 24450,
    "gal": 24451,
    "i̇ç": 24452,
    "mesine": 24453,
    "yapa": 24454,
    "elektr": 24455,
    "fran": 24456,
    "veril": 24457,
    "bunu": 24458,
    "dedi": 24459,
    "size": 24460,
    "başkanı": 24461,
    "ülk": 24462,
    "siteleri": 24463,
    "ternet": 24464,
    "mesini": 24465,
    "enin": 24466,
    "28": 24467,
    "op": 24468,
    "bilgiler": 24469,
    "ep": 24470,
    "2017": 24471,
    "mesa": 24472,
    "26": 24473,
    "proj": 24474,
    "verilen": 24475,
    "üzerinde": 24476,
    "etmen": 24477,
    "gın": 24478,
    "ete": 24479,
    "mon": 24480,
    "isinde": 24481,
    "27": 24482,
    "nedir": 24483,
    "bilin": 24484,
    "gn": 24485,
    "tım": 24486,
    "fe": 24487,
    "oloj": 24488,
    "kün": 24489,
    "larından": 24490,
    ".\"": 24491,
    "laşı": 24492,
    "yasa": 24493,
    "lıyor": 24494,
    "ciler": 24495,
    "manı": 24496,
    "ize": 24497,
    "i̇m": 24498,
    "con": 24499,
    "ekon": 24500,
    "diğini": 24501,
    "ww": 24502,
    "gin": 24503,
    "str": 24504,
    "ağu": 24505,
    "avru": 24506,
    "tiya": 24507,
    "kurulu": 24508,
    "lerinden": 24509,
    "2016": 24510,
    "dül": 24511,
    "hük": 24512,
    "stos": 24513,
    "geçir": 24514,
    "ğini": 24515,
    "ğin": 24516,
    "unuz": 24517,
    "meler": 24518,
    "landır": 24519,
    "lah": 24520,
    "iyorum": 24521,
    "lerle": 24522,
    "sınız": 24523,
    "olduk": 24524,
    "kut": 24525,
    "bileceğ": 24526,
    "güvenilir": 24527,
    "uluk": 24528,
    "mey": 24529,
    "2015": 24530,
    "29": 24531,
    "ediyor": 24532,
    "rar": 24533,
    "mağ": 24534,
    "veren": 24535,
    "edilen": 24536,
    "cılık": 24537,
    "topl": 24538,
    "wit": 24539,
    "//": 24540,
    "etme": 24541,
    "bakan": 24542,
    "ja": 24543,
    "asında": 24544,
    "tılı": 24545,
    "urt": 24546,
    "çün": 24547,
    "ihtiya": 24548,
    "ortaya": 24549,
    "jo": 24550,
    "ziy": 24551,
    "197": 24552,
    "nes": 24553,
    "i̇ngiliz": 24554,
    "aşağıdaki": 24555,
    "oğlu": 24556,
    "ener": 24557,
    "lenen": 24558,
    "gerçekleştir": 24559,
    "2014": 24560,
    "zamanda": 24561,
    "ft": 24562,
    "çeşitli": 24563,
    "qu": 24564,
    "100": 24565,
    "i̇r": 24566,
    "biy": 24567,
    "num": 24568,
    "ori": 24569,
    "üzerine": 24570,
    "ici": 24571,
    "şeh": 24572,
    "yaptığı": 24573,
    "değiştir": 24574,
    "duğu": 24575,
    "tic": 24576,
    "huk": 24577,
    "yerine": 24578,
    "40": 24579,
    "yapan": 24580,
    "kre": 24581,
    "lerimiz": 24582,
    "2013": 24583,
    "i̇lk": 24584,
    "----": 24585,
    "ğraf": 24586,
    "htt": 24587,
    "günü": 24588,
    "terci": 24589,
    "nedeniyle": 24590,
    "nüf": 24591,
    "sebe": 24592,
    "madan": 24593,
    "konusunda": 24594,
    "nek": 24595,
    "abilir": 24596,
    "gerekli": 24597,
    "dos": 24598,
    "ted": 24599,
    "si̇": 24600,
    "diğiniz": 24601,
    "olup": 24602,
    "ceği": 24603,
    "özellikle": 24604,
    "pen": 24605,
    "müm": 24606,
    "vardır": 24607,
    "i̇k": 24608,
    "ardından": 24609,
    "yım": 24610,
    "ex": 24611,
    "benim": 24612,
    "tarihi": 24613,
    "değerlendir": 24614,
    "sanız": 24615,
    "rü": 24616,
    "tası": 24617,
    "üp": 24618,
    "fet": 24619,
    "60": 24620,
    "2012": 24621,
    "sındaki": 24622,
    "anda": 24623,
    "ildi": 24624,
    "meyi": 24625,
    "adan": 24626,
    "eyi": 24627,
    "burada": 24628,
    "dak": 24629,
    "span": 24630,
    "üniversitesi": 24631,
    "alım": 24632,
    "dis": 24633,
    "sından": 24634,
    "yeniden": 24635,
    "dırı": 24636,
    "elerin": 24637,
    "evi": 24638,
    "nız": 24639,
    "align": 24640,
    "lüt": 24641,
    "jan": 24642,
    "alama": 24643,
    "üzerinden": 24644,
    "des": 24645,
    "lilik": 24646,
    "olacak": 24647,
    "ts": 24648,
    "politi": 24649,
    "laştır": 24650,
    "og": 24651,
    "ümüz": 24652,
    "meli": 24653,
    "ic": 24654,
    "**": 24655,
    "cut": 24656,
    "biliyor": 24657,
    "görül": 24658,
    "ilmesi": 24659,
    "://": 24660,
    "\",": 24661,
    "2011": 24662,
    "one": 24663,
    "matik": 24664,
    "2010": 24665,
    "ğa": 24666,
    "uyla": 24667,
    "vis": 24668,
    "sının": 24669,
    "35": 24670,
    "merkezi": 24671,
    "ilişk": 24672,
    "futbolcu": 24673,
    "lamak": 24674,
    "makal": 24675,
    "ly": 24676,
    "talya": 24677,
    "ölç": 24678,
    "haberler": 24679,
    "esine": 24680,
    "visi": 24681,
    "raki": 24682,
    "dağı": 24683,
    "bonus": 24684,
    "tarihinde": 24685,
    "çif": 24686,
    "erli": 24687,
    "manız": 24688,
    "bl": 24689,
    "larımız": 24690,
    "ss": 24691,
    "muştur": 24692,
    "malz": 24693,
    "undan": 24694,
    "olmayan": 24695,
    "alanlar": 24696,
    "landı": 24697,
    "book": 24698,
    "labilir": 24699,
    "ameri": 24700,
    "dör": 24701,
    "ünün": 24702,
    "kırı": 24703,
    "yordu": 24704,
    "hari": 24705,
    "196": 24706,
    "amacı": 24707,
    "yapmak": 24708,
    "gereken": 24709,
    "ladı": 24710,
    "kali": 24711,
    "altında": 24712,
    "di̇": 24713,
    "lat": 24714,
    "wor": 24715,
    "taj": 24716,
    "sey": 24717,
    "içerisinde": 24718,
    "siteler": 24719,
    "konusu": 24720,
    "05": 24721,
    "dığında": 24722,
    "yaptı": 24723,
    "aliyet": 24724,
    "üler": 24725,
    "i̇let": 24726,
    "gerekir": 24727,
    "laşık": 24728,
    "isini": 24729,
    "işi": 24730,
    "geler": 24731,
    "çalışma": 24732,
    "sıyla": 24733,
    "neler": 24734,
    "örne": 24735,
    "sinde": 24736,
    "almak": 24737,
    "win": 24738,
    "söy": 24739,
    "muh": 24740,
    "geçen": 24741,
    "ec": 24742,
    "değildir": 24743,
    "tarifi": 24744,
    "45": 24745,
    "ilmiş": 24746,
    "nor": 24747,
    "amer": 24748,
    "ent": 24749,
    "aldı": 24750,
    "edile": 24751,
    "doğan": 24752,
    "isyon": 24753,
    "profes": 24754,
    "ğrı": 24755,
    "2009": 24756,
    "uluslar": 24757,
    "ıntı": 24758,
    "alış": 24759,
    "aların": 24760,
    "31": 24761,
    "est": 24762,
    "amerik": 24763,
    "twitter": 24764,
    "nit": 24765,
    "lış": 24766,
    "umuz": 24767,
    "sunuz": 24768,
    "sırasında": 24769,
    "genellikle": 24770,
    "bası": 24771,
    "stra": 24772,
    "ces": 24773,
    "vil": 24774,
    "luğu": 24775,
    "uğ": 24776,
    "ğe": 24777,
    "36": 24778,
    "cağını": 24779,
    "sitemiz": 24780,
    "90": 24781,
    "başladı": 24782,
    "mur": 24783,
    "mda": 24784,
    "ımı": 24785,
    "laya": 24786,
    "malıdır": 24787,
    "veriler": 24788,
    "lacak": 24789,
    "bölg": 24790,
    "masının": 24791,
    "alma": 24792,
    "iyeti": 24793,
    "lenme": 24794,
    "sizin": 24795,
    "bana": 24796,
    "ekonom": 24797,
    "fo": 24798,
    "müşter": 24799,
    "i̇nsan": 24800,
    "açıklama": 24801,
    "oldukça": 24802,
    "rağ": 24803,
    "duğ": 24804,
    "mağaz": 24805,
    "türkçe": 24806,
    "fiyatları": 24807,
    "hakkı": 24808,
    "i̇yi": 24809,
    "yıcı": 24810,
    "oyn": 24811,
    "iyoruz": 24812,
    "33": 24813,
    "uml": 24814,
    "ght": 24815,
    "bağlantılar": 24816,
    "inize": 24817,
    "keli": 24818,
    "i̇ngilizce": 24819,
    "lardır": 24820,
    "diler": 24821,
    "içi": 24822,
    "ef": 24823,
    "sistemi": 24824,
    "yolu": 24825,
    "isinin": 24826,
    "layan": 24827,
    "dele": 24828,
    "44": 24829,
    "arasındaki": 24830,
    "menin": 24831,
    "yanın": 24832,
    "rip": 24833,
    "pre": 24834,
    "vir": 24835,
    "bra": 24836,
    "ödeme": 24837,
    "gun": 24838,
    "medi": 24839,
    "ıyor": 24840,
    "2008": 24841,
    "mm": 24842,
    "lamalar": 24843,
    "teh": 24844,
    "ırken": 24845,
    "omi": 24846,
    "dra": 24847,
    "80": 24848,
    "lığını": 24849,
    "https": 24850,
    "plat": 24851,
    "nedenle": 24852,
    "ettiği": 24853,
    "iddi": 24854,
    "yıldı": 24855,
    "sipar": 24856,
    "müca": 24857,
    "izm": 24858,
    "sul": 24859,
    "üyor": 24860,
    "geldi": 24861,
    "meyen": 24862,
    "bilgileri": 24863,
    "pr": 24864,
    "birliği": 24865,
    "kullanarak": 24866,
    "''": 24867,
    "kullanılan": 24868,
    "zu": 24869,
    "sinin": 24870,
    "olsun": 24871,
    "anın": 24872,
    "larıyla": 24873,
    "oper": 24874,
    "kişinin": 24875,
    "anti": 24876,
    "sayısı": 24877,
    "bizim": 24878,
    "celik": 24879,
    "onik": 24880,
    "üncü": 24881,
    "face": 24882,
    "37": 24883,
    "cevabı": 24884,
    "kişiler": 24885,
    "fı": 24886,
    "eği": 24887,
    "bilmek": 24888,
    "yalnızca": 24889,
    "leriyle": 24890,
    "durumda": 24891,
    "34": 24892,
    "dışı": 24893,
    "olun": 24894,
    "hastan": 24895,
    "soruml": 24896,
    "ital": 24897,
    "utu": 24898,
    "larak": 24899,
    "i̇zmir": 24900,
    "hizmeti": 24901,
    "izyon": 24902,
    "sas": 24903,
    "teda": 24904,
    "içeri": 24905,
    "perfor": 24906,
    "cılar": 24907,
    ".”": 24908,
    "esel": 24909,
    "online": 24910,
    "sex": 24911,
    "istik": 24912,
    "olacaktır": 24913,
    "kızı": 24914,
    "39": 24915,
    "performan": 24916,
    "bize": 24917,
    "gre": 24918,
    "buna": 24919,
    "01": 24920,
    "i̇letişim": 24921,
    "zin": 24922,
    "sahibi": 24923,
    "osu": 24924,
    "sürdür": 24925,
    "ınızı": 24926,
    "ああ": 24927,
    "sayılı": 24928,
    "şamp": 24929,
    "sonraki": 24930,
    "eki": 24931,
    "lanma": 24932,
    "hbet": 24933,
    "tesp": 24934,
    "09": 24935,
    "mızda": 24936,
    "facebook": 24937,
    "ünden": 24938,
    "bonusu": 24939,
    "ücretsiz": 24940,
    "teşek": 24941,
    "fiz": 24942,
    "tekli": 24943,
    "durumu": 24944,
    "cevapla": 24945,
    "paylaşı": 24946,
    "yonel": 24947,
    "195": 24948,
    "meleri": 24949,
    "çiler": 24950,
    "pra": 24951,
    "ucu": 24952,
    "',": 24953,
    "hâ": 24954,
    "lon": 24955,
    "hmet": 24956,
    "kalı": 24957,
    "cm": 24958,
    "2007": 24959,
    "tiği": 24960,
    "ilecek": 24961,
    "olojik": 24962,
    "miyor": 24963,
    "38": 24964,
    "çalışmalar": 24965,
    "www": 24966,
    "08": 24967,
    "stik": 24968,
    "sh": 24969,
    "çıkan": 24970,
    "kalit": 24971,
    "esinin": 24972,
    "dışında": 24973,
    "partisi": 24974,
    "aray": 24975,
    "diyor": 24976,
    "anan": 24977,
    "32": 24978,
    "lemek": 24979,
    "lerdir": 24980,
    "sayf": 24981,
    "fayd": 24982,
    "soruyu": 24983,
    "oyunları": 24984,
    "söyledi": 24985,
    "umsuz": 24986,
    "dığınız": 24987,
    "teki": 24988,
    "halinde": 24989,
    "mesinin": 24990,
    "eve": 24991,
    "cisi": 24992,
    "bera": 24993,
    "başlan": 24994,
    "kâ": 24995,
    "jin": 24996,
    "mahke": 24997,
    "gro": 24998,
    "ydı": 24999,
    "kale": 25000,
    "insanlar": 25001,
    "anlamına": 25002,
    "02": 25003,
    "osmanlı": 25004,
    "bağım": 25005,
    "unan": 25006,
    "seniz": 25007,
    "liğini": 25008,
    "cor": 25009,
    "kelim": 25010,
    "hüc": 25011,
    "stagram": 25012,
    "|-": 25013,
    "lüğü": 25014,
    "hizmetleri": 25015,
    "ry": 25016,
    "mıyor": 25017,
    "lanması": 25018,
    "şıl": 25019,
    "mıza": 25020,
    "kaliteli": 25021,
    "und": 25022,
    "değişiklik": 25023,
    "lenmiş": 25024,
    "ilç": 25025,
    "alanı": 25026,
    "ederek": 25027,
    "ştu": 25028,
    "65": 25029,
    "kuv": 25030,
    "şım": 25031,
    "i̇lg": 25032,
    "malzem": 25033,
    "isine": 25034,
    "oz": 25035,
    "beni": 25036,
    "öncek": 25037,
    "lili": 25038,
    "person": 25039,
    "48": 25040,
    "adlı": 25041,
    "yazın": 25042,
    "jen": 25043,
    "gisi": 25044,
    "yanıtla": 25045,
    "bilen": 25046,
    "ty": 25047,
    "türlü": 25048,
    "gerekiyor": 25049,
    "edilir": 25050,
    "örneğin": 25051,
    "hipo": 25052,
    "i̇nternet": 25053,
    ");": 25054,
    "07": 25055,
    "meniz": 25056,
    "ilerini": 25057,
    "parç": 25058,
    "haberleri": 25059,
    "diğinde": 25060,
    "ilendir": 25061,
    "03": 25062,
    "||": 25063,
    "nerede": 25064,
    "aldığı": 25065,
    "istiyor": 25066,
    "imize": 25067,
    "lıkla": 25068,
    "lenmesi": 25069,
    "uyor": 25070,
    "lâ": 25071,
    "bri": 25072,
    "duk": 25073,
    "uygulan": 25074,
    "olmadığını": 25075,
    "önceki": 25076,
    "önc": 25077,
    "km": 25078,
    "ws": 25079,
    "are": 25080,
    "işe": 25081,
    "yapılır": 25082,
    "ınıza": 25083,
    "i̇h": 25084,
    "korun": 25085,
    "ple": 25086,
    "47": 25087,
    "sc": 25088,
    "ürünler": 25089,
    "geliyor": 25090,
    "açıl": 25091,
    "06": 25092,
    "yerek": 25093,
    "masında": 25094,
    "inizin": 25095,
    "__": 25096,
    "99": 25097,
    "laması": 25098,
    "sağlamak": 25099,
    "yeş": 25100,
    "sahiptir": 25101,
    "kla": 25102,
    "alır": 25103,
    "taşıma": 25104,
    "goog": 25105,
    "anlaş": 25106,
    "lari": 25107,
    "adresimi": 25108,
    "dünyanın": 25109,
    "google": 25110,
    "ettiğ": 25111,
    "oluşan": 25112,
    "yılı": 25113,
    "amacıyla": 25114,
    "tıcı": 25115,
    "sağlar": 25116,
    "açısından": 25117,
    "ranı": 25118,
    "okra": 25119,
    "verdi": 25120,
    "çiç": 25121,
    "tasyon": 25122,
    "verileri": 25123,
    "yapar": 25124,
    "içeren": 25125,
    "bulunmaktadır": 25126,
    "futbolcuları": 25127,
    "lanır": 25128,
    "yaşayan": 25129,
    "katılı": 25130,
    "imizin": 25131,
    "kariy": 25132,
    "fan": 25133,
    "46": 25134,
    "yız": 25135,
    "kampan": 25136,
    "tec": 25137,
    "leyen": 25138,
    "larınız": 25139,
    "gerçekten": 25140,
    "verir": 25141,
    "üyelik": 25142,
    "anım": 25143,
    "esini": 25144,
    "sok": 25145,
    "siyle": 25146,
    "kapsamında": 25147,
    "wil": 25148,
    "49": 25149,
    "olsa": 25150,
    "doğumlu": 25151,
    "sayesinde": 25152,
    "hika": 25153,
    "elere": 25154,
    "bileceği": 25155,
    "fu": 25156,
    "diğimiz": 25157,
    "etkil": 25158,
    "mayacak": 25159,
    "tanın": 25160,
    "üşt": 25161,
    "lıdır": 25162,
    "onları": 25163,
    "cal": 25164,
    "04": 25165,
    "mıştı": 25166,
    "etkili": 25167,
    "ail": 25168,
    "muha": 25169,
    "imde": 25170,
    "yata": 25171,
    "araya": 25172,
    "hakları": 25173,
    "gs": 25174,
    "instagram": 25175,
    "etic": 25176,
    "teknoloj": 25177,
    "bahse": 25178,
    "yapımı": 25179,
    "işlet": 25180,
    "günümüz": 25181,
    "i̇t": 25182,
    "dıktan": 25183,
    "başarılı": 25184,
    "55": 25185,
    "abilirsiniz": 25186,
    "dile": 25187,
    "2000": 25188,
    "ity": 25189,
    "i̇çin": 25190,
    "jap": 25191,
    "başlangı": 25192,
    "ürünleri": 25193,
    "ilmiştir": 25194,
    "left": 25195,
    "servisi": 25196,
    "leyi": 25197,
    "cının": 25198,
    "bb": 25199,
    "sever": 25200,
    "sho": 25201,
    "isteyen": 25202,
    "yeri": 25203,
    "oluyor": 25204,
    "bro": 25205,
    "haline": 25206,
    "gerektir": 25207,
    "pin": 25208,
    "uro": 25209,
    "inç": 25210,
    "ste": 25211,
    "leye": 25212,
    "yeten": 25213,
    "üle": 25214,
    "kütüp": 25215,
    "tiğini": 25216,
    "sk": 25217,
    "yorumlar": 25218,
    "elerini": 25219,
    "gazet": 25220,
    "yapma": 25221,
    "organiz": 25222,
    "moder": 25223,
    "şun": 25224,
    "cid": 25225,
    "yalar": 25226,
    "hikay": 25227,
    "kısı": 25228,
    "color": 25229,
    "prob": 25230,
    "formu": 25231,
    "sep": 25232,
    "biliriz": 25233,
    "dij": 25234,
    "makin": 25235,
    "les": 25236,
    "mol": 25237,
    "iyim": 25238,
    "edilmesi": 25239,
    "sidir": 25240,
    "sizlere": 25241,
    "mic": 25242,
    "mür": 25243,
    "ebilirsiniz": 25244,
    "telev": 25245,
    "eksiyon": 25246,
    "i̇şte": 25247,
    "jinal": 25248,
    "aslında": 25249,
    "ulaşa": 25250,
    "grubu": 25251,
    "şıyor": 25252,
    "wn": 25253,
    "hd": 25254,
    "meydana": 25255,
    "sonucu": 25256,
    "vardı": 25257,
    "dıkları": 25258,
    "yeterli": 25259,
    "e9": 25260,
    "gus": 25261,
    "seçenekler": 25262,
    "ınca": 25263,
    "imizi": 25264,
    "che": 25265,
    "vel": 25266,
    "vol": 25267,
    "progra": 25268,
    "siyel": 25269,
    "filmi": 25270,
    "70": 25271,
    "abet": 25272,
    "edecek": 25273,
    "75": 25274,
    "char": 25275,
    "ment": 25276,
    "leniyor": 25277,
    "güvenli": 25278,
    "bileceğiniz": 25279,
    "eb": 25280,
    "yıllık": 25281,
    "lez": 25282,
    "yapıyor": 25283,
    "my": 25284,
    "seviy": 25285,
    "üstü": 25286,
    "strate": 25287,
    "tiv": 25288,
    "şid": 25289,
    "isi": 25290,
    "elerde": 25291,
    "2006": 25292,
    "i̇ncel": 25293,
    "böylece": 25294,
    "liyor": 25295,
    "davranı": 25296,
    "alığı": 25297,
    "arkada": 25298,
    "olduğundan": 25299,
    "potan": 25300,
    "alıyor": 25301,
    "int": 25302,
    "vik": 25303,
    "düşünü": 25304,
    "merha": 25305,
    "diy": 25306,
    "demokra": 25307,
    "müşteriler": 25308,
    "bla": 25309,
    "cısı": 25310,
    "onya": 25311,
    "varsa": 25312,
    "terna": 25313,
    "ğın": 25314,
    "larınızı": 25315,
    "edildi": 25316,
    "ıs": 25317,
    "py": 25318,
    "yana": 25319,
    "etkile": 25320,
    "mühen": 25321,
    "yaptır": 25322,
    "42": 25323,
    "uluğu": 25324,
    "emiz": 25325,
    "tma": 25326,
    "best": 25327,
    "modelleri": 25328,
    "adana": 25329,
    "500": 25330,
    "sayıda": 25331,
    "land": 25332,
    "dikleri": 25333,
    "etmiş": 25334,
    "politikası": 25335,
    "psik": 25336,
    "adına": 25337,
    "elerinin": 25338,
    "vid": 25339,
    "imli": 25340,
    "musta": 25341,
    "htar": 25342,
    "lığıyla": 25343,
    "kullanılır": 25344,
    "i̇kin": 25345,
    "reh": 25346,
    "vaş": 25347,
    "lanmış": 25348,
    "yanında": 25349,
    "px": 25350,
    "amerikalı": 25351,
    "back": 25352,
    "bunların": 25353,
    "lendi": 25354,
    "sanatçı": 25355,
    "ff": 25356,
    "lana": 25357,
    "wo": 25358,
    "i̇ki": 25359,
    "seçin": 25360,
    "vermek": 25361,
    "alarda": 25362,
    "bilmektedir": 25363,
    "colspan": 25364,
    "tarayıcı": 25365,
    "önüne": 25366,
    "ticar": 25367,
    "tutar": 25368,
    "bilinen": 25369,
    "sizi": 25370,
    "sonrasında": 25371,
    "ümü": 25372,
    "ılması": 25373,
    "tle": 25374,
    "sağlıklı": 25375,
    "onların": 25376,
    "öğ": 25377,
    "avan": 25378,
    "chi": 25379,
    "aj": 25380,
    "fre": 25381,
    "zorunda": 25382,
    "ağı": 25383,
    "fra": 25384,
    "yağı": 25385,
    "i̇ngiltere": 25386,
    "listesi": 25387,
    "resimleri": 25388,
    "mada": 25389,
    "sy": 25390,
    "rad": 25391,
    "dönüşt": 25392,
    "....": 25393,
    "kaçak": 25394,
    "gesi": 25395,
    "kategoriler": 25396,
    "i̇span": 25397,
    "savaşı": 25398,
    "alarını": 25399,
    "41": 25400,
    "şüp": 25401,
    "yetk": 25402,
    "öncelikle": 25403,
    "arşi": 25404,
    "eg": 25405,
    "isten": 25406,
    "yaşında": 25407,
    "olmaya": 25408,
    "liye": 25409,
    "imleri": 25410,
    "masından": 25411,
    "şikay": 25412,
    "lenir": 25413,
    "belediyesi": 25414,
    "day": 25415,
    "azal": 25416,
    "kendini": 25417,
    "başına": 25418,
    ".)": 25419,
    "katılım": 25420,
    "günde": 25421,
    "altına": 25422,
    "çevrim": 25423,
    "kütüphan": 25424,
    "li̇": 25425,
    "huku": 25426,
    "demek": 25427,
    "lığın": 25428,
    "66": 25429,
    "xt": 25430,
    "i̇lçe": 25431,
    "kullanımı": 25432,
    "cilik": 25433,
    "ilebilir": 25434,
    "filmleri": 25435,
    "lamaya": 25436,
    "bulunduğu": 25437,
    "yayıncılık": 25438,
    "gizlilik": 25439,
    "zey": 25440,
    "sch": 25441,
    "admin": 25442,
    "asyonu": 25443,
    "programı": 25444,
    "insanların": 25445,
    "yüzden": 25446,
    "müs": 25447,
    "alarında": 25448,
    "lerce": 25449,
    "lığına": 25450,
    "şeklinde": 25451,
    "karşılaştır": 25452,
    "--------": 25453,
    "lamaz": 25454,
    "devletleri": 25455,
    "bakanlığı": 25456,
    "sig": 25457,
    "all": 25458,
    "numar": 25459,
    "blogspot": 25460,
    "vie": 25461,
    "yoktur": 25462,
    "gh": 25463,
    "vin": 25464,
    "vey": 25465,
    "bundan": 25466,
    "cağız": 25467,
    "ct": 25468,
    "taşın": 25469,
    "önemlidir": 25470,
    "bileceğini": 25471,
    "hack": 25472,
    "bulunur": 25473,
    "you": 25474,
    "iyile": 25475,
    "vas": 25476,
    "43": 25477,
    "düğü": 25478,
    "yerde": 25479,
    "durumunda": 25480,
    "öğrenciler": 25481,
    "kararı": 25482,
    "parator": 25483,
    "verilerin": 25484,
    "ult": 25485,
    "sonrası": 25486,
    "bö": 25487,
    "etmeye": 25488,
    "las": 25489,
    "şır": 25490,
    "değerli": 25491,
    "lerinizi": 25492,
    "lenin": 25493,
    "tarihli": 25494,
    "enf": 25495,
    "bulundu": 25496,
    "alya": 25497,
    "detaylı": 25498,
    "parçası": 25499,
    "özellikleri": 25500,
    "seya": 25501,
    "öne": 25502,
    "him": 25503,
    "yararlan": 25504,
    "yeme": 25505,
    "lığa": 25506,
    "krip": 25507,
    "restor": 25508,
    "i̇lan": 25509,
    "2005": 25510,
    "sağlaya": 25511,
    "yolc": 25512,
    "http": 25513,
    "sorunun": 25514,
    "olmadan": 25515,
    "bilmesi": 25516,
    "melidir": 25517,
    "diğim": 25518,
    "hayatı": 25519,
    "tre": 25520,
    "yse": 25521,
    "coin": 25522,
    "</": 25523,
    "heye": 25524,
    "ıntılı": 25525,
    "i̇kinci": 25526,
    "kodu": 25527,
    "kesi": 25528,
    "kli": 25529,
    "bulunu": 25530,
    "ınızda": 25531,
    "siten": 25532,
    "kesinlikle": 25533,
    "58": 25534,
    "öğrenc": 25535,
    "disi": 25536,
    "mükem": 25537,
    "78": 25538,
    "tiyat": 25539,
    "ücü": 25540,
    "olmadığı": 25541,
    "dayanı": 25542,
    "çalışmaları": 25543,
    "bölgeler": 25544,
    "sevg": 25545,
    "filmin": 25546,
    "bula": 25547,
    "masıyla": 25548,
    "konuda": 25549,
    "bizi": 25550,
    "zev": 25551,
    "bakanı": 25552,
    "feder": 25553,
    "style": 25554,
    "gerekmektedir": 25555,
    "keti": 25556,
    "uyun": 25557,
    "kk": 25558,
    "\";": 25559,
    "elerine": 25560,
    "ction": 25561,
    "zet": 25562,
    "kadınlar": 25563,
    "alanında": 25564,
    "kahra": 25565,
    "sistemleri": 25566,
    "üzerindeki": 25567,
    "itir": 25568,
    "oyunu": 25569,
    "alarının": 25570,
    "2004": 25571,
    "alarına": 25572,
    "ju": 25573,
    "i̇sim": 25574,
    "cir": 25575,
    "yönetimi": 25576,
    "şeyi": 25577,
    "bulmak": 25578,
    "cağım": 25579,
    "görevi": 25580,
    "tehlik": 25581,
    "evden": 25582,
    "dikten": 25583,
    "madı": 25584,
    "olmuştur": 25585,
    "yere": 25586,
    "inizde": 25587,
    "kağı": 25588,
    "lasyon": 25589,
    "grafi": 25590,
    "takımı": 25591,
    "57": 25592,
    "öncül": 25593,
    "i̇slam": 25594,
    "i̇st": 25595,
    "gizli": 25596,
    "ğan": 25597,
    "ladığı": 25598,
    "59": 25599,
    "mahallesi": 25600,
    "senin": 25601,
    "kurumsal": 25602,
    "belirtilen": 25603,
    "verdiği": 25604,
    "kendisine": 25605,
    "istediğiniz": 25606,
    "veriyor": 25607,
    "haval": 25608,
    "):": 25609,
    "evde": 25610,
    "siklet": 25611,
    "endü": 25612,
    "sağlayan": 25613,
    "dep": 25614,
    "firmalar": 25615,
    "yazıl": 25616,
    "gele": 25617,
    "aracılığıyla": 25618,
    "what": 25619,
    "umak": 25620,
    "kaldı": 25621,
    "işleri": 25622,
    "fonk": 25623,
    "alarak": 25624,
    "ue": 25625,
    "üyesi": 25626,
    "düzenle": 25627,
    "read": 25628,
    "ura": 25629,
    "ünüz": 25630,
    "yiye": 25631,
    "cook": 25632,
    "youtu": 25633,
    "mate": 25634,
    "ödülü": 25635,
    "56": 25636,
    "i̇p": 25637,
    "cat": 25638,
    "}}": 25639,
    "yiz": 25640,
    "çekme": 25641,
    "müda": 25642,
    "köp": 25643,
    "iter": 25644,
    "i̇le": 25645,
    "oyunc": 25646,
    "kılı": 25647,
    "tıyor": 25648,
    "aktarı": 25649,
    "i̇lgili": 25650,
    "ayda": 25651,
    "adımı": 25652,
    "pri": 25653,
    "doğumlular": 25654,
    "alterna": 25655,
    "alınan": 25656,
    "yıldır": 25657,
    "süresi": 25658,
    "devamını": 25659,
    "ajansı": 25660,
    "vü": 25661,
    "gören": 25662,
    "home": 25663,
    "bilgilendir": 25664,
    "wer": 25665,
    "sigor": 25666,
    "halde": 25667,
    "iydi": 25668,
    "ron": 25669,
    "oluşturun": 25670,
    "ilerek": 25671,
    "yerleştir": 25672,
    "dor": 25673,
    "ayrıntılı": 25674,
    "turk": 25675,
    "graf": 25676,
    "öğretim": 25677,
    "rik": 25678,
    "ılan": 25679,
    "i̇çer": 25680,
    "mişti": 25681,
    "ie": 25682,
    "mam": 25683,
    "sırada": 25684,
    "(\"": 25685,
    "weet": 25686,
    "olog": 25687,
    "vücu": 25688,
    "iği": 25689,
    "çeve": 25690,
    "okulu": 25691,
    "atör": 25692,
    "cad": 25693,
    "mamış": 25694,
    "biyo": 25695,
    "zayı": 25696,
    "eğitimi": 25697,
    "lemi": 25698,
    "wa": 25699,
    "lıklar": 25700,
    "verme": 25701,
    "meş": 25702,
    "gul": 25703,
    "landa": 25704,
    "tiler": 25705,
    "youtube": 25706,
    "vo": 25707,
    "ürünü": 25708,
    "etkisi": 25709,
    "yöneti": 25710,
    "başlayan": 25711,
    "larım": 25712,
    "i̇d": 25713,
    "mızın": 25714,
    "press": 25715,
    "anlar": 25716,
    "filmler": 25717,
    "ulması": 25718,
    "anlayı": 25719,
    "ğer": 25720,
    "hacklink": 25721,
    "akıllı": 25722,
    "düzenlenen": 25723,
    "kupası": 25724,
    "layarak": 25725,
    "şet": 25726,
    "kendisi": 25727,
    "ell": 25728,
    "duğunu": 25729,
    "yapın": 25730,
    "bölümü": 25731,
    "ılır": 25732,
    "tıklayın": 25733,
    "98": 25734,
    "ıcı": 25735,
    "right": 25736,
    "birleştir": 25737,
    "görmek": 25738,
    "yaparak": 25739,
    "kulü": 25740,
    "kanunu": 25741,
    "kitapları": 25742,
    "leri̇": 25743,
    "desi": 25744,
    "istiyorum": 25745,
    "bunları": 25746,
    "başlar": 25747,
    "uygulamalar": 25748,
    "önünde": 25749,
    "dro": 25750,
    "sürede": 25751,
    "mesinde": 25752,
    "pg": 25753,
    "şirketi": 25754,
    "ああああ": 25755,
    "yapılacak": 25756,
    "içerir": 25757,
    "gon": 25758,
    "otik": 25759,
    "olmaz": 25760,
    "geçer": 25761,
    "etmektedir": 25762,
    "til": 25763,
    "imin": 25764,
    "slot": 25765,
    "yanıtlar": 25766,
    "yaptık": 25767,
    "seçenekleri": 25768,
    "coun": 25769,
    "oranı": 25770,
    "ettik": 25771,
    "derne": 25772,
    "siyet": 25773,
    "çoğun": 25774,
    "edebilir": 25775,
    "sona": 25776,
    "uluğ": 25777,
    "inanı": 25778,
    "görünü": 25779,
    "mac": 25780,
    "oluşturmak": 25781,
    "ilerine": 25782,
    "kişilerin": 25783,
    "iliği": 25784,
    "cağınız": 25785,
    "use": 25786,
    "şeyler": 25787,
    "uni": 25788,
    "milletvek": 25789,
    "cümleyi": 25790,
    "gösteren": 25791,
    "askeri": 25792,
    "porn": 25793,
    "pazarlama": 25794,
    "urum": 25795,
    "gat": 25796,
    "yazılar": 25797,
    "eyen": 25798,
    "dönemde": 25799,
    "cez": 25800,
    "dili": 25801,
    "kütüphanesi": 25802,
    "68": 25803,
    "bür": 25804,
    "bül": 25805,
    "\":": 25806,
    "fiziksel": 25807,
    "ğunuz": 25808,
    "taz": 25809,
    "cumhuriyeti": 25810,
    "dergisi": 25811,
    "leyici": 25812,
    "rahatsız": 25813,
    "77": 25814,
    "anlaşıl": 25815,
    "windo": 25816,
    "2023": 25817,
    "büs": 25818,
    "ukray": 25819,
    "yoluyla": 25820,
    "sizlik": 25821,
    "fiyatı": 25822,
    "ferans": 25823,
    "hus": 25824,
    "stratej": 25825,
    "liğe": 25826,
    "sağlığı": 25827,
    "aça": 25828,
    "kullanılmak": 25829,
    "gr": 25830,
    "almaktadır": 25831,
    "ecektir": 25832,
    "malat": 25833,
    "edilmiş": 25834,
    "vurg": 25835,
    "yaklaşı": 25836,
    "hesabınız": 25837,
    "adını": 25838,
    "mıyla": 25839,
    "sorunu": 25840,
    "imz": 25841,
    "bala": 25842,
    "alındığında": 25843,
    "yaşan": 25844,
    "veç": 25845,
    "ayında": 25846,
    "nedeni": 25847,
    "work": 25848,
    "afri": 25849,
    "çerezler": 25850,
    "2002": 25851,
    "bulunma": 25852,
    "ehir": 25853,
    "komp": 25854,
    "andro": 25855,
    "nat": 25856,
    "asını": 25857,
    "çıka": 25858,
    "onlara": 25859,
    "edebilirsiniz": 25860,
    "2003": 25861,
    "birden": 25862,
    "beklen": 25863,
    "bölgesi": 25864,
    "nelerdir": 25865,
    "lıkları": 25866,
    "distan": 25867,
    "işime": 25868,
    "88": 25869,
    "edilebilir": 25870,
    "erz": 25871,
    "leriniz": 25872,
    "latma": 25873,
    "müslü": 25874,
    "alacak": 25875,
    "yapılması": 25876,
    "gerektiğini": 25877,
    "kişehir": 25878,
    "sefere": 25879,
    "e9e9": 25880,
    "{{": 25881,
    "iyan": 25882,
    "bulu": 25883,
    "mün": 25884,
    "sapp": 25885,
    "başında": 25886,
    "edilmiştir": 25887,
    "etiketler": 25888,
    "53": 25889,
    "işlemi": 25890,
    "tığını": 25891,
    "bulunuyor": 25892,
    "mc": 25893,
    "yapmış": 25894,
    "akadem": 25895,
    "denizli": 25896,
    "olmasına": 25897,
    "kun": 25898,
    "irken": 25899,
    "67": 25900,
    "amaz": 25901,
    "i̇ran": 25902,
    "lanıyor": 25903,
    "ştan": 25904,
    "mesinden": 25905,
    "belirleyin": 25906,
    "52": 25907,
    "54": 25908,
    "ederim": 25909,
    "max": 25910,
    "kitabı": 25911,
    "kendine": 25912,
    "tezi": 25913,
    "hy": 25914,
    "tri": 25915,
    "makinesi": 25916,
    "olduğuna": 25917,
    "yazarın": 25918,
    "dikkate": 25919,
    "pren": 25920,
    "bakış": 25921,
    "yerinde": 25922,
    "ground": 25923,
    "düzenli": 25924,
    "etmesi": 25925,
    "whatsapp": 25926,
    "ligi": 25927,
    "ilere": 25928,
    "liğine": 25929,
    "liğin": 25930,
    "ediyorum": 25931,
    "bolu": 25932,
    "küçükresim": 25933,
    "iliyor": 25934,
    "elerinde": 25935,
    "ulur": 25936,
    "?\"": 25937,
    "olduğunuz": 25938,
    "kenin": 25939,
    "dahaki": 25940,
    "düşünce": 25941,
    "jack": 25942,
    "i̇mparator": 25943,
    "bün": 25944,
    "lığında": 25945,
    "çocuklar": 25946,
    "tro": 25947,
    "this": 25948,
    "bununla": 25949,
    "kısmı": 25950,
    "kesim": 25951,
    "söylemek": 25952,
    "i̇ndir": 25953,
    "eni": 25954,
    "ary": 25955,
    "ceğini": 25956,
    "traf": 25957,
    "ıldı": 25958,
    "bilgisi": 25959,
    "alanda": 25960,
    "97": 25961,
    "buraya": 25962,
    ".,": 25963,
    "fun": 25964,
    "kurulan": 25965,
    "isyen": 25966,
    "que": 25967,
    "))": 25968,
    "ish": 25969,
    "tweet": 25970,
    "süreci": 25971,
    "misiniz": 25972,
    "51": 25973,
    "seni": 25974,
    "üsü": 25975,
    "orada": 25976,
    "td": 25977,
    "inc": 25978,
    "lisi": 25979,
    "ny": 25980,
    "dat": 25981,
    "arda": 25982,
    "hut": 25983,
    "oksi": 25984,
    "kartı": 25985,
    "prote": 25986,
    "…]": 25987,
    "vasyon": 25988,
    "ihtiyacı": 25989,
    "cektir": 25990,
    "pub": 25991,
    "olmuş": 25992,
    "başvurucu": 25993,
    "asına": 25994,
    "lardı": 25995,
    "kıb": 25996,
    "konus": 25997,
    "ân": 25998,
    "64": 25999,
    "1990": 26000,
    "tedav": 26001,
    "ene": 26002,
    "başta": 26003,
    "ves": 26004,
    "[…]": 26005,
    "sözleşme": 26006,
    "editör": 26007,
    "çevres": 26008,
    "buk": 26009,
    "ülebilir": 26010,
    "roma": 26011,
    "ğla": 26012,
    "vası": 26013,
    "cevaplayın": 26014,
    "tecrü": 26015,
    "lığının": 26016,
    "cınız": 26017,
    "ğine": 26018,
    "maktan": 26019,
    "kazandı": 26020,
    "lanmıştır": 26021,
    "firmaları": 26022,
    "uma": 26023,
    "takipçi": 26024,
    "i̇zle": 26025,
    "gücü": 26026,
    "seo": 26027,
    "2001": 26028,
    "bitir": 26029,
    "girdi": 26030,
    "başkanlığı": 26031,
    "aylık": 26032,
    "mutl": 26033,
    "varı": 26034,
    "bbi": 26035,
    "döneminde": 26036,
    "artış": 26037,
    "uldu": 26038,
    "sana": 26039,
    "yumu": 26040,
    "300": 26041,
    "imizde": 26042,
    "millî": 26043,
    "69": 26044,
    "yaları": 26045,
    "arkadaşı": 26046,
    "cümlenin": 26047,
    "zih": 26048,
    "huz": 26049,
    "manızı": 26050,
    "tesli": 26051,
    "dünyada": 26052,
    "malara": 26053,
    "cla": 26054,
    "projesi": 26055,
    "yıllara": 26056,
    "hr": 26057,
    "sonuçları": 26058,
    "adlandır": 26059,
    "malısınız": 26060,
    "kayde": 26061,
    "cev": 26062,
    "düşür": 26063,
    "eral": 26064,
    "layıcı": 26065,
    "sikiş": 26066,
    "duygus": 26067,
    "topluluk": 26068,
    "yıllar": 26069,
    "ölçüde": 26070,
    "tb": 26071,
    "hücr": 26072,
    "alara": 26073,
    "iyileştir": 26074,
    "suyu": 26075,
    "katkıda": 26076,
    "ilip": 26077,
    "yorumları": 26078,
    "sti": 26079,
    "akti": 26080,
    "yaşındaki": 26081,
    "masyon": 26082,
    "nö": 26083,
    "tarayıcıya": 26084,
    "gibiy": 26085,
    "====": 26086,
    "yazarlar": 26087,
    "liam": 26088,
    "kıbrı": 26089,
    "yerler": 26090,
    "yılın": 26091,
    "korunması": 26092,
    "oker": 26093,
    "ikti": 26094,
    "android": 26095,
    "bahç": 26096,
    "aklı": 26097,
    "oyuncak": 26098,
    "ölen": 26099,
    "kullanılabilir": 26100,
    "gösteriyor": 26101,
    "gide": 26102,
    "yerli": 26103,
    "klı": 26104,
    "ılmış": 26105,
    "içine": 26106,
    "dayanarak": 26107,
    "ademi": 26108,
    "df": 26109,
    "daa": 26110,
    "yönlendir": 26111,
    "atan": 26112,
    "enerj": 26113,
    "bilimsel": 26114,
    "liğinde": 26115,
    "diven": 26116,
    "ag": 26117,
    "yaptığımda": 26118,
    "müdürlüğü": 26119,
    "geleneksel": 26120,
    "i̇talya": 26121,
    "wi": 26122,
    "etkilen": 26123,
    "yayını": 26124,
    "arayı": 26125,
    "savunma": 26126,
    "dığından": 26127,
    "giyim": 26128,
    "ble": 26129,
    "yandan": 26130,
    "bran": 26131,
    "odası": 26132,
    "stur": 26133,
    "ilerinin": 26134,
    "paylaşım": 26135,
    "lanmaktadır": 26136,
    "kimyasal": 26137,
    "ortadan": 26138,
    "uygulaması": 26139,
    "yapmaya": 26140,
    "gran": 26141,
    "undaki": 26142,
    "yayınlanan": 26143,
    "günümüzde": 26144,
    "gösterir": 26145,
    "yav": 26146,
    "serg": 26147,
    "ildiği": 26148,
    "yatırma": 26149,
    "alına": 26150,
    "chp": 26151,
    "ülkenin": 26152,
    "sözleri": 26153,
    "kazandır": 26154,
    "lit": 26155,
    "bilme": 26156,
    "sö": 26157,
    "cha": 26158,
    "işlemleri": 26159,
    "bölgesinde": 26160,
    "kaynağı": 26161,
    "ettir": 26162,
    "köyü": 26163,
    "elerden": 26164,
    "kuralları": 26165,
    "beslenme": 26166,
    "sonucunda": 26167,
    "sınırlı": 26168,
    "95": 26169,
    "babası": 26170,
    "geçiş": 26171,
    "alanları": 26172,
    "sırala": 26173,
    "laşma": 26174,
    "finan": 26175,
    "tanıtım": 26176,
    "muhtemelen": 26177,
    "anında": 26178,
    "yur": 26179,
    "anlama": 26180,
    "artan": 26181,
    "fakültesi": 26182,
    "pencer": 26183,
    "sinden": 26184,
    "hattı": 26185,
    "durumlarda": 26186,
    "uyucu": 26187,
    "ülü": 26188,
    "konut": 26189,
    "sunucu": 26190,
    "belgeler": 26191,
    "log": 26192,
    "kişiye": 26193,
    "sitemizde": 26194,
    "sözleşmesi": 26195,
    "derneği": 26196,
    "html": 26197,
    "olursa": 26198,
    "ündeki": 26199,
    "tarifleri": 26200,
    "sorular": 26201,
    "ulaşım": 26202,
    "more": 26203,
    "sitede": 26204,
    "verilir": 26205,
    "tih": 26206,
    "bireysel": 26207,
    "magaz": 26208,
    "1999": 26209,
    "sunulan": 26210,
    "felse": 26211,
    "yukarıdaki": 26212,
    "nef": 26213,
    "with": 26214,
    "şartları": 26215,
    "lerim": 26216,
    "kullana": 26217,
    "temizlik": 26218,
    "çö": 26219,
    "amik": 26220,
    "efen": 26221,
    "yayımlan": 26222,
    "wal": 26223,
    "stit": 26224,
    "bi̇r": 26225,
    "birini": 26226,
    "tey": 26227,
    "olmalıdır": 26228,
    "kendisini": 26229,
    "açıkça": 26230,
    "ettiğini": 26231,
    "numarası": 26232,
    "kiralama": 26233,
    "ırlar": 26234,
    "city": 26235,
    "anasayfa": 26236,
    "i̇la": 26237,
    "windows": 26238,
    "96": 26239,
    "wid": 26240,
    "güvenliği": 26241,
    "düşünün": 26242,
    "sitesinde": 26243,
    "geleri": 26244,
    "kullanmak": 26245,
    "karıştır": 26246,
    "yapıla": 26247,
    "değeri": 26248,
    "ınar": 26249,
    "time": 26250,
    "kalıcı": 26251,
    "i̇tal": 26252,
    "taları": 26253,
    "email": 26254,
    "malzemeleri": 26255,
    "war": 26256,
    "saklıdır": 26257,
    "şanlı": 26258,
    "250": 26259,
    "your": 26260,
    "iletişime": 26261,
    "biridir": 26262,
    "yardımcısı": 26263,
    "devamı": 26264,
    "king": 26265,
    "verilecek": 26266,
    "hesapla": 26267,
    "elbette": 26268,
    "io": 26269,
    "yöner": 26270,
    "i̇şlem": 26271,
    "zorluk": 26272,
    "bart": 26273,
    "esinden": 26274,
    "aca": 26275,
    "açıklaması": 26276,
    "liliği": 26277,
    "150": 26278,
    "yıllarda": 26279,
    "aşağıda": 26280,
    "özelliği": 26281,
    "bn": 26282,
    "way": 26283,
    "i̇spanyol": 26284,
    "ullah": 26285,
    "\\.": 26286,
    "ust": 26287,
    "rail": 26288,
    ":#": 26289,
    "kra": 26290,
    "ülkemiz": 26291,
    "=>": 26292,
    "malarını": 26293,
    "ld": 26294,
    "okuma": 26295,
    "öncesi": 26296,
    "mediği": 26297,
    "düm": 26298,
    "üyle": 26299,
    "gazetesi": 26300,
    "metni": 26301,
    "hayatını": 26302,
    "molek": 26303,
    "sion": 26304,
    "dığımız": 26305,
    "benzeri": 26306,
    "söylüyor": 26307,
    "ments": 26308,
    "wat": 26309,
    "olim": 26310,
    "word": 26311,
    "edici": 26312,
    "üreti": 26313,
    "endüstr": 26314,
    "ale": 26315,
    "sizler": 26316,
    "koşulları": 26317,
    "ürünün": 26318,
    "varlık": 26319,
    "was": 26320,
    "durdur": 26321,
    "tifi": 26322,
    "i̇çerik": 26323,
    "dv": 26324,
    "belirlemek": 26325,
    "edildiği": 26326,
    "alak": 26327,
    "63": 26328,
    "yaşanan": 26329,
    "seb": 26330,
    "müştür": 26331,
    "yazarı": 26332,
    "​​": 26333,
    "biçimde": 26334,
    "içindeki": 26335,
    "i̇liş": 26336,
    "birinin": 26337,
    "edir": 26338,
    "pl": 26339,
    "ob": 26340,
    "ting": 26341,
    "dayalı": 26342,
    "almış": 26343,
    "koltu": 26344,
    "eklen": 26345,
    "feri": 26346,
    "dönüşüm": 26347,
    "firmamız": 26348,
    "ilmektedir": 26349,
    "ward": 26350,
    "erkekler": 26351,
    "1000": 26352,
    "çalışıyor": 26353,
    "ies": 26354,
    "hizmetler": 26355,
    "liğinin": 26356,
    "takv": 26357,
    "bankası": 26358,
    "kolayla": 26359,
    "i̇talyan": 26360,
    "kullanma": 26361,
    "olmasını": 26362,
    "kültürel": 26363,
    "yenilen": 26364,
    "vı": 26365,
    "hayata": 26366,
    "ınızın": 26367,
    "api": 26368,
    "depre": 26369,
    "azer": 26370,
    "1997": 26371,
    "stri": 26372,
    "yorumunuz": 26373,
    "rock": 26374,
    "shar": 26375,
    "yardı": 26376,
    "eng": 26377,
    "üyeleri": 26378,
    "maktayız": 26379,
    "()": 26380,
    "larındaki": 26381,
    "promos": 26382,
    "bitk": 26383,
    "geçti": 26384,
    "kalma": 26385,
    "aa": 26386,
    "alınır": 26387,
    "şın": 26388,
    "coğraf": 26389,
    "şehri": 26390,
    "tedavisi": 26391,
    "yerini": 26392,
    "uar": 26393,
    "yılları": 26394,
    "fl": 26395,
    "rem": 26396,
    "hayatta": 26397,
    "rep": 26398,
    "bileşen": 26399,
    "uzmanı": 26400,
    "tıbbi": 26401,
    "iyiz": 26402,
    "yapabilirsiniz": 26403,
    "imler": 26404,
    "ilgilen": 26405,
    "kurumu": 26406,
    "yıka": 26407,
    "ilçesine": 26408,
    "____": 26409,
    "leşme": 26410,
    "ges": 26411,
    "dılar": 26412,
    "ulmuş": 26413,
    "giden": 26414,
    "yılda": 26415,
    "günün": 26416,
    "cunun": 26417,
    "sınıflandır": 26418,
    "jı": 26419,
    "görülen": 26420,
    "ceğim": 26421,
    "iyordu": 26422,
    "gibiyim": 26423,
    "mesiyle": 26424,
    "ğinde": 26425,
    "yıp": 26426,
    "dâ": 26427,
    "ihra": 26428,
    "sonuçlar": 26429,
    "uygulamaları": 26430,
    "ükle": 26431,
    "çey": 26432,
    "1998": 26433,
    "laşa": 26434,
    "noktası": 26435,
    "mr": 26436,
    "bine": 26437,
    "kullanan": 26438,
    "low": 26439,
    "verecek": 26440,
    "firması": 26441,
    "konular": 26442,
    "bulma": 26443,
    "85": 26444,
    "avustr": 26445,
    "ulaşabilirsiniz": 26446,
    "içeriği": 26447,
    "yapıldı": 26448,
    "aittir": 26449,
    "seçeneği": 26450,
    "tions": 26451,
    "yola": 26452,
    "okun": 26453,
    "sıcaklık": 26454,
    "güzellik": 26455,
    "doğrult": 26456,
    "sepete": 26457,
    "üyeler": 26458,
    "rit": 26459,
    "alıcı": 26460,
    "sunan": 26461,
    "müdürü": 26462,
    "width": 26463,
    "asistanı": 26464,
    "düşt": 26465,
    "binlerce": 26466,
    "ceğiz": 26467,
    "çağı": 26468,
    "dığım": 26469,
    "teri": 26470,
    "hazırlık": 26471,
    "ğında": 26472,
    "duyar": 26473,
    "ediyoruz": 26474,
    "fabri": 26475,
    "mektu": 26476,
    "sorunları": 26477,
    "reti": 26478,
    "poziti": 26479,
    "los": 26480,
    "önceden": 26481,
    "jpg": 26482,
    "lea": 26483,
    "takdirde": 26484,
    "insanın": 26485,
    "yöntemi": 26486,
    "renkli": 26487,
    "vere": 26488,
    "nokt": 26489,
    "cüml": 26490,
    "ağırlık": 26491,
    "sov": 26492,
    "desteği": 26493,
    "depola": 26494,
    "black": 26495,
    "zamanı": 26496,
    "72": 26497,
    "konuştu": 26498,
    "deliyim": 26499,
    "ers": 26500,
    "bt": 26501,
    "röp": 26502,
    "tedar": 26503,
    "deliyimgibiyim": 26504,
    "şehrin": 26505,
    "görünüyor": 26506,
    "genin": 26507,
    "dırma": 26508,
    "akses": 26509,
    "spa": 26510,
    "ğinin": 26511,
    "kullanıcılar": 26512,
    "peygam": 26513,
    "psi": 26514,
    "rüz": 26515,
    "röporta": 26516,
    "hakkımızda": 26517,
    "div": 26518,
    "bazıları": 26519,
    "hızla": 26520,
    "led": 26521,
    "adaki": 26522,
    "meyecek": 26523,
    "ire": 26524,
    "muham": 26525,
    "dığına": 26526,
    "amaçlı": 26527,
    "!!": 26528,
    "elazı": 26529,
    "bakımı": 26530,
    "azalt": 26531,
    "hing": 26532,
    "etkileşim": 26533,
    "olgun": 26534,
    "yürütül": 26535,
    "super": 26536,
    "yenilik": 26537,
    "79": 26538,
    "oturum": 26539,
    "verin": 26540,
    "bi̇": 26541,
    "yüzü": 26542,
    "manıza": 26543,
    "olmaktadır": 26544,
    "herkesin": 26545,
    "i̇dar": 26546,
    "berg": 26547,
    "kelimeler": 26548,
    "ann": 26549,
    "astr": 26550,
    "doğrultusunda": 26551,
    "tasarlan": 26552,
    "sport": 26553,
    "evlilik": 26554,
    "kısaca": 26555,
    "çıkara": 26556,
    "kv": 26557,
    "belediy": 26558,
    "yakalan": 26559,
    "i̇nceleme": 26560,
    "karşısında": 26561,
    "sing": 26562,
    "”,": 26563,
    "lerimizi": 26564,
    "verimli": 26565,
    "yetkil": 26566,
    "alabilirsiniz": 26567,
    "sızlık": 26568,
    "layınız": 26569,
    "olimpi": 26570,
    "toplumsal": 26571,
    "ks": 26572,
    "tanış": 26573,
    "çalışı": 26574,
    "çalışması": 26575,
    "tional": 26576,
    "güçlendir": 26577,
    "geçici": 26578,
    "futbolcular": 26579,
    "kolaylaştır": 26580,
    "ermen": 26581,
    "bitcoin": 26582,
    "modeli": 26583,
    "geor": 26584,
    "hali": 26585,
    "işlen": 26586,
    "deneyimi": 26587,
    "cerra": 26588,
    "ong": 26589,
    "76": 26590,
    "döndür": 26591,
    "verici": 26592,
    "kullanabilir": 26593,
    "görünüm": 26594,
    "verilmiştir": 26595,
    "lou": 26596,
    "insanları": 26597,
    "almaya": 26598,
    "400": 26599,
    "istiyorsanız": 26600,
    "korumak": 26601,
    "iyel": 26602,
    "kapsamlı": 26603,
    "birisi": 26604,
    "yumur": 26605,
    "yapacak": 26606,
    "alıp": 26607,
    "arken": 26608,
    "bilirler": 26609,
    "arna": 26610,
    "anlamda": 26611,
    "bilirim": 26612,
    "pişir": 26613,
    "lanabilir": 26614,
    "gue": 26615,
    "videolar": 26616,
    "view": 26617,
    "famil": 26618,
    "kullanın": 26619,
    "düğünü": 26620,
    "cra": 26621,
    "comments": 26622,
    "landığı": 26623,
    "kolayca": 26624,
    "kapısı": 26625,
    "i̇y": 26626,
    "vi̇": 26627,
    "ruk": 26628,
    "memiz": 26629,
    "değerlendirme": 26630,
    "i̇srail": 26631,
    "website": 26632,
    "sorus": 26633,
    "hayir": 26634,
    "okuyun": 26635,
    "bg": 26636,
    "elazığ": 26637,
    "çalıştır": 26638,
    "havalim": 26639,
    "aydınlatma": 26640,
    "krallık": 26641,
    "etmiştir": 26642,
    "yürür": 26643,
    "kurab": 26644,
    "cia": 26645,
    "hikayeleri": 26646,
    "teşem": 26647,
    "yaralan": 26648,
    "benzersiz": 26649,
    "anlamak": 26650,
    "dönemi": 26651,
    "yaparken": 26652,
    "tasarru": 26653,
    "çalışır": 26654,
    "oyuncular": 26655,
    "geldiği": 26656,
    "dıklarını": 26657,
    "burg": 26658,
    "steri": 26659,
    "ederken": 26660,
    "i̇şlet": 26661,
    "öldürül": 26662,
    "sitenin": 26663,
    "yukarıda": 26664,
    "baycan": 26665,
    "fc": 26666,
    "rezer": 26667,
    "1996": 26668,
    "cıları": 26669,
    "katıldı": 26670,
    "pasa": 26671,
    "soft": 26672,
    "maması": 26673,
    "yanıtlasil": 26674,
    "etkileye": 26675,
    "düşünüyor": 26676,
    "hri": 26677,
    "text": 26678,
    "sitesinin": 26679,
    "yayımlanmayacak": 26680,
    "pur": 26681,
    "uyumlu": 26682,
    "\".": 26683,
    "ente": 26684,
    "izleme": 26685,
    "61": 26686,
    "bilgilere": 26687,
    "yaklaşım": 26688,
    "egzer": 26689,
    "yapısı": 26690,
    "dolaşı": 26691,
    "katal": 26692,
    "akış": 26693,
    "world": 26694,
    "89": 26695,
    "yürüy": 26696,
    "incelem": 26697,
    "teşekkürler": 26698,
    "ano": 26699,
    "kullanılması": 26700,
    "zamanlar": 26701,
    "(-": 26702,
    "buradan": 26703,
    "unca": 26704,
    "isiniz": 26705,
    "air": 26706,
    "ülkeler": 26707,
    "sevgili": 26708,
    "alınması": 26709,
    "endi": 26710,
    "from": 26711,
    "wood": 26712,
    "1995": 26713,
    "devrim": 26714,
    "diniz": 26715,
    "vic": 26716,
    "eğlenceli": 26717,
    "yabilirsiniz": 26718,
    "maddesi": 26719,
    "giren": 26720,
    "ence": 26721,
    "stır": 26722,
    "teslimat": 26723,
    "vermektedir": 26724,
    "oyunlar": 26725,
    "tamiri": 26726,
    "hastalığı": 26727,
    "i̇ade": 26728,
    "faydalan": 26729,
    "seksi": 26730,
    "çıkıyor": 26731,
    "lamı": 26732,
    "cağına": 26733,
    "yapılmış": 26734,
    "tasarımı": 26735,
    "network": 26736,
    "tum": 26737,
    "isimli": 26738,
    "yükümlül": 26739,
    "liler": 26740,
    "mesaf": 26741,
    "ung": 26742,
    "verildi": 26743,
    "angel": 26744,
    "büy": 26745,
    "lev": 26746,
    "özetle": 26747,
    "işleme": 26748,
    "1994": 26749,
    "hp": 26750,
    "işaretlenmiş": 26751,
    "kullanıcıların": 26752,
    "1980": 26753,
    "vermeye": 26754,
    "örneği": 26755,
    "kiralık": 26756,
    "62": 26757,
    "lum": 26758,
    "koor": 26759,
    "paul": 26760,
    "öğrenme": 26761,
    "ismi": 26762,
    "belirlen": 26763,
    "ilmesine": 26764,
    "başlat": 26765,
    "inter": 26766,
    "larımızın": 26767,
    "kanada": 26768,
    "apple": 26769,
    "oyu": 26770,
    "ang": 26771,
    "vurgula": 26772,
    "chris": 26773,
    "malarına": 26774,
    "jer": 26775,
    "yaratıcı": 26776,
    "haft": 26777,
    "teor": 26778,
    "rehberi": 26779,
    "diğinden": 26780,
    "giderek": 26781,
    "ürünlerin": 26782,
    "diklerini": 26783,
    "köken": 26784,
    "muyor": 26785,
    "87": 26786,
    "ölü": 26787,
    "tercü": 26788,
    "chan": 26789,
    "çet": 26790,
    "gelişmiş": 26791,
    "kitaplar": 26792,
    "izleyi": 26793,
    "tacak": 26794,
    "oluşur": 26795,
    "eliği": 26796,
    "canlandır": 26797,
    "mun": 26798,
    "belg": 26799,
    "oid": 26800,
    "şunu": 26801,
    "düzenlen": 26802,
    "kazanan": 26803,
    "brahim": 26804,
    "bakınız": 26805,
    "edilmektedir": 26806,
    "81": 26807,
    "niha": 26808,
    "kaydı": 26809,
    "sayısını": 26810,
    "uyarınca": 26811,
    "işaretlenmişlerdir": 26812,
    "cial": 26813,
    "denin": 26814,
    "monu": 26815,
    "uluyor": 26816,
    "içe": 26817,
    "sporcu": 26818,
    "maksim": 26819,
    "mero": 26820,
    "82": 26821,
    "ime": 26822,
    "tho": 26823,
    "david": 26824,
    "anlamı": 26825,
    "1992": 26826,
    "yılından": 26827,
    "bölümde": 26828,
    "ilmesini": 26829,
    "gerçe": 26830,
    "lıkta": 26831,
    "miz": 26832,
    "çocuğun": 26833,
    "mag": 26834,
    "okur": 26835,
    "bende": 26836,
    "larca": 26837,
    "parta": 26838,
    "kaynakları": 26839,
    "dünyaya": 26840,
    "geliştirme": 26841,
    "indirim": 26842,
    "ederiz": 26843,
    "açıkladı": 26844,
    "türleri": 26845,
    "bayra": 26846,
    "mevcuttur": 26847,
    "mahkemesi": 26848,
    "cos": 26849,
    "olmalı": 26850,
    "beğenbeğen": 26851,
    "sic": 26852,
    "isinden": 26853,
    "etmeyi": 26854,
    "macer": 26855,
    "di̇r": 26856,
    "sunul": 26857,
    "kulübü": 26858,
    "kenti": 26859,
    "alex": 26860,
    "ino": 26861,
    "gitti": 26862,
    "cre": 26863,
    "i̇spanya": 26864,
    "vara": 26865,
    "gençlik": 26866,
    "yolları": 26867,
    "rul": 26868,
    "atık": 26869,
    "copy": 26870,
    "çerçevesinde": 26871,
    "ulaştır": 26872,
    "boyutu": 26873,
    "çıl": 26874,
    "görüntül": 26875,
    "jim": 26876,
    "kullanabilirsiniz": 26877,
    "finansal": 26878,
    "\"]": 26879,
    "büny": 26880,
    "maçı": 26881,
    "tılan": 26882,
    "yakıt": 26883,
    "zamanlarda": 26884,
    "86": 26885,
    "anlayış": 26886,
    "çekir": 26887,
    "sağlayıcı": 26888,
    "bölgede": 26889,
    "hael": 26890,
    "çocukların": 26891,
    "bilgilerin": 26892,
    "enstit": 26893,
    "sunuyor": 26894,
    "vakfı": 26895,
    "ese": 26896,
    "kayb": 26897,
    "yazılan": 26898,
    ":)": 26899,
    "tahya": 26900,
    "ebevey": 26901,
    "glo": 26902,
    "attı": 26903,
    "tiğimiz": 26904,
    "karşıya": 26905,
    "1993": 26906,
    "çisi": 26907,
    "elendir": 26908,
    "incelen": 26909,
    "şuyor": 26910,
    "120": 26911,
    "die": 26912,
    "genişlet": 26913,
    "çalışa": 26914,
    "ülkede": 26915,
    "platformu": 26916,
    "kullanıcının": 26917,
    "söyleye": 26918,
    "yör": 26919,
    "muk": 26920,
    "gas": 26921,
    "hastalıkları": 26922,
    "geze": 26923,
    "evler": 26924,
    "ami": 26925,
    "işler": 26926,
    "doğdu": 26927,
    "bonusları": 26928,
    "74": 26929,
    "yüzyılda": 26930,
    "faydalı": 26931,
    "üretimi": 26932,
    "dae": 26933,
    "okyan": 26934,
    "kadınların": 26935,
    "sağlanan": 26936,
    "tarafı": 26937,
    "71": 26938,
    "düştü": 26939,
    "adıyla": 26940,
    "box": 26941,
    "olabilirolabilir": 26942,
    "olabilirolabilirmero": 26943,
    "bölün": 26944,
    "turnu": 26945,
    "i̇nşa": 26946,
    "şehirler": 26947,
    "mekteyiz": 26948,
    "lmaz": 26949,
    "soğ": 26950,
    "amas": 26951,
    "açtı": 26952,
    "yemekleri": 26953,
    "istih": 26954,
    "abon": 26955,
    "stü": 26956,
    "yenin": 26957,
    "cılığı": 26958,
    "kullanır": 26959,
    "ihtim": 26960,
    "kullanılarak": 26961,
    "taah": 26962,
    "ng": 26963,
    "çeken": 26964,
    "bildirim": 26965,
    "duygusal": 26966,
    "asistanısınız": 26967,
    "olduğunda": 26968,
    "james": 26969,
    "oldukları": 26970,
    "miktarda": 26971,
    "sky": 26972,
    "unutmayın": 26973,
    "merkezine": 26974,
    "belgesi": 26975,
    "michael": 26976,
    "itibarı": 26977,
    "açıdan": 26978,
    "i̇ler": 26979,
    "asans": 26980,
    "adında": 26981,
    "kadının": 26982,
    "rut": 26983,
    "birbirine": 26984,
    "alardan": 26985,
    "aran": 26986,
    "etkiler": 26987,
    "makla": 26988,
    "açıklamada": 26989,
    "herkese": 26990,
    "[\"": 26991,
    "bgcolor": 26992,
    "kullanılmaktadır": 26993,
    "numaralı": 26994,
    "sızın": 26995,
    "gözden": 26996,
    "annesi": 26997,
    "cümlede": 26998,
    "nüfusu": 26999,
    "function": 27000,
    "ortamda": 27001,
    "şeyin": 27002,
    "areti": 27003,
    "ücreti": 27004,
    "vermiş": 27005,
    "84": 27006,
    "alımı": 27007,
    "elle": 27008,
    "drum": 27009,
    "yolculuk": 27010,
    "hastalı": 27011,
    "sha": 27012,
    "tale": 27013,
    "ilişkiler": 27014,
    "lardaki": 27015,
    "hone": 27016,
    "gerektiği": 27017,
    "olduğumuz": 27018,
    "1991": 27019,
    "satan": 27020,
    "galatas": 27021,
    "danışmanlık": 27022,
    "univer": 27023,
    "taşıyan": 27024,
    "salonu": 27025,
    "dikkatli": 27026,
    "here": 27027,
    "kullanıla": 27028,
    "eleme": 27029,
    "1985": 27030,
    "sorunsuz": 27031,
    "etkileri": 27032,
    "xy": 27033,
    "hastanesi": 27034,
    "cok": 27035,
    "yöntemleri": 27036,
    "kâr": 27037,
    "ambala": 27038,
    "söyler": 27039,
    "ling": 27040,
    "tüketi": 27041,
    "almıştır": 27042,
    "anon": 27043,
    "show": 27044,
    "brik": 27045,
    "ağacı": 27046,
    "malzemeler": 27047,
    "arkadaşlar": 27048,
    "düşünc": 27049,
    "çorum": 27050,
    "\")": 27051,
    "çekmek": 27052,
    "şirketin": 27053,
    "bizimle": 27054,
    "şunları": 27055,
    "73": 27056,
    "endiş": 27057,
    "xbet": 27058,
    "dizisi": 27059,
    "ekibi": 27060,
    "derecede": 27061,
    "diğine": 27062,
    "menizi": 27063,
    "kasta": 27064,
    "bekliyor": 27065,
    "şampiyonası": 27066,
    "taahhü": 27067,
    "siteye": 27068,
    "madığı": 27069,
    "::": 27070,
    "iyo": 27071,
    "covid": 27072,
    "özellikler": 27073,
    "trum": 27074,
    "tive": 27075,
    "müsa": 27076,
    "devleti": 27077,
    "kazanı": 27078,
    "gerekç": 27079,
    "gelişmeler": 27080,
    "kendilerini": 27081,
    "çikola": 27082,
    "sesi": 27083,
    "izleye": 27084,
    "sto": 27085,
    "yaşadığı": 27086,
    "uygul": 27087,
    "amı": 27088,
    "iphone": 27089,
    "alarından": 27090,
    "mümkündür": 27091,
    "şüph": 27092,
    "i̇brahim": 27093,
    "çeşitleri": 27094,
    "hesabı": 27095,
    "şirketleri": 27096,
    "oluşum": 27097,
    "kalites": 27098,
    "tran": 27099,
    "işç": 27100,
    "başlıyor": 27101,
    "sonucuna": 27102,
    "ydi": 27103,
    "><": 27104,
    "duyg": 27105,
    "dd": 27106,
    "guldak": 27107,
    "kelimeleri": 27108,
    "ilmez": 27109,
    "url": 27110,
    "haberi": 27111,
    "esun": 27112,
    "pinter": 27113,
    "kendilerine": 27114,
    "ettiğiniz": 27115,
    "çoğunlukla": 27116,
    "olabil": 27117,
    "seven": 27118,
    "i̇lanları": 27119,
    "pier": 27120,
    "birbirinden": 27121,
    "olacağını": 27122,
    "micro": 27123,
    "i̇sveç": 27124,
    "doma": 27125,
    "oluşturur": 27126,
    "ti̇": 27127,
    "adamı": 27128,
    "kasyon": 27129,
    "grubun": 27130,
    "uçuş": 27131,
    "görür": 27132,
    "izlemek": 27133,
    "yemeği": 27134,
    "indi": 27135,
    "koordin": 27136,
    "ediliyor": 27137,
    "tis": 27138,
    "dördün": 27139,
    "bulabilirsiniz": 27140,
    "ndeki": 27141,
    "atmos": 27142,
    "psikolojik": 27143,
    "olanlar": 27144,
    "next": 27145,
    "copyright": 27146,
    "java": 27147,
    "sco": 27148,
    "muhafaz": 27149,
    "sebebi": 27150,
    "mekaniz": 27151,
    "süren": 27152,
    "bs": 27153,
    "elektrikli": 27154,
    "çözün": 27155,
    "ingir": 27156,
    "ödülleri": 27157,
    "92": 27158,
    "terek": 27159,
    "cookies": 27160,
    "tegor": 27161,
    "şöyledir": 27162,
    "seyin": 27163,
    "ous": 27164,
    "çerezleri": 27165,
    "ilinin": 27166,
    "83": 27167,
    "blu": 27168,
    "âr": 27169,
    "ırım": 27170,
    "kuy": 27171,
    "süley": 27172,
    "adımları": 27173,
    "serisi": 27174,
    "ğına": 27175,
    "ölenler": 27176,
    "çalıştı": 27177,
    "fatur": 27178,
    "pdf": 27179,
    "1970": 27180,
    "telefonu": 27181,
    "yabilir": 27182,
    "beli": 27183,
    "emre": 27184,
    "opt": 27185,
    "eşi": 27186,
    "dt": 27187,
    "hâl": 27188,
    "jon": 27189,
    "ikisi": 27190,
    "nükle": 27191,
    "sürdürülebilir": 27192,
    "sayede": 27193,
    "analizi": 27194,
    "bayanlar": 27195,
    "93": 27196,
    "cn": 27197,
    "yürüyüş": 27198,
    "pinterest": 27199,
    "burcu": 27200,
    "yıkama": 27201,
    "depolama": 27202,
    "vanın": 27203,
    "sunar": 27204,
    "forex": 27205,
    "ailesi": 27206,
    "cle": 27207,
    "bağımlı": 27208,
    "altyazılı": 27209,
    "??": 27210,
    "peyn": 27211,
    "getiren": 27212,
    "kişilere": 27213,
    "düzeyde": 27214,
    "fri": 27215,
    "cap": 27216,
    "ülkemizde": 27217,
    "planı": 27218,
    "aley": 27219,
    "cro": 27220,
    "ğlu": 27221,
    "ea": 27222,
    "aktiv": 27223,
    "hakkındaki": 27224,
    "şıklık": 27225,
    "cast": 27226,
    "tılması": 27227,
    "94": 27228,
    "frac": 27229,
    "iştir": 27230,
    "mater": 27231,
    "belirten": 27232,
    "başa": 27233,
    "yken": 27234,
    "açılış": 27235,
    "asıyla": 27236,
    "fav": 27237,
    "memesi": 27238,
    "açılan": 27239,
    "cumar": 27240,
    "seçimi": 27241,
    "cileri": 27242,
    "kaları": 27243,
    "tt": 27244,
    "kuvvetleri": 27245,
    "güncelleme": 27246,
    "fah": 27247,
    "müdahal": 27248,
    "avustur": 27249,
    "şamba": 27250,
    "ls": 27251,
    "mediğini": 27252,
    "tit": 27253,
    "kalır": 27254,
    "olik": 27255,
    "buldu": 27256,
    "kos": 27257,
    "ال": 27258,
    "i̇mparatorluğu": 27259,
    "kararlı": 27260,
    "alındı": 27261,
    "onunla": 27262,
    "ekleyin": 27263,
    "i̇laç": 27264,
    "dördüncü": 27265,
    "real": 27266,
    "gördü": 27267,
    "asının": 27268,
    "aktivi": 27269,
    "sevgi": 27270,
    "esn": 27271,
    "kalab": 27272,
    "gecik": 27273,
    "nel": 27274,
    "özgürlük": 27275,
    "cus": 27276,
    "araştırmalar": 27277,
    "aler": 27278,
    "tutu": 27279,
    "bunlardan": 27280,
    "randev": 27281,
    "algor": 27282,
    "yakası": 27283,
    "gb": 27284,
    "getirmek": 27285,
    "pel": 27286,
    "arch": 27287,
    "yorumu": 27288,
    "?”": 27289,
    "ああああああああ": 27290,
    "perşem": 27291,
    "iner": 27292,
    "----------------": 27293,
    "ramaz": 27294,
    "1989": 27295,
    "dıköy": 27296,
    "oyuncuları": 27297,
    "dondur": 27298,
    "veriliyor": 27299,
    "dünyası": 27300,
    "tıldı": 27301,
    "mî": 27302,
    "olaylar": 27303,
    "kardeşi": 27304,
    "bitkiler": 27305,
    "sonuna": 27306,
    "yerleşim": 27307,
    "hoşgel": 27308,
    "getirdi": 27309,
    "algorit": 27310,
    "redde": 27311,
    "mızdan": 27312,
    "sağlıyor": 27313,
    "kimdir": 27314,
    "ustası": 27315,
    "eşyalar": 27316,
    "yıkı": 27317,
    "öğrenim": 27318,
    "koltuğu": 27319,
    "göstermektedir": 27320,
    "ulaşmak": 27321,
    "dostu": 27322,
    "anlamlı": 27323,
    "sürücü": 27324,
    "satışı": 27325,
    "fla": 27326,
    "ig": 27327,
    "cını": 27328,
    "zim": 27329,
    "buğ": 27330,
    "yil": 27331,
    "ğde": 27332,
    "yazıları": 27333,
    "göğü": 27334,
    "keyifli": 27335,
    "string": 27336,
    "91": 27337,
    "bilgilendirme": 27338,
    "ebilecek": 27339,
    "efsan": 27340,
    "hatırla": 27341,
    "güne": 27342,
    "sitesine": 27343,
    "günler": 27344,
    "diğince": 27345,
    "festiv": 27346,
    "sürüm": 27347,
    "tanımlayın": 27348,
    "lerimizin": 27349,
    "silahlı": 27350,
    "ales": 27351,
    "bakımından": 27352,
    "cıların": 27353,
    "festivali": 27354,
    "biliyoruz": 27355,
    "büyüme": 27356,
    "enter": 27357,
    "boşluk": 27358,
    "görevde": 27359,
    "i̇nşaat": 27360,
    "başk": 27361,
    "noktada": 27362,
    "bölümünde": 27363,
    "tekiz": 27364,
    "önde": 27365,
    "müzesi": 27366,
    "lideri": 27367,
    "dalg": 27368,
    "ure": 27369,
    "raporu": 27370,
    "labor": 27371,
    "lendirme": 27372,
    "geliştirmek": 27373,
    "çocukları": 27374,
    "lamış": 27375,
    "verebilir": 27376,
    "sorumluluğu": 27377,
    "antren": 27378,
    "shi": 27379,
    "lamalı": 27380,
    "dukları": 27381,
    "hang": 27382,
    "olabilirsiniz": 27383,
    "lamayı": 27384,
    "……": 27385,
    "donanım": 27386,
    "bilgiye": 27387,
    "news": 27388,
    "sıklıkla": 27389,
    "gelmiş": 27390,
    "slo": 27391,
    "şunlardır": 27392,
    "öldü": 27393,
    "ite": 27394,
    "scrip": 27395,
    "=\"#": 27396,
    "dolaylı": 27397,
    "duruş": 27398,
    "sahipleri": 27399,
    "oranları": 27400,
    "olabilecek": 27401,
    "brezil": 27402,
    "klin": 27403,
    "adamın": 27404,
    "üretilen": 27405,
    "vit": 27406,
    "melerini": 27407,
    "sisteminin": 27408,
    "uygulana": 27409,
    "yorlar": 27410,
    "imkanı": 27411,
    "ation": 27412,
    "evin": 27413,
    "alakalı": 27414,
    "kimi": 27415,
    "yaza": 27416,
    "ns": 27417,
    "atif": 27418,
    "belirlenen": 27419,
    "üstüne": 27420,
    "tedir": 27421,
    "tımı": 27422,
    ".'": 27423,
    "albümü": 27424,
    "festi": 27425,
    "arayan": 27426,
    "aldım": 27427,
    "kalitesi": 27428,
    "burdur": 27429,
    "that": 27430,
    "celeri": 27431,
    "zincan": 27432,
    "sınırsız": 27433,
    "gördüğ": 27434,
    "eld": 27435,
    "eczan": 27436,
    "şekli": 27437,
    "hediy": 27438,
    "].": 27439,
    "mağazası": 27440,
    "miyorum": 27441,
    "elinde": 27442,
    "ordusu": 27443,
    "halkı": 27444,
    "mutfa": 27445,
    "imkâ": 27446,
    "muay": 27447,
    "dedim": 27448,
    "hire": 27449,
    "ciha": 27450,
    "now": 27451,
    "sayıl": 27452,
    "istiyan": 27453,
    "george": 27454,
    "1960": 27455,
    "aktarıl": 27456,
    "stre": 27457,
    "ilçesinde": 27458,
    "köş": 27459,
    "bünyesinde": 27460,
    "oyuncusu": 27461,
    "basının": 27462,
    "makya": 27463,
    "detaylar": 27464,
    "medim": 27465,
    "kvkk": 27466,
    "ülen": 27467,
    "çapında": 27468,
    "yerden": 27469,
    "hızı": 27470,
    "fli": 27471,
    "duğumuz": 27472,
    "varsayı": 27473,
    "ondan": 27474,
    "esnasında": 27475,
    "cing": 27476,
    "\"]=>": 27477,
    "try": 27478,
    "yerleri": 27479,
    "betçi": 27480,
    "ase": 27481,
    "müte": 27482,
    "bi̇l": 27483,
    "kariyeri": 27484,
    "e9e9e9": 27485,
    "spesi": 27486,
    "sorunlar": 27487,
    "insanı": 27488,
    "sw": 27489,
    "hazırlanan": 27490,
    "kayıtlı": 27491,
    "çıkarmak": 27492,
    "melerine": 27493,
    "ago": 27494,
    "****": 27495,
    "heps": 27496,
    "ilişkili": 27497,
    "hiper": 27498,
    "600": 27499,
    "istat": 27500,
    "meclisi": 27501,
    "süreli": 27502,
    "robert": 27503,
    "atlan": 27504,
    "yapmanız": 27505,
    "yaşar": 27506,
    "unuzu": 27507,
    "bilmeniz": 27508,
    "çamaş": 27509,
    "107": 27510,
    "gereği": 27511,
    "lemeler": 27512,
    "sum": 27513,
    "tiğinde": 27514,
    "odaklan": 27515,
    "!”": 27516,
    "katılan": 27517,
    "öğrenmek": 27518,
    "sunmaktadır": 27519,
    "kendinizi": 27520,
    "tavsiy": 27521,
    "bilinir": 27522,
    "bağlan": 27523,
    "inceleye": 27524,
    "yolo": 27525,
    "li̇k": 27526,
    "konuyu": 27527,
    "tutul": 27528,
    "izler": 27529,
    "cezası": 27530,
    "çizg": 27531,
    "verilmesi": 27532,
    "değişikliği": 27533,
    "araçları": 27534,
    "öğrencilerin": 27535,
    "lıp": 27536,
    "ettim": 27537,
    "}{": 27538,
    "gari": 27539,
    "işin": 27540,
    "ektif": 27541,
    "kong": 27542,
    "süredir": 27543,
    "verg": 27544,
    "değildi": 27545,
    "istin": 27546,
    "olmayı": 27547,
    "1988": 27548,
    "isterseniz": 27549,
    "sertifi": 27550,
    "layacak": 27551,
    "tarzı": 27552,
    "elb": 27553,
    "soruşturma": 27554,
    "alması": 27555,
    "varlığı": 27556,
    "yazan": 27557,
    "gah": 27558,
    "işbirliği": 27559,
    "yazdır": 27560,
    "örgütü": 27561,
    "hon": 27562,
    "i̇ste": 27563,
    "sektöründe": 27564,
    "layıp": 27565,
    "cho": 27566,
    "oluşturulan": 27567,
    "atma": 27568,
    "zorlu": 27569,
    "açıklamalar": 27570,
    "başlıklı": 27571,
    "itibarıyla": 27572,
    "ğının": 27573,
    "insanlara": 27574,
    "yayınlandı": 27575,
    "sekret": 27576,
    "maktır": 27577,
    "demektir": 27578,
    "açabilir": 27579,
    "değişimi": 27580,
    "viç": 27581,
    "ümin": 27582,
    "imum": 27583,
    "kahval": 27584,
    "erke": 27585,
    "düşünüyorum": 27586,
    "3d": 27587,
    "1987": 27588,
    "mutluluk": 27589,
    "değerini": 27590,
    "atu": 27591,
    "tarihleri": 27592,
    "ux": 27593,
    "günlerde": 27594,
    "gelmektedir": 27595,
    "yönünde": 27596,
    "liy": 27597,
    "tehlikeli": 27598,
    "yaşamı": 27599,
    "sevgil": 27600,
    "dâhil": 27601,
    "sağlayacak": 27602,
    "yakından": 27603,
    "gini": 27604,
    "farkı": 27605,
    "evinde": 27606,
    "tamamı": 27607,
    "digit": 27608,
    "döndü": 27609,
    "ilerden": 27610,
    "genelinde": 27611,
    "tüz": 27612,
    "kesinti": 27613,
    "yapabilir": 27614,
    "ai": 27615,
    "muhar": 27616,
    "kanunun": 27617,
    "oluşturan": 27618,
    "girişi": 27619,
    "gerilim": 27620,
    "sahn": 27621,
    "programları": 27622,
    "yapılmıştır": 27623,
    "ıldığında": 27624,
    "i̇ncele": 27625,
    "masın": 27626,
    "taşımacılık": 27627,
    "silin": 27628,
    "alana": 27629,
    "faydaları": 27630,
    "sürece": 27631,
    "ess": 27632,
    "sorg": 27633,
    "melisiniz": 27634,
    "i̇spanyolca": 27635,
    "kaybe": 27636,
    "''''": 27637,
    "ýn": 27638,
    "end": 27639,
    "cusu": 27640,
    "atöl": 27641,
    "yükselt": 27642,
    "yazma": 27643,
    "arasından": 27644,
    "sayfası": 27645,
    "vererek": 27646,
    "i̇nsanlar": 27647,
    "birimi": 27648,
    "maye": 27649,
    "maların": 27650,
    "kızlar": 27651,
    "fikri": 27652,
    "jik": 27653,
    "wordpress": 27654,
    "âyet": 27655,
    "kurulum": 27656,
    "projeler": 27657,
    "cis": 27658,
    "bozul": 27659,
    "ect": 27660,
    "forni": 27661,
    "utma": 27662,
    "çileri": 27663,
    "larınıza": 27664,
    "1986": 27665,
    "yolda": 27666,
    "engelli": 27667,
    "kullanmaya": 27668,
    "diyal": 27669,
    "ğinden": 27670,
    "für": 27671,
    "isteye": 27672,
    "oyunun": 27673,
    "dri": 27674,
    "belirtti": 27675,
    "spon": 27676,
    "piyasaya": 27677,
    "tutan": 27678,
    "çalıştığı": 27679,
    "sn": 27680,
    "kullanıyor": 27681,
    "masıdır": 27682,
    "altındaki": 27683,
    "şeye": 27684,
    "olduğum": 27685,
    "kullandı": 27686,
    "bulur": 27687,
    "soruları": 27688,
    "pon": 27689,
    "bilgiyi": 27690,
    "kazana": 27691,
    "temizliği": 27692,
    "yapmayı": 27693,
    "mıyorum": 27694,
    "cli": 27695,
    "yaşamak": 27696,
    "ston": 27697,
    "ib": 27698,
    "peter": 27699,
    "i̇ddaa": 27700,
    "etrafında": 27701,
    "tıklayınız": 27702,
    "değişiklikler": 27703,
    "oli": 27704,
    "koruyucu": 27705,
    "solu": 27706,
    "girer": 27707,
    "imizden": 27708,
    "yusu": 27709,
    "well": 27710,
    "hocam": 27711,
    "denir": 27712,
    "i̇şi̇m": 27713,
    "destekle": 27714,
    "('": 27715,
    "görme": 27716,
    "hikâ": 27717,
    "kadını": 27718,
    "isindeki": 27719,
    "aralarında": 27720,
    "row": 27721,
    "halısı": 27722,
    "pc": 27723,
    "atın": 27724,
    "1984": 27725,
    "bilgilerini": 27726,
    "iyer": 27727,
    "enstitüsü": 27728,
    "lacaktır": 27729,
    "diyerek": 27730,
    "lanacak": 27731,
    "inceley": 27732,
    "type": 27733,
    "ej": 27734,
    "views": 27735,
    "hâlâ": 27736,
    "sq": 27737,
    "kaybı": 27738,
    "fırsatı": 27739,
    "got": 27740,
    "dk": 27741,
    "mekten": 27742,
    "birine": 27743,
    "bill": 27744,
    "parlamen": 27745,
    "comment": 27746,
    "bakın": 27747,
    "yapılmaktadır": 27748,
    "etmeniz": 27749,
    "akp": 27750,
    "alabilir": 27751,
    "i̇ka": 27752,
    "çocuğu": 27753,
    "eniz": 27754,
    "puanı": 27755,
    "konumu": 27756,
    "genelde": 27757,
    "dge": 27758,
    "share": 27759,
    "kullandığı": 27760,
    "üminyum": 27761,
    "çalışmaya": 27762,
    "tev": 27763,
    "almanca": 27764,
    "i̇çi̇n": 27765,
    "tümü": 27766,
    "paylaşmak": 27767,
    "irt": 27768,
    "kişiyi": 27769,
    "ore": 27770,
    "diyen": 27771,
    "ende": 27772,
    "gerçekleştirilen": 27773,
    "lüğe": 27774,
    "ölçek": 27775,
    "esnek": 27776,
    "dağıtım": 27777,
    "bugüne": 27778,
    "saati": 27779,
    "cher": 27780,
    "ulaşı": 27781,
    "ki̇": 27782,
    "zamanlı": 27783,
    "apa": 27784,
    "suyun": 27785,
    "kalkınma": 27786,
    "ena": 27787,
    "sitesini": 27788,
    "larımızı": 27789,
    "dalık": 27790,
    "beğeni": 27791,
    "pho": 27792,
    "meyin": 27793,
    "semin": 27794,
    "sözler": 27795,
    "limi": 27796,
    "yaşıyor": 27797,
    "misin": 27798,
    "zamanında": 27799,
    "produ": 27800,
    "bölgesel": 27801,
    "resimler": 27802,
    "mın": 27803,
    "biyet": 27804,
    "kuran": 27805,
    "trump": 27806,
    "gg": 27807,
    "baybur": 27808,
    "geçtiğimiz": 27809,
    "tabilir": 27810,
    "mede": 27811,
    "luğun": 27812,
    "arnav": 27813,
    "hükû": 27814,
    "gidiyor": 27815,
    "şirketler": 27816,
    "biliyorum": 27817,
    "kuşa": 27818,
    "moto": 27819,
    "aleti": 27820,
    "sizleri": 27821,
    "enler": 27822,
    "clu": 27823,
    "çıkma": 27824,
    "open": 27825,
    "linkedin": 27826,
    "phi": 27827,
    "liyoruz": 27828,
    "öre": 27829,
    "bahsedil": 27830,
    "halkın": 27831,
    "ülkem": 27832,
    "önümüz": 27833,
    "suretiyle": 27834,
    "whi": 27835,
    "uzan": 27836,
    "alanlarda": 27837,
    "protok": 27838,
    "şişli": 27839,
    "kazanmak": 27840,
    "ian": 27841,
    "bunlara": 27842,
    "vadeli": 27843,
    "menize": 27844,
    "kurdu": 27845,
    "sili": 27846,
    "britan": 27847,
    "pahalı": 27848,
    "istediği": 27849,
    "~~": 27850,
    "önemi": 27851,
    "edik": 27852,
    "dınız": 27853,
    "idar": 27854,
    "başarısız": 27855,
    "\"|": 27856,
    "müziği": 27857,
    "yönetic": 27858,
    "tılmış": 27859,
    "demi": 27860,
    "bini": 27861,
    "vakı": 27862,
    "bron": 27863,
    "annes": 27864,
    "kurucu": 27865,
    "zamanla": 27866,
    "başvurucunun": 27867,
    "laboratu": 27868,
    "istedi": 27869,
    "script": 27870,
    "sergil": 27871,
    "field": 27872,
    "zel": 27873,
    "duruma": 27874,
    "izlen": 27875,
    "bağlama": 27876,
    "samsung": 27877,
    "ilanları": 27878,
    "doğrula": 27879,
    "merkezli": 27880,
    "çalışmak": 27881,
    "seti": 27882,
    "seçe": 27883,
    "dıran": 27884,
    "getirir": 27885,
    "farklılık": 27886,
    "i̇ye": 27887,
    "sahipliği": 27888,
    "ae": 27889,
    "koron": 27890,
    "ox": 27891,
    "1983": 27892,
    "önlemek": 27893,
    "gereklidir": 27894,
    "yılına": 27895,
    "stem": 27896,
    "sözcü": 27897,
    "videoları": 27898,
    "farkın": 27899,
    "bâ": 27900,
    "rengi": 27901,
    "load": 27902,
    "spe": 27903,
    "hukuku": 27904,
    "tüketim": 27905,
    "yağlı": 27906,
    "lerdeki": 27907,
    "rüyada": 27908,
    "kontrolü": 27909,
    "dom": 27910,
    "fın": 27911,
    "kaçın": 27912,
    "urn": 27913,
    "101": 27914,
    "tici": 27915,
    "tanesi": 27916,
    "sürüyor": 27917,
    "pp": 27918,
    "tifak": 27919,
    "kaplama": 27920,
    "yazdı": 27921,
    "iyorlar": 27922,
    "hidro": 27923,
    "uyuşturucu": 27924,
    "tral": 27925,
    "bahs": 27926,
    "yüzyılın": 27927,
    "microsoft": 27928,
    "hareketi": 27929,
    "uzaktan": 27930,
    "power": 27931,
    "chel": 27932,
    "luğunu": 27933,
    "üğ": 27934,
    "sitemize": 27935,
    "bik": 27936,
    "açılır": 27937,
    "araçlar": 27938,
    "urken": 27939,
    "mesajı": 27940,
    "opat": 27941,
    "elerle": 27942,
    "yarışması": 27943,
    "avir": 27944,
    "türbanlı": 27945,
    "belirterek": 27946,
    "nehri": 27947,
    "gatif": 27948,
    "çılık": 27949,
    "mimari": 27950,
    "nesn": 27951,
    ")'": 27952,
    "pazarı": 27953,
    "konsan": 27954,
    "uzaklıkta": 27955,
    "kaşı": 27956,
    "tadını": 27957,
    "noktas": 27958,
    "hareketli": 27959,
    "mağazaları": 27960,
    "maddesinin": 27961,
    "yapmaktadır": 27962,
    "söylen": 27963,
    "edilecek": 27964,
    "ailen": 27965,
    "makaleler": 27966,
    "sonuçta": 27967,
    "une": 27968,
    "parçaları": 27969,
    "ky": 27970,
    "sper": 27971,
    "haftalık": 27972,
    "ning": 27973,
    "istler": 27974,
    "aksine": 27975,
    "karışık": 27976,
    "banın": 27977,
    "duyarlı": 27978,
    "1982": 27979,
    "şifr": 27980,
    "ilişkileri": 27981,
    "adresleri": 27982,
    "grand": 27983,
    "lie": 27984,
    "ndaki": 27985,
    "değişen": 27986,
    "talebi": 27987,
    "geli": 27988,
    "yazılımı": 27989,
    "bildiği": 27990,
    "açan": 27991,
    "başlığı": 27992,
    "kana": 27993,
    "beklenen": 27994,
    "kaydedil": 27995,
    "sika": 27996,
    "konuları": 27997,
    "tıktan": 27998,
    "ök": 27999,
    "çözümü": 28000,
    "sesli": 28001,
    "gitmek": 28002,
    "yükümlülük": 28003,
    "garant": 28004,
    "miktarı": 28005,
    "vip": 28006,
    "plin": 28007,
    "çiğ": 28008,
    "count": 28009,
    "prensi": 28010,
    "sports": 28011,
    "lır": 28012,
    "},": 28013,
    "yöneticisi": 28014,
    "şma": 28015,
    "devletin": 28016,
    "eserleri": 28017,
    "saatleri": 28018,
    "i̇şleri": 28019,
    "duktan": 28020,
    "vita": 28021,
    "unutul": 28022,
    "app": 28023,
    "dikal": 28024,
    "tutarlı": 28025,
    "ios": 28026,
    "şarkıcı": 28027,
    "kombin": 28028,
    "doları": 28029,
    "sebeple": 28030,
    "west": 28031,
    "sorulan": 28032,
    "eur": 28033,
    "uluğunu": 28034,
    "vision": 28035,
    "andre": 28036,
    "larınızın": 28037,
    "hington": 28038,
    "görüyor": 28039,
    "anlaşı": 28040,
    "haberdar": 28041,
    "anızı": 28042,
    "öncesinde": 28043,
    "eseri": 28044,
    "premi": 28045,
    "mul": 28046,
    "benimle": 28047,
    "bonuslar": 28048,
    "tespiti": 28049,
    "olayı": 28050,
    "değerleri": 28051,
    "oynan": 28052,
    "yıla": 28053,
    "metr": 28054,
    "info": 28055,
    "özelliklerini": 28056,
    "hayvanlar": 28057,
    "leşe": 28058,
    "yıllardır": 28059,
    "kutusu": 28060,
    "ayın": 28061,
    "ifadesi": 28062,
    "united": 28063,
    "lish": 28064,
    "fifa": 28065,
    "istiyoruz": 28066,
    "lanacaktır": 28067,
    "arke": 28068,
    "leştirme": 28069,
    "i̇smail": 28070,
    "sürecinde": 28071,
    "alandır": 28072,
    "harekete": 28073,
    "okumak": 28074,
    "bulunması": 28075,
    "evine": 28076,
    "gelip": 28077,
    "kaynaklar": 28078,
    "yüzünden": 28079,
    "olabildiğince": 28080,
    "dikçe": 28081,
    "elerinden": 28082,
    "ülasyon": 28083,
    "lemesi": 28084,
    "işlemler": 28085,
    "hükûmet": 28086,
    "çözmek": 28087,
    "masi": 28088,
    "kaybetti": 28089,
    "i̇sviç": 28090,
    "cookie": 28091,
    "başkenti": 28092,
    "washington": 28093,
    "poli": 28094,
    "başlangıçta": 28095,
    "uri": 28096,
    "hayatın": 28097,
    "yapması": 28098,
    "olmaması": 28099,
    "madığını": 28100,
    "yoktu": 28101,
    "i̇f": 28102,
    "loj": 28103,
    "lil": 28104,
    "gara": 28105,
    "egem": 28106,
    "haklı": 28107,
    "tlar": 28108,
    "baları": 28109,
    "manu": 28110,
    "fazlası": 28111,
    "lamanın": 28112,
    "kurmak": 28113,
    "0000": 28114,
    "siste": 28115,
    "lım": 28116,
    "temizleme": 28117,
    "hakkari": 28118,
    "house": 28119,
    "dia": 28120,
    "yaptıkları": 28121,
    "kendisinin": 28122,
    "zararlı": 28123,
    "leştirilmiş": 28124,
    "hazırlan": 28125,
    "dou": 28126,
    "uygulanan": 28127,
    "iddaa": 28128,
    "aktivit": 28129,
    "kanalı": 28130,
    "açar": 28131,
    "bağışıklık": 28132,
    "conten": 28133,
    "ander": 28134,
    "alarla": 28135,
    "tına": 28136,
    "mann": 28137,
    "kimin": 28138,
    "memektedir": 28139,
    "gösterdi": 28140,
    "bütç": 28141,
    "notlar": 28142,
    "tılır": 28143,
    "tıkları": 28144,
    "hakkını": 28145,
    "lisesi": 28146,
    "komisyonu": 28147,
    "düşüş": 28148,
    "arıyor": 28149,
    "mahkem": 28150,
    "parkı": 28151,
    "inda": 28152,
    "üme": 28153,
    "sunum": 28154,
    "yerlerde": 28155,
    "noktaları": 28156,
    "bahisleri": 28157,
    "dî": 28158,
    "oc": 28159,
    "yanına": 28160,
    "arkadaşları": 28161,
    "düşünül": 28162,
    "civarında": 28163,
    "lerindeki": 28164,
    "via": 28165,
    "league": 28166,
    "reply": 28167,
    "olduklarını": 28168,
    "aldığınız": 28169,
    "1974": 28170,
    "adresine": 28171,
    "sity": 28172,
    "meb": 28173,
    "php": 28174,
    "pit": 28175,
    "nereden": 28176,
    "richar": 28177,
    "kaynaklanan": 28178,
    "maddeleri": 28179,
    "kütle": 28180,
    "ekimi": 28181,
    "odaklı": 28182,
    "trasyon": 28183,
    "dosyalar": 28184,
    "yazdığı": 28185,
    "anıyor": 28186,
    "kılav": 28187,
    "cilere": 28188,
    "etli": 28189,
    "galer": 28190,
    "görüşmeler": 28191,
    "kavu": 28192,
    "maliyeti": 28193,
    "paketi": 28194,
    "love": 28195,
    "board": 28196,
    "kurtulu": 28197,
    "1979": 28198,
    "sanırım": 28199,
    "lıyoruz": 28200,
    "getiriyor": 28201,
    "viz": 28202,
    "pod": 28203,
    "800": 28204,
    "mühendislik": 28205,
    "thon": 28206,
    "protest": 28207,
    "yolunda": 28208,
    "etmez": 28209,
    "aralı": 28210,
    "voley": 28211,
    "kendimi": 28212,
    "buzdola": 28213,
    "vakti": 28214,
    "astron": 28215,
    "bulunduğunu": 28216,
    "hipotezi": 28217,
    "istis": 28218,
    "inizden": 28219,
    "ory": 28220,
    "1981": 28221,
    "cey": 28222,
    "almayı": 28223,
    "mesleki": 28224,
    "yaptığ": 28225,
    "lerimize": 28226,
    "yir": 28227,
    "olacağı": 28228,
    "lamadan": 28229,
    "süreçte": 28230,
    "eceğiz": 28231,
    "duyurdu": 28232,
    "özgün": 28233,
    "güvence": 28234,
    "gönderilen": 28235,
    "yüzlerce": 28236,
    "tarihinden": 28237,
    "yarışma": 28238,
    "ği̇": 28239,
    "yetersiz": 28240,
    "anlatan": 28241,
    "oynadı": 28242,
    "sunduğu": 28243,
    "konuşan": 28244,
    "lâm": 28245,
    "başvurusu": 28246,
    "yaşama": 28247,
    "göv": 28248,
    "yapılmasına": 28249,
    "add": 28250,
    "eğr": 28251,
    "değiştirme": 28252,
    "pic": 28253,
    "yapıldığı": 28254,
    "ziyaretçiler": 28255,
    "obj": 28256,
    "onarım": 28257,
    "$$": 28258,
    "laşması": 28259,
    "teknolojik": 28260,
    "merdiveni": 28261,
    "tamamlan": 28262,
    "lerinize": 28263,
    "cevabını": 28264,
    "fiyata": 28265,
    "ihtiyacınız": 28266,
    "dry": 28267,
    "dışına": 28268,
    "kuruldu": 28269,
    "lamaları": 28270,
    "turkey": 28271,
    "dakikada": 28272,
    "sürecin": 28273,
    "sû": 28274,
    "manz": 28275,
    "gençler": 28276,
    "yönetmelik": 28277,
    "açmak": 28278,
    "cilerin": 28279,
    "yazarak": 28280,
    "dolaşımı": 28281,
    "hatalı": 28282,
    "long": 28283,
    "eşsiz": 28284,
    "hikayesi": 28285,
    "dışındaki": 28286,
    "yılının": 28287,
    "fazlasını": 28288,
    "ci̇": 28289,
    "i̇sa": 28290,
    "mesle": 28291,
    "sman": 28292,
    "i̇rlanda": 28293,
    "anılan": 28294,
    "âh": 28295,
    "düşen": 28296,
    "gi̇r": 28297,
    "1950": 28298,
    "sizden": 28299,
    "olabileceğini": 28300,
    "ysa": 28301,
    "grupları": 28302,
    "sektörü": 28303,
    "güler": 28304,
    "otomo": 28305,
    "sınavı": 28306,
    "i̇lç": 28307,
    "tamamlamak": 28308,
    "sınırları": 28309,
    "stal": 28310,
    "yıldızı": 28311,
    "caddesi": 28312,
    "bizlere": 28313,
    "kl": 28314,
    "endek": 28315,
    "sıralama": 28316,
    "cation": 28317,
    "our": 28318,
    "lezzetli": 28319,
    "tanır": 28320,
    "tanımı": 28321,
    "jor": 28322,
    "diyorum": 28323,
    "federasyonu": 28324,
    "irti": 28325,
    "tipik": 28326,
    "f2": 28327,
    "duğunuz": 28328,
    "büyüsü": 28329,
    "merkezinde": 28330,
    "çilerin": 28331,
    "alanına": 28332,
    "birer": 28333,
    "haritası": 28334,
    "sayfalar": 28335,
    "1975": 28336,
    "göstermek": 28337,
    "zik": 28338,
    "kaşığı": 28339,
    "isteme": 28340,
    "110": 28341,
    "clo": 28342,
    "piyan": 28343,
    "english": 28344,
    "miyiz": 28345,
    "üğü": 28346,
    "geldiğini": 28347,
    "cent": 28348,
    "söyleyen": 28349,
    "gayrim": 28350,
    "ture": 28351,
    "paylaşıl": 28352,
    "ardı": 28353,
    "oynamak": 28354,
    "ltd": 28355,
    "kısmını": 28356,
    "dolandırı": 28357,
    "mb": 28358,
    "terap": 28359,
    "rid": 28360,
    "oynayan": 28361,
    "uzunluğu": 28362,
    "anlatıyor": 28363,
    "rolü": 28364,
    "şiddetli": 28365,
    "gelebilir": 28366,
    "kırklar": 28367,
    "okuyucu": 28368,
    "ğiyle": 28369,
    "tain": 28370,
    "oks": 28371,
    "tamamla": 28372,
    "turu": 28373,
    "rt": 28374,
    "çorbası": 28375,
    "konseyi": 28376,
    "cket": 28377,
    "tüketici": 28378,
    "kazanma": 28379,
    "dyo": 28380,
    "açıldı": 28381,
    "isbn": 28382,
    "vermiştir": 28383,
    "1978": 28384,
    "->": 28385,
    "sistemini": 28386,
    "kanın": 28387,
    "durumun": 28388,
    "bets": 28389,
    "phil": 28390,
    "gelişen": 28391,
    "üstünde": 28392,
    "yapmıştır": 28393,
    "sezonu": 28394,
    "over": 28395,
    "günden": 28396,
    "çekti": 28397,
    "1973": 28398,
    "lisanslı": 28399,
    "kısal": 28400,
    "sağlayın": 28401,
    "ateşli": 28402,
    "çıkarın": 28403,
    "bec": 28404,
    "kesme": 28405,
    "geçirmek": 28406,
    "ulaştı": 28407,
    "vitam": 28408,
    "ther": 28409,
    "ceğiniz": 28410,
    "bozukluk": 28411,
    "eceğini": 28412,
    "anlaya": 28413,
    "sunmak": 28414,
    "resmî": 28415,
    "seçilen": 28416,
    "kaldırı": 28417,
    "değin": 28418,
    "konularda": 28419,
    "fiyatlar": 28420,
    "charles": 28421,
    "kris": 28422,
    "amaçla": 28423,
    "önümüzdeki": 28424,
    "old": 28425,
    "i̇çeri": 28426,
    "thomas": 28427,
    "life": 28428,
    "gelmiştir": 28429,
    "üyeli": 28430,
    "bakter": 28431,
    "memlek": 28432,
    "sitemizi": 28433,
    "ica": 28434,
    "köf": 28435,
    "görülür": 28436,
    "ılmıştır": 28437,
    "sözü": 28438,
    "tikten": 28439,
    "sağladı": 28440,
    "title": 28441,
    "yesi": 28442,
    "liliğini": 28443,
    "gerekirse": 28444,
    "ettiler": 28445,
    "yn": 28446,
    "makineleri": 28447,
    "babasının": 28448,
    "edi̇": 28449,
    "diğerleri": 28450,
    "yıllarında": 28451,
    "tutmak": 28452,
    "teknolojileri": 28453,
    "okal": 28454,
    "duğunda": 28455,
    "1972": 28456,
    "vent": 28457,
    "fez": 28458,
    "bağlamda": 28459,
    "sıdır": 28460,
    "si̇te": 28461,
    "dökül": 28462,
    "yapılabilir": 28463,
    "diğin": 28464,
    "arasına": 28465,
    "hakkının": 28466,
    "padi": 28467,
    "yanlı": 28468,
    "kiz": 28469,
    "non": 28470,
    "işini": 28471,
    "dani": 28472,
    "iyileş": 28473,
    "larımıza": 28474,
    "kültürü": 28475,
    "emez": 28476,
    "çekin": 28477,
    "oranında": 28478,
    "yeni̇": 28479,
    "sizinle": 28480,
    "sınıfı": 28481,
    "yeterince": 28482,
    "age": 28483,
    "basa": 28484,
    "1977": 28485,
    "mith": 28486,
    "ötes": 28487,
    "larken": 28488,
    "tex": 28489,
    "ortasında": 28490,
    "green": 28491,
    "layabilir": 28492,
    "kalmış": 28493,
    "iyice": 28494,
    "gelmesi": 28495,
    "buradaki": 28496,
    "şansı": 28497,
    "sea": 28498,
    "şö": 28499,
    "performansı": 28500,
    "aşağıdak": 28501,
    "maçta": 28502,
    "tag": 28503,
    "alınarak": 28504,
    "game": 28505,
    "frek": 28506,
    "mühendisliği": 28507,
    "cili": 28508,
    "itibariyle": 28509,
    "adsız": 28510,
    "bileti": 28511,
    "cas": 28512,
    "koronavir": 28513,
    "bırakın": 28514,
    "luğunda": 28515,
    "eğilim": 28516,
    "bağlantılı": 28517,
    "tarihsel": 28518,
    "kapsamda": 28519,
    "homeopat": 28520,
    "gidip": 28521,
    "etkinlikler": 28522,
    "tuzla": 28523,
    "yayınlan": 28524,
    "chen": 28525,
    "mhp": 28526,
    "pasi": 28527,
    "i̇si̇": 28528,
    "sağlanması": 28529,
    "sağlamaktadır": 28530,
    "1976": 28531,
    "imkansız": 28532,
    "nereye": 28533,
    "1965": 28534,
    "cevaplar": 28535,
    "paylaşa": 28536,
    "hist": 28537,
    "gerektirir": 28538,
    "perak": 28539,
    "emedi": 28540,
    "işletmeler": 28541,
    "hij": 28542,
    "offi": 28543,
    "icin": 28544,
    "posted": 28545,
    "bulabilir": 28546,
    "hesaplan": 28547,
    "vasıtası": 28548,
    "eksiksiz": 28549,
    "queen": 28550,
    "espor": 28551,
    "prose": 28552,
    "lığından": 28553,
    "tarihte": 28554,
    "cinin": 28555,
    "kralı": 28556,
    "hesaplama": 28557,
    "ness": 28558,
    "180": 28559,
    "pem": 28560,
    "atmak": 28561,
    "anlayışı": 28562,
    "reg": 28563,
    "eşlik": 28564,
    "imzalan": 28565,
    "yaşaya": 28566,
    "annem": 28567,
    "i̇sviçre": 28568,
    "dig": 28569,
    "günleri": 28570,
    "sağlan": 28571,
    "bulama": 28572,
    "stel": 28573,
    "\");": 28574,
    "yazılmış": 28575,
    "i̇ne": 28576,
    "gerektiren": 28577,
    "........": 28578,
    "çıkardı": 28579,
    "olmanın": 28580,
    "1971": 28581,
    "tank": 28582,
    "danışmanlığı": 28583,
    "ayarlan": 28584,
    "alırken": 28585,
    "eyici": 28586,
    "likleri": 28587,
    "koşullar": 28588,
    "halif": 28589,
    "bilimleri": 28590,
    "publi": 28591,
    "karan": 28592,
    "vücudun": 28593,
    "ulaşın": 28594,
    "colle": 28595,
    "faaliyetleri": 28596,
    "faf": 28597,
    "sanın": 28598,
    "sistemin": 28599,
    "bağlıdır": 28600,
    "belirtir": 28601,
    "olmasa": 28602,
    "ст": 28603,
    "filtr": 28604,
    "university": 28605,
    "tutulamaz": 28606,
    "topu": 28607,
    "ederler": 28608,
    "fed": 28609,
    "semp": 28610,
    "sürül": 28611,
    "şlı": 28612,
    "saydı": 28613,
    "kursu": 28614,
    "dıkça": 28615,
    "steroid": 28616,
    "geriye": 28617,
    "1968": 28618,
    "yapılandır": 28619,
    "hurdacı": 28620,
    "phy": 28621,
    "cihazı": 28622,
    "yetik": 28623,
    "yükle": 28624,
    "protec": 28625,
    "teknolojisi": 28626,
    "how": 28627,
    "pkk": 28628,
    "oluşa": 28629,
    "çika": 28630,
    "çilik": 28631,
    "etkisini": 28632,
    "apache": 28633,
    "arkadaşım": 28634,
    "ğra": 28635,
    "ll": 28636,
    "görünür": 28637,
    "like": 28638,
    "gördük": 28639,
    "kiyat": 28640,
    "okunan": 28641,
    "stin": 28642,
    "rok": 28643,
    "teklifi": 28644,
    "eceği": 28645,
    "şeyleri": 28646,
    "gücünü": 28647,
    "tartışma": 28648,
    "karşılığında": 28649,
    "yarda": 28650,
    "geb": 28651,
    "olanı": 28652,
    "görüşme": 28653,
    "user": 28654,
    "imkân": 28655,
    "liber": 28656,
    "yapımcı": 28657,
    "uncu": 28658,
    "kolaylıkla": 28659,
    "dirme": 28660,
    "tiş": 28661,
    "orth": 28662,
    "yönetmeli": 28663,
    "olmanız": 28664,
    "belik": 28665,
    "dışarıda": 28666,
    "hayatına": 28667,
    "mekle": 28668,
    "lüğünü": 28669,
    "kalmak": 28670,
    "detayları": 28671,
    "yönde": 28672,
    "nitelikli": 28673,
    "ilişkisi": 28674,
    "i̇slâm": 28675,
    "gayrimen": 28676,
    "izasyon": 28677,
    "ortamı": 28678,
    "çözümler": 28679,
    "celen": 28680,
    "görüntüleme": 28681,
    "artırmak": 28682,
    "başlamıştır": 28683,
    "betsat": 28684,
    "yazısı": 28685,
    "sürük": 28686,
    "kurallarına": 28687,
    "önemini": 28688,
    "temsilcisi": 28689,
    "dairesi": 28690,
    "yaptığını": 28691,
    "iğdır": 28692,
    "istenen": 28693,
    "ölçümü": 28694,
    "tığında": 28695,
    "adası": 28696,
    "gelişimi": 28697,
    "tüketic": 28698,
    "di̇n": 28699,
    "],": 28700,
    "atar": 28701,
    "türüdür": 28702,
    "etkinliği": 28703,
    "sezonunda": 28704,
    "bulan": 28705,
    "belirtmek": 28706,
    "bulunabilir": 28707,
    "oynanan": 28708,
    "ısın": 28709,
    "gibidir": 28710,
    "oluşturma": 28711,
    "sizlerin": 28712,
    "eği̇t": 28713,
    "geride": 28714,
    "arayın": 28715,
    "olmaları": 28716,
    "deneyimli": 28717,
    "ayrıc": 28718,
    "sigortası": 28719,
    "!\"": 28720,
    "göreviniz": 28721,
    "avcılar": 28722,
    "geldiğinde": 28723,
    "üman": 28724,
    "inceleyebilirsiniz": 28725,
    "yaptığımız": 28726,
    "hukuka": 28727,
    "ril": 28728,
    "ceksiniz": 28729,
    "ülkes": 28730,
    "çevresel": 28731,
    "cell": 28732,
    "medyada": 28733,
    "unuza": 28734,
    "benimse": 28735,
    "konusundaki": 28736,
    "i̇leti̇şi̇m": 28737,
    "suy": 28738,
    "karş": 28739,
    "incelemesi": 28740,
    "yardımıyla": 28741,
    "füz": 28742,
    "milletler": 28743,
    "markası": 28744,
    "derken": 28745,
    "geo": 28746,
    "nep": 28747,
    "kurulmuş": 28748,
    "yolunu": 28749,
    "alda": 28750,
    "likler": 28751,
    "muam": 28752,
    "live": 28753,
    "yararlı": 28754,
    "verileriniz": 28755,
    "seviyorum": 28756,
    "bulunmuştur": 28757,
    "tarayı": 28758,
    "most": 28759,
    "publis": 28760,
    "i̇stat": 28761,
    "mantıklı": 28762,
    "adayı": 28763,
    "sırasıyla": 28764,
    "olmaktan": 28765,
    "content": 28766,
    "kırıl": 28767,
    "gerçekleşen": 28768,
    "categor": 28769,
    "lılar": 28770,
    "bölgenin": 28771,
    "sizlerle": 28772,
    "özeti": 28773,
    "lerken": 28774,
    "iso": 28775,
    "kaynaklı": 28776,
    "halen": 28777,
    "metik": 28778,
    "si̇z": 28779,
    "hâkim": 28780,
    "piz": 28781,
    "irim": 28782,
    "davası": 28783,
    "1969": 28784,
    "rahatlıkla": 28785,
    "katılımcı": 28786,
    "uefa": 28787,
    "dünyayı": 28788,
    "galibiyet": 28789,
    "baştan": 28790,
    "interna": 28791,
    "geçerek": 28792,
    "konulu": 28793,
    "adaları": 28794,
    "muhale": 28795,
    "edilerek": 28796,
    "isimleri": 28797,
    "jes": 28798,
    "tisi": 28799,
    "şüpheli": 28800,
    "ilişkilendir": 28801,
    "gla": 28802,
    "konuyla": 28803,
    "gerçekleşti": 28804,
    "bahçeli": 28805,
    "bayramı": 28806,
    "eği̇ti̇m": 28807,
    "lerdi": 28808,
    "üskü": 28809,
    "group": 28810,
    "dyum": 28811,
    "yapıyoruz": 28812,
    "lanmaz": 28813,
    "bölgeye": 28814,
    "mesajlar": 28815,
    "kuruc": 28816,
    "durumlar": 28817,
    "maddeler": 28818,
    "yaralı": 28819,
    "çılar": 28820,
    "store": 28821,
    "şekliyle": 28822,
    "ziyaretçi": 28823,
    "denizi": 28824,
    "isin": 28825,
    "tmak": 28826,
    "lemeleri": 28827,
    "vi̇tra": 28828,
    "memeli": 28829,
    "i̇kti": 28830,
    "büyükel": 28831,
    "çevirin": 28832,
    "parçacık": 28833,
    "familyasına": 28834,
    "last": 28835,
    "çalışmalarını": 28836,
    "inanılmaz": 28837,
    "solun": 28838,
    "0535": 28839,
    "olasılığı": 28840,
    "i̇skoç": 28841,
    "strük": 28842,
    "fred": 28843,
    "sunun": 28844,
    "tılar": 28845,
    "she": 28846,
    "rich": 28847,
    "geçiyor": 28848,
    "imzala": 28849,
    "haftada": 28850,
    "motoru": 28851,
    "mi̇": 28852,
    "networkdry": 28853,
    "şartlar": 28854,
    "2x": 28855,
    "kullanımını": 28856,
    "krizi": 28857,
    "recor": 28858,
    ".[": 28859,
    "gülüm": 28860,
    "zamana": 28861,
    "açıklandı": 28862,
    "liğinden": 28863,
    "enerjisi": 28864,
    "çözül": 28865,
    "kelimesi": 28866,
    "kaliforni": 28867,
    "></": 28868,
    "olmakla": 28869,
    "vious": 28870,
    "{\\": 28871,
    "telegram": 28872,
    "``": 28873,
    "contin": 28874,
    "örnekleri": 28875,
    "atış": 28876,
    "dre": 28877,
    "balı": 28878,
    "doğur": 28879,
    "noktal": 28880,
    "kulu": 28881,
    "etkileyebilir": 28882,
    "i̇llegal": 28883,
    "milyonlarca": 28884,
    "cular": 28885,
    "soruya": 28886,
    "duğum": 28887,
    "karşılıklı": 28888,
    "will": 28889,
    "daroğlu": 28890,
    "depart": 28891,
    "von": 28892,
    "bedeli": 28893,
    "javascript": 28894,
    "stro": 28895,
    ".’": 28896,
    "ach": 28897,
    "uth": 28898,
    "başlamış": 28899,
    "pobet": 28900,
    "kampanyalar": 28901,
    "ettikleri": 28902,
    "oldum": 28903,
    "buluna": 28904,
    "akışı": 28905,
    "place": 28906,
    "açıklayın": 28907,
    "yükselen": 28908,
    "gebelik": 28909,
    "sebz": 28910,
    "arkasında": 28911,
    "rick": 28912,
    "satışa": 28913,
    "şefimiz": 28914,
    "toplumun": 28915,
    "gy": 28916,
    "hikayeler": 28917,
    "usa": 28918,
    "cess": 28919,
    "kısmında": 28920,
    "masız": 28921,
    "glik": 28922,
    "eline": 28923,
    "oton": 28924,
    "konaklama": 28925,
    "depres": 28926,
    "ugh": 28927,
    "kadin": 28928,
    "puz": 28929,
    "görüntüle": 28930,
    "previous": 28931,
    "dizileri": 28932,
    "görevleri": 28933,
    "verilmektedir": 28934,
    "1967": 28935,
    "sayım": 28936,
    "125": 28937,
    "danim": 28938,
    "yükseldi": 28939,
    "çalışırken": 28940,
    "yenile": 28941,
    "under": 28942,
    "eklenen": 28943,
    "i̇şletme": 28944,
    "hede": 28945,
    "suya": 28946,
    "oyuna": 28947,
    "yayımlanan": 28948,
    "geçersiz": 28949,
    "stein": 28950,
    "beklent": 28951,
    "filmde": 28952,
    "ölümü": 28953,
    "braz": 28954,
    "uzaklaştır": 28955,
    "lg": 28956,
    "seçildi": 28957,
    "i̇mi̇z": 28958,
    "bru": 28959,
    "aşamasında": 28960,
    "cenaz": 28961,
    "seçmen": 28962,
    "tabanlı": 28963,
    "neti": 28964,
    "cümledeki": 28965,
    "onwin": 28966,
    "fabrik": 28967,
    "çıktığı": 28968,
    "düşünür": 28969,
    "kendinize": 28970,
    ")^": 28971,
    "dedek": 28972,
    "dönemin": 28973,
    "hafı": 28974,
    "yanıtı": 28975,
    "metab": 28976,
    "geçirdi": 28977,
    "hizmetlerimiz": 28978,
    "sanatçısı": 28979,
    "görüntülen": 28980,
    "olmasıdır": 28981,
    "doç": 28982,
    "gördüğü": 28983,
    "tarafında": 28984,
    "hotel": 28985,
    "sayıları": 28986,
    "boyutlu": 28987,
    "eyim": 28988,
    "bölgedeki": 28989,
    "sorumlusu": 28990,
    "das": 28991,
    "oluşturul": 28992,
    "bilimi": 28993,
    "sağladığı": 28994,
    "geçin": 28995,
    "layabilirsiniz": 28996,
    "oynadığı": 28997,
    "verildiğinde": 28998,
    "night": 28999,
    "beslen": 29000,
    "kimsenin": 29001,
    "senary": 29002,
    "dünyadaki": 29003,
    "________": 29004,
    "ero": 29005,
    "i̇nsanların": 29006,
    "azından": 29007,
    "aylarında": 29008,
    "eç": 29009,
    "olamaz": 29010,
    "bizler": 29011,
    "ezya": 29012,
    "toplamda": 29013,
    "canı": 29014,
    "ğrafi": 29015,
    "danışmanı": 29016,
    "sms": 29017,
    "ira": 29018,
    "toplantısı": 29019,
    "tikçe": 29020,
    "lıyorum": 29021,
    "görüle": 29022,
    "merkezleri": 29023,
    "etmenin": 29024,
    "gurbetçi": 29025,
    "anlatım": 29026,
    "dolarlık": 29027,
    "kıv": 29028,
    "görevlendir": 29029,
    "sendi": 29030,
    "tics": 29031,
    "nie": 29032,
    "sistemine": 29033,
    "saint": 29034,
    "olmadı": 29035,
    "liyorum": 29036,
    "chester": 29037,
    "sunuyoruz": 29038,
    "eceğim": 29039,
    "brow": 29040,
    "ortada": 29041,
    "önerilen": 29042,
    "tags": 29043,
    "ağrısı": 29044,
    "başladım": 29045,
    "mesajları": 29046,
    "pantol": 29047,
    "club": 29048,
    "ettiğimiz": 29049,
    "edilmesini": 29050,
    "aket": 29051,
    "i̇ster": 29052,
    "kaldığı": 29053,
    "360": 29054,
    "önü": 29055,
    "tecav": 29056,
    "denli": 29057,
    "oranda": 29058,
    "i̇klim": 29059,
    "si̇n": 29060,
    "üniversiteler": 29061,
    "sürecini": 29062,
    "benden": 29063,
    "üretic": 29064,
    "hürr": 29065,
    "aranan": 29066,
    "hangisi": 29067,
    "çocuklara": 29068,
    "search": 29069,
    "angeles": 29070,
    "yaptım": 29071,
    "ortamında": 29072,
    "sv": 29073,
    "tıklayarak": 29074,
    "gos": 29075,
    "uluğun": 29076,
    "mazlık": 29077,
    "kurumlar": 29078,
    "maçında": 29079,
    "yayla": 29080,
    "çıkarı": 29081,
    "zul": 29082,
    "akla": 29083,
    "kurtarı": 29084,
    "düğünde": 29085,
    "***": 29086,
    "sağlayabilir": 29087,
    "mektir": 29088,
    "faktörler": 29089,
    "kutlu": 29090,
    "i̇ngilizceye": 29091,
    "numaraları": 29092,
    "dio": 29093,
    "edebiyatı": 29094,
    "brek": 29095,
    "vitamini": 29096,
    "tamamını": 29097,
    "yazarları": 29098,
    "raptiye_": 29099,
    "belirsiz": 29100,
    "tabanı": 29101,
    "evleri": 29102,
    "edilemez": 29103,
    "takımın": 29104,
    "tte": 29105,
    "zihinsel": 29106,
    "mıdır": 29107,
    "biliyorsunuz": 29108,
    "aralığı": 29109,
    "ailesinin": 29110,
    "gi̇ri̇ş": 29111,
    "isterim": 29112,
    "sikis": 29113,
    "international": 29114,
    "çocuğa": 29115,
    "item": 29116,
    "çıkmış": 29117,
    "raft": 29118,
    "varlığını": 29119,
    "yim": 29120,
    "metrek": 29121,
    "okula": 29122,
    "tarihine": 29123,
    "öğretmenler": 29124,
    "akademisi": 29125,
    "duran": 29126,
    "kurallar": 29127,
    "etkinlikleri": 29128,
    "eşleş": 29129,
    "tığınız": 29130,
    "korkut": 29131,
    "altını": 29132,
    "emen": 29133,
    "ск": 29134,
    "öm": 29135,
    "şartı": 29136,
    "aldığını": 29137,
    "uygulamayı": 29138,
    "sayısının": 29139,
    "gecesi": 29140,
    "şehirde": 29141,
    "gazeteci": 29142,
    "hoc": 29143,
    "gündeme": 29144,
    "ato": 29145,
    "topluluğu": 29146,
    "tanınan": 29147,
    "erkeklerin": 29148,
    "kurulumu": 29149,
    "dinin": 29150,
    "ball": 29151,
    "iba": 29152,
    "ofi": 29153,
    "adımlar": 29154,
    "olursunuz": 29155,
    "derek": 29156,
    "derecelen": 29157,
    "sürdü": 29158,
    "cker": 29159,
    "fili": 29160,
    "sigort": 29161,
    "asay": 29162,
    "çısı": 29163,
    "ath": 29164,
    "ilecektir": 29165,
    "130": 29166,
    "başlayın": 29167,
    "işareti": 29168,
    "sistemler": 29169,
    "bulunmak": 29170,
    "bireylerin": 29171,
    "ral": 29172,
    "pasap": 29173,
    "hızlandır": 29174,
    "metri": 29175,
    "pedi": 29176,
    "olayın": 29177,
    "irler": 29178,
    "hidr": 29179,
    "cül": 29180,
    "gezin": 29181,
    "gelince": 29182,
    "dosyası": 29183,
    "etkileyen": 29184,
    "yayınlar": 29185,
    "maales": 29186,
    "emi": 29187,
    "araştırmaları": 29188,
    "gerekse": 29189,
    "konsep": 29190,
    "kaydetti": 29191,
    "öğrencileri": 29192,
    "getirilen": 29193,
    "gold": 29194,
    "wol": 29195,
    "page": 29196,
    "okumaya": 29197,
    "akra": 29198,
    "gelecekte": 29199,
    "olayları": 29200,
    "arttı": 29201,
    "kurtuluş": 29202,
    "bi̇lg": 29203,
    "göndermek": 29204,
    "ized": 29205,
    "bilmiyor": 29206,
    "amaya": 29207,
    "bağlantısı": 29208,
    "kuruluşu": 29209,
    "studi": 29210,
    "gerçeği": 29211,
    "tasarlanmış": 29212,
    "planlama": 29213,
    "kitabın": 29214,
    "unk": 29215,
    "times": 29216,
    "personeli": 29217,
    "hemşir": 29218,
    "ville": 29219,
    "haberlerin": 29220,
    "cümleler": 29221,
    "tutun": 29222,
    "bulunmamaktadır": 29223,
    "bugünkü": 29224,
    "istediğini": 29225,
    "türkç": 29226,
    "noktasında": 29227,
    "törü": 29228,
    "teknikleri": 29229,
    "liğiyle": 29230,
    "6519": 29231,
    "yürürlüğe": 29232,
    "luğa": 29233,
    "bilinmeyen": 29234,
    "bekleniyor": 29235,
    "tikleri": 29236,
    "mühendisi": 29237,
    "sci": 29238,
    "netic": 29239,
    "danı": 29240,
    "çıkarma": 29241,
    "başkanlık": 29242,
    "ât": 29243,
    "6519107": 29244,
    "05356519107": 29245,
    "1966": 29246,
    "cına": 29247,
    "\">": 29248,
    "musunuz": 29249,
    "ücretleri": 29250,
    "çayı": 29251,
    "i̇li̇": 29252,
    "kullanımına": 29253,
    "stu": 29254,
    "izni": 29255,
    "zorunl": 29256,
    "severler": 29257,
    "şimdiye": 29258,
    "fotoğrafları": 29259,
    "beşinci": 29260,
    "adınız": 29261,
    "karışım": 29262,
    "yapıp": 29263,
    "yayınladı": 29264,
    "beyler": 29265,
    "pss": 29266,
    "görülmektedir": 29267,
    "direc": 29268,
    "galaxy": 29269,
    "portak": 29270,
    "taraftar": 29271,
    "i̇statistik": 29272,
    "cevabınızı": 29273,
    "700": 29274,
    "talimatlar": 29275,
    "camii": 29276,
    "kadına": 29277,
    "kurulmuştur": 29278,
    "kullanıcıları": 29279,
    "dahilinde": 29280,
    "kurucusu": 29281,
    "bilinmektedir": 29282,
    "fox": 29283,
    "kilisesi": 29284,
    "protected": 29285,
    "riski": 29286,
    "seslendir": 29287,
    "isteyenler": 29288,
    "abonelik": 29289,
    "spek": 29290,
    "zorla": 29291,
    "alici": 29292,
    "kurma": 29293,
    "sünü": 29294,
    "çıkacak": 29295,
    "imizle": 29296,
    "artması": 29297,
    "1964": 29298,
    "tabel": 29299,
    "bekleme": 29300,
    "gölü": 29301,
    "şarkısı": 29302,
    "yitir": 29303,
    "vermesi": 29304,
    "price": 29305,
    "hükümeti": 29306,
    "i̇ptal": 29307,
    "ledi": 29308,
    "bio": 29309,
    "yaptığınız": 29310,
    "uzaklıktadır": 29311,
    "….": 29312,
    "çekiyor": 29313,
    "taşına": 29314,
    "yüklen": 29315,
    "dın": 29316,
    "görünen": 29317,
    "çoktan": 29318,
    "okudum": 29319,
    "lib": 29320,
    "yenilikçi": 29321,
    "kullanıcılara": 29322,
    "ras": 29323,
    "на": 29324,
    "ра": 29325,
    "plana": 29326,
    "bardağı": 29327,
    "drama": 29328,
    "iyeli": 29329,
    "içinden": 29330,
    "cema": 29331,
    "listesini": 29332,
    "müsabak": 29333,
    "yönlü": 29334,
    "projeleri": 29335,
    "usunu": 29336,
    "evrensel": 29337,
    "yatırımcı": 29338,
    "fot": 29339,
    "kalacak": 29340,
    "haklarına": 29341,
    "cın": 29342,
    "suçlu": 29343,
    "eksikliği": 29344,
    "değilse": 29345,
    "sağlayarak": 29346,
    "yası": 29347,
    "izde": 29348,
    "cit": 29349,
    "ermeni": 29350,
    "adlandırılan": 29351,
    "county": 29352,
    "piercing": 29353,
    "vanı": 29354,
    "imle": 29355,
    "sayfaları": 29356,
    "kıyasla": 29357,
    "ware": 29358,
    "uygulanması": 29359,
    "görülüyor": 29360,
    "wei": 29361,
    "rat": 29362,
    "arjan": 29363,
    "eller": 29364,
    "sektörde": 29365,
    "anlayın": 29366,
    "i̇yi̇": 29367,
    "önerme": 29368,
    "başladığı": 29369,
    "malze": 29370,
    "söylem": 29371,
    "َا": 29372,
    "1961": 29373,
    "odaları": 29374,
    "hatt": 29375,
    "yapılıyor": 29376,
    "lami": 29377,
    "bahsediyor": 29378,
    "şarkıları": 29379,
    "kesintisiz": 29380,
    "reddedil": 29381,
    "imden": 29382,
    "elbis": 29383,
    "yarışı": 29384,
    "francis": 29385,
    "ild": 29386,
    "dünyasında": 29387,
    "şeyden": 29388,
    "metinde": 29389,
    "vermeden": 29390,
    "listesinde": 29391,
    "miyim": 29392,
    "osunu": 29393,
    "yemekler": 29394,
    "inizle": 29395,
    "selçuklu": 29396,
    "suzluk": 29397,
    "suresi": 29398,
    "ee": 29399,
    "i̇şçi": 29400,
    "gösterilen": 29401,
    "lambası": 29402,
    "anlamını": 29403,
    "temsilciler": 29404,
    "plus": 29405,
    "ilgilidir": 29406,
    "vatanda": 29407,
    "i̇ha": 29408,
    "gördüm": 29409,
    "siteyi": 29410,
    "haftanın": 29411,
    "saatte": 29412,
    "nasil": 29413,
    "ildiğinde": 29414,
    "block": 29415,
    "sergile": 29416,
    "gösterdiği": 29417,
    "date": 29418,
    "analy": 29419,
    "nedenleri": 29420,
    "kullanabiliriz": 29421,
    "çığ": 29422,
    "head": 29423,
    "ışığı": 29424,
    "i̇nan": 29425,
    "css": 29426,
    "ctor": 29427,
    "hakkına": 29428,
    "ayakta": 29429,
    "kılıçdaroğlu": 29430,
    "hazırla": 29431,
    "hası": 29432,
    "ane": 29433,
    "i̇fa": 29434,
    "x_": 29435,
    "buluştur": 29436,
    "bilimler": 29437,
    "ekleye": 29438,
    "dot": 29439,
    "etkileyici": 29440,
    "sanatı": 29441,
    "müd": 29442,
    "joe": 29443,
    "usunun": 29444,
    "yardımı": 29445,
    "kaçı": 29446,
    "şehi̇r": 29447,
    "malarının": 29448,
    "şof": 29449,
    "1963": 29450,
    "elemeleri": 29451,
    "taki̇p": 29452,
    "ve": 29453,
    "bir": 29454,
    "bu": 29455,
    "in": 29456,
    "için": 29457,
    "a": 29458,
    "ile": 29459,
    "ın": 29460,
    "lar": 29461,
    "e": 29462,
    "ya": 29463,
    "çok": 29464,
    "nin": 29465,
    "türkiye": 29466,
    "o": 29467,
    "ler": 29468,
    "daha": 29469,
    "ta": 29470,
    "i": 29471,
    "s": 29472,
    "an": 29473,
    "la": 29474,
    "ma": 29475,
    "le": 29476,
    "den": 29477,
    "dan": 29478,
    "m": 29479,
    "ise": 29480,
    "is": 29481,
    "ların": 29482,
    "er": 29483,
    "un": 29484,
    "ne": 29485,
    "ilk": 29486,
    "te": 29487,
    "nın": 29488,
    "bin": 29489,
    "sonra": 29490,
    "iz": 29491,
    "al": 29492,
    "li": 29493,
    "var": 29494,
    "ak": 29495,
    "her": 29496,
    "son": 29497,
    "büyük": 29498,
    "u": 29499,
    "kadar": 29500,
    "et": 29501,
    "ama": 29502,
    "iş": 29503,
    "lı": 29504,
    "yıl": 29505,
    "gibi": 29506,
    "lerin": 29507,
    "el": 29508,
    "ı": 29509,
    "sa": 29510,
    "bul": 29511,
    "il": 29512,
    "ye": 29513,
    "iyi": 29514,
    "yeni": 29515,
    "yer": 29516,
    "iki": 29517,
    "sı": 29518,
    "ay": 29519,
    "ancak": 29520,
    "yüzde": 29521,
    "larını": 29522,
    "türk": 29523,
    "ını": 29524,
    "diye": 29525,
    "gün": 29526,
    "y": 29527,
    "at": 29528,
    "mak": 29529,
    "ka": 29530,
    "tan": 29531,
    "göre": 29532,
    "ar": 29533,
    "ver": 29534,
    "spor": 29535,
    "me": 29536,
    "n": 29537,
    "im": 29538,
    "ifade": 29539,
    "önce": 29540,
    "yla": 29541,
    "z": 29542,
    "se": 29543,
    "r": 29544,
    "yor": 29545,
    "karşı": 29546,
    "ben": 29547,
    "ca": 29548,
    "alan": 29549,
    "ına": 29550,
    "milyon": 29551,
    "önemli": 29552,
    "devam": 29553,
    "genel": 29554,
    "ında": 29555,
    "abd": 29556,
    "ten": 29557,
    "ü": 29558,
    "yı": 29559,
    "ün": 29560,
    "lık": 29561,
    "it": 29562,
    "dı": 29563,
    "ek": 29564,
    "zaman": 29565,
    "takım": 29566,
    "değil": 29567,
    "maya": 29568,
    "ev": 29569,
    "em": 29570,
    "ara": 29571,
    "yan": 29572,
    "nde": 29573,
    "cı": 29574,
    "maç": 29575,
    "avrupa": 29576,
    "biz": 29577,
    "ti": 29578,
    "lik": 29579,
    "mek": 29580,
    "kal": 29581,
    "su": 29582,
    "tüm": 29583,
    "şu": 29584,
    "aynı": 29585,
    "baş": 29586,
    "es": 29587,
    "on": 29588,
    "mız": 29589,
    "dünya": 29590,
    "iyle": 29591,
    "si": 29592,
    "nun": 29593,
    "yok": 29594,
    "ce": 29595,
    "ci": 29596,
    "saat": 29597,
    "lu": 29598,
    "diğer": 29599,
    "ken": 29600,
    "ir": 29601,
    "tek": 29602,
    "ip": 29603,
    "fazla": 29604,
    "özel": 29605,
    "der": 29606,
    "hem": 29607,
    "kar": 29608,
    "as": 29609,
    "iye": 29610,
    "ol": 29611,
    "iç": 29612,
    "ankara": 29613,
    "şey": 29614,
    "yorum": 29615,
    "az": 29616,
    "gel": 29617,
    "devlet": 29618,
    "nda": 29619,
    "dir": 29620,
    "dır": 29621,
    "bugün": 29622,
    "bil": 29623,
    "ha": 29624,
    "şöyle": 29625,
    "san": 29626,
    "re": 29627,
    "sadece": 29628,
    "tı": 29629,
    "din": 29630,
    "gol": 29631,
    "öz": 29632,
    "ur": 29633,
    "göster": 29634,
    "mir": 29635,
    "gir": 29636,
    "can": 29637,
    "polis": 29638,
    "han": 29639,
    "karar": 29640,
    "kez": 29641,
    "görüş": 29642,
    "sen": 29643,
    "yüksek": 29644,
    "bazı": 29645,
    "gül": 29646,
    "para": 29647,
    "ul": 29648,
    "başkan": 29649,
    "ter": 29650,
    "kendi": 29651,
    "ileri": 29652,
    "milli": 29653,
    "iler": 29654,
    "um": 29655,
    "ali": 29656,
    "ede": 29657,
    "tl": 29658,
    "eler": 29659,
    "ge": 29660,
    "kan": 29661,
    "dur": 29662,
    "uzun": 29663,
    "üç": 29664,
    "kişi": 29665,
    "neden": 29666,
    "ön": 29667,
    "lerde": 29668,
    "eğitim": 29669,
    "top": 29670,
    "yol": 29671,
    "be": 29672,
    "böyle": 29673,
    "kon": 29674,
    "ikinci": 29675,
    "mış": 29676,
    "ana": 29677,
    "ecek": 29678,
    "tır": 29679,
    "plan": 29680,
    "söz": 29681,
    "sahip": 29682,
    "eli": 29683,
    "hafta": 29684,
    "getir": 29685,
    "len": 29686,
    "geç": 29687,
    "ad": 29688,
    "başbakan": 29689,
    "sını": 29690,
    "siz": 29691,
    "konuş": 29692,
    "erdoğan": 29693,
    "haber": 29694,
    "destek": 29695,
    "çek": 29696,
    "açık": 29697,
    "yap": 29698,
    "sayı": 29699,
    "bile": 29700,
    "atı": 29701,
    "olay": 29702,
    "ri": 29703,
    "fa": 29704,
    "yi": 29705,
    "tur": 29706,
    "ayrı": 29707,
    "yakın": 29708,
    "üzere": 29709,
    "yaş": 29710,
    "dün": 29711,
    "göz": 29712,
    "futbol": 29713,
    "oyuncu": 29714,
    "lama": 29715,
    "kara": 29716,
    "gil": 29717,
    "yaklaşık": 29718,
    "miş": 29719,
    "bar": 29720,
    "anı": 29721,
    "milyar": 29722,
    "genç": 29723,
    "sun": 29724,
    "za": 29725,
    "mehmet": 29726,
    "dolar": 29727,
    "ser": 29728,
    "sin": 29729,
    "ğı": 29730,
    "çıktı": 29731,
    "eş": 29732,
    "nasıl": 29733,
    "yen": 29734,
    "men": 29735,
    "teknik": 29736,
    "yönetim": 29737,
    "biri": 29738,
    "başka": 29739,
    "beşiktaş": 29740,
    "sür": 29741,
    "pazar": 29742,
    "doğru": 29743,
    "üst": 29744,
    "görev": 29745,
    "eski": 29746,
    "sezon": 29747,
    "oy": 29748,
    "zor": 29749,
    "grup": 29750,
    "kur": 29751,
    "kabul": 29752,
    "taş": 29753,
    "çocuk": 29754,
    "fenerbahçe": 29755,
    "sev": 29756,
    "uz": 29757,
    "yatırım": 29758,
    "insan": 29759,
    "düşün": 29760,
    "bi": 29761,
    "os": 29762,
    "ayrıca": 29763,
    "bütün": 29764,
    "süre": 29765,
    "belediye": 29766,
    "bak": 29767,
    "eylül": 29768,
    "per": 29769,
    "ban": 29770,
    "sal": 29771,
    "oyna": 29772,
    "dikkat": 29773,
    "dr": 29774,
    "parti": 29775,
    "tanı": 29776,
    "güvenlik": 29777,
    "hedef": 29778,
    "ke": 29779,
    "hiç": 29780,
    "yapı": 29781,
    "sağlık": 29782,
    "gör": 29783,
    "karşılaş": 29784,
    "mez": 29785,
    "dil": 29786,
    "dık": 29787,
    "merkez": 29788,
    "iran": 29789,
    "veya": 29790,
    "kadın": 29791,
    "suç": 29792,
    "hazır": 29793,
    "hava": 29794,
    "bulun": 29795,
    "hal": 29796,
    "sına": 29797,
    "us": 29798,
    "sıra": 29799,
    "tü": 29800,
    "artık": 29801,
    "sel": 29802,
    "galatasaray": 29803,
    "tut": 29804,
    "bo": 29805,
    "kız": 29806,
    "xx": 29807,
    "ağır": 29808,
    "ot": 29809,
    "tu": 29810,
    "kazan": 29811,
    "ton": 29812,
    "açı": 29813,
    "rağmen": 29814,
    "güzel": 29815,
    "hakkında": 29816,
    "yazı": 29817,
    "eri": 29818,
    "tak": 29819,
    "kı": 29820,
    "sağ": 29821,
    "küçük": 29822,
    "acak": 29823,
    "lira": 29824,
    "ldı": 29825,
    "bel": 29826,
    "ala": 29827,
    "hiçbir": 29828,
    "çünkü": 29829,
    "arı": 29830,
    "av": 29831,
    "basın": 29832,
    "kat": 29833,
    "maz": 29834,
    "oyun": 29835,
    "tür": 29836,
    "sarı": 29837,
    "yardım": 29838,
    "lması": 29839,
    "tir": 29840,
    "demir": 29841,
    "sor": 29842,
    "almanya": 29843,
    "ch": 29844,
    "do": 29845,
    "deniz": 29846,
    "ır": 29847,
    "luk": 29848,
    "ziyaret": 29849,
    "par": 29850,
    "ele": 29851,
    "dön": 29852,
    "onun": 29853,
    "ey": 29854,
    "uluslararası": 29855,
    "kes": 29856,
    "van": 29857,
    "fi": 29858,
    "hak": 29859,
    "durum": 29860,
    "kısa": 29861,
    "film": 29862,
    "toplam": 29863,
    "şimdi": 29864,
    "lü": 29865,
    "yarı": 29866,
    "yönelik": 29867,
    "üz": 29868,
    "dim": 29869,
    "çıkar": 29870,
    "kurul": 29871,
    "yine": 29872,
    "otomobil": 29873,
    "sorun": 29874,
    "lig": 29875,
    "çin": 29876,
    "çi": 29877,
    "çı": 29878,
    "cam": 29879,
    "tam": 29880,
    "ok": 29881,
    "ut": 29882,
    "pat": 29883,
    "klarını": 29884,
    "ça": 29885,
    "söyle": 29886,
    "birçok": 29887,
    "konu": 29888,
    "ada": 29889,
    "güven": 29890,
    "yargı": 29891,
    "anayasa": 29892,
    "kap": 29893,
    "ortak": 29894,
    "bek": 29895,
    "ülke": 29896,
    "olur": 29897,
    "elde": 29898,
    "gelir": 29899,
    "ham": 29900,
    "mücadele": 29901,
    "okul": 29902,
    "sak": 29903,
    "fiyat": 29904,
    "cumhuriyet": 29905,
    "kasım": 29906,
    "git": 29907,
    "şa": 29908,
    "hareket": 29909,
    "kim": 29910,
    "gelecek": 29911,
    "aya": 29912,
    "ait": 29913,
    "araç": 29914,
    "belirtildi": 29915,
    "bey": 29916,
    "yaz": 29917,
    "başarı": 29918,
    "kullan": 29919,
    "duy": 29920,
    "dar": 29921,
    "ses": 29922,
    "bal": 29923,
    "ekim": 29924,
    "ho": 29925,
    "euro": 29926,
    "tar": 29927,
    "har": 29928,
    "şirket": 29929,
    "yıldız": 29930,
    "mal": 29931,
    "tim": 29932,
    "bağlı": 29933,
    "kaya": 29934,
    "yurt": 29935,
    "istem": 29936,
    "fotoğraf": 29937,
    "üm": 29938,
    "ger": 29939,
    "sonuç": 29940,
    "dakika": 29941,
    "bırak": 29942,
    "taşı": 29943,
    "değer": 29944,
    "tik": 29945,
    "oto": 29946,
    "kültür": 29947,
    "geri": 29948,
    "lider": 29949,
    "ilişkin": 29950,
    "ilen": 29951,
    "kay": 29952,
    "çalış": 29953,
    "lük": 29954,
    "fer": 29955,
    "internet": 29956,
    "ata": 29957,
    "iste": 29958,
    "hizmet": 29959,
    "pan": 29960,
    "bay": 29961,
    "hep": 29962,
    "aç": 29963,
    "tamam": 29964,
    "ran": 29965,
    "şampiyon": 29966,
    "öğren": 29967,
    "taraf": 29968,
    "po": 29969,
    "gönder": 29970,
    "yarış": 29971,
    "yüz": 29972,
    "satış": 29973,
    "yoğun": 29974,
    "anla": 29975,
    "alın": 29976,
    "engel": 29977,
    "muş": 29978,
    "kontrol": 29979,
    "dü": 29980,
    "kalan": 29981,
    "ceza": 29982,
    "ştı": 29983,
    "koy": 29984,
    "hat": 29985,
    "takip": 29986,
    "cek": 29987,
    "arkadaş": 29988,
    "puan": 29989,
    "bit": 29990,
    "çalışan": 29991,
    "bağ": 29992,
    "kor": 29993,
    "no": 29994,
    "dönem": 29995,
    "düş": 29996,
    "uygun": 29997,
    "yu": 29998,
    "aydın": 29999,
    "talep": 30000,
    "kamu": 30001,
    "köy": 30002,
    "ekonomik": 30003,
    "mustafa": 30004,
    "gece": 30005,
    "oda": 30006,
    "kadro": 30007,
    "yüksel": 30008,
    "ahmet": 30009,
    "hükümet": 30010,
    "bilgi": 30011,
    "yabancı": 30012,
    "co": 30013,
    "kları": 30014,
    "min": 30015,
    "tay": 30016,
    "sosyal": 30017,
    "id": 30018,
    "ünlü": 30019,
    "kapı": 30020,
    "ayı": 30021,
    "güç": 30022,
    "siyasi": 30023,
    "ince": 30024,
    "rı": 30025,
    "isim": 30026,
    "mo": 30027,
    "rusya": 30028,
    "dev": 30029,
    "adam": 30030,
    "fil": 30031,
    "savcı": 30032,
    "net": 30033,
    "ciddi": 30034,
    "sonunda": 30035,
    "tere": 30036,
    "emniyet": 30037,
    "bor": 30038,
    "sar": 30039,
    "aş": 30040,
    "transfer": 30041,
    "erken": 30042,
    "mem": 30043,
    "izin": 30044,
    "şan": 30045,
    "arada": 30046,
    "met": 30047,
    "büyükşehir": 30048,
    "kötü": 30049,
    "basketbol": 30050,
    "başı": 30051,
    "gerek": 30052,
    "fir": 30053,
    "dal": 30054,
    "dum": 30055,
    "belir": 30056,
    "alt": 30057,
    "cu": 30058,
    "adı": 30059,
    "art": 30060,
    "mil": 30061,
    "üretim": 30062,
    "giy": 30063,
    "dağ": 30064,
    "yayın": 30065,
    "başla": 30066,
    "ık": 30067,
    "hur": 30068,
    "otur": 30069,
    "onu": 30070,
    "sanat": 30071,
    "çe": 30072,
    "silah": 30073,
    "malı": 30074,
    "kulüp": 30075,
    "götür": 30076,
    "barış": 30077,
    "satı": 30078,
    "ticaret": 30079,
    "dolayı": 30080,
    "hemen": 30081,
    "vi": 30082,
    "sın": 30083,
    "katı": 30084,
    "bas": 30085,
    "seç": 30086,
    "atatürk": 30087,
    "sıkıntı": 30088,
    "mızı": 30089,
    "meden": 30090,
    "tv": 30091,
    "dört": 30092,
    "mayan": 30093,
    "altın": 30094,
    "seçim": 30095,
    "prof": 30096,
    "yani": 30097,
    "uy": 30098,
    "işlem": 30099,
    "pek": 30100,
    "gen": 30101,
    "akşam": 30102,
    "ası": 30103,
    "sit": 30104,
    "ulu": 30105,
    "otel": 30106,
    "erkek": 30107,
    "cumhurbaşkanı": 30108,
    "eğer": 30109,
    "ürün": 30110,
    "gündem": 30111,
    "gerçek": 30112,
    "sabah": 30113,
    "kurum": 30114,
    "aday": 30115,
    "kent": 30116,
    "sem": 30117,
    "mutlu": 30118,
    "altı": 30119,
    "dem": 30120,
    "tekrar": 30121,
    "bildirdi": 30122,
    "ldığı": 30123,
    "yacak": 30124,
    "tel": 30125,
    "kredi": 30126,
    "kol": 30127,
    "biraz": 30128,
    "güney": 30129,
    "arka": 30130,
    "eleştir": 30131,
    "sakat": 30132,
    "boyunca": 30133,
    "uzak": 30134,
    "ona": 30135,
    "ağ": 30136,
    "gözaltına": 30137,
    "kul": 30138,
    "soru": 30139,
    "sınır": 30140,
    "yemek": 30141,
    "resmi": 30142,
    "yarın": 30143,
    "dava": 30144,
    "şen": 30145,
    "değiş": 30146,
    "kart": 30147,
    "beraber": 30148,
    "işte": 30149,
    "rol": 30150,
    "geliş": 30151,
    "ör": 30152,
    "anlattı": 30153,
    "alman": 30154,
    "evet": 30155,
    "araştırma": 30156,
    "savaş": 30157,
    "yılmaz": 30158,
    "park": 30159,
    "toplantı": 30160,
    "sek": 30161,
    "bank": 30162,
    "halk": 30163,
    "tespit": 30164,
    "ağustos": 30165,
    "öner": 30166,
    "müzik": 30167,
    "vur": 30168,
    "ez": 30169,
    "önem": 30170,
    "bildir": 30171,
    "zaten": 30172,
    "dış": 30173,
    "iddia": 30174,
    "hukuk": 30175,
    "fark": 30176,
    "inan": 30177,
    "car": 30178,
    "hayat": 30179,
    "hayır": 30180,
    "ah": 30181,
    "boş": 30182,
    "herkes": 30183,
    "yar": 30184,
    "zarar": 30185,
    "fransa": 30186,
    "edi": 30187,
    "terör": 30188,
    "ulaş": 30189,
    "tercih": 30190,
    "yapıl": 30191,
    "sektör": 30192,
    "uğra": 30193,
    "ekipleri": 30194,
    "yum": 30195,
    "güçlü": 30196,
    "katkı": 30197,
    "rapor": 30198,
    "kuzey": 30199,
    "şehir": 30200,
    "henüz": 30201,
    "hale": 30202,
    "bayram": 30203,
    "mor": 30204,
    "part": 30205,
    "çöz": 30206,
    "tin": 30207,
    "mümkün": 30208,
    "ekip": 30209,
    "kaza": 30210,
    "new": 30211,
    "enerji": 30212,
    "kemal": 30213,
    "tal": 30214,
    "saldırı": 30215,
    "sayın": 30216,
    "of": 30217,
    "batı": 30218,
    "baba": 30219,
    "sokak": 30220,
    "oku": 30221,
    "uçak": 30222,
    "ard": 30223,
    "antalya": 30224,
    "yıldırım": 30225,
    "faaliyet": 30226,
    "sık": 30227,
    "tor": 30228,
    "boz": 30229,
    "boy": 30230,
    "oran": 30231,
    "kir": 30232,
    "dışişleri": 30233,
    "ru": 30234,
    "başvur": 30235,
    "lazım": 30236,
    "uş": 30237,
    "beyaz": 30238,
    "kaynak": 30239,
    "kriz": 30240,
    "indir": 30241,
    "küresel": 30242,
    "trabzonspor": 30243,
    "adet": 30244,
    "telefon": 30245,
    "tem": 30246,
    "serbest": 30247,
    "adım": 30248,
    "eğ": 30249,
    "davet": 30250,
    "yön": 30251,
    "hakim": 30252,
    "herhangi": 30253,
    "obama": 30254,
    "operasyon": 30255,
    "hay": 30256,
    "sır": 30257,
    "anadolu": 30258,
    "tartış": 30259,
    "geniş": 30260,
    "kaç": 30261,
    "borç": 30262,
    "lam": 30263,
    "gök": 30264,
    "üret": 30265,
    "program": 30266,
    "asker": 30267,
    "mas": 30268,
    "yara": 30269,
    "teklif": 30270,
    "aile": 30271,
    "yaşam": 30272,
    "kır": 30273,
    "ldığını": 30274,
    "hızlı": 30275,
    "öyle": 30276,
    "od": 30277,
    "imza": 30278,
    "çift": 30279,
    "televizyon": 30280,
    "ödül": 30281,
    "konser": 30282,
    "up": 30283,
    "sistem": 30284,
    "temel": 30285,
    "yunanistan": 30286,
    "çevre": 30287,
    "toplum": 30288,
    "yem": 30289,
    "doğu": 30290,
    "dahil": 30291,
    "let": 30292,
    "itibaren": 30293,
    "dük": 30294,
    "yanlış": 30295,
    "bildirildi": 30296,
    "ilgi": 30297,
    "beri": 30298,
    "ihracat": 30299,
    "leş": 30300,
    "acı": 30301,
    "tarih": 30302,
    "beş": 30303,
    "meclis": 30304,
    "elektrik": 30305,
    "doğ": 30306,
    "yetkililer": 30307,
    "kürt": 30308,
    "kitap": 30309,
    "ker": 30310,
    "sene": 30311,
    "suz": 30312,
    "normal": 30313,
    "işaret": 30314,
    "kolay": 30315,
    "yas": 30316,
    "belirt": 30317,
    "lin": 30318,
    "gaz": 30319,
    "ocak": 30320,
    "tedavi": 30321,
    "yat": 30322,
    "kış": 30323,
    "nden": 30324,
    "zi": 30325,
    "gez": 30326,
    "koru": 30327,
    "zan": 30328,
    "karı": 30329,
    "dair": 30330,
    "yak": 30331,
    "laş": 30332,
    "yanıt": 30333,
    "referandum": 30334,
    "ateş": 30335,
    "metre": 30336,
    "doktor": 30337,
    "ide": 30338,
    "kardeş": 30339,
    "dav": 30340,
    "inci": 30341,
    "geliştir": 30342,
    "üniversit": 30343,
    "izle": 30344,
    "bunlar": 30345,
    "madde": 30346,
    "salon": 30347,
    "gider": 30348,
    "inşaat": 30349,
    "eylem": 30350,
    "ilçesi": 30351,
    "rahat": 30352,
    "çözüm": 30353,
    "çu": 30354,
    "ov": 30355,
    "güneş": 30356,
    "gar": 30357,
    "tıp": 30358,
    "toprak": 30359,
    "eyle": 30360,
    "dolayısıyla": 30361,
    "sıcak": 30362,
    "sürekli": 30363,
    "üçüncü": 30364,
    "sol": 30365,
    "yeşil": 30366,
    "ölüm": 30367,
    "saray": 30368,
    "direktör": 30369,
    "girişim": 30370,
    "birinci": 30371,
    "belli": 30372,
    "kuruluş": 30373,
    "sam": 30374,
    "don": 30375,
    "hala": 30376,
    "rahim": 30377,
    "düşük": 30378,
    "ihtiyaç": 30379,
    "yazılı": 30380,
    "rakam": 30381,
    "murat": 30382,
    "birkaç": 30383,
    "tık": 30384,
    "kırmızı": 30385,
    "giriş": 30386,
    "ed": 30387,
    "panya": 30388,
    "yon": 30389,
    "hatta": 30390,
    "pi": 30391,
    "kah": 30392,
    "tutuk": 30393,
    "emin": 30394,
    "öğretmen": 30395,
    "turizm": 30396,
    "ders": 30397,
    "bursaspor": 30398,
    "mahkeme": 30399,
    "ndan": 30400,
    "cel": 30401,
    "bol": 30402,
    "dür": 30403,
    "proje": 30404,
    "derece": 30405,
    "soy": 30406,
    "lmış": 30407,
    "üstün": 30408,
    "rken": 30409,
    "piyasa": 30410,
    "saha": 30411,
    "yasal": 30412,
    "geçmiş": 30413,
    "süper": 30414,
    "sivil": 30415,
    "kişilik": 30416,
    "öğrenildi": 30417,
    "temsil": 30418,
    "uç": 30419,
    "lem": 30420,
    "ret": 30421,
    "müş": 30422,
    "tamamen": 30423,
    "tabii": 30424,
    "yönet": 30425,
    "yaşa": 30426,
    "ster": 30427,
    "bm": 30428,
    "öl": 30429,
    "sınav": 30430,
    "kuru": 30431,
    "öde": 30432,
    "recep": 30433,
    "diz": 30434,
    "anne": 30435,
    "kaydeden": 30436,
    "diyarbakır": 30437,
    "say": 30438,
    "sanayi": 30439,
    "pol": 30440,
    "hayvan": 30441,
    "sil": 30442,
    "model": 30443,
    "çağ": 30444,
    "ac": 30445,
    "set": 30446,
    "yet": 30447,
    "şart": 30448,
    "mah": 30449,
    "dönüş": 30450,
    "çevr": 30451,
    "onlar": 30452,
    "bölge": 30453,
    "tesis": 30454,
    "hakem": 30455,
    "üs": 30456,
    "paşa": 30457,
    "forma": 30458,
    "rakip": 30459,
    "kuş": 30460,
    "tas": 30461,
    "baskı": 30462,
    "osman": 30463,
    "tif": 30464,
    "rum": 30465,
    "maçın": 30466,
    "içer": 30467,
    "tepe": 30468,
    "alışveriş": 30469,
    "ım": 30470,
    "dost": 30471,
    "kıbrıs": 30472,
    "pakistan": 30473,
    "şahin": 30474,
    "bursa": 30475,
    "kaybet": 30476,
    "hüseyin": 30477,
    "savun": 30478,
    "canlı": 30479,
    "teşekkür": 30480,
    "gür": 30481,
    "mat": 30482,
    "mesaj": 30483,
    "eder": 30484,
    "ramazan": 30485,
    "hasta": 30486,
    "ttı": 30487,
    "çan": 30488,
    "çelik": 30489,
    "sanık": 30490,
    "ömer": 30491,
    "gazete": 30492,
    "saygı": 30493,
    "fakat": 30494,
    "lak": 30495,
    "kesin": 30496,
    "sert": 30497,
    "yarar": 30498,
    "mevcut": 30499,
    "örnek": 30500,
    "yağ": 30501,
    "kapalı": 30502,
    "cem": 30503,
    "teslim": 30504,
    "banka": 30505,
    "bölüm": 30506,
    "amaç": 30507,
    "kayıt": 30508,
    "hasan": 30509,
    "öte": 30510,
    "yansı": 30511,
    "bırakı": 30512,
    "sıkı": 30513,
    "ilçe": 30514,
    "alık": 30515,
    "emek": 30516,
    "yo": 30517,
    "olumlu": 30518,
    "tehdit": 30519,
    "politika": 30520,
    "arap": 30521,
    "konya": 30522,
    "düzey": 30523,
    "web": 30524,
    "siyah": 30525,
    "olumsuz": 30526,
    "maden": 30527,
    "general": 30528,
    "esiyle": 30529,
    "öldür": 30530,
    "lim": 30531,
    "jandarma": 30532,
    "seyir": 30533,
    "hangi": 30534,
    "kilo": 30535,
    "nükleer": 30536,
    "uyarı": 30537,
    "kore": 30538,
    "sınıf": 30539,
    "york": 30540,
    "hız": 30541,
    "örgüt": 30542,
    "saatlerinde": 30543,
    "fatih": 30544,
    "cep": 30545,
    "bı": 30546,
    "birbir": 30547,
    "risk": 30548,
    "satın": 30549,
    "mali": 30550,
    "yolcu": 30551,
    "ley": 30552,
    "milletvekili": 30553,
    "kimse": 30554,
    "avukat": 30555,
    "temmuz": 30556,
    "kaz": 30557,
    "adalet": 30558,
    "antrenman": 30559,
    "çiz": 30560,
    "bat": 30561,
    "fırsat": 30562,
    "tahmin": 30563,
    "diren": 30564,
    "günlük": 30565,
    "siyaset": 30566,
    "petrol": 30567,
    "vatandaş": 30568,
    "uzman": 30569,
    "plakalı": 30570,
    "tarak": 30571,
    "eskişehir": 30572,
    "sıralarında": 30573,
    "artır": 30574,
    "araştır": 30575,
    "şarkı": 30576,
    "değişik": 30577,
    "vak": 30578,
    "nu": 30579,
    "gem": 30580,
    "nato": 30581,
    "demokratik": 30582,
    "hisse": 30583,
    "kamp": 30584,
    "görüntü": 30585,
    "hesap": 30586,
    "büyü": 30587,
    "cevap": 30588,
    "final": 30589,
    "nün": 30590,
    "bilim": 30591,
    "ister": 30592,
    "meslek": 30593,
    "motor": 30594,
    "vergi": 30595,
    "hayal": 30596,
    "sim": 30597,
    "çağrı": 30598,
    "yük": 30599,
    "çay": 30600,
    "elen": 30601,
    "tatil": 30602,
    "unut": 30603,
    "üniversite": 30604,
    "tepki": 30605,
    "özgür": 30606,
    "üye": 30607,
    "sorumlu": 30608,
    "hav": 30609,
    "zengin": 30610,
    "afganistan": 30611,
    "ligde": 30612,
    "gaziantep": 30613,
    "konuk": 30614,
    "tav": 30615,
    "müdür": 30616,
    "nı": 30617,
    "başbakanı": 30618,
    "skor": 30619,
    "kurban": 30620,
    "trafik": 30621,
    "yarak": 30622,
    "büyüm": 30623,
    "dp": 30624,
    "millet": 30625,
    "lma": 30626,
    "uygula": 30627,
    "bilgisayar": 30628,
    "lmasına": 30629,
    "ordu": 30630,
    "hane": 30631,
    "hakan": 30632,
    "faiz": 30633,
    "sav": 30634,
    "servis": 30635,
    "sevk": 30636,
    "vurgulayan": 30637,
    "aşırı": 30638,
    "artı": 30639,
    "ia": 30640,
    "cer": 30641,
    "soruştur": 30642,
    "öğrenci": 30643,
    "göl": 30644,
    "onur": 30645,
    "eksik": 30646,
    "çıkış": 30647,
    "tuğ": 30648,
    "mel": 30649,
    "balık": 30650,
    "edin": 30651,
    "ktan": 30652,
    "bağış": 30653,
    "sefer": 30654,
    "kil": 30655,
    "zer": 30656,
    "landığını": 30657,
    "kaydedildi": 30658,
    "ulusal": 30659,
    "tarım": 30660,
    "hol": 30661,
    "pil": 30662,
    "dek": 30663,
    "ilaç": 30664,
    "kamyon": 30665,
    "elim": 30666,
    "amerika": 30667,
    "belki": 30668,
    "abdullah": 30669,
    "imkan": 30670,
    "ege": 30671,
    "tayyip": 30672,
    "şube": 30673,
    "ışık": 30674,
    "tara": 30675,
    "yöntem": 30676,
    "onay": 30677,
    "uygulama": 30678,
    "pas": 30679,
    "organizasyon": 30680,
    "def": 30681,
    "pınar": 30682,
    "ayak": 30683,
    "koca": 30684,
    "benzer": 30685,
    "başlayacak": 30686,
    "rekor": 30687,
    "tasarım": 30688,
    "cin": 30689,
    "dola": 30690,
    "benz": 30691,
    "umut": 30692,
    "hapis": 30693,
    "paket": 30694,
    "memur": 30695,
    "yasak": 30696,
    "filistin": 30697,
    "hürriyet": 30698,
    "naz": 30699,
    "otobüs": 30700,
    "karak": 30701,
    "avantaj": 30702,
    "şikayet": 30703,
    "abilecek": 30704,
    "kurt": 30705,
    "protesto": 30706,
    "sat": 30707,
    "bekle": 30708,
    "stadı": 30709,
    "ekonomi": 30710,
    "hil": 30711,
    "yle": 30712,
    "yetkilileri": 30713,
    "yalı": 30714,
    "bakı": 30715,
    "etkinlik": 30716,
    "inşa": 30717,
    "sah": 30718,
    "kav": 30719,
    "th": 30720,
    "mail": 30721,
    "açıkla": 30722,
    "rus": 30723,
    "uğur": 30724,
    "oluş": 30725,
    "bet": 30726,
    "gay": 30727,
    "vali": 30728,
    "nur": 30729,
    "sü": 30730,
    "mayıs": 30731,
    "çar": 30732,
    "yerel": 30733,
    "kural": 30734,
    "müdahale": 30735,
    "istifa": 30736,
    "cuma": 30737,
    "masa": 30738,
    "his": 30739,
    "buluş": 30740,
    "polat": 30741,
    "rım": 30742,
    "yavaş": 30743,
    "peş": 30744,
    "fen": 30745,
    "kalp": 30746,
    "mart": 30747,
    "birlik": 30748,
    "şiddet": 30749,
    "attığı": 30750,
    "ğimiz": 30751,
    "hükümetin": 30752,
    "toplantısında": 30753,
    "devr": 30754,
    "müslüman": 30755,
    "kilometre": 30756,
    "haziran": 30757,
    "doğal": 30758,
    "vet": 30759,
    "sine": 30760,
    "çalı": 30761,
    "bilet": 30762,
    "kaldırıldı": 30763,
    "yürüt": 30764,
    "dayan": 30765,
    "albüm": 30766,
    "ze": 30767,
    "etin": 30768,
    "hoş": 30769,
    "başvuru": 30770,
    "karşılık": 30771,
    "hastalık": 30772,
    "kom": 30773,
    "yakal": 30774,
    "takı": 30775,
    "yönetimindeki": 30776,
    "ihal": 30777,
    "yapacağı": 30778,
    "toplu": 30779,
    "merak": 30780,
    "görün": 30781,
    "vurguladı": 30782,
    "londra": 30783,
    "yangın": 30784,
    "koç": 30785,
    "kala": 30786,
    "yayım": 30787,
    "bakım": 30788,
    "öden": 30789,
    "tük": 30790,
    "ayrıldı": 30791,
    "aşı": 30792,
    "pay": 30793,
    "pozisyon": 30794,
    "düzen": 30795,
    "uyu": 30796,
    "kın": 30797,
    "mutlaka": 30798,
    "dy": 30799,
    "bebek": 30800,
    "br": 30801,
    "kaldır": 30802,
    "asıl": 30803,
    "kanal": 30804,
    "fon": 30805,
    "eser": 30806,
    "kafa": 30807,
    "zar": 30808,
    "tamamladı": 30809,
    "ücret": 30810,
    "ildiğini": 30811,
    "kel": 30812,
    "duyur": 30813,
    "sahne": 30814,
    "şehit": 30815,
    "düzenlediği": 30816,
    "kanun": 30817,
    "politik": 30818,
    "trib": 30819,
    "kulüb": 30820,
    "lmasını": 30821,
    "kas": 30822,
    "personel": 30823,
    "gıda": 30824,
    "not": 30825,
    "direktörü": 30826,
    "ilerle": 30827,
    "brezilya": 30828,
    "tepk": 30829,
    "ilik": 30830,
    "yaralandı": 30831,
    "yağış": 30832,
    "ğından": 30833,
    "acil": 30834,
    "memnun": 30835,
    "üzer": 30836,
    "şans": 30837,
    "bulut": 30838,
    "memiş": 30839,
    "kin": 30840,
    "kop": 30841,
    "lek": 30842,
    "orman": 30843,
    "başar": 30844,
    "ani": 30845,
    "performans": 30846,
    "iktidar": 30847,
    "emekli": 30848,
    "başlattı": 30849,
    "tbmm": 30850,
    "temiz": 30851,
    "dam": 30852,
    "uygu": 30853,
    "esindeki": 30854,
    "medya": 30855,
    "denetim": 30856,
    "ağrı": 30857,
    "cami": 30858,
    "antrenör": 30859,
    "rakib": 30860,
    "beğen": 30861,
    "çetin": 30862,
    "artırı": 30863,
    "katıldığı": 30864,
    "dışarı": 30865,
    "derin": 30866,
    "çekil": 30867,
    "tat": 30868,
    "marka": 30869,
    "tören": 30870,
    "bom": 30871,
    "tip": 30872,
    "japonya": 30873,
    "ülkelerin": 30874,
    "anlaşma": 30875,
    "federasyon": 30876,
    "sunu": 30877,
    "doğum": 30878,
    "festival": 30879,
    "hac": 30880,
    "iptal": 30881,
    "iletişim": 30882,
    "defa": 30883,
    "şeker": 30884,
    "lırken": 30885,
    "gurur": 30886,
    "ortam": 30887,
    "adnan": 30888,
    "asya": 30889,
    "hafif": 30890,
    "rekabet": 30891,
    "uyum": 30892,
    "arama": 30893,
    "kapatı": 30894,
    "suriye": 30895,
    "cü": 30896,
    "organ": 30897,
    "isti": 30898,
    "bun": 30899,
    "elem": 30900,
    "kök": 30901,
    "kayseri": 30902,
    "ova": 30903,
    "mensup": 30904,
    "amerikan": 30905,
    "kazada": 30906,
    "diş": 30907,
    "pet": 30908,
    "özür": 30909,
    "sözlerine": 30910,
    "cinsel": 30911,
    "sağlam": 30912,
    "laciver": 30913,
    "dikkati": 30914,
    "kapasit": 30915,
    "kamer": 30916,
    "ameliyat": 30917,
    "şimşek": 30918,
    "hiss": 30919,
    "bülent": 30920,
    "istihdam": 30921,
    "ulan": 30922,
    "gec": 30923,
    "kılıç": 30924,
    "kür": 30925,
    "hoca": 30926,
    "basket": 30927,
    "başkent": 30928,
    "yönetmen": 30929,
    "tane": 30930,
    "sorgu": 30931,
    "del": 30932,
    "test": 30933,
    "tun": 30934,
    "ortalama": 30935,
    "çiçek": 30936,
    "bıçak": 30937,
    "demokrasi": 30938,
    "yal": 30939,
    "ruh": 30940,
    "fır": 30941,
    "kr": 30942,
    "kongre": 30943,
    "şe": 30944,
    "bütçe": 30945,
    "kum": 30946,
    "düz": 30947,
    "kanser": 30948,
    "tasarı": 30949,
    "davutoğlu": 30950,
    "dizi": 30951,
    "ilan": 30952,
    "ayla": 30953,
    "giz": 30954,
    "aşk": 30955,
    "aracı": 30956,
    "renk": 30957,
    "tutuklu": 30958,
    "turist": 30959,
    "önlem": 30960,
    "list": 30961,
    "trabzon": 30962,
    "hastaneye": 30963,
    "yatı": 30964,
    "boyut": 30965,
    "aşağı": 30966,
    "acağız": 30967,
    "aykırı": 30968,
    "dolara": 30969,
    "tiyatro": 30970,
    "tez": 30971,
    "sur": 30972,
    "olası": 30973,
    "gerekçesiyle": 30974,
    "belirlendi": 30975,
    "düğ": 30976,
    "ümit": 30977,
    "zafer": 30978,
    "eşit": 30979,
    "devre": 30980,
    "reklam": 30981,
    "gerçekleş": 30982,
    "çekim": 30983,
    "ödem": 30984,
    "tarı": 30985,
    "fransız": 30986,
    "yetiştir": 30987,
    "çab": 30988,
    "heyecan": 30989,
    "komisyon": 30990,
    "ris": 30991,
    "luğ": 30992,
    "madalya": 30993,
    "allah": 30994,
    "olayla": 30995,
    "kayıp": 30996,
    "hast": 30997,
    "may": 30998,
    "rah": 30999,
    "güc": 31000,
    "itiraz": 31001,
    "tep": 31002,
    "ticari": 31003,
    "yetkili": 31004,
    "lemeye": 31005,
    "oğ": 31006,
    "sinema": 31007,
    "yaratı": 31008,
    "dans": 31009,
    "alet": 31010,
    "beyazlı": 31011,
    "koş": 31012,
    "çak": 31013,
    "liraya": 31014,
    "zam": 31015,
    "inanıyorum": 31016,
    "örü": 31017,
    "yazar": 31018,
    "koruma": 31019,
    "maliyet": 31020,
    "zirve": 31021,
    "lanarak": 31022,
    "takıma": 31023,
    "hü": 31024,
    "vurgu": 31025,
    "çevir": 31026,
    "işçi": 31027,
    "sigorta": 31028,
    "kimlik": 31029,
    "deplasmanda": 31030,
    "gönül": 31031,
    "arz": 31032,
    "sözleş": 31033,
    "modern": 31034,
    "det": 31035,
    "mus": 31036,
    "hu": 31037,
    "roman": 31038,
    "ettiklerini": 31039,
    "madrid": 31040,
    "konuşma": 31041,
    "koz": 31042,
    "organize": 31043,
    "itfaiye": 31044,
    "duygu": 31045,
    "mit": 31046,
    "baz": 31047,
    "sivasspor": 31048,
    "ortadoğu": 31049,
    "mersin": 31050,
    "karakter": 31051,
    "lübnan": 31052,
    "huzur": 31053,
    "cinayet": 31054,
    "ğunu": 31055,
    "and": 31056,
    "bağımsız": 31057,
    "doğrudan": 31058,
    "altyapı": 31059,
    "ekib": 31060,
    "süreç": 31061,
    "bahçe": 31062,
    "muhalefet": 31063,
    "vazgeç": 31064,
    "marmara": 31065,
    "harca": 31066,
    "dolu": 31067,
    "hollanda": 31068,
    "sözlerini": 31069,
    "amir": 31070,
    "avcı": 31071,
    "diplo": 31072,
    "landırı": 31073,
    "kaf": 31074,
    "bazen": 31075,
    "doldur": 31076,
    "peki": 31077,
    "aziz": 31078,
    "süz": 31079,
    "aldık": 31080,
    "sürdürdü": 31081,
    "tekin": 31082,
    "bodrum": 31083,
    "edildiğini": 31084,
    "etkin": 31085,
    "şük": 31086,
    "verdiğini": 31087,
    "seri": 31088,
    "akar": 31089,
    "ece": 31090,
    "vat": 31091,
    "kuvvet": 31092,
    "tren": 31093,
    "akı": 31094,
    "kam": 31095,
    "aslan": 31096,
    "şah": 31097,
    "karşılaştı": 31098,
    "alay": 31099,
    "has": 31100,
    "boğ": 31101,
    "şar": 31102,
    "sus": 31103,
    "hır": 31104,
    "sahaya": 31105,
    "yağmur": 31106,
    "mis": 31107,
    "toplantıda": 31108,
    "sini": 31109,
    "metin": 31110,
    "kavga": 31111,
    "moda": 31112,
    "yaşamını": 31113,
    "sahada": 31114,
    "akdeniz": 31115,
    "salı": 31116,
    "koşul": 31117,
    "zayıf": 31118,
    "ğim": 31119,
    "telekom": 31120,
    "standart": 31121,
    "cumartesi": 31122,
    "yaralanan": 31123,
    "saç": 31124,
    "paris": 31125,
    "tabi": 31126,
    "far": 31127,
    "zen": 31128,
    "hüküm": 31129,
    "hel": 31130,
    "cezalandırı": 31131,
    "vaz": 31132,
    "yoksa": 31133,
    "ilginç": 31134,
    "karadeniz": 31135,
    "pazartesi": 31136,
    "cihaz": 31137,
    "kurtul": 31138,
    "afrika": 31139,
    "halka": 31140,
    "mağdur": 31141,
    "konum": 31142,
    "mısır": 31143,
    "yedi": 31144,
    "key": 31145,
    "komşu": 31146,
    "adli": 31147,
    "çarp": 31148,
    "alkol": 31149,
    "edip": 31150,
    "dol": 31151,
    "kullanım": 31152,
    "gökhan": 31153,
    "tanık": 31154,
    "teknoloji": 31155,
    "mimar": 31156,
    "ina": 31157,
    "sinan": 31158,
    "yacağı": 31159,
    "koydu": 31160,
    "yargıtay": 31161,
    "dere": 31162,
    "kork": 31163,
    "şaşır": 31164,
    "nan": 31165,
    "sap": 31166,
    "kampanya": 31167,
    "lacağı": 31168,
    "yerleş": 31169,
    "daş": 31170,
    "tanım": 31171,
    "yaptıklarını": 31172,
    "nci": 31173,
    "yapıldığını": 31174,
    "ligin": 31175,
    "yalan": 31176,
    "mağlup": 31177,
    "gazi": 31178,
    "tör": 31179,
    "gelin": 31180,
    "sözcüsü": 31181,
    "gümüş": 31182,
    "terk": 31183,
    "çoğu": 31184,
    "kus": 31185,
    "deprem": 31186,
    "rektör": 31187,
    "istikrar": 31188,
    "istediklerini": 31189,
    "kad": 31190,
    "hindistan": 31191,
    "dini": 31192,
    "emeyen": 31193,
    "derec": 31194,
    "bebe": 31195,
    "nam": 31196,
    "bıraktı": 31197,
    "fikir": 31198,
    "netanyahu": 31199,
    "akın": 31200,
    "mahalle": 31201,
    "panyol": 31202,
    "kırık": 31203,
    "hit": 31204,
    "yapım": 31205,
    "bağlantı": 31206,
    "yay": 31207,
    "turnuva": 31208,
    "direk": 31209,
    "niyet": 31210,
    "dey": 31211,
    "maça": 31212,
    "arın": 31213,
    "karşın": 31214,
    "taleb": 31215,
    "dede": 31216,
    "mayın": 31217,
    "kurtar": 31218,
    "sohbet": 31219,
    "profesyonel": 31220,
    "uyar": 31221,
    "zeytin": 31222,
    "böl": 31223,
    "portekiz": 31224,
    "racak": 31225,
    "mekan": 31226,
    "çaba": 31227,
    "şampiyonluk": 31228,
    "basına": 31229,
    "bomba": 31230,
    "birim": 31231,
    "dakik": 31232,
    "nisan": 31233,
    "ney": 31234,
    "kem": 31235,
    "asist": 31236,
    "soğuk": 31237,
    "kitab": 31238,
    "sultan": 31239,
    "mavi": 31240,
    "maddi": 31241,
    "yürü": 31242,
    "yaşı": 31243,
    "problem": 31244,
    "üt": 31245,
    "yalnız": 31246,
    "ladığını": 31247,
    "korku": 31248,
    "konak": 31249,
    "kadir": 31250,
    "yaşlı": 31251,
    "ifadesini": 31252,
    "nüfus": 31253,
    "demokrat": 31254,
    "çeyrek": 31255,
    "işle": 31256,
    "yaşandı": 31257,
    "pilot": 31258,
    "neredeyse": 31259,
    "yunan": 31260,
    "teşvik": 31261,
    "heyet": 31262,
    "düzenlem": 31263,
    "laştırı": 31264,
    "cık": 31265,
    "ağaç": 31266,
    "genelkurmay": 31267,
    "çam": 31268,
    "samsun": 31269,
    "istasyon": 31270,
    "yetiş": 31271,
    "laştı": 31272,
    "mark": 31273,
    "çatı": 31274,
    "toto": 31275,
    "süleyman": 31276,
    "dosya": 31277,
    "süt": 31278,
    "hekim": 31279,
    "inceleme": 31280,
    "nokta": 31281,
    "sinir": 31282,
    "makam": 31283,
    "yusuf": 31284,
    "miktar": 31285,
    "ağa": 31286,
    "tazminat": 31287,
    "polise": 31288,
    "koleksiyon": 31289,
    "önder": 31290,
    "asla": 31291,
    "gidecek": 31292,
    "polisin": 31293,
    "yöneticiler": 31294,
    "bulundur": 31295,
    "darbe": 31296,
    "adres": 31297,
    "buz": 31298,
    "sigara": 31299,
    "alını": 31300,
    "holding": 31301,
    "mobil": 31302,
    "kupa": 31303,
    "aktif": 31304,
    "ph": 31305,
    "şiş": 31306,
    "sayfa": 31307,
    "kok": 31308,
    "hepsi": 31309,
    "yönündeki": 31310,
    "röportaj": 31311,
    "müzaker": 31312,
    "üzün": 31313,
    "konuşmada": 31314,
    "lav": 31315,
    "fabrika": 31316,
    "mesut": 31317,
    "vatandaşlar": 31318,
    "orhan": 31319,
    "gazetecilerin": 31320,
    "sanay": 31321,
    "sün": 31322,
    "istihbarat": 31323,
    "ştığı": 31324,
    "iri": 31325,
    "bot": 31326,
    "hor": 31327,
    "öğle": 31328,
    "hatırlatan": 31329,
    "kalk": 31330,
    "kıyı": 31331,
    "olimpiyat": 31332,
    "hediye": 31333,
    "tasar": 31334,
    "sahte": 31335,
    "temas": 31336,
    "tartışı": 31337,
    "bence": 31338,
    "göçmen": 31339,
    "yalçın": 31340,
    "lacağını": 31341,
    "ekran": 31342,
    "ispor": 31343,
    "sırbistan": 31344,
    "maliye": 31345,
    "gösteri": 31346,
    "puanla": 31347,
    "yakala": 31348,
    "duvar": 31349,
    "denildi": 31350,
    "lüğ": 31351,
    "rast": 31352,
    "özcan": 31353,
    "yenil": 31354,
    "projenin": 31355,
    "ayır": 31356,
    "yel": 31357,
    "lok": 31358,
    "kızıl": 31359,
    "ekledi": 31360,
    "valisi": 31361,
    "belge": 31362,
    "erdem": 31363,
    "sağla": 31364,
    "şubat": 31365,
    "gergin": 31366,
    "vatandaşların": 31367,
    "arslan": 31368,
    "gelerek": 31369,
    "ülkeye": 31370,
    "edeceğiz": 31371,
    "kanı": 31372,
    "boğaz": 31373,
    "sorumluluk": 31374,
    "stat": 31375,
    "hes": 31376,
    "protokol": 31377,
    "mini": 31378,
    "komutanı": 31379,
    "galip": 31380,
    "lmaya": 31381,
    "piş": 31382,
    "şeri": 31383,
    "büyükelç": 31384,
    "piyas": 31385,
    "lmasının": 31386,
    "yapacağız": 31387,
    "davran": 31388,
    "kapan": 31389,
    "reform": 31390,
    "emeye": 31391,
    "bekliyoruz": 31392,
    "komutanlığı": 31393,
    "nar": 31394,
    "zanlı": 31395,
    "selçuk": 31396,
    "kaygı": 31397,
    "lamadı": 31398,
    "beden": 31399,
    "düzenlenecek": 31400,
    "unsur": 31401,
    "bedel": 31402,
    "öztürk": 31403,
    "liğ": 31404,
    "bara": 31405,
    "seyahat": 31406,
    "nik": 31407,
    "şampiyonu": 31408,
    "tuk": 31409,
    "yakı": 31410,
    "sorularını": 31411,
    "meydan": 31412,
    "inşallah": 31413,
    "çal": 31414,
    "topar": 31415,
    "çor": 31416,
    "çalışıyoruz": 31417,
    "hine": 31418,
    "lmak": 31419,
    "çeşit": 31420,
    "metro": 31421,
    "firma": 31422,
    "özdemir": 31423,
    "hastanede": 31424,
    "maaş": 31425,
    "bosna": 31426,
    "ds": 31427,
    "sorusuna": 31428,
    "belediyespor": 31429,
    "ucuz": 31430,
    "resim": 31431,
    "sattı": 31432,
    "kov": 31433,
    "keyi": 31434,
    "ergen": 31435,
    "çer": 31436,
    "bayrak": 31437,
    "elektronik": 31438,
    "enflasyon": 31439,
    "ayan": 31440,
    "avukatı": 31441,
    "suna": 31442,
    "hata": 31443,
    "kırmızılı": 31444,
    "saf": 31445,
    "market": 31446,
    "acağı": 31447,
    "iftar": 31448,
    "ant": 31449,
    "ithal": 31450,
    "oturan": 31451,
    "thy": 31452,
    "finans": 31453,
    "kararını": 31454,
    "yarat": 31455,
    "yakınları": 31456,
    "algı": 31457,
    "kurtarma": 31458,
    "ihbar": 31459,
    "şer": 31460,
    "ülüyor": 31461,
    "görevli": 31462,
    "raz": 31463,
    "kaybeden": 31464,
    "rüzgar": 31465,
    "isiyle": 31466,
    "sakin": 31467,
    "eğlen": 31468,
    "ştırı": 31469,
    "kenar": 31470,
    "turan": 31471,
    "ört": 31472,
    "tuz": 31473,
    "ğünü": 31474,
    "danışman": 31475,
    "anlatı": 31476,
    "perşembe": 31477,
    "helikopter": 31478,
    "hap": 31479,
    "kayser": 31480,
    "ürken": 31481,
    "alev": 31482,
    "anal": 31483,
    "göç": 31484,
    "anlat": 31485,
    "bekleyen": 31486,
    "motosiklet": 31487,
    "füze": 31488,
    "bahar": 31489,
    "sponsor": 31490,
    "müdürlüğ": 31491,
    "çarpı": 31492,
    "dok": 31493,
    "emir": 31494,
    "denet": 31495,
    "mücadel": 31496,
    "sahil": 31497,
    "tom": 31498,
    "payı": 31499,
    "hı": 31500,
    "çarşamba": 31501,
    "esnaf": 31502,
    "çıkartı": 31503,
    "özellik": 31504,
    "volkan": 31505,
    "hür": 31506,
    "gazze": 31507,
    "hid": 31508,
    "kıyafet": 31509,
    "raporda": 31510,
    "niye": 31511,
    "kaçır": 31512,
    "görüldü": 31513,
    "esas": 31514,
    "belçika": 31515,
    "ifadelerini": 31516,
    "çocuğ": 31517,
    "intihar": 31518,
    "nihat": 31519,
    "ağab": 31520,
    "dağıtı": 31521,
    "mezar": 31522,
    "yaygın": 31523,
    "kendim": 31524,
    "ram": 31525,
    "anket": 31526,
    "doğalgaz": 31527,
    "diyoruz": 31528,
    "yedek": 31529,
    "avustralya": 31530,
    "başından": 31531,
    "savundu": 31532,
    "patlama": 31533,
    "çap": 31534,
    "kavuş": 31535,
    "idare": 31536,
    "işbir": 31537,
    "ilerde": 31538,
    "erzurum": 31539,
    "çarptı": 31540,
    "derg": 31541,
    "başladığını": 31542,
    "ikili": 31543,
    "çoğ": 31544,
    "izledi": 31545,
    "göreve": 31546,
    "sürpriz": 31547,
    "halil": 31548,
    "hey": 31549,
    "mesela": 31550,
    "pal": 31551,
    "ayşe": 31552,
    "yanıtladı": 31553,
    "başardı": 31554,
    "engin": 31555,
    "olduğunun": 31556,
    "muştu": 31557,
    "takımının": 31558,
    "sebep": 31559,
    "şener": 31560,
    "kilometr": 31561,
    "lisans": 31562,
    "yukarı": 31563,
    "kişisel": 31564,
    "üste": 31565,
    "çağır": 31566,
    "paylaş": 31567,
    "talimat": 31568,
    "çıkı": 31569,
    "ülkeleri": 31570,
    "babam": 31571,
    "yatak": 31572,
    "tatlı": 31573,
    "serdar": 31574,
    "malarda": 31575,
    "isimler": 31576,
    "alkış": 31577,
    "ilet": 31578,
    "eren": 31579,
    "güreş": 31580,
    "arac": 31581,
    "bakanlık": 31582,
    "keş": 31583,
    "vatandaşı": 31584,
    "esiz": 31585,
    "hayran": 31586,
    "temin": 31587,
    "şampiyonlar": 31588,
    "tecavüz": 31589,
    "danış": 31590,
    "yaşadı": 31591,
    "işletme": 31592,
    "idari": 31593,
    "kariyer": 31594,
    "terörist": 31595,
    "ima": 31596,
    "dönüştür": 31597,
    "olurken": 31598,
    "sermaye": 31599,
    "gittik": 31600,
    "boyu": 31601,
    "sorum": 31602,
    "adeta": 31603,
    "kuz": 31604,
    "manisa": 31605,
    "döv": 31606,
    "yecek": 31607,
    "kulübün": 31608,
    "yarım": 31609,
    "düzenleme": 31610,
    "çıktığını": 31611,
    "ilirken": 31612,
    "alınacak": 31613,
    "hakaret": 31614,
    "lmıştı": 31615,
    "kazı": 31616,
    "havalimanı": 31617,
    "karabük": 31618,
    "özen": 31619,
    "gazetecilere": 31620,
    "borsa": 31621,
    "kanıt": 31622,
    "değilim": 31623,
    "geçmişte": 31624,
    "avro": 31625,
    "özkan": 31626,
    "nü": 31627,
    "oynanacak": 31628,
    "kral": 31629,
    "olmayacak": 31630,
    "demirel": 31631,
    "belirtiliyor": 31632,
    "açıklamaya": 31633,
    "muz": 31634,
    "sekreteri": 31635,
    "namaz": 31636,
    "kartal": 31637,
    "arjantin": 31638,
    "geçiren": 31639,
    "prim": 31640,
    "gali": 31641,
    "dernek": 31642,
    "aşık": 31643,
    "köprü": 31644,
    "haberde": 31645,
    "açıklamasında": 31646,
    "azerbaycan": 31647,
    "yacağını": 31648,
    "geçecek": 31649,
    "getiril": 31650,
    "kör": 31651,
    "vizyon": 31652,
    "cay": 31653,
    "değişim": 31654,
    "fur": 31655,
    "serkan": 31656,
    "edeceğini": 31657,
    "ray": 31658,
    "mesel": 31659,
    "ayet": 31660,
    "meydanı": 31661,
    "görevini": 31662,
    "fat": 31663,
    "lediği": 31664,
    "çatış": 31665,
    "bankacılık": 31666,
    "turgut": 31667,
    "çıkması": 31668,
    "araz": 31669,
    "ülkelerde": 31670,
    "dahi": 31671,
    "hacı": 31672,
    "görüyoruz": 31673,
    "kapa": 31674,
    "hasar": 31675,
    "ade": 31676,
    "düşünüyoruz": 31677,
    "sezonun": 31678,
    "kaptan": 31679,
    "mahkum": 31680,
    "yınca": 31681,
    "söndür": 31682,
    "rız": 31683,
    "au": 31684,
    "mühendis": 31685,
    "liralık": 31686,
    "hisar": 31687,
    "sandal": 31688,
    "saldır": 31689,
    "köylü": 31690,
    "ikna": 31691,
    "form": 31692,
    "daire": 31693,
    "sekiz": 31694,
    "öğrencisi": 31695,
    "caz": 31696,
    "minibüs": 31697,
    "oluştu": 31698,
    "milletvekil": 31699,
    "ceo": 31700,
    "tının": 31701,
    "boşan": 31702,
    "mezun": 31703,
    "verdik": 31704,
    "barcelona": 31705,
    "parlamento": 31706,
    "yatırı": 31707,
    "düğün": 31708,
    "maalesef": 31709,
    "incisi": 31710,
    "etik": 31711,
    "müştü": 31712,
    "ket": 31713,
    "ithalat": 31714,
    "karşısına": 31715,
    "kentinde": 31716,
    "ışı": 31717,
    "dönen": 31718,
    "odak": 31719,
    "olmuştu": 31720,
    "araba": 31721,
    "tedbir": 31722,
    "dun": 31723,
    "katıl": 31724,
    "taşıyor": 31725,
    "acağını": 31726,
    "davranış": 31727,
    "alacağı": 31728,
    "işim": 31729,
    "edirne": 31730,
    "kendiler": 31731,
    "hükümetinin": 31732,
    "giyen": 31733,
    "evlen": 31734,
    "rakibi": 31735,
    "lor": 31736,
    "kaleci": 31737,
    "çıkıp": 31738,
    "mektup": 31739,
    "dilekç": 31740,
    "mardin": 31741,
    "haz": 31742,
    "red": 31743,
    "ahmed": 31744,
    "dönüm": 31745,
    "lendiği": 31746,
    "sivas": 31747,
    "çıkarak": 31748,
    "devreye": 31749,
    "fener": 31750,
    "aldıklarını": 31751,
    "salih": 31752,
    "kıs": 31753,
    "aktör": 31754,
    "otomotiv": 31755,
    "metrekar": 31756,
    "fuar": 31757,
    "eyecek": 31758,
    "dilek": 31759,
    "baskın": 31760,
    "kktc": 31761,
    "uyan": 31762,
    "fak": 31763,
    "rüş": 31764,
    "getirildi": 31765,
    "memek": 31766,
    "ekli": 31767,
    "harcam": 31768,
    "oğuz": 31769,
    "kaldığını": 31770,
    "yaptırım": 31771,
    "ertuğrul": 31772,
    "kahve": 31773,
    "eşliğinde": 31774,
    "alternatif": 31775,
    "ambulans": 31776,
    "şam": 31777,
    "kısm": 31778,
    "ayakkabı": 31779,
    "lüks": 31780,
    "saniye": 31781,
    "tesisleri": 31782,
    "bre": 31783,
    "aldıkları": 31784,
    "toplanan": 31785,
    "isa": 31786,
    "omuz": 31787,
    "mec": 31788,
    "oyla": 31789,
    "gelişme": 31790,
    "uc": 31791,
    "denk": 31792,
    "haf": 31793,
    "mamak": 31794,
    "geril": 31795,
    "heyeti": 31796,
    "muğla": 31797,
    "misafir": 31798,
    "çağdaş": 31799,
    "stratejik": 31800,
    "taban": 31801,
    "ziya": 31802,
    "şok": 31803,
    "geçerli": 31804,
    "mamız": 31805,
    "idi": 31806,
    "suçundan": 31807,
    "başlangıç": 31808,
    "hayati": 31809,
    "port": 31810,
    "hastane": 31811,
    "görü": 31812,
    "yıldan": 31813,
    "kayı": 31814,
    "arız": 31815,
    "meyve": 31816,
    "işsiz": 31817,
    "bunda": 31818,
    "ekipler": 31819,
    "tab": 31820,
    "icra": 31821,
    "başladık": 31822,
    "hin": 31823,
    "etmişti": 31824,
    "götürüldü": 31825,
    "egemen": 31826,
    "fatma": 31827,
    "ihtimal": 31828,
    "yaklaş": 31829,
    "çeyre": 31830,
    "zorunlu": 31831,
    "koltuk": 31832,
    "damar": 31833,
    "deplasman": 31834,
    "tarz": 31835,
    "pir": 31836,
    "pak": 31837,
    "tın": 31838,
    "özer": 31839,
    "lus": 31840,
    "emeği": 31841,
    "parça": 31842,
    "lilerin": 31843,
    "ast": 31844,
    "yarattı": 31845,
    "gönderildi": 31846,
    "leyecek": 31847,
    "gittiği": 31848,
    "nefes": 31849,
    "eceğ": 31850,
    "yır": 31851,
    "kapat": 31852,
    "yunus": 31853,
    "moskova": 31854,
    "mahkemeye": 31855,
    "bulgaristan": 31856,
    "tap": 31857,
    "nişan": 31858,
    "heykel": 31859,
    "ekmek": 31860,
    "kül": 31861,
    "gözlem": 31862,
    "potansiyel": 31863,
    "cadde": 31864,
    "evli": 31865,
    "uçağ": 31866,
    "cihan": 31867,
    "frank": 31868,
    "elinden": 31869,
    "atlet": 31870,
    "sekreter": 31871,
    "adamları": 31872,
    "üyelerinin": 31873,
    "maruz": 31874,
    "zeynep": 31875,
    "kalem": 31876,
    "eleriyle": 31877,
    "koşu": 31878,
    "babacan": 31879,
    "ulduğunu": 31880,
    "sergi": 31881,
    "muhammed": 31882,
    "duyu": 31883,
    "olmasının": 31884,
    "girecek": 31885,
    "açtığı": 31886,
    "antalyaspor": 31887,
    "ebil": 31888,
    "işsizlik": 31889,
    "birleş": 31890,
    "liste": 31891,
    "lanı": 31892,
    "takımlar": 31893,
    "anlam": 31894,
    "cengiz": 31895,
    "şeref": 31896,
    "hanım": 31897,
    "barın": 31898,
    "taliban": 31899,
    "tarif": 31900,
    "olayda": 31901,
    "bakır": 31902,
    "ihlal": 31903,
    "yacağız": 31904,
    "birik": 31905,
    "köpek": 31906,
    "gelişim": 31907,
    "saldırgan": 31908,
    "vücut": 31909,
    "istemedi": 31910,
    "yapama": 31911,
    "öf": 31912,
    "slogan": 31913,
    "törende": 31914,
    "zem": 31915,
    "zehir": 31916,
    "sonuc": 31917,
    "olacağız": 31918,
    "gur": 31919,
    "ış": 31920,
    "rey": 31921,
    "iledi": 31922,
    "yeter": 31923,
    "disiplin": 31924,
    "liman": 31925,
    "aracın": 31926,
    "metrekare": 31927,
    "yerinden": 31928,
    "ulus": 31929,
    "kasa": 31930,
    "dalı": 31931,
    "yumurta": 31932,
    "ayhan": 31933,
    "yiğit": 31934,
    "kağıt": 31935,
    "raf": 31936,
    "bis": 31937,
    "türkler": 31938,
    "fes": 31939,
    "kuruş": 31940,
    "sahneye": 31941,
    "altay": 31942,
    "evren": 31943,
    "gazeteciler": 31944,
    "şikayetçi": 31945,
    "mıyoruz": 31946,
    "hedefimiz": 31947,
    "bekir": 31948,
    "ilişki": 31949,
    "getirdiği": 31950,
    "uf": 31951,
    "ayrılan": 31952,
    "ülmesi": 31953,
    "yavuz": 31954,
    "geldik": 31955,
    "penaltı": 31956,
    "rıza": 31957,
    "çalışmalarına": 31958,
    "yönel": 31959,
    "sürecek": 31960,
    "coş": 31961,
    "haberine": 31962,
    "sahasında": 31963,
    "atılan": 31964,
    "görünce": 31965,
    "itan": 31966,
    "açıklan": 31967,
    "binden": 31968,
    "tanıtı": 31969,
    "tos": 31970,
    "sürücüsü": 31971,
    "başsavcı": 31972,
    "adliyeye": 31973,
    "duman": 31974,
    "endişe": 31975,
    "uydu": 31976,
    "bozuk": 31977,
    "kentin": 31978,
    "illa": 31979,
    "polisi": 31980,
    "tüket": 31981,
    "tok": 31982,
    "akıl": 31983,
    "lanmak": 31984,
    "katılacak": 31985,
    "kenan": 31986,
    "latı": 31987,
    "pamuk": 31988,
    "restoran": 31989,
    "arzu": 31990,
    "iv": 31991,
    "bizden": 31992,
    "klasik": 31993,
    "öv": 31994,
    "söylediği": 31995,
    "getirerek": 31996,
    "bilinç": 31997,
    "hırvat": 31998,
    "oktay": 31999,
    "vekili": 32000,
    "sektörün": 32001,
    "fel": 32002,
    "memuru": 32003,
    "ülkeden": 32004,
    "gidece": 32005,
    "halkının": 32006,
    "miting": 32007,
    "toplan": 32008,
    "zım": 32009,
    "davanın": 32010,
    "büyüy": 32011,
    "hatırlatı": 32012,
    "yazıcı": 32013,
    "açıklamalarda": 32014,
    "trans": 32015,
    "kurşun": 32016,
    "kararın": 32017,
    "müşteri": 32018,
    "aşkın": 32019,
    "tuttu": 32020,
    "oyuncunun": 32021,
    "konuşmasında": 32022,
    "tabanca": 32023,
    "sordu": 32024,
    "eşinin": 32025,
    "hazine": 32026,
    "dediği": 32027,
    "ısrar": 32028,
    "kısıt": 32029,
    "ism": 32030,
    "iddiaları": 32031,
    "isabet": 32032,
    "ulaşan": 32033,
    "deste": 32034,
    "hazırladığı": 32035,
    "suudi": 32036,
    "çik": 32037,
    "ısı": 32038,
    "ekiplerinin": 32039,
    "parayı": 32040,
    "cenaze": 32041,
    "mevsim": 32042,
    "bağır": 32043,
    "pt": 32044,
    "demirtaş": 32045,
    "yoksul": 32046,
    "lise": 32047,
    "mükemmel": 32048,
    "şap": 32049,
    "ertel": 32050,
    "fayda": 32051,
    "nec": 32052,
    "ajans": 32053,
    "erkan": 32054,
    "yang": 32055,
    "partinin": 32056,
    "beyin": 32057,
    "112": 32058,
    "voleybol": 32059,
    "sektörünün": 32060,
    "analiz": 32061,
    "deney": 32062,
    "şirketlerin": 32063,
    "görevl": 32064,
    "döviz": 32065,
    "lal": 32066,
    "müzi": 32067,
    "avusturya": 32068,
    "faş": 32069,
    "durumunun": 32070,
    "konuya": 32071,
    "yönetiminin": 32072,
    "liradan": 32073,
    "değinen": 32074,
    "tavır": 32075,
    "dokuz": 32076,
    "global": 32077,
    "alındığını": 32078,
    "belirtiyor": 32079,
    "ihraç": 32080,
    "merkel": 32081,
    "eroğlu": 32082,
    "çekerek": 32083,
    "mayacağını": 32084,
    "faruk": 32085,
    "yanıtını": 32086,
    "değ": 32087,
    "sergilen": 32088,
    "laik": 32089,
    "kendileri": 32090,
    "yık": 32091,
    "levent": 32092,
    "geçtiği": 32093,
    "luluğu": 32094,
    "apart": 32095,
    "mahmut": 32096,
    "vurgulayarak": 32097,
    "kalabalık": 32098,
    "serv": 32099,
    "ate": 32100,
    "tekstil": 32101,
    "mamalı": 32102,
    "beraberlik": 32103,
    "ila": 32104,
    "alındığı": 32105,
    "gram": 32106,
    "gemi": 32107,
    "inanç": 32108,
    "zemin": 32109,
    "komitesi": 32110,
    "deng": 32111,
    "tüsü": 32112,
    "kilit": 32113,
    "oğlum": 32114,
    "nuri": 32115,
    "değiliz": 32116,
    "iken": 32117,
    "kocaeli": 32118,
    "cezaevi": 32119,
    "polisler": 32120,
    "maddes": 32121,
    "bisiklet": 32122,
    "birleşmiş": 32123,
    "tipi": 32124,
    "abileceğini": 32125,
    "ziraat": 32126,
    "vakıf": 32127,
    "kup": 32128,
    "polonya": 32129,
    "etki": 32130,
    "kamuoyu": 32131,
    "yolun": 32132,
    "araştırı": 32133,
    "vatan": 32134,
    "ayrıntı": 32135,
    "imal": 32136,
    "burak": 32137,
    "ülkeyi": 32138,
    "parmak": 32139,
    "ettin": 32140,
    "star": 32141,
    "verdim": 32142,
    "artıyor": 32143,
    "terörle": 32144,
    "konferans": 32145,
    "delil": 32146,
    "sıfır": 32147,
    "blok": 32148,
    "eskiden": 32149,
    "dilen": 32150,
    "kayna": 32151,
    "geçirdiği": 32152,
    "çanakkale": 32153,
    "dök": 32154,
    "emem": 32155,
    "manchester": 32156,
    "erol": 32157,
    "oyunda": 32158,
    "girdiği": 32159,
    "haftasında": 32160,
    "müzakere": 32161,
    "poz": 32162,
    "dönemine": 32163,
    "ösym": 32164,
    "john": 32165,
    "tahliye": 32166,
    "başbakanlık": 32167,
    "tüp": 32168,
    "trafi": 32169,
    "usta": 32170,
    "sos": 32171,
    "gerçekleştirilecek": 32172,
    "ailenin": 32173,
    "çel": 32174,
    "şanlıurfa": 32175,
    "aradan": 32176,
    "ermenistan": 32177,
    "şak": 32178,
    "play": 32179,
    "ikram": 32180,
    "usul": 32181,
    "cezasına": 32182,
    "uygulamaya": 32183,
    "santral": 32184,
    "emeyecek": 32185,
    "şiir": 32186,
    "eyalet": 32187,
    "geçtik": 32188,
    "berlin": 32189,
    "by": 32190,
    "sorusu": 32191,
    "yönetiminde": 32192,
    "esen": 32193,
    "geçtiğini": 32194,
    "çalışmalarının": 32195,
    "je": 32196,
    "başlatı": 32197,
    "ünal": 32198,
    "çalıştığını": 32199,
    "sancak": 32200,
    "sis": 32201,
    "kalıyor": 32202,
    "komutan": 32203,
    "kahraman": 32204,
    "detay": 32205,
    "abileceği": 32206,
    "sessiz": 32207,
    "sanki": 32208,
    "sürülen": 32209,
    "tablo": 32210,
    "alp": 32211,
    "garanti": 32212,
    "post": 32213,
    "meksika": 32214,
    "ekonomisi": 32215,
    "usuna": 32216,
    "girmek": 32217,
    "ihale": 32218,
    "otop": 32219,
    "görüştü": 32220,
    "erdi": 32221,
    "söyleyerek": 32222,
    "seyre": 32223,
    "hatır": 32224,
    "burası": 32225,
    "elif": 32226,
    "otomobilin": 32227,
    "oysa": 32228,
    "aktar": 32229,
    "nas": 32230,
    "ika": 32231,
    "dediler": 32232,
    "şekil": 32233,
    "geleceği": 32234,
    "ambulansla": 32235,
    "savunan": 32236,
    "istek": 32237,
    "macı": 32238,
    "almıştı": 32239,
    "selim": 32240,
    "yolunun": 32241,
    "ülkelere": 32242,
    "tün": 32243,
    "siyas": 32244,
    "sakarya": 32245,
    "büro": 32246,
    "felaket": 32247,
    "ercan": 32248,
    "deneyim": 32249,
    "bina": 32250,
    "atarak": 32251,
    "ilişkilerin": 32252,
    "nal": 32253,
    "toprağa": 32254,
    "bildiğini": 32255,
    "konunun": 32256,
    "bitti": 32257,
    "sez": 32258,
    "olağanüstü": 32259,
    "avrupalı": 32260,
    "basit": 32261,
    "değerlendirmeler": 32262,
    "bizde": 32263,
    "meme": 32264,
    "sürdüren": 32265,
    "krizin": 32266,
    "niteli": 32267,
    "mevki": 32268,
    "çıkarıldı": 32269,
    "izleyen": 32270,
    "karara": 32271,
    "kamera": 32272,
    "medik": 32273,
    "çalışmalara": 32274,
    "nba": 32275,
    "çekilen": 32276,
    "kere": 32277,
    "şeklindeki": 32278,
    "uçağı": 32279,
    "kanat": 32280,
    "arabistan": 32281,
    "biber": 32282,
    "sandık": 32283,
    "telefonla": 32284,
    "başlandı": 32285,
    "çim": 32286,
    "yakalandı": 32287,
    "gündüz": 32288,
    "açılı": 32289,
    "yarısında": 32290,
    "ruhsat": 32291,
    "üldü": 32292,
    "vah": 32293,
    "kadıköy": 32294,
    "tıra": 32295,
    "hazı": 32296,
    "oluşturuyor": 32297,
    "düşman": 32298,
    "mikro": 32299,
    "ulduğu": 32300,
    "eğlence": 32301,
    "kaymakam": 32302,
    "bulunduğ": 32303,
    "sunda": 32304,
    "hedefi": 32305,
    "dışından": 32306,
    "özet": 32307,
    "geçirildi": 32308,
    "romanya": 32309,
    "nem": 32310,
    "süs": 32311,
    "mos": 32312,
    "manevi": 32313,
    "gön": 32314,
    "uzmanlar": 32315,
    "denize": 32316,
    "lanmasının": 32317,
    "çalışmaların": 32318,
    "doğa": 32319,
    "kemer": 32320,
    "barı": 32321,
    "ileceğini": 32322,
    "çat": 32323,
    "katılmak": 32324,
    "mara": 32325,
    "itiraf": 32326,
    "büyükelçisi": 32327,
    "katılma": 32328,
    "hazırladı": 32329,
    "havay": 32330,
    "yarısı": 32331,
    "memnuniyet": 32332,
    "hun": 32333,
    "emeklilik": 32334,
    "giderken": 32335,
    "oluşuyor": 32336,
    "bakanlar": 32337,
    "şubesi": 32338,
    "işçiler": 32339,
    "ünc": 32340,
    "şif": 32341,
    "kalın": 32342,
    "karayolu": 32343,
    "zda": 32344,
    "ayrım": 32345,
    "metal": 32346,
    "çarşı": 32347,
    "aman": 32348,
    "melik": 32349,
    "mutfak": 32350,
    "yaşadığını": 32351,
    "yapılacağı": 32352,
    "etkisiyle": 32353,
    "takdir": 32354,
    "süm": 32355,
    "müyor": 32356,
    "açılması": 32357,
    "sir": 32358,
    "koalisyon": 32359,
    "şaş": 32360,
    "başkanları": 32361,
    "aydır": 32362,
    "anç": 32363,
    "çıkarılan": 32364,
    "vurdu": 32365,
    "mahall": 32366,
    "dükkan": 32367,
    "bırakıldı": 32368,
    "bbc": 32369,
    "kimliği": 32370,
    "muhteşem": 32371,
    "taç": 32372,
    "toplantıya": 32373,
    "hırsızlık": 32374,
    "balkan": 32375,
    "kararının": 32376,
    "anları": 32377,
    "haksız": 32378,
    "baktığı": 32379,
    "nil": 32380,
    "milletin": 32381,
    "malatya": 32382,
    "yaptırı": 32383,
    "teb": 32384,
    "geleceğini": 32385,
    "gönüllü": 32386,
    "farkında": 32387,
    "hip": 32388,
    "atla": 32389,
    "bilmiyorum": 32390,
    "selam": 32391,
    "olanak": 32392,
    "yayıl": 32393,
    "gönderdi": 32394,
    "gümrük": 32395,
    "zek": 32396,
    "cenazesi": 32397,
    "türkmen": 32398,
    "açıklayan": 32399,
    "etap": 32400,
    "adil": 32401,
    "yitirdi": 32402,
    "esince": 32403,
    "gününde": 32404,
    "fakül": 32405,
    "kazandığı": 32406,
    "diyorlar": 32407,
    "seçimlerde": 32408,
    "edebiyat": 32409,
    "suçu": 32410,
    "nöbet": 32411,
    "dokun": 32412,
    "mağlu": 32413,
    "tm": 32414,
    "gözyaş": 32415,
    "hatırlattı": 32416,
    "ciye": 32417,
    "kerem": 32418,
    "zeki": 32419,
    "pop": 32420,
    "töreni": 32421,
    "hukuki": 32422,
    "gayret": 32423,
    "baraj": 32424,
    "çöp": 32425,
    "operasyonda": 32426,
    "düzenlendi": 32427,
    "çektir": 32428,
    "sürüldü": 32429,
    "subay": 32430,
    "plak": 32431,
    "fırtına": 32432,
    "yakınlarında": 32433,
    "abil": 32434,
    "değerlendiren": 32435,
    "kuvvetli": 32436,
    "emine": 32437,
    "yaka": 32438,
    "bağı": 32439,
    "ilgisi": 32440,
    "masraf": 32441,
    "ford": 32442,
    "gördüğünü": 32443,
    "forvet": 32444,
    "ismini": 32445,
    "diğinin": 32446,
    "lezzet": 32447,
    "ukrayna": 32448,
    "gürül": 32449,
    "talimatı": 32450,
    "uşak": 32451,
    "oranının": 32452,
    "lanmasına": 32453,
    "brezilyalı": 32454,
    "birinc": 32455,
    "geçmek": 32456,
    "ağırlıklı": 32457,
    "coşkun": 32458,
    "anlaşması": 32459,
    "video": 32460,
    "diplomatik": 32461,
    "baha": 32462,
    "tutuklandı": 32463,
    "hırsız": 32464,
    "teker": 32465,
    "emiyor": 32466,
    "maçına": 32467,
    "uştur": 32468,
    "şimdiden": 32469,
    "cesaret": 32470,
    "ters": 32471,
    "japon": 32472,
    "kosova": 32473,
    "eyerek": 32474,
    "işgal": 32475,
    "yolsuzluk": 32476,
    "keskin": 32477,
    "sabit": 32478,
    "hesab": 32479,
    "taraftan": 32480,
    "çök": 32481,
    "yürek": 32482,
    "abile": 32483,
    "afet": 32484,
    "sundu": 32485,
    "nez": 32486,
    "trt": 32487,
    "zincir": 32488,
    "katlı": 32489,
    "tüs": 32490,
    "nev": 32491,
    "kaçtı": 32492,
    "seçil": 32493,
    "ceğine": 32494,
    "ebiliyor": 32495,
    "istedik": 32496,
    "sürdüğü": 32497,
    "arttığını": 32498,
    "kritik": 32499,
    "öğret": 32500,
    "verim": 32501,
    "adliye": 32502,
    "bab": 32503,
    "yayı": 32504,
    "kını": 32505,
    "yaşandığı": 32506,
    "ülkelerden": 32507,
    "lıktan": 32508,
    "gençlerin": 32509,
    "site": 32510,
    "lenerek": 32511,
    "kaçan": 32512,
    "demişti": 32513,
    "taksi": 32514,
    "yahudi": 32515,
    "oradan": 32516,
    "hedi": 32517,
    "hassas": 32518,
    "dönemlerde": 32519,
    "org": 32520,
    "malıyız": 32521,
    "sayısında": 32522,
    "öcalan": 32523,
    "boya": 32524,
    "üstelik": 32525,
    "yürüten": 32526,
    "layık": 32527,
    "platform": 32528,
    "olabileceği": 32529,
    "bürokra": 32530,
    "görevlileri": 32531,
    "diyalog": 32532,
    "hz": 32533,
    "olunca": 32534,
    "anıt": 32535,
    "veli": 32536,
    "pey": 32537,
    "ileceği": 32538,
    "numara": 32539,
    "yazılım": 32540,
    "etraf": 32541,
    "hepimiz": 32542,
    "araçların": 32543,
    "mik": 32544,
    "off": 32545,
    "enfeksiyon": 32546,
    "ömür": 32547,
    "stres": 32548,
    "faktör": 32549,
    "arazi": 32550,
    "yetenek": 32551,
    "sürdürüyor": 32552,
    "şampiyonluğu": 32553,
    "atörü": 32554,
    "düzenledi": 32555,
    "atak": 32556,
    "dha": 32557,
    "vakit": 32558,
    "balıkesir": 32559,
    "tebrik": 32560,
    "iddiasıyla": 32561,
    "göm": 32562,
    "veriyoruz": 32563,
    "burhan": 32564,
    "cenin": 32565,
    "şoför": 32566,
    "kurulması": 32567,
    "cemal": 32568,
    "seçenek": 32569,
    "kurduğu": 32570,
    "dildi": 32571,
    "beraberinde": 32572,
    "kapattı": 32573,
    "sığın": 32574,
    "taksim": 32575,
    "uzay": 32576,
    "başlatıldı": 32577,
    "mesin": 32578,
    "planlanan": 32579,
    "çukur": 32580,
    "kampanyası": 32581,
    "tehdi": 32582,
    "öğrencilere": 32583,
    "artarak": 32584,
    "düzelt": 32585,
    "çakır": 32586,
    "oraya": 32587,
    "görüşmede": 32588,
    "yiy": 32589,
    "açıklamaları": 32590,
    "vicdan": 32591,
    "ülük": 32592,
    "hek": 32593,
    "aldığımız": 32594,
    "eh": 32595,
    "ülkedeki": 32596,
    "pres": 32597,
    "saldırıda": 32598,
    "chr": 32599,
    "oğul": 32600,
    "partisinin": 32601,
    "üstlen": 32602,
    "radyo": 32603,
    "zirv": 32604,
    "görünt": 32605,
    "törene": 32606,
    "önlemleri": 32607,
    "noktaya": 32608,
    "bankalar": 32609,
    "tasarruf": 32610,
    "ihracatı": 32611,
    "yasanın": 32612,
    "kalması": 32613,
    "tunç": 32614,
    "havuz": 32615,
    "vermedi": 32616,
    "hitap": 32617,
    "ayar": 32618,
    "atina": 32619,
    "antik": 32620,
    "söylemişti": 32621,
    "çekici": 32622,
    "yönetici": 32623,
    "sırt": 32624,
    "ülkesi": 32625,
    "mert": 32626,
    "yazık": 32627,
    "aka": 32628,
    "binanın": 32629,
    "bok": 32630,
    "kulak": 32631,
    "şem": 32632,
    "cr": 32633,
    "yoz": 32634,
    "kökenli": 32635,
    "hastanın": 32636,
    "kişiden": 32637,
    "deri": 32638,
    "rahi": 32639,
    "duruşmada": 32640,
    "boru": 32641,
    "ortala": 32642,
    "amadı": 32643,
    "üb": 32644,
    "albay": 32645,
    "vekil": 32646,
    "kesint": 32647,
    "mülk": 32648,
    "ayının": 32649,
    "oğlunun": 32650,
    "tayı": 32651,
    "sad": 32652,
    "edeceği": 32653,
    "milletvekilleri": 32654,
    "sembol": 32655,
    "siyonu": 32656,
    "asayiş": 32657,
    "bölgelerde": 32658,
    "akl": 32659,
    "fonu": 32660,
    "tamamlandı": 32661,
    "opera": 32662,
    "nesil": 32663,
    "yerlere": 32664,
    "ziyareti": 32665,
    "sarayı": 32666,
    "çıkmak": 32667,
    "binin": 32668,
    "savcılık": 32669,
    "fırat": 32670,
    "duydu": 32671,
    "cağının": 32672,
    "kazakistan": 32673,
    "belirledi": 32674,
    "elini": 32675,
    "eğe": 32676,
    "trafiğe": 32677,
    "landalı": 32678,
    "belirli": 32679,
    "kalkı": 32680,
    "pekin": 32681,
    "herkesi": 32682,
    "kabil": 32683,
    "siy": 32684,
    "yiyecek": 32685,
    "üreten": 32686,
    "cd": 32687,
    "orkestra": 32688,
    "zat": 32689,
    "yarattığı": 32690,
    "cik": 32691,
    "alanya": 32692,
    "sağanak": 32693,
    "veda": 32694,
    "eğit": 32695,
    "lanırken": 32696,
    "dedik": 32697,
    "veri": 32698,
    "mayacağı": 32699,
    "cs": 32700,
    "trilyon": 32701,
    "vücud": 32702,
    "sporcular": 32703,
    "çerçevede": 32704,
    "stadyum": 32705,
    "tartı": 32706,
    "hikmet": 32707,
    "söylüyorum": 32708,
    "yöneticileri": 32709,
    "evinin": 32710,
    "alışkan": 32711,
    "güçleri": 32712,
    "ortağı": 32713,
    "kilogram": 32714,
    "tavsiye": 32715,
    "tatbi": 32716,
    "tarihinin": 32717,
    "ülkemizin": 32718,
    "hazırlanıyor": 32719,
    "rin": 32720,
    "ebileceğini": 32721,
    "isyan": 32722,
    "yoldan": 32723,
    "başlatılan": 32724,
    "bert": 32725,
    "dırdı": 32726,
    "pozitif": 32727,
    "kapsa": 32728,
    "sevinç": 32729,
    "torun": 32730,
    "finale": 32731,
    "arif": 32732,
    "oluşturduğu": 32733,
    "sorunların": 32734,
    "binası": 32735,
    "istendi": 32736,
    "görevden": 32737,
    "ilerleyen": 32738,
    "kula": 32739,
    "yürütülen": 32740,
    "önündeki": 32741,
    "yıllarca": 32742,
    "şebek": 32743,
    "kerim": 32744,
    "partiler": 32745,
    "nadir": 32746,
    "etnik": 32747,
    "pist": 32748,
    "çarptırı": 32749,
    "miyoruz": 32750,
    "ulaştırma": 32751,
    "kamuoyuna": 32752,
    "luluğ": 32753,
    "güneydoğu": 32754,
    "uzu": 32755,
    "kimseye": 32756,
    "çevresinde": 32757,
    "yoluna": 32758,
    "kaplan": 32759,
    "asl": 32760,
    "müze": 32761,
    "ufak": 32762,
    "kıran": 32763,
    "temsilcileri": 32764,
    "gerektiğine": 32765,
    "çen": 32766,
    "tuval": 32767,
    "azaltı": 32768,
    "ifadeleri": 32769,
    "kendis": 32770,
    "okulda": 32771,
    "müvek": 32772,
    "kriter": 32773,
    "çizen": 32774,
    "görevlisi": 32775,
    "william": 32776,
    "borcu": 32777,
    "teşkilat": 32778,
    "şehr": 32779,
    "siyasal": 32780,
    "bos": 32781,
    "sırp": 32782,
    "ms": 32783,
    "cıoğlu": 32784,
    "artışı": 32785,
    "oluşturdu": 32786,
    "verdikleri": 32787,
    "karaman": 32788,
    "gönderdiği": 32789,
    "bakıldığında": 32790,
    "kurtu": 32791,
    "muhalef": 32792,
    "zla": 32793,
    "büyüklüğ": 32794,
    "kömür": 32795,
    "rezerv": 32796,
    "tol": 32797,
    "sürüc": 32798,
    "bayer": 32799,
    "mill": 32800,
    "okan": 32801,
    "muhtar": 32802,
    "eriş": 32803,
    "rahatsızlık": 32804,
    "tecr": 32805,
    "partili": 32806,
    "özgürlüğü": 32807,
    "pasaport": 32808,
    "ayn": 32809,
    "iddianamede": 32810,
    "kapsam": 32811,
    "çekildi": 32812,
    "özerk": 32813,
    "reddetti": 32814,
    "kemik": 32815,
    "diya": 32816,
    "mevzu": 32817,
    "tabl": 32818,
    "lmıştır": 32819,
    "tarihlerinde": 32820,
    "ulacak": 32821,
    "askerlik": 32822,
    "kalkan": 32823,
    "başkanvekili": 32824,
    "lir": 32825,
    "sahib": 32826,
    "vatandaşın": 32827,
    "üzüm": 32828,
    "sebze": 32829,
    "yakalanan": 32830,
    "demiş": 32831,
    "ören": 32832,
    "arta": 32833,
    "eğin": 32834,
    "törenine": 32835,
    "popüler": 32836,
    "iklim": 32837,
    "ğiniz": 32838,
    "anlaşmaya": 32839,
    "hadi": 32840,
    "töreninde": 32841,
    "şek": 32842,
    "yaşadıklarını": 32843,
    "propaganda": 32844,
    "işten": 32845,
    "yalım": 32846,
    "olmasından": 32847,
    "güzer": 32848,
    "özbek": 32849,
    "adaylar": 32850,
    "batman": 32851,
    "yönetmeni": 32852,
    "köpr": 32853,
    "mahkemenin": 32854,
    "sabır": 32855,
    "kapanı": 32856,
    "duyurusunda": 32857,
    "fit": 32858,
    "üyeliği": 32859,
    "ref": 32860,
    "onlarla": 32861,
    "ihmal": 32862,
    "nitelendir": 32863,
    "anacak": 32864,
    "hamil": 32865,
    "kendin": 32866,
    "tahran": 32867,
    "olayların": 32868,
    "tutum": 32869,
    "buluyor": 32870,
    "katılımıyla": 32871,
    "şef": 32872,
    "yapılmasını": 32873,
    "kaldırılması": 32874,
    "olaydan": 32875,
    "düzel": 32876,
    "endeksi": 32877,
    "başara": 32878,
    "yaban": 32879,
    "kırk": 32880,
    "brüksel": 32881,
    "ediyorlar": 32882,
    "mücadelede": 32883,
    "düzenleyen": 32884,
    "bastı": 32885,
    "lanacağını": 32886,
    "meliyiz": 32887,
    "labilecek": 32888,
    "deli": 32889,
    "semt": 32890,
[...]
