{
  "version": "1.0",
  "truncation": null,
  "padding": null,
  "added_tokens": [],
  "normalizer": null,
  "pre_tokenizer": {
    "type": "Whitespace"
  },
  "post_processor": null,
  "decoder": null,
  "model": {
    "type": "BPE",
    "dropout": null,
    "unk_token": null,
    "continuing_subword_prefix": null,
    "end_of_word_suffix": null,
    "fuse_unk": false,
    "byte_fallback": false,
    "ignore_merges": false,
    "vocab": {
      "!": 0,
      "\"": 1,
      "#": 2,
      "$": 3,
      "%": 4,
      "&": 5,
      "'": 6,
      "(": 7,
      ")": 8,
      "*": 9,
      "+": 10,
      ",": 11,
      "-": 12,
      ".": 13,
      "/": 14,
      "0": 15,
      "1": 16,
      "2": 17,
      "3": 18,
      "4": 19,
      "5": 20,
      "6": 21,
      "7": 22,
      "8": 23,
      "9": 24,
      ":": 25,
      ";": 26,
      "<": 27,
      "=": 28,
      ">": 29,
      "?": 30,
      "@": 31,
      "[": 32,
      "\\": 33,
      "]": 34,
      "^": 35,
      "_": 36,
      "`": 37,
      "a": 38,
      "b": 39,
      "c": 40,
      "d": 41,
      "e": 42,
      "f": 43,
      "g": 44,
      "h": 45,
      "i": 46,
      "j": 47,
      "k": 48,
      "l": 49,
      "m": 50,
      "n": 51,
      "o": 52,
      "p": 53,
      "q": 54,
      "r": 55,
      "s": 56,
      "t": 57,
      "u": 58,
      "v": 59,
      "w": 60,
      "x": 61,
      "y": 62,
      "z": 63,
      "{": 64,
      "|": 65,
      "}": 66,
      "~": 67,
      "¡": 68,
      "¢": 69,
      "£": 70,
      "¥": 71,
      "¦": 72,
      "§": 73,
      "¨": 74,
      "©": 75,
      "ª": 76,
      "«": 77,
      "¬": 78,
      "­": 79,
      "®": 80,
      "°": 81,
      "±": 82,
      "²": 83,
      "³": 84,
      "´": 85,
      "µ": 86,
      "¶": 87,
      "·": 88,
      "¸": 89,
      "¹": 90,
      "º": 91,
      "»": 92,
      "¼": 93,
      "½": 94,
      "¾": 95,
      "¿": 96,
      "×": 97,
      "ß": 98,
      "à": 99,
      "á": 100,
      "â": 101,
      "ã": 102,
      "ä": 103,
      "å": 104,
      "æ": 105,
      "ç": 106,
      "è": 107,
      "é": 108,
      "ê": 109,
      "ë": 110,
      "ì": 111,
      "í": 112,
      "î": 113,
      "ï": 114,
      "ð": 115,
      "ñ": 116,
      "ò": 117,
      "ó": 118,
      "ô": 119,
      "õ": 120,
      "ö": 121,
      "÷": 122,
      "ø": 123,
      "ù": 124,
      "ú": 125,
      "û": 126,
      "ü": 127,
      "ý": 128,
      "þ": 129,
      "ÿ": 130,
      "ā": 131,
      "ă": 132,
      "ą": 133,
      "ć": 134,
      "ĉ": 135,
      "č": 136,
      "ď": 137,
      "đ": 138,
      "ē": 139,
      "ĕ": 140,
      "ė": 141,
      "ę": 142,
      "ě": 143,
      "ĝ": 144,
      "ğ": 145,
      "ġ": 146,
      "ģ": 147,
      "ĥ": 148,
      "ħ": 149,
      "ĩ": 150,
      "ī": 151,
      "ĭ": 152,
      "į": 153,
      "ı": 154,
      "ķ": 155,
      "ļ": 156,
      "ľ": 157,
      "ł": 158,
      "ń": 159,
      "ņ": 160,
      "ň": 161,
      "ŋ": 162,
      "ō": 163,
      "ŏ": 164,
      "ő": 165,
      "œ": 166,
      "ř": 167,
      "ś": 168,
      "ŝ": 169,
      "ş": 170,
      "š": 171,
      "ţ": 172,
      "ť": 173,
      "ũ": 174,
      "ū": 175,
      "ŭ": 176,
      "ů": 177,
      "ű": 178,
      "ų": 179,
      "ź": 180,
      "ż": 181,
      "ž": 182,
      "ƒ": 183,
      "ơ": 184,
      "ƣ": 185,
      "ư": 186,
      "ǎ": 187,
      "ǐ": 188,
      "ǒ": 189,
      "ǔ": 190,
      "ǧ": 191,
      "ǫ": 192,
      "ș": 193,
      "ț": 194,
      "ȟ": 195,
      "ȧ": 196,
      "ɐ": 197,
      "ɑ": 198,
      "ɒ": 199,
      "ɔ": 200,
      "ɕ": 201,
      "ə": 202,
      "ɛ": 203,
      "ɡ": 204,
      "ɣ": 205,
      "ɨ": 206,
      "ɪ": 207,
      "ɬ": 208,
      "ɾ": 209,
      "ʁ": 210,
      "ʂ": 211,
      "ʃ": 212,
      "ʉ": 213,
      "ʊ": 214,
      "ʒ": 215,
      "ʔ": 216,
      "ʙ": 217,
      "ʰ": 218,
      "ʲ": 219,
      "ʷ": 220,
      "ʹ": 221,
      "ʻ": 222,
      "ʼ": 223,
      "ʾ": 224,
      "ʿ": 225,
      "ˁ": 226,
      "ˆ": 227,
      "ˈ": 228,
      "ˌ": 229,
      "ː": 230,
      "˚": 231,
      "̀": 232,
      "́": 233,
      "̂": 234,
      "̃": 235,
      "̄": 236,
      "̅": 237,
      "̇": 238,
      "̈": 239,
      "̌": 240,
      "̓": 241,
      "̗": 242,
      "̡": 243,
      "̣": 244,
      "̧": 245,
      "̨": 246,
      "̯": 247,
      "̱": 248,
      "̲": 249,
      "̶": 250,
      "͡": 251,
      "΄": 252,
      "ά": 253,
      "έ": 254,
      "ή": 255,
      "ί": 256,
      "α": 257,
      "β": 258,
      "γ": 259,
      "δ": 260,
      "ε": 261,
      "ζ": 262,
      "η": 263,
      "θ": 264,
      "ι": 265,
      "κ": 266,
      "λ": 267,
      "μ": 268,
      "ν": 269,
      "ξ": 270,
      "ο": 271,
      "π": 272,
      "ρ": 273,
      "ς": 274,
      "σ": 275,
      "τ": 276,
      "υ": 277,
      "φ": 278,
      "χ": 279,
      "ψ": 280,
      "ω": 281,
      "ϊ": 282,
      "ό": 283,
      "ύ": 284,
      "ώ": 285,
      "а": 286,
      "б": 287,
      "в": 288,
      "г": 289,
      "д": 290,
      "е": 291,
      "ж": 292,
      "з": 293,
      "и": 294,
      "й": 295,
      "к": 296,
      "л": 297,
      "м": 298,
      "н": 299,
      "о": 300,
      "п": 301,
      "р": 302,
      "с": 303,
      "т": 304,
      "у": 305,
      "ф": 306,
      "х": 307,
      "ц": 308,
      "ч": 309,
      "ш": 310,
      "щ": 311,
      "ъ": 312,
      "ы": 313,
      "ь": 314,
      "э": 315,
      "ю": 316,
      "я": 317,
      "ё": 318,
      "ђ": 319,
      "є": 320,
      "і": 321,
      "ї": 322,
      "ј": 323,
      "љ": 324,
      "њ": 325,
      "ћ": 326,
      "ў": 327,
      "џ": 328,
      "ғ": 329,
      "ҙ": 330,
      "қ": 331,
      "ҡ": 332,
      "ң": 333,
      "ҫ": 334,
      "ү": 335,
      "ұ": 336,
      "ҳ": 337,
      "һ": 338,
      "ӏ": 339,
      "ә": 340,
      "ӧ": 341,
      "ө": 342,
      "ա": 343,
      "բ": 344,
      "գ": 345,
      "դ": 346,
      "ե": 347,
      "զ": 348,
      "է": 349,
      "ը": 350,
      "թ": 351,
      "ժ": 352,
      "ի": 353,
      "լ": 354,
      "խ": 355,
      "ծ": 356,
      "կ": 357,
      "հ": 358,
      "ղ": 359,
      "ճ": 360,
      "մ": 361,
      "յ": 362,
      "ն": 363,
      "շ": 364,
      "ո": 365,
      "չ": 366,
      "պ": 367,
      "ջ": 368,
      "ռ": 369,
      "ս": 370,
      "վ": 371,
      "տ": 372,
      "ր": 373,
      "ց": 374,
      "ւ": 375,
      "փ": 376,
      "ք": 377,
      "օ": 378,
      "և": 379,
      "ְ": 380,
      "ִ": 381,
      "ֵ": 382,
      "ֶ": 383,
      "ַ": 384,
      "ָ": 385,
      "ֹ": 386,
      "ּ": 387,
      "ׁ": 388,
      "א": 389,
      "ב": 390,
      "ג": 391,
      "ד": 392,
      "ה": 393,
      "ו": 394,
      "ז": 395,
      "ח": 396,
      "ט": 397,
      "י": 398,
      "ך": 399,
      "כ": 400,
      "ל": 401,
      "ם": 402,
      "מ": 403,
      "ן": 404,
      "נ": 405,
      "ס": 406,
      "ע": 407,
      "פ": 408,
      "צ": 409,
      "ק": 410,
      "ר": 411,
      "ש": 412,
      "ת": 413,
      "،": 414,
      "ء": 415,
      "آ": 416,
      "أ": 417,
      "ؤ": 418,
      "إ": 419,
      "ئ": 420,
      "ا": 421,
      "ب": 422,
      "ة": 423,
      "ت": 424,
      "ث": 425,
      "ج": 426,
      "ح": 427,
      "خ": 428,
      "د": 429,
      "ذ": 430,
      "ر": 431,
      "ز": 432,
      "س": 433,
      "ش": 434,
      "ص": 435,
      "ض": 436,
      "ط": 437,
      "ظ": 438,
      "ع": 439,
      "غ": 440,
      "ـ": 441,
      "ف": 442,
      "ق": 443,
      "ك": 444,
      "ل": 445,
      "م": 446,
      "ن": 447,
      "ه": 448,
      "و": 449,
      "ى": 450,
      "ي": 451,
      "ً": 452,
      "ٌ": 453,
      "ٍ": 454,
      "َ": 455,
      "ُ": 456,
      "ِ": 457,
      "ّ": 458,
      "ْ": 459,
      "٠": 460,
      "١": 461,
      "٢": 462,
      "ٰ": 463,
      "پ": 464,
      "چ": 465,
      "ژ": 466,
      "ک": 467,
      "ڭ": 468,
      "گ": 469,
      "ھ": 470,
      "ہ": 471,
      "ۆ": 472,
      "ۇ": 473,
      "ی": 474,
      "ێ": 475,
      "ە": 476,
      "۱": 477,
      "ܐ": 478,
      "ܕ": 479,
      "ܘ": 480,
      "ܝ": 481,
      "ܢ": 482,
      "ܪ": 483,
      "ܬ": 484,
      "ं": 485,
      "क": 486,
      "ग": 487,
      "ज": 488,
      "ण": 489,
      "त": 490,
      "द": 491,
      "ध": 492,
      "न": 493,
      "प": 494,
      "ब": 495,
      "भ": 496,
      "म": 497,
      "य": 498,
      "र": 499,
      "ल": 500,
      "व": 501,
      "श": 502,
      "स": 503,
      "ह": 504,
      "़": 505,
      "ा": 506,
      "ि": 507,
      "ी": 508,
      "ु": 509,
      "े": 510,
      "ो": 511,
      "्": 512,
      "ন": 513,
      "ব": 514,
      "ম": 515,
      "র": 516,
      "া": 517,
      "ি": 518,
      "্": 519,
      "ા": 520,
      "க": 521,
      "ர": 522,
      "ா": 523,
      "ி": 524,
      "்": 525,
      "್": 526,
      "්": 527,
      "ก": 528,
      "ค": 529,
      "ง": 530,
      "จ": 531,
      "ช": 532,
      "ด": 533,
      "ต": 534,
      "ท": 535,
      "น": 536,
      "บ": 537,
      "พ": 538,
      "ม": 539,
      "ย": 540,
      "ร": 541,
      "ล": 542,
      "ว": 543,
      "ส": 544,
      "ห": 545,
      "อ": 546,
      "ะ": 547,
      "ั": 548,
      "า": 549,
      "ิ": 550,
      "ี": 551,
      "ุ": 552,
      "เ": 553,
      "่": 554,
      "้": 555,
      "་": 556,
      "်": 557,
      "ა": 558,
      "ბ": 559,
      "გ": 560,
      "დ": 561,
      "ე": 562,
      "ვ": 563,
      "ზ": 564,
      "თ": 565,
      "ი": 566,
      "კ": 567,
      "ლ": 568,
      "მ": 569,
      "ნ": 570,
      "ო": 571,
      "პ": 572,
      "რ": 573,
      "ს": 574,
      "ტ": 575,
      "უ": 576,
      "ფ": 577,
      "ქ": 578,
      "ღ": 579,
      "ყ": 580,
      "შ": 581,
      "ჩ": 582,
      "ც": 583,
      "ძ": 584,
      "წ": 585,
      "ჭ": 586,
      "ხ": 587,
      "ჯ": 588,
      "ር": 589,
      "ት": 590,
      "ን": 591,
      "ᐃ": 592,
      "ᐅ": 593,
      "ᐊ": 594,
      "ᑐ": 595,
      "ᑦ": 596,
      "ᒃ": 597,
      "ᓂ": 598,
      "ᔪ": 599,
      "ᕐ": 600,
      "ᖅ": 601,
      "រ": 602,
      "ា": 603,
      "្": 604,
      "ᴀ": 605,
      "ḋ": 606,
      "ḍ": 607,
      "ḏ": 608,
      "ḗ": 609,
      "ḡ": 610,
      "ḥ": 611,
      "ḫ": 612,
      "ḳ": 613,
      "ḵ": 614,
      "ḷ": 615,
      "ṃ": 616,
      "ṇ": 617,
      "ṛ": 618,
      "ṡ": 619,
      "ṣ": 620,
      "ṫ": 621,
      "ṭ": 622,
      "ṯ": 623,
      "ẓ": 624,
      "ạ": 625,
      "ả": 626,
      "ấ": 627,
      "ầ": 628,
      "ắ": 629,
      "ế": 630,
      "ễ": 631,
      "ệ": 632,
      "ị": 633,
      "ọ": 634,
      "ố": 635,
      "ồ": 636,
      "ộ": 637,
      "ἀ": 638,
      "ἄ": 639,
      "ἐ": 640,
      "ἑ": 641,
      "ἔ": 642,
      "ἡ": 643,
      "ἰ": 644,
      "ἱ": 645,
      "ὁ": 646,
      "ὐ": 647,
      "ὰ": 648,
      "ὴ": 649,
      "ὶ": 650,
      "ὸ": 651,
      "ῆ": 652,
      "ῖ": 653,
      "ῦ": 654,
      "ῶ": 655,
      "​": 656,
      "‌": 657,
      "‍": 658,
      "‎": 659,
      "‏": 660,
      "‐": 661,
      "‑": 662,
      "‒": 663,
      "–": 664,
      "—": 665,
      "―": 666,
      "‘": 667,
      "’": 668,
      "‚": 669,
      "“": 670,
      "”": 671,
      "„": 672,
      "‟": 673,
      "†": 674,
      "‡": 675,
      "•": 676,
      "‣": 677,
      "…": 678,
      "‬": 679,
      "‭": 680,
      "‰": 681,
      "′": 682,
      "″": 683,
      "›": 684,
      "⁄": 685,
      "⁰": 686,
      "₂": 687,
      "€": 688,
      "₺": 689,
      "⃣": 690,
      "℃": 691,
      "ℓ": 692,
      "№": 693,
      "™": 694,
      "←": 695,
      "↑": 696,
      "→": 697,
      "↓": 698,
      "↔": 699,
      "⇒": 700,
      "∈": 701,
      "−": 702,
      "∗": 703,
      "√": 704,
      "∞": 705,
      "≈": 706,
      "≠": 707,
      "≡": 708,
      "≤": 709,
      "≥": 710,
      "⋅": 711,
      "─": 712,
      "│": 713,
      "└": 714,
      "├": 715,
      "█": 716,
      "■": 717,
      "▪": 718,
      "►": 719,
      "◊": 720,
      "○": 721,
      "●": 722,
      "★": 723,
      "☆": 724,
      "☉": 725,
      "☺": 726,
      "♀": 727,
      "♥": 728,
      "♦": 729,
      "♭": 730,
      "♯": 731,
      "⚽": 732,
      "✅": 733,
      "✌": 734,
      "✔": 735,
      "❗": 736,
      "❝": 737,
      "❞": 738,
      "❤": 739,
      "➡": 740,
      "⟨": 741,
      "⟩": 742,
      "⦁": 743,
      "⭐": 744,
      "ⱨ": 745,
      "ⱪ": 746,
      "ⴰ": 747,
      "、": 748,
      "。": 749,
      "《": 750,
      "》": 751,
      "「": 752,
      "」": 753,
      "『": 754,
      "』": 755,
      "〜": 756,
      "あ": 757,
      "い": 758,
      "う": 759,
      "え": 760,
      "お": 761,
      "か": 762,
      "が": 763,
      "き": 764,
      "く": 765,
      "け": 766,
      "こ": 767,
      "さ": 768,
      "し": 769,
      "す": 770,
      "た": 771,
      "だ": 772,
      "ち": 773,
      "っ": 774,
      "つ": 775,
      "て": 776,
      "で": 777,
      "と": 778,
      "な": 779,
      "に": 780,
      "の": 781,
      "は": 782,
      "び": 783,
      "ま": 784,
      "み": 785,
      "め": 786,
      "も": 787,
      "よ": 788,
      "ら": 789,
      "り": 790,
      "る": 791,
      "れ": 792,
      "を": 793,
      "ん": 794,
      "ア": 795,
      "ィ": 796,
      "イ": 797,
      "ウ": 798,
      "ェ": 799,
      "エ": 800,
      "オ": 801,
      "カ": 802,
      "ガ": 803,
      "キ": 804,
      "ク": 805,
      "グ": 806,
      "ケ": 807,
      "コ": 808,
      "サ": 809,
      "シ": 810,
      "ジ": 811,
      "ス": 812,
      "ズ": 813,
      "セ": 814,
      "ソ": 815,
      "タ": 816,
      "ダ": 817,
      "チ": 818,
      "ッ": 819,
      "ツ": 820,
      "テ": 821,
      "デ": 822,
      "ト": 823,
      "ド": 824,
      "ナ": 825,
      "ニ": 826,
      "ハ": 827,
      "バ": 828,
      "パ": 829,
      "ビ": 830,
      "フ": 831,
      "ブ": 832,
      "プ": 833,
      "ベ": 834,
      "ボ": 835,
      "マ": 836,
      "ミ": 837,
      "ム": 838,
      "メ": 839,
      "モ": 840,
      "ャ": 841,
      "ュ": 842,
      "ョ": 843,
      "ラ": 844,
      "リ": 845,
      "ル": 846,
      "レ": 847,
      "ロ": 848,
      "ン": 849,
      "・": 850,
      "ー": 851,
      "一": 852,
      "七": 853,
      "三": 854,
      "上": 855,
      "下": 856,
      "不": 857,
      "世": 858,
      "东": 859,
      "中": 860,
      "主": 861,
      "之": 862,
      "九": 863,
      "乡": 864,
      "事": 865,
      "二": 866,
      "于": 867,
      "五": 868,
      "井": 869,
      "京": 870,
      "人": 871,
      "仁": 872,
      "代": 873,
      "伊": 874,
      "会": 875,
      "保": 876,
      "信": 877,
      "元": 878,
      "光": 879,
      "克": 880,
      "党": 881,
      "全": 882,
      "八": 883,
      "公": 884,
      "六": 885,
      "共": 886,
      "兵": 887,
      "出": 888,
      "別": 889,
      "利": 890,
      "化": 891,
      "北": 892,
      "区": 893,
      "區": 894,
      "十": 895,
      "华": 896,
      "南": 897,
      "博": 898,
      "原": 899,
      "县": 900,
      "古": 901,
      "可": 902,
      "台": 903,
      "史": 904,
      "号": 905,
      "司": 906,
      "合": 907,
      "吉": 908,
      "名": 909,
      "君": 910,
      "周": 911,
      "和": 912,
      "唐": 913,
      "單": 914,
      "四": 915,
      "回": 916,
      "国": 917,
      "國": 918,
      "土": 919,
      "地": 920,
      "城": 921,
      "場": 922,
      "塔": 923,
      "士": 924,
      "夏": 925,
      "夜": 926,
      "大": 927,
      "天": 928,
      "太": 929,
      "夫": 930,
      "女": 931,
      "子": 932,
      "学": 933,
      "宁": 934,
      "安": 935,
      "宗": 936,
      "宮": 937,
      "家": 938,
      "富": 939,
      "寺": 940,
      "小": 941,
      "少": 942,
      "尔": 943,
      "居": 944,
      "山": 945,
      "岳": 946,
      "島": 947,
      "川": 948,
      "州": 949,
      "市": 950,
      "帝": 951,
      "師": 952,
      "平": 953,
      "年": 954,
      "府": 955,
      "建": 956,
      "式": 957,
      "張": 958,
      "後": 959,
      "德": 960,
      "心": 961,
      "情": 962,
      "愛": 963,
      "成": 964,
      "我": 965,
      "戦": 966,
      "房": 967,
      "手": 968,
      "拉": 969,
      "政": 970,
      "教": 971,
      "文": 972,
      "斯": 973,
      "新": 974,
      "方": 975,
      "族": 976,
      "日": 977,
      "昌": 978,
      "明": 979,
      "星": 980,
      "春": 981,
      "時": 982,
      "書": 983,
      "月": 984,
      "有": 985,
      "朝": 986,
      "木": 987,
      "本": 988,
      "李": 989,
      "村": 990,
      "東": 991,
      "松": 992,
      "林": 993,
      "株": 994,
      "機": 995,
      "歌": 996,
      "正": 997,
      "武": 998,
      "氏": 999,
      "民": 1000,
      "水": 1001,
      "永": 1002,
      "汗": 1003,
      "江": 1004,
      "沙": 1005,
      "河": 1006,
      "治": 1007,
      "法": 1008,
      "洞": 1009,
      "流": 1010,
      "海": 1011,
      "清": 1012,
      "湖": 1013,
      "漢": 1014,
      "火": 1015,
      "版": 1016,
      "物": 1017,
      "特": 1018,
      "玉": 1019,
      "王": 1020,
      "理": 1021,
      "生": 1022,
      "田": 1023,
      "疆": 1024,
      "白": 1025,
      "百": 1026,
      "的": 1027,
      "皇": 1028,
      "真": 1029,
      "石": 1030,
      "社": 1031,
      "神": 1032,
      "秀": 1033,
      "空": 1034,
      "立": 1035,
      "第": 1036,
      "縣": 1037,
      "羅": 1038,
      "美": 1039,
      "義": 1040,
      "者": 1041,
      "自": 1042,
      "花": 1043,
      "英": 1044,
      "茶": 1045,
      "草": 1046,
      "華": 1047,
      "行": 1048,
      "術": 1049,
      "衛": 1050,
      "西": 1051,
      "見": 1052,
      "記": 1053,
      "語": 1054,
      "谷": 1055,
      "趙": 1056,
      "軍": 1057,
      "通": 1058,
      "道": 1059,
      "達": 1060,
      "那": 1061,
      "郎": 1062,
      "部": 1063,
      "都": 1064,
      "里": 1065,
      "野": 1066,
      "金": 1067,
      "镇": 1068,
      "長": 1069,
      "門": 1070,
      "阳": 1071,
      "阿": 1072,
      "院": 1073,
      "陵": 1074,
      "陸": 1075,
      "隊": 1076,
      "雄": 1077,
      "集": 1078,
      "青": 1079,
      "面": 1080,
      "風": 1081,
      "飛": 1082,
      "馬": 1083,
      "高": 1084,
      "黄": 1085,
      "龍": 1086,
      "龙": 1087,
      "가": 1088,
      "강": 1089,
      "경": 1090,
      "고": 1091,
      "공": 1092,
      "구": 1093,
      "국": 1094,
      "군": 1095,
      "그": 1096,
      "금": 1097,
      "기": 1098,
      "김": 1099,
      "나": 1100,
      "남": 1101,
      "는": 1102,
      "니": 1103,
      "다": 1104,
      "당": 1105,
      "대": 1106,
      "도": 1107,
      "동": 1108,
      "라": 1109,
      "랑": 1110,
      "로": 1111,
      "리": 1112,
      "마": 1113,
      "무": 1114,
      "문": 1115,
      "미": 1116,
      "민": 1117,
      "박": 1118,
      "배": 1119,
      "보": 1120,
      "부": 1121,
      "비": 1122,
      "사": 1123,
      "산": 1124,
      "상": 1125,
      "서": 1126,
      "선": 1127,
      "성": 1128,
      "세": 1129,
      "소": 1130,
      "수": 1131,
      "스": 1132,
      "시": 1133,
      "신": 1134,
      "씨": 1135,
      "아": 1136,
      "안": 1137,
      "어": 1138,
      "에": 1139,
      "여": 1140,
      "연": 1141,
      "영": 1142,
      "오": 1143,
      "왕": 1144,
      "요": 1145,
      "우": 1146,
      "원": 1147,
      "유": 1148,
      "은": 1149,
      "을": 1150,
      "음": 1151,
      "의": 1152,
      "이": 1153,
      "인": 1154,
      "일": 1155,
      "자": 1156,
      "장": 1157,
      "재": 1158,
      "전": 1159,
      "젓": 1160,
      "정": 1161,
      "제": 1162,
      "조": 1163,
      "주": 1164,
      "지": 1165,
      "진": 1166,
      "차": 1167,
      "천": 1168,
      "청": 1169,
      "최": 1170,
      "태": 1171,
      "터": 1172,
      "트": 1173,
      "하": 1174,
      "한": 1175,
      "해": 1176,
      "현": 1177,
      "호": 1178,
      "화": 1179,
      "회": 1180,
      "희": 1181,
      "ﬁ": 1182,
      "️": 1183,
      "﻿": 1184,
      "（": 1185,
      "）": 1186,
      "，": 1187,
      "－": 1188,
      "：": 1189,
      "～": 1190,
      "�": 1191,
      "🇷": 1192,
      "🇹": 1193,
      "🏆": 1194,
      "🏻": 1195,
      "👇": 1196,
      "👏": 1197,
      "📌": 1198,
      "📍": 1199,
      "ar": 1200,
      "an": 1201,
      "er": 1202,
      "in": 1203,
      "de": 1204,
      "ın": 1205,
      "il": 1206,
      "al": 1207,
      "en": 1208,
      "ir": 1209,
      "da": 1210,
      "ma": 1211,
      "ya": 1212,
      "el": 1213,
      "lar": 1214,
      "ek": 1215,
      "la": 1216,
      "or": 1217,
      "et": 1218,
      "ak": 1219,
      "di": 1220,
      "un": 1221,
      "ol": 1222,
      "dı": 1223,
      "es": 1224,
      "on": 1225,
      "ka": 1226,
      "ler": 1227,
      "ve": 1228,
      "bir": 1229,
      "iy": 1230,
      "im": 1231,
      "ün": 1232,
      "ür": 1233,
      "ur": 1234,
      "le": 1235,
      "ba": 1236,
      "ıl": 1237,
      "is": 1238,
      "ta": 1239,
      "ik": 1240,
      "sa": 1241,
      "ha": 1242,
      "tı": 1243,
      "ul": 1244,
      "em": 1245,
      "iz": 1246,
      "sı": 1247,
      "i̇": 1248,
      "iş": 1249,
      "ok": 1250,
      "den": 1251,
      "ık": 1252,
      "ra": 1253,
      "um": 1254,
      "te": 1255,
      "ara": 1256,
      "dan": 1257,
      "ti": 1258,
      "bu": 1259,
      "gö": 1260,
      "ında": 1261,
      "li": 1262,
      "du": 1263,
      "yor": 1264,
      "ey": 1265,
      "üz": 1266,
      "lan": 1267,
      "ını": 1268,
      "iç": 1269,
      "ğı": 1270,
      "ki": 1271,
      "ış": 1272,
      "ön": 1273,
      "baş": 1274,
      "ay": 1275,
      "lı": 1276,
      "it": 1277,
      "inde": 1278,
      "ini": 1279,
      "ce": 1280,
      "bil": 1281,
      "st": 1282,
      "yap": 1283,
      "ine": 1284,
      "ları": 1285,
      "at": 1286,
      "am": 1287,
      "me": 1288,
      "ük": 1289,
      "esi": 1290,
      "yıl": 1291,
      "uz": 1292,
      "ım": 1293,
      "gör": 1294,
      "kar": 1295,
      "ca": 1296,
      "ına": 1297,
      "son": 1298,
      "ver": 1299,
      "çok": 1300,
      "ile": 1301,
      "gel": 1302,
      "oğ": 1303,
      "be": 1304,
      "ül": 1305,
      "iler": 1306,
      "kal": 1307,
      "ed": 1308,
      "için": 1309,
      "us": 1310,
      "ız": 1311,
      "ev": 1312,
      "yan": 1313,
      "ır": 1314,
      "tür": 1315,
      "leri": 1316,
      "uş": 1317,
      "inin": 1318,
      "az": 1319,
      "ut": 1320,
      "ği": 1321,
      "ken": 1322,
      "iye": 1323,
      "üm": 1324,
      "20": 1325,
      "iyor": 1326,
      "çık": 1327,
      "ge": 1328,
      "bul": 1329,
      "kon": 1330,
      "alar": 1331,
      "oldu": 1332,
      "kan": 1333,
      "cak": 1334,
      "as": 1335,
      "lik": 1336,
      "man": 1337,
      "ne": 1338,
      "ger": 1339,
      "ından": 1340,
      "mak": 1341,
      "gün": 1342,
      "eler": 1343,
      "dir": 1344,
      "lu": 1345,
      "kul": 1346,
      "gi": 1347,
      "öz": 1348,
      "ının": 1349,
      "si": 1350,
      "dır": 1351,
      "se": 1352,
      "to": 1353,
      "pr": 1354,
      "yı": 1355,
      "tan": 1356,
      "ye": 1357,
      "olar": 1358,
      "oy": 1359,
      "bel": 1360,
      "len": 1361,
      "ola": 1362,
      "üş": 1363,
      "ması": 1364,
      "kullan": 1365,
      "türk": 1366,
      "ter": 1367,
      "ör": 1368,
      "bi": 1369,
      "ıyor": 1370,
      "kur": 1371,
      "san": 1372,
      "yer": 1373,
      "yar": 1374,
      "ci": 1375,
      "cu": 1376,
      "unu": 1377,
      "öy": 1378,
      "ama": 1379,
      "tır": 1380,
      "laş": 1381,
      "fa": 1382,
      "tar": 1383,
      "olarak": 1384,
      "dar": 1385,
      "değ": 1386,
      "ürün": 1387,
      "hal": 1388,
      "yen": 1389,
      "der": 1390,
      "tir": 1391,
      "cı": 1392,
      "edi": 1393,
      "19": 1394,
      "lık": 1395,
      "üy": 1396,
      "daha": 1397,
      "sür": 1398,
      "ilm": 1399,
      "öl": 1400,
      "uy": 1401,
      "kı": 1402,
      "par": 1403,
      "ip": 1404,
      "kay": 1405,
      "şı": 1406,
      "geç": 1407,
      "mış": 1408,
      "yon": 1409,
      "mek": 1410,
      "yaş": 1411,
      "os": 1412,
      "var": 1413,
      "ber": 1414,
      "ist": 1415,
      "olduğ": 1416,
      "mas": 1417,
      "bak": 1418,
      "her": 1419,
      "cek": 1420,
      "çek": 1421,
      "doğ": 1422,
      "ke": 1423,
      "çal": 1424,
      "gü": 1425,
      "dur": 1426,
      "om": 1427,
      "başkan": 1428,
      "diğ": 1429,
      "ların": 1430,
      "olan": 1431,
      "dığı": 1432,
      "ili": 1433,
      "gen": 1434,
      "ça": 1435,
      "dev": 1436,
      "va": 1437,
      "re": 1438,
      "mil": 1439,
      "tek": 1440,
      "isi": 1441,
      "ru": 1442,
      "dım": 1443,
      "şek": 1444,
      "nin": 1445,
      "sında": 1446,
      "öyle": 1447,
      "çalış": 1448,
      "yla": 1449,
      "mü": 1450,
      "tur": 1451,
      "alı": 1452,
      "ben": 1453,
      "fi": 1454,
      "tak": 1455,
      "ih": 1456,
      "let": 1457,
      "ğını": 1458,
      "men": 1459,
      "eye": 1460,
      "eli": 1461,
      "iyle": 1462,
      "uk": 1463,
      "iyi": 1464,
      "kat": 1465,
      "alan": 1466,
      "sonra": 1467,
      "imiz": 1468,
      "büy": 1469,
      "ada": 1470,
      "lerin": 1471,
      "he": 1472,
      "met": 1473,
      "ildi": 1474,
      "sor": 1475,
      "yön": 1476,
      "türkiye": 1477,
      "sağ": 1478,
      "unda": 1479,
      "yat": 1480,
      "ab": 1481,
      "açık": 1482,
      "üzer": 1483,
      "bulun": 1484,
      "mu": 1485,
      "yıldı": 1486,
      "lü": 1487,
      "ılan": 1488,
      "mer": 1489,
      "ten": 1490,
      "yıldız": 1491,
      "su": 1492,
      "üzel": 1493,
      "maya": 1494,
      "har": 1495,
      "önem": 1496,
      "top": 1497,
      "miş": 1498,
      "sal": 1499,
      "pro": 1500,
      "güzel": 1501,
      "gibi": 1502,
      "ad": 1503,
      "leş": 1504,
      "ilen": 1505,
      "tara": 1506,
      "yaz": 1507,
      "per": 1508,
      "ise": 1509,
      "yüz": 1510,
      "büyük": 1511,
      "düş": 1512,
      "malar": 1513,
      "mes": 1514,
      "belir": 1515,
      "iyet": 1516,
      "kadar": 1517,
      "bilir": 1518,
      "tr": 1519,
      "av": 1520,
      "ko": 1521,
      "tü": 1522,
      "taraf": 1523,
      "etti": 1524,
      "hak": 1525,
      "bur": 1526,
      "kes": 1527,
      "kap": 1528,
      "stan": 1529,
      "dik": 1530,
      "eder": 1531,
      "eş": 1532,
      "bin": 1533,
      "..": 1534,
      "gerek": 1535,
      "yeni": 1536,
      "tem": 1537,
      "bun": 1538,
      "göre": 1539,
      "ser": 1540,
      "böl": 1541,
      "alt": 1542,
      "aç": 1543,
      "yak": 1544,
      "00": 1545,
      "larını": 1546,
      "zam": 1547,
      "ğr": 1548,
      "dem": 1549,
      "inden": 1550,
      "na": 1551,
      "id": 1552,
      "nın": 1553,
      "lama": 1554,
      "dü": 1555,
      "pa": 1556,
      "ılı": 1557,
      "mar": 1558,
      "dün": 1559,
      "han": 1560,
      "201": 1561,
      "beş": 1562,
      "dür": 1563,
      "mız": 1564,
      "kiş": 1565,
      "zaman": 1566,
      "tu": 1567,
      "lerini": 1568,
      "tes": 1569,
      "sun": 1570,
      "sel": 1571,
      "por": 1572,
      "ali": 1573,
      "biz": 1574,
      "lara": 1575,
      "karşı": 1576,
      "bakan": 1577,
      "arı": 1578,
      "ede": 1579,
      "ran": 1580,
      "başkanı": 1581,
      "şe": 1582,
      "ic": 1583,
      "bek": 1584,
      "mem": 1585,
      "ban": 1586,
      "daki": 1587,
      "başla": 1588,
      "i̇n": 1589,
      "kür": 1590,
      "yaptı": 1591,
      "ro": 1592,
      "ah": 1593,
      "yol": 1594,
      "oyun": 1595,
      "olma": 1596,
      "etk": 1597,
      "lem": 1598,
      "kez": 1599,
      "bile": 1600,
      "ayr": 1601,
      "ilk": 1602,
      "hat": 1603,
      "kor": 1604,
      "gerçek": 1605,
      "lam": 1606,
      "ıldı": 1607,
      "hem": 1608,
      "ot": 1609,
      "siz": 1610,
      "eğ": 1611,
      "esinde": 1612,
      "düz": 1613,
      "sah": 1614,
      "uyg": 1615,
      "yok": 1616,
      "söyle": 1617,
      "tav": 1618,
      "lığı": 1619,
      "diği": 1620,
      "özel": 1621,
      "tal": 1622,
      "kü": 1623,
      "ven": 1624,
      "deki": 1625,
      "tarafından": 1626,
      "bağ": 1627,
      "sını": 1628,
      "nun": 1629,
      "ğu": 1630,
      "sız": 1631,
      "ster": 1632,
      "ğini": 1633,
      "orta": 1634,
      "öğr": 1635,
      "ilg": 1636,
      "neden": 1637,
      "dim": 1638,
      "haz": 1639,
      "sü": 1640,
      "gir": 1641,
      "i̇l": 1642,
      "etim": 1643,
      "değil": 1644,
      "dık": 1645,
      "yorum": 1646,
      "sin": 1647,
      "sek": 1648,
      "can": 1649,
      "i̇s": 1650,
      "olduğunu": 1651,
      "ço": 1652,
      "bar": 1653,
      "yal": 1654,
      "pol": 1655,
      "yük": 1656,
      "eri": 1657,
      "kaz": 1658,
      "seç": 1659,
      "aş": 1660,
      "kara": 1661,
      "mı": 1662,
      "konuş": 1663,
      "dış": 1664,
      "cum": 1665,
      "olduğu": 1666,
      "tarih": 1667,
      "bol": 1668,
      "şu": 1669,
      "film": 1670,
      "mal": 1671,
      "ch": 1672,
      "elik": 1673,
      "bo": 1674,
      "tavs": 1675,
      "şeh": 1676,
      "genel": 1677,
      "mo": 1678,
      "çocu": 1679,
      "bas": 1680,
      "daş": 1681,
      "sen": 1682,
      "söz": 1683,
      "göster": 1684,
      "devam": 1685,
      "olay": 1686,
      "hur": 1687,
      "kurul": 1688,
      "ifa": 1689,
      "usu": 1690,
      "larda": 1691,
      "haber": 1692,
      "mesi": 1693,
      "far": 1694,
      "ku": 1695,
      "teşek": 1696,
      "insan": 1697,
      "liği": 1698,
      "uştur": 1699,
      "diye": 1700,
      "ifade": 1701,
      "sev": 1702,
      "tik": 1703,
      "çe": 1704,
      "iki": 1705,
      "uyor": 1706,
      "for": 1707,
      "get": 1708,
      "kalit": 1709,
      "arasında": 1710,
      "kad": 1711,
      "tel": 1712,
      "göz": 1713,
      "alın": 1714,
      "gaz": 1715,
      "teşekkür": 1716,
      "faz": 1717,
      "hız": 1718,
      "mey": 1719,
      "cumhur": 1720,
      "önce": 1721,
      "larının": 1722,
      "nak": 1723,
      "oğlu": 1724,
      "kendi": 1725,
      "za": 1726,
      "getir": 1727,
      "10": 1728,
      "tavsiye": 1729,
      "dedi": 1730,
      "lere": 1731,
      "ünü": 1732,
      "cağı": 1733,
      "tör": 1734,
      "güven": 1735,
      "likle": 1736,
      "ancak": 1737,
      "ard": 1738,
      "ileri": 1739,
      "dünya": 1740,
      "tut": 1741,
      "süre": 1742,
      "200": 1743,
      "ef": 1744,
      "maz": 1745,
      "kö": 1746,
      "sonu": 1747,
      "ala": 1748,
      "düzen": 1749,
      "ilgili": 1750,
      "eleri": 1751,
      "tüm": 1752,
      "beledi": 1753,
      "nı": 1754,
      "çi": 1755,
      "ri": 1756,
      "una": 1757,
      "i̇stan": 1758,
      "kem": 1759,
      "yay": 1760,
      "dığını": 1761,
      "i̇stanbul": 1762,
      "mi": 1763,
      "durum": 1764,
      "tık": 1765,
      "iştir": 1766,
      "hiç": 1767,
      "ilde": 1768,
      "arak": 1769,
      "şey": 1770,
      "imi": 1771,
      "eden": 1772,
      "eti": 1773,
      "anla": 1774,
      "merkez": 1775,
      "ecek": 1776,
      "fazla": 1777,
      "tış": 1778,
      "yapılan": 1779,
      "say": 1780,
      "yet": 1781,
      "birlik": 1782,
      "cü": 1783,
      "yüzde": 1784,
      "fer": 1785,
      "kr": 1786,
      "devlet": 1787,
      "go": 1788,
      "pan": 1789,
      "abd": 1790,
      "fak": 1791,
      "dönem": 1792,
      "gelen": 1793,
      "üt": 1794,
      "ederim": 1795,
      "res": 1796,
      "iste": 1797,
      "dön": 1798,
      "karar": 1799,
      "ana": 1800,
      "istem": 1801,
      "ayrı": 1802,
      "ima": 1803,
      "ulaş": 1804,
      "öğren": 1805,
      "fiyat": 1806,
      "zor": 1807,
      "yas": 1808,
      "lerinin": 1809,
      "kaynak": 1810,
      "fark": 1811,
      "din": 1812,
      "det": 1813,
      "vur": 1814,
      "dav": 1815,
      "diğer": 1816,
      "art": 1817,
      "kita": 1818,
      "aynı": 1819,
      "ayet": 1820,
      "hep": 1821,
      "geldi": 1822,
      "unun": 1823,
      "çocuk": 1824,
      "arka": 1825,
      "larında": 1826,
      "sil": 1827,
      "gra": 1828,
      "alık": 1829,
      "üst": 1830,
      "ardından": 1831,
      "atan": 1832,
      "taş": 1833,
      "larına": 1834,
      "şekilde": 1835,
      "kaç": 1836,
      "tas": 1837,
      "aret": 1838,
      "değer": 1839,
      "sayı": 1840,
      "yi": 1841,
      ".\"": 1842,
      "gu": 1843,
      "lerde": 1844,
      "görev": 1845,
      "üs": 1846,
      "zı": 1847,
      "af": 1848,
      "sıra": 1849,
      "yapı": 1850,
      "ece": 1851,
      "saat": 1852,
      "van": 1853,
      "meye": 1854,
      "sit": 1855,
      "önemli": 1856,
      "çı": 1857,
      "bah": 1858,
      "lerine": 1859,
      "yılında": 1860,
      "lo": 1861,
      "fut": 1862,
      "mayı": 1863,
      "açıkla": 1864,
      "==": 1865,
      "diğini": 1866,
      "burada": 1867,
      "içinde": 1868,
      "kır": 1869,
      "para": 1870,
      "kin": 1871,
      "futbol": 1872,
      "kim": 1873,
      "ünde": 1874,
      "lendir": 1875,
      "=\"": 1876,
      "bay": 1877,
      "15": 1878,
      "belirt": 1879,
      "gı": 1880,
      "duy": 1881,
      "doğan": 1882,
      "erek": 1883,
      "haf": 1884,
      "sam": 1885,
      "spor": 1886,
      "tay": 1887,
      "hızlı": 1888,
      "çev": 1889,
      "leştir": 1890,
      "ğü": 1891,
      "lantı": 1892,
      "ans": 1893,
      "kom": 1894,
      "bulundu": 1895,
      "ime": 1896,
      "sav": 1897,
      "iliş": 1898,
      "gön": 1899,
      "rahat": 1900,
      "po": 1901,
      "prima": 1902,
      "ımı": 1903,
      "olo": 1904,
      "ağı": 1905,
      "yardım": 1906,
      "birlikte": 1907,
      "muş": 1908,
      "memnun": 1909,
      "ediyor": 1910,
      "do": 1911,
      "ındaki": 1912,
      "eğit": 1913,
      "asyon": 1914,
      "millet": 1915,
      "bugün": 1916,
      "ımız": 1917,
      "mez": 1918,
      "çıkar": 1919,
      "i̇ş": 1920,
      "iyon": 1921,
      "ilerin": 1922,
      "kadın": 1923,
      "iti": 1924,
      "lerinde": 1925,
      "gru": 1926,
      "kazan": 1927,
      "ıs": 1928,
      "mah": 1929,
      "sahip": 1930,
      "liğ": 1931,
      "18": 1932,
      "milyon": 1933,
      "eyi": 1934,
      "nde": 1935,
      "yaptığı": 1936,
      "ho": 1937,
      "ket": 1938,
      "tama": 1939,
      "gayet": 1940,
      "uzun": 1941,
      "kız": 1942,
      "dece": 1943,
      "raf": 1944,
      "görün": 1945,
      "şa": 1946,
      "esine": 1947,
      "gan": 1948,
      "masını": 1949,
      "kesin": 1950,
      "teşekkürler": 1951,
      "part": 1952,
      "beğ": 1953,
      "olu": 1954,
      "vatan": 1955,
      "tığı": 1956,
      "iniz": 1957,
      "şehir": 1958,
      "üç": 1959,
      "pi": 1960,
      "sur": 1961,
      "istan": 1962,
      "ses": 1963,
      "şam": 1964,
      "avru": 1965,
      "şar": 1966,
      "görüş": 1967,
      "pla": 1968,
      "kaliteli": 1969,
      "makta": 1970,
      "hay": 1971,
      "söyledi": 1972,
      "güç": 1973,
      "dest": 1974,
      "düşün": 1975,
      "iyorum": 1976,
      "mel": 1977,
      "gil": 1978,
      "masına": 1979,
      "ker": 1980,
      "sorun": 1981,
      "hiz": 1982,
      "ilik": 1983,
      "ayrıca": 1984,
      "yüksek": 1985,
      "dr": 1986,
      "hakk": 1987,
      "cel": 1988,
      "sadece": 1989,
      "12": 1990,
      "mut": 1991,
      "sağlık": 1992,
      "inci": 1993,
      "içer": 1994,
      "oku": 1995,
      "iver": 1996,
      "destek": 1997,
      "kın": 1998,
      "bır": 1999,
      "deniz": 2000,
      "tam": 2001,
      "ulus": 2002,
      "bulunan": 2003,
      "hazır": 2004,
      "tekn": 2005,
      "usunda": 2006,
      "yaklaş": 2007,
      "avrupa": 2008,
      "ide": 2009,
      "onom": 2010,
      "ülk": 2011,
      "mıştı": 2012,
      "yasa": 2013,
      "ika": 2014,
      "bit": 2015,
      "bilg": 2016,
      "lardan": 2017,
      "yapıl": 2018,
      "alman": 2019,
      "),": 2020,
      "sos": 2021,
      "veya": 2022,
      "bunun": 2023,
      "hayat": 2024,
      "co": 2025,
      "hük": 2026,
      "ğa": 2027,
      "üzerine": 2028,
      "ılık": 2029,
      "tah": 2030,
      "sistem": 2031,
      "rak": 2032,
      "kil": 2033,
      "üyor": 2034,
      "git": 2035,
      "ilç": 2036,
      "ıyorum": 2037,
      "jan": 2038,
      "eme": 2039,
      "konu": 2040,
      "kişi": 2041,
      "harek": 2042,
      "net": 2043,
      "üp": 2044,
      "açıklama": 2045,
      "mıştır": 2046,
      "tor": 2047,
      "değiş": 2048,
      "seçim": 2049,
      "luk": 2050,
      "oloj": 2051,
      "bazı": 2052,
      "üniver": 2053,
      "larla": 2054,
      "cen": 2055,
      "acak": 2056,
      "lanan": 2057,
      "pek": 2058,
      "suç": 2059,
      "zon": 2060,
      "tep": 2061,
      "pay": 2062,
      "tin": 2063,
      "dör": 2064,
      "uygun": 2065,
      "müdür": 2066,
      "...": 2067,
      "rus": 2068,
      "kası": 2069,
      "edildi": 2070,
      "med": 2071,
      "eğitim": 2072,
      "i̇z": 2073,
      "yür": 2074,
      "hi": 2075,
      "sava": 2076,
      "ira": 2077,
      "erdoğan": 2078,
      "indeki": 2079,
      "of": 2080,
      "larımız": 2081,
      "sosyal": 2082,
      "ap": 2083,
      "anı": 2084,
      "oto": 2085,
      "şim": 2086,
      "teş": 2087,
      "üne": 2088,
      "val": 2089,
      "ener": 2090,
      "başar": 2091,
      "saldır": 2092,
      "büt": 2093,
      "30": 2094,
      "lenen": 2095,
      "bırak": 2096,
      "olmak": 2097,
      "araş": 2098,
      "çalışmalar": 2099,
      "ete": 2100,
      "ren": 2101,
      "proj": 2102,
      "sak": 2103,
      "ekip": 2104,
      "199": 2105,
      "kitap": 2106,
      "kam": 2107,
      "olması": 2108,
      "ni": 2109,
      "tim": 2110,
      "ekonom": 2111,
      "nedeniyle": 2112,
      "nas": 2113,
      "yönetim": 2114,
      "ulan": 2115,
      "dum": 2116,
      "müca": 2117,
      "lum": 2118,
      "edilm": 2119,
      "müz": 2120,
      "olacak": 2121,
      "aları": 2122,
      "vatandaş": 2123,
      "polis": 2124,
      "def": 2125,
      "sına": 2126,
      "şir": 2127,
      "mücade": 2128,
      "sat": 2129,
      "başka": 2130,
      "gönder": 2131,
      "takım": 2132,
      "leme": 2133,
      "genç": 2134,
      "suz": 2135,
      "kargo": 2136,
      "br": 2137,
      "eski": 2138,
      "lim": 2139,
      "belediye": 2140,
      "ülke": 2141,
      "dil": 2142,
      "21": 2143,
      "maç": 2144,
      "bet": 2145,
      "hafta": 2146,
      "hizmet": 2147,
      "ladı": 2148,
      "ulu": 2149,
      "olduk": 2150,
      "dört": 2151,
      "geçen": 2152,
      "so": 2153,
      "biri": 2154,
      "sır": 2155,
      "lük": 2156,
      "parti": 2157,
      "olur": 2158,
      "geçir": 2159,
      "aldım": 2160,
      "böyle": 2161,
      "gür": 2162,
      "nda": 2163,
      "köy": 2164,
      "dola": 2165,
      "min": 2166,
      "zi": 2167,
      "arası": 2168,
      "kül": 2169,
      "sonuç": 2170,
      "iyoruz": 2171,
      "doğru": 2172,
      "vek": 2173,
      "yayın": 2174,
      "mekte": 2175,
      "farklı": 2176,
      "ula": 2177,
      "fran": 2178,
      "şi": 2179,
      "aldı": 2180,
      "plan": 2181,
      "araştır": 2182,
      "maktadır": 2183,
      "hüküm": 2184,
      "umlu": 2185,
      "mad": 2186,
      "landı": 2187,
      "ga": 2188,
      "telef": 2189,
      "lah": 2190,
      "yakın": 2191,
      "bölüm": 2192,
      "cağını": 2193,
      "konuştu": 2194,
      "isinde": 2195,
      "üzere": 2196,
      "kol": 2197,
      "yaşan": 2198,
      "terör": 2199,
      "günü": 2200,
      "ret": 2201,
      "küç": 2202,
      "pak": 2203,
      "iddi": 2204,
      "telefon": 2205,
      "bağlı": 2206,
      "ham": 2207,
      "ft": 2208,
      "ceğ": 2209,
      "bölg": 2210,
      "edil": 2211,
      "ortaya": 2212,
      "has": 2213,
      "lığ": 2214,
      "ck": 2215,
      "rek": 2216,
      "siya": 2217,
      "bes": 2218,
      "örgü": 2219,
      "16": 2220,
      "futbolcu": 2221,
      "bı": 2222,
      "bakanı": 2223,
      "fiya": 2224,
      "kısa": 2225,
      "lis": 2226,
      "cin": 2227,
      "bunu": 2228,
      "cam": 2229,
      "arkadaş": 2230,
      "müş": 2231,
      "ürünü": 2232,
      "üniversit": 2233,
      "manın": 2234,
      "ceza": 2235,
      "--": 2236,
      "hava": 2237,
      "malı": 2238,
      "mahal": 2239,
      "the": 2240,
      "hastan": 2241,
      "kut": 2242,
      "oluş": 2243,
      "des": 2244,
      "50": 2245,
      "enin": 2246,
      "gerçekleştir": 2247,
      "17": 2248,
      "vak": 2249,
      "oyuncu": 2250,
      "ayı": 2251,
      "özellikle": 2252,
      "ciler": 2253,
      "esinin": 2254,
      "bat": 2255,
      "yanı": 2256,
      "yapan": 2257,
      "süper": 2258,
      "gram": 2259,
      "lerden": 2260,
      "his": 2261,
      "yaklaşık": 2262,
      "çıktı": 2263,
      "14": 2264,
      "esini": 2265,
      "lerinden": 2266,
      "ankara": 2267,
      "gn": 2268,
      "ele": 2269,
      "ton": 2270,
      "fin": 2271,
      "i̇r": 2272,
      "larından": 2273,
      "ağır": 2274,
      "bor": 2275,
      "yönet": 2276,
      "konusunda": 2277,
      "24": 2278,
      "küçük": 2279,
      "aya": 2280,
      "car": 2281,
      "ası": 2282,
      "biraz": 2283,
      "edilen": 2284,
      "demir": 2285,
      "hes": 2286,
      "emek": 2287,
      "harika": 2288,
      "önc": 2289,
      "uç": 2290,
      "rar": 2291,
      "meler": 2292,
      "anlaş": 2293,
      "bey": 2294,
      "benim": 2295,
      "bütün": 2296,
      "sik": 2297,
      "paylaş": 2298,
      "kend": 2299,
      "nok": 2300,
      "işim": 2301,
      "ılması": 2302,
      "sine": 2303,
      "del": 2304,
      "tra": 2305,
      "hepsi": 2306,
      "cok": 2307,
      "hakkında": 2308,
      "sağla": 2309,
      "hen": 2310,
      "emmel": 2311,
      "lek": 2312,
      "yo": 2313,
      "dikkat": 2314,
      "oluştur": 2315,
      "üzerinde": 2316,
      "ıcı": 2317,
      "gerçekten": 2318,
      "verdi": 2319,
      "görül": 2320,
      "araç": 2321,
      "kent": 2322,
      "cumhuriyet": 2323,
      "mus": 2324,
      "mahkem": 2325,
      "tamam": 2326,
      "tif": 2327,
      "tl": 2328,
      "lacak": 2329,
      "mük": 2330,
      "mev": 2331,
      "herkes": 2332,
      "kabul": 2333,
      "nasıl": 2334,
      "katıl": 2335,
      "ince": 2336,
      "masının": 2337,
      "lerle": 2338,
      "belediy": 2339,
      "başarılı": 2340,
      "i̇ngil": 2341,
      "11": 2342,
      "vi": 2343,
      "gar": 2344,
      "siniz": 2345,
      "başladı": 2346,
      "rağ": 2347,
      "22": 2348,
      "kapsam": 2349,
      "tat": 2350,
      "oğun": 2351,
      "adı": 2352,
      "alet": 2353,
      "bilecek": 2354,
      "kalan": 2355,
      "kolay": 2356,
      "kurum": 2357,
      "değerlendir": 2358,
      "isim": 2359,
      "oper": 2360,
      "yum": 2361,
      "fes": 2362,
      "lak": 2363,
      "gin": 2364,
      "anda": 2365,
      "meden": 2366,
      "altına": 2367,
      "dolayı": 2368,
      "savaş": 2369,
      "karş": 2370,
      "çöz": 2371,
      "fakat": 2372,
      "temiz": 2373,
      "fır": 2374,
      "kesinlikle": 2375,
      "yerine": 2376,
      "geçti": 2377,
      "ep": 2378,
      "bilin": 2379,
      "mücadele": 2380,
      "diyor": 2381,
      "dül": 2382,
      "ağ": 2383,
      "üc": 2384,
      "yönelik": 2385,
      "paz": 2386,
      "yine": 2387,
      "okul": 2388,
      "cumhurbaşkanı": 2389,
      "gül": 2390,
      "13": 2391,
      "ümüz": 2392,
      "rol": 2393,
      "birçok": 2394,
      "hast": 2395,
      "halk": 2396,
      "maları": 2397,
      "gın": 2398,
      "bölge": 2399,
      "sanat": 2400,
      "col": 2401,
      "ata": 2402,
      "mükemmel": 2403,
      "grup": 2404,
      "saldırı": 2405,
      "açıklamada": 2406,
      "kaynakça": 2407,
      "dolar": 2408,
      "boy": 2409,
      "ner": 2410,
      "ail": 2411,
      "biliyor": 2412,
      "mec": 2413,
      "oğraf": 2414,
      "fil": 2415,
      "ziy": 2416,
      "sınır": 2417,
      "eşit": 2418,
      "aldığı": 2419,
      "çar": 2420,
      "bizim": 2421,
      "taşı": 2422,
      "şirket": 2423,
      "hangi": 2424,
      "rağmen": 2425,
      "ıyoruz": 2426,
      "oda": 2427,
      "uluslar": 2428,
      "fet": 2429,
      "hareket": 2430,
      "align": 2431,
      "yara": 2432,
      "198": 2433,
      "bildir": 2434,
      "bağı": 2435,
      "savun": 2436,
      "düğ": 2437,
      "ettiği": 2438,
      "hedef": 2439,
      "ünün": 2440,
      "23": 2441,
      "25": 2442,
      "onun": 2443,
      "anlam": 2444,
      "ödül": 2445,
      "birliği": 2446,
      "dok": 2447,
      "mişti": 2448,
      "ülkeler": 2449,
      "güvenlik": 2450,
      "silah": 2451,
      "sey": 2452,
      "okra": 2453,
      "trol": 2454,
      "sıyla": 2455,
      "bal": 2456,
      "yarı": 2457,
      "i̇ç": 2458,
      "isyon": 2459,
      "yaşam": 2460,
      "tiya": 2461,
      "madı": 2462,
      "may": 2463,
      "====": 2464,
      "sezon": 2465,
      "lerimiz": 2466,
      "hmet": 2467,
      "dana": 2468,
      "i̇m": 2469,
      "ley": 2470,
      "toplantı": 2471,
      "geliş": 2472,
      "bağlantı": 2473,
      "madan": 2474,
      "dağ": 2475,
      "uluslararası": 2476,
      "üret": 2477,
      "hil": 2478,
      "artık": 2479,
      "ac": 2480,
      "ann": 2481,
      "milli": 2482,
      "şamp": 2483,
      "if": 2484,
      "anın": 2485,
      "kontrol": 2486,
      "ayan": 2487,
      "bez": 2488,
      "rusya": 2489,
      "sar": 2490,
      "yur": 2491,
      "sık": 2492,
      "uyla": 2493,
      "lüğü": 2494,
      "yüksel": 2495,
      "hiçbir": 2496,
      "medi": 2497,
      "yeniden": 2498,
      "uğ": 2499,
      "mat": 2500,
      "sürdür": 2501,
      "tım": 2502,
      "duğ": 2503,
      "uyu": 2504,
      "zat": 2505,
      "siyon": 2506,
      "dal": 2507,
      "koy": 2508,
      "lin": 2509,
      "no": 2510,
      "ayd": 2511,
      "th": 2512,
      "mektedir": 2513,
      "çün": 2514,
      "aray": 2515,
      "ihtiya": 2516,
      "geri": 2517,
      "üniversitesi": 2518,
      "onu": 2519,
      "ilişkin": 2520,
      "beğen": 2521,
      "kültür": 2522,
      "teh": 2523,
      "altında": 2524,
      "las": 2525,
      "hale": 2526,
      "nor": 2527,
      "yardımcı": 2528,
      "haya": 2529,
      "tırım": 2530,
      "ize": 2531,
      "koru": 2532,
      "çalışan": 2533,
      "milletvek": 2534,
      "dakika": 2535,
      "ze": 2536,
      "kok": 2537,
      "ekim": 2538,
      "şimdi": 2539,
      "şöyle": 2540,
      "layan": 2541,
      "kaldır": 2542,
      "duğu": 2543,
      "medya": 2544,
      "miştir": 2545,
      "çünkü": 2546,
      "toplum": 2547,
      "baba": 2548,
      "paket": 2549,
      "kav": 2550,
      "zar": 2551,
      "i̇k": 2552,
      "vet": 2553,
      "şarkı": 2554,
      "muz": 2555,
      "ite": 2556,
      "mir": 2557,
      "inan": 2558,
      "şah": 2559,
      "pat": 2560,
      "chp": 2561,
      "ilmesi": 2562,
      "aday": 2563,
      "görüntü": 2564,
      "etmek": 2565,
      "çıkan": 2566,
      "almanya": 2567,
      "don": 2568,
      "yarış": 2569,
      "erk": 2570,
      "etkil": 2571,
      "beklen": 2572,
      "fir": 2573,
      "engel": 2574,
      "olsun": 2575,
      "ziyaret": 2576,
      "uygula": 2577,
      "lider": 2578,
      "demokra": 2579,
      "ikinci": 2580,
      "undan": 2581,
      "kuz": 2582,
      "pu": 2583,
      "toplam": 2584,
      "kötü": 2585,
      "cağız": 2586,
      "bilim": 2587,
      "kayı": 2588,
      "bilece": 2589,
      "zen": 2590,
      "şampiyon": 2591,
      "talya": 2592,
      "dönüş": 2593,
      "elime": 2594,
      "ediyorum": 2595,
      "dair": 2596,
      "ici": 2597,
      "oluyor": 2598,
      "yacak": 2599,
      "mehmet": 2600,
      "yani": 2601,
      "oyn": 2602,
      "konusu": 2603,
      "i̇lk": 2604,
      "izin": 2605,
      "ışlı": 2606,
      "yeter": 2607,
      "ırken": 2608,
      "ez": 2609,
      "ram": 2610,
      "atı": 2611,
      "izi": 2612,
      "işlem": 2613,
      "isini": 2614,
      "ibi": 2615,
      "işleri": 2616,
      "diğim": 2617,
      "diz": 2618,
      "şüp": 2619,
      "bakanlığı": 2620,
      "ris": 2621,
      "hemen": 2622,
      "100": 2623,
      "197": 2624,
      "perfor": 2625,
      "ulaştı": 2626,
      ".”": 2627,
      "muh": 2628,
      "çin": 2629,
      "mart": 2630,
      "tutuk": 2631,
      "erik": 2632,
      "boz": 2633,
      "nü": 2634,
      "yu": 2635,
      "tanı": 2636,
      "mıyor": 2637,
      "elek": 2638,
      "kamu": 2639,
      "performan": 2640,
      "sunuz": 2641,
      "miyor": 2642,
      "yaşa": 2643,
      "ğında": 2644,
      "tartış": 2645,
      "operasyon": 2646,
      "bera": 2647,
      "ji": 2648,
      "ğına": 2649,
      "kullandı": 2650,
      "bebeğ": 2651,
      "kıs": 2652,
      "niyet": 2653,
      "ona": 2654,
      "gazete": 2655,
      "fot": 2656,
      "dö": 2657,
      "temel": 2658,
      "dile": 2659,
      "cep": 2660,
      "söy": 2661,
      "program": 2662,
      "gerekti": 2663,
      "sebe": 2664,
      "üzerinden": 2665,
      "avu": 2666,
      "osman": 2667,
      "asker": 2668,
      "tük": 2669,
      "karde": 2670,
      "yoğun": 2671,
      "eb": 2672,
      "lira": 2673,
      "temmuz": 2674,
      "uzak": 2675,
      "lül": 2676,
      "otur": 2677,
      "ttı": 2678,
      "mada": 2679,
      "veren": 2680,
      "suriye": 2681,
      "ilmiş": 2682,
      "kurulu": 2683,
      "uluk": 2684,
      "sının": 2685,
      "zer": 2686,
      "aj": 2687,
      "lıyor": 2688,
      "hükümet": 2689,
      "landır": 2690,
      "ilere": 2691,
      "merkezi": 2692,
      "nis": 2693,
      "birleş": 2694,
      "milyar": 2695,
      "ğın": 2696,
      "rail": 2697,
      "huk": 2698,
      "yıldır": 2699,
      "öldür": 2700,
      "num": 2701,
      "üretim": 2702,
      "fotoğraf": 2703,
      "gelir": 2704,
      "ıp": 2705,
      "değiştir": 2706,
      "ing": 2707,
      "kah": 2708,
      "itibar": 2709,
      "tekrar": 2710,
      "terci": 2711,
      "di̇": 2712,
      "vil": 2713,
      "siyasi": 2714,
      "teknik": 2715,
      "kapsamında": 2716,
      "erkek": 2717,
      "larıyla": 2718,
      "kullanışlı": 2719,
      "altı": 2720,
      "başarı": 2721,
      "zaten": 2722,
      "doğu": 2723,
      "i̇srail": 2724,
      "tedav": 2725,
      "leyen": 2726,
      "ilişk": 2727,
      "isti": 2728,
      "elektr": 2729,
      "pit": 2730,
      "ılığı": 2731,
      "gol": 2732,
      "oldukça": 2733,
      "ölüm": 2734,
      "bebek": 2735,
      "ortak": 2736,
      "günde": 2737,
      "amerik": 2738,
      "çalışma": 2739,
      "fik": 2740,
      "allah": 2741,
      "başvur": 2742,
      "lig": 2743,
      "rapor": 2744,
      "sini": 2745,
      "mur": 2746,
      "kir": 2747,
      "zamanda": 2748,
      "değişik": 2749,
      "incel": 2750,
      "pen": 2751,
      "sipar": 2752,
      "karşılaş": 2753,
      "yapa": 2754,
      "mayıs": 2755,
      "gal": 2756,
      "mağ": 2757,
      "güney": 2758,
      "hayvan": 2759,
      "tasar": 2760,
      "yurt": 2761,
      "hazir": 2762,
      "içerisinde": 2763,
      "ocak": 2764,
      "prem": 2765,
      "şid": 2766,
      "isinin": 2767,
      "beyaz": 2768,
      "kişinin": 2769,
      "|-": 2770,
      "örgüt": 2771,
      "edir": 2772,
      "duk": 2773,
      "mahall": 2774,
      "etkin": 2775,
      "yağ": 2776,
      "ğimiz": 2777,
      "irüs": 2778,
      "umuz": 2779,
      "temsil": 2780,
      "tarihi": 2781,
      "tercih": 2782,
      "aliyet": 2783,
      "soy": 2784,
      "boyun": 2785,
      "çeşit": 2786,
      "kel": 2787,
      "siyas": 2788,
      "beraber": 2789,
      "kuzey": 2790,
      "esel": 2791,
      "uc": 2792,
      "geliştir": 2793,
      "ait": 2794,
      "alış": 2795,
      "sem": 2796,
      "buna": 2797,
      "bana": 2798,
      "40": 2799,
      "2020": 2800,
      "belirten": 2801,
      "yun": 2802,
      "partisi": 2803,
      "yılı": 2804,
      "hayatını": 2805,
      "op": 2806,
      "i̇ran": 2807,
      "aktar": 2808,
      "||": 2809,
      "bağlantılar": 2810,
      "belediyesi": 2811,
      "yanın": 2812,
      "sol": 2813,
      "ddi": 2814,
      "eylül": 2815,
      "hel": 2816,
      "sıkın": 2817,
      "mon": 2818,
      "196": 2819,
      "bence": 2820,
      "mik": 2821,
      "düşünü": 2822,
      "aralık": 2823,
      "soruştur": 2824,
      "şan": 2825,
      "gelecek": 2826,
      "sta": 2827,
      "diş": 2828,
      "düzenlenen": 2829,
      "yatırım": 2830,
      "organ": 2831,
      "haziran": 2832,
      "olabilir": 2833,
      "düğü": 2834,
      "lüğ": 2835,
      "anad": 2836,
      "yaşayan": 2837,
      "kasım": 2838,
      "nüf": 2839,
      "soru": 2840,
      "ünden": 2841,
      "duyur": 2842,
      "mobil": 2843,
      "mesini": 2844,
      "kararı": 2845,
      "fen": 2846,
      "ordu": 2847,
      "dışında": 2848,
      "jo": 2849,
      "kullanıyorum": 2850,
      "ec": 2851,
      "teknoloj": 2852,
      "alarında": 2853,
      "ia": 2854,
      "nokta": 2855,
      "terek": 2856,
      "sektör": 2857,
      "öner": 2858,
      "dayan": 2859,
      "pazar": 2860,
      "beri": 2861,
      "hap": 2862,
      "elerin": 2863,
      "dek": 2864,
      "kayb": 2865,
      "yazar": 2866,
      "gider": 2867,
      "belirtti": 2868,
      "yaşındaki": 2869,
      "unuyor": 2870,
      "ebilir": 2871,
      "anadolu": 2872,
      "ülen": 2873,
      "musta": 2874,
      "elere": 2875,
      "2019": 2876,
      "ekonomik": 2877,
      "osu": 2878,
      "tespit": 2879,
      "gem": 2880,
      "karak": 2881,
      "başkanlığı": 2882,
      "indir": 2883,
      "leriyle": 2884,
      "hu": 2885,
      "sın": 2886,
      "nek": 2887,
      "adım": 2888,
      "direk": 2889,
      "ğrı": 2890,
      "yle": 2891,
      "eser": 2892,
      "sayısı": 2893,
      "şık": 2894,
      "lendi": 2895,
      "geliyor": 2896,
      "elde": 2897,
      "açıl": 2898,
      "ilecek": 2899,
      "adam": 2900,
      "dha": 2901,
      "şun": 2902,
      "aşı": 2903,
      "faaliyet": 2904,
      "2018": 2905,
      "inter": 2906,
      "ted": 2907,
      "oran": 2908,
      "bm": 2909,
      "sırasında": 2910,
      "sok": 2911,
      "meyi": 2912,
      "tarihinde": 2913,
      "dük": 2914,
      "satı": 2915,
      "cer": 2916,
      "altın": 2917,
      "ina": 2918,
      "umu": 2919,
      "diler": 2920,
      "mustafa": 2921,
      "nisan": 2922,
      "gereken": 2923,
      "geler": 2924,
      "tic": 2925,
      "gerçekleş": 2926,
      "kalitesi": 2927,
      "cılık": 2928,
      "eceğ": 2929,
      "basın": 2930,
      "i̇zmir": 2931,
      "imde": 2932,
      "herkese": 2933,
      "marka": 2934,
      "mutlu": 2935,
      "çift": 2936,
      "masında": 2937,
      "müdürlüğü": 2938,
      "hepsiburada": 2939,
      "bulunduğu": 2940,
      "detti": 2941,
      "başbakan": 2942,
      "ilir": 2943,
      "yana": 2944,
      "şekl": 2945,
      "normal": 2946,
      "devr": 2947,
      "takip": 2948,
      "bilgi": 2949,
      "eur": 2950,
      "28": 2951,
      "dava": 2952,
      "yapıldı": 2953,
      "ahmet": 2954,
      ".'": 2955,
      "mesine": 2956,
      "taki": 2957,
      "ınız": 2958,
      "sk": 2959,
      "çiz": 2960,
      "yarak": 2961,
      "gor": 2962,
      "sipariş": 2963,
      "geniş": 2964,
      "boyunca": 2965,
      "com": 2966,
      "sim": 2967,
      "kılı": 2968,
      "belirterek": 2969,
      "eleş": 2970,
      "meydana": 2971,
      "ederek": 2972,
      "izle": 2973,
      "uzman": 2974,
      "gerekiyor": 2975,
      "müda": 2976,
      "izm": 2977,
      "laştır": 2978,
      "adet": 2979,
      "hir": 2980,
      "batı": 2981,
      "ayak": 2982,
      "madde": 2983,
      "sıkıntı": 2984,
      "ılmış": 2985,
      "esiyle": 2986,
      "büyükşehir": 2987,
      "alınan": 2988,
      "kalite": 2989,
      "inc": 2990,
      "gece": 2991,
      "fiyata": 2992,
      "yık": 2993,
      "stik": 2994,
      "kaya": 2995,
      "çak": 2996,
      "ekli": 2997,
      "ayında": 2998,
      "taj": 2999,
      "talep": 3000,
      "tabi": 3001,
      "lat": 3002,
      "yayım": 3003,
      "center": 3004,
      "fe": 3005,
      "teslim": 3006,
      "pe": 3007,
      "barış": 3008,
      "vid": 3009,
      "and": 3010,
      "pet": 3011,
      "piş": 3012,
      "şiddet": 3013,
      "liyor": 3014,
      "eleştir": 3015,
      "yaşanan": 3016,
      "izyon": 3017,
      "renk": 3018,
      "kün": 3019,
      "adlı": 3020,
      "ucu": 3021,
      "tören": 3022,
      "vurgu": 3023,
      "emin": 3024,
      "kuv": 3025,
      "ınca": 3026,
      "etmen": 3027,
      "mayan": 3028,
      "27": 3029,
      "özgür": 3030,
      "imizin": 3031,
      "siyaset": 3032,
      "26": 3033,
      "araştırma": 3034,
      "kuş": 3035,
      "yerek": 3036,
      "emniyet": 3037,
      "ameri": 3038,
      "sonucu": 3039,
      "derece": 3040,
      "kuruluş": 3041,
      "ğin": 3042,
      "sanız": 3043,
      "aydın": 3044,
      "ray": 3045,
      "erken": 3046,
      "kamer": 3047,
      "futbolcuları": 3048,
      "ılıyor": 3049,
      "fransa": 3050,
      "i̇b": 3051,
      "müzik": 3052,
      "sonrası": 3053,
      "üncü": 3054,
      "aa": 3055,
      "yapıyor": 3056,
      "sınız": 3057,
      "ask": 3058,
      "kurtar": 3059,
      "verildi": 3060,
      "hukuk": 3061,
      "gala": 3062,
      "uğra": 3063,
      "ii": 3064,
      "ekipleri": 3065,
      "aşır": 3066,
      "eyen": 3067,
      "giriş": 3068,
      "olmuş": 3069,
      "rah": 3070,
      "aların": 3071,
      "tere": 3072,
      "herhangi": 3073,
      "ısından": 3074,
      "oyna": 3075,
      "edecek": 3076,
      "verdiği": 3077,
      "ilçesinde": 3078,
      "ilerine": 3079,
      "giz": 3080,
      "arac": 3081,
      "dam": 3082,
      "malz": 3083,
      "çevr": 3084,
      "milletvekili": 3085,
      "dığım": 3086,
      "bilirsiniz": 3087,
      "tesi": 3088,
      "dak": 3089,
      "hol": 3090,
      "bahçe": 3091,
      "zarar": 3092,
      "vardı": 3093,
      "kaldı": 3094,
      "resmi": 3095,
      "etkili": 3096,
      "amerika": 3097,
      "alıyor": 3098,
      "und": 3099,
      "verilen": 3100,
      "güçlü": 3101,
      "fiyatı": 3102,
      "kullanım": 3103,
      "isteyen": 3104,
      "kurt": 3105,
      "i̇h": 3106,
      "boş": 3107,
      "prof": 3108,
      "bl": 3109,
      "bekle": 3110,
      "cez": 3111,
      "kayde": 3112,
      "askeri": 3113,
      "larak": 3114,
      "ajan": 3115,
      "i̇ngiliz": 3116,
      "müm": 3117,
      "ıla": 3118,
      "sağlam": 3119,
      "çan": 3120,
      "dahil": 3121,
      "yaralan": 3122,
      "iydi": 3123,
      "mızı": 3124,
      "kas": 3125,
      "eylem": 3126,
      "kuvvet": 3127,
      "yargı": 3128,
      "ateş": 3129,
      "teki": 3130,
      "olmayan": 3131,
      "alındı": 3132,
      "memnunum": 3133,
      "yaban": 3134,
      "yunan": 3135,
      "yaptık": 3136,
      "deprem": 3137,
      "piyasa": 3138,
      "üyesi": 3139,
      "şubat": 3140,
      "ilerini": 3141,
      "evi": 3142,
      "gök": 3143,
      "itik": 3144,
      "ov": 3145,
      "cihaz": 3146,
      "stos": 3147,
      "mam": 3148,
      "çözüm": 3149,
      "nit": 3150,
      "2021": 3151,
      "başlat": 3152,
      "ağu": 3153,
      "muştur": 3154,
      "dünyanın": 3155,
      "kaydetti": 3156,
      "çevre": 3157,
      "iliyor": 3158,
      "ağustos": 3159,
      "gözaltına": 3160,
      "orman": 3161,
      "ifadelerini": 3162,
      "kardeş": 3163,
      "olsa": 3164,
      "anlar": 3165,
      "yanında": 3166,
      "gitti": 3167,
      "yıllar": 3168,
      "----": 3169,
      "fener": 3170,
      "yıllık": 3171,
      "gec": 3172,
      "dönemde": 3173,
      "sistemi": 3174,
      "luğu": 3175,
      "amacı": 3176,
      "süreç": 3177,
      "laz": 3178,
      "panya": 3179,
      "sıcak": 3180,
      "inşa": 3181,
      "hatır": 3182,
      "doğal": 3183,
      "2017": 3184,
      "diğimiz": 3185,
      "kısı": 3186,
      "vaz": 3187,
      "sarı": 3188,
      "dıkları": 3189,
      "araya": 3190,
      "ölç": 3191,
      "hav": 3192,
      "qu": 3193,
      "ilet": 3194,
      "urun": 3195,
      "kapı": 3196,
      "almak": 3197,
      "itir": 3198,
      "i̇yi": 3199,
      "up": 3200,
      "bağım": 3201,
      "hey": 3202,
      "itibaren": 3203,
      "gazet": 3204,
      "ıldığı": 3205,
      "imin": 3206,
      "str": 3207,
      "ücü": 3208,
      "çeşitli": 3209,
      "yazı": 3210,
      "bundan": 3211,
      "od": 3212,
      "matik": 3213,
      "yalı": 3214,
      "sul": 3215,
      "kenin": 3216,
      "sonunda": 3217,
      "tarım": 3218,
      "istik": 3219,
      "muha": 3220,
      "artış": 3221,
      "mümkün": 3222,
      "tıyor": 3223,
      "satış": 3224,
      "ciddi": 3225,
      "yapmak": 3226,
      "göç": 3227,
      "kk": 3228,
      "yetkil": 3229,
      "model": 3230,
      "dağı": 3231,
      "mis": 3232,
      "doğumlu": 3233,
      "ülkem": 3234,
      "öğrenc": 3235,
      "performans": 3236,
      "nes": 3237,
      "ayar": 3238,
      "i̇ngiltere": 3239,
      "arasındaki": 3240,
      "açısından": 3241,
      "gun": 3242,
      "meyen": 3243,
      "roman": 3244,
      "sırada": 3245,
      "29": 3246,
      "henüz": 3247,
      "türkçe": 3248,
      "mesaj": 3249,
      "götür": 3250,
      "şeklinde": 3251,
      "giy": 3252,
      "saha": 3253,
      "açıkladı": 3254,
      "60": 3255,
      "site": 3256,
      "beden": 3257,
      "ücret": 3258,
      "aka": 3259,
      "yandan": 3260,
      "koron": 3261,
      "iliği": 3262,
      "ikti": 3263,
      "vide": 3264,
      "ünlü": 3265,
      "saç": 3266,
      "antalya": 3267,
      "mayacak": 3268,
      "artır": 3269,
      "dis": 3270,
      "tion": 3271,
      "2016": 3272,
      "yem": 3273,
      "i̇t": 3274,
      "isine": 3275,
      "ettik": 3276,
      "belli": 3277,
      "ump": 3278,
      "şehit": 3279,
      "zorunda": 3280,
      "ticaret": 3281,
      "eğer": 3282,
      "i̇nsan": 3283,
      "çarp": 3284,
      "yeş": 3285,
      "katıldı": 3286,
      "one": 3287,
      "prak": 3288,
      "ülkenin": 3289,
      "lerce": 3290,
      "ydı": 3291,
      "gerektiğini": 3292,
      "sabah": 3293,
      "list": 3294,
      "bize": 3295,
      "yolu": 3296,
      "alb": 3297,
      "öncek": 3298,
      "esinden": 3299,
      "fı": 3300,
      "sahibi": 3301,
      "toprak": 3302,
      "müdürü": 3303,
      "ib": 3304,
      "seviy": 3305,
      "koronav": 3306,
      "anlat": 3307,
      "veriyor": 3308,
      "yürüt": 3309,
      "yardımcısı": 3310,
      "beni": 3311,
      "tv": 3312,
      "çer": 3313,
      "akşam": 3314,
      "ışı": 3315,
      "yılın": 3316,
      "düzenle": 3317,
      "poz": 3318,
      "aile": 3319,
      "sürekli": 3320,
      "komut": 3321,
      "öğretmen": 3322,
      "yerel": 3323,
      "cut": 3324,
      "öğrenciler": 3325,
      "politi": 3326,
      "birbir": 3327,
      "irak": 3328,
      "çoğ": 3329,
      "masıyla": 3330,
      "ajansı": 3331,
      "yapılacak": 3332,
      "yılda": 3333,
      "serv": 3334,
      "hedi": 3335,
      "asl": 3336,
      "üb": 3337,
      "olmadığını": 3338,
      "şunları": 3339,
      "ğunu": 3340,
      "sanay": 3341,
      "ceva": 3342,
      "koca": 3343,
      "akp": 3344,
      "açı": 3345,
      "sayıda": 3346,
      "yılmaz": 3347,
      "elektrik": 3348,
      "amaç": 3349,
      "koş": 3350,
      "yip": 3351,
      "gr": 3352,
      "gören": 3353,
      "önceki": 3354,
      "trans": 3355,
      "işe": 3356,
      "meclis": 3357,
      "cılar": 3358,
      "sokak": 3359,
      "ilerinin": 3360,
      "uldu": 3361,
      "dikleri": 3362,
      "ulusal": 3363,
      "geçmiş": 3364,
      "imize": 3365,
      "galatas": 3366,
      "fenerbahçe": 3367,
      "tiv": 3368,
      "yaln": 3369,
      "galatasaray": 3370,
      "mevcut": 3371,
      "final": 3372,
      "diklerini": 3373,
      "başlayan": 3374,
      "imizi": 3375,
      "enerji": 3376,
      "ümü": 3377,
      "onya": 3378,
      "bahç": 3379,
      "adan": 3380,
      "menin": 3381,
      "alarını": 3382,
      "otomobil": 3383,
      "red": 3384,
      "alma": 3385,
      "savunma": 3386,
      "dıklarını": 3387,
      "iddia": 3388,
      "kılıç": 3389,
      "kayıt": 3390,
      "nu": 3391,
      "best": 3392,
      "ekran": 3393,
      "alarda": 3394,
      "belirtildi": 3395,
      "fat": 3396,
      "fiyatına": 3397,
      "birkaç": 3398,
      "mill": 3399,
      "büyü": 3400,
      "kale": 3401,
      "gro": 3402,
      "stra": 3403,
      "tip": 3404,
      "internet": 3405,
      "ettiğini": 3406,
      "liğini": 3407,
      "evizyon": 3408,
      "tığını": 3409,
      "meleri": 3410,
      "şarj": 3411,
      "ihtiyaç": 3412,
      "olup": 3413,
      "insanlar": 3414,
      "dışı": 3415,
      "mahallesi": 3416,
      "yalnız": 3417,
      "seri": 3418,
      "hesap": 3419,
      "alına": 3420,
      "alacak": 3421,
      "gazi": 3422,
      "nüfus": 3423,
      "adalet": 3424,
      "set": 3425,
      "pra": 3426,
      "zan": 3427,
      "31": 3428,
      "balık": 3429,
      "sürec": 3430,
      "mayın": 3431,
      "katkı": 3432,
      "otor": 3433,
      "deste": 3434,
      "i̇ki": 3435,
      "span": 3436,
      "kemal": 3437,
      "müs": 3438,
      "öne": 3439,
      "muyor": 3440,
      "yabancı": 3441,
      "lisi": 3442,
      "kapat": 3443,
      "haberleri": 3444,
      "80": 3445,
      "feder": 3446,
      "adına": 3447,
      "lazım": 3448,
      "bara": 3449,
      "şen": 3450,
      "başı": 3451,
      "kış": 3452,
      "bakım": 3453,
      "cr": 3454,
      "jin": 3455,
      "hatta": 3456,
      "form": 3457,
      "durumda": 3458,
      "trump": 3459,
      "birleşik": 3460,
      "yakalan": 3461,
      "ılır": 3462,
      "kokusu": 3463,
      "tehdi": 3464,
      "yağı": 3465,
      "duruş": 3466,
      "çocuğ": 3467,
      "elerde": 3468,
      "televizyon": 3469,
      "cem": 3470,
      "dol": 3471,
      "uygulan": 3472,
      "eyin": 3473,
      "canlı": 3474,
      "bursa": 3475,
      "enf": 3476,
      "günlük": 3477,
      "yız": 3478,
      "2015": 3479,
      "olmaz": 3480,
      "35": 3481,
      "katı": 3482,
      "halinde": 3483,
      "rika": 3484,
      "irken": 3485,
      "ukray": 3486,
      "sivil": 3487,
      "og": 3488,
      "dip": 3489,
      "alım": 3490,
      "larım": 3491,
      "sever": 3492,
      "yanıt": 3493,
      "idar": 3494,
      "durumu": 3495,
      "düşük": 3496,
      "cil": 3497,
      "filmi": 3498,
      "direktör": 3499,
      "sayesinde": 3500,
      "öde": 3501,
      "lığını": 3502,
      "ihra": 3503,
      "işaret": 3504,
      "yeşil": 3505,
      "e9": 3506,
      "göl": 3507,
      "karış": 3508,
      "hesab": 3509,
      "bulunuyor": 3510,
      "özellik": 3511,
      "tamamen": 3512,
      "örgütü": 3513,
      "yeterli": 3514,
      "puan": 3515,
      "sp": 3516,
      "ceğiz": 3517,
      "yapar": 3518,
      "========": 3519,
      "sc": 3520,
      "önünde": 3521,
      "gerekli": 3522,
      "gur": 3523,
      "atatürk": 3524,
      "masından": 3525,
      "nedenle": 3526,
      "eşi": 3527,
      "çiler": 3528,
      "doktor": 3529,
      "parça": 3530,
      "şart": 3531,
      "girişim": 3532,
      "uygu": 3533,
      "sözleş": 3534,
      "vardır": 3535,
      "sonrasında": 3536,
      "luluk": 3537,
      "style": 3538,
      "istin": 3539,
      "fel": 3540,
      "kanı": 3541,
      "kum": 3542,
      "45": 3543,
      "muhal": 3544,
      "bi̇r": 3545,
      "i̇slam": 3546,
      "beşik": 3547,
      "ceğini": 3548,
      "sızlık": 3549,
      "kaldım": 3550,
      "dışişleri": 3551,
      "merak": 3552,
      "yasal": 3553,
      "başta": 3554,
      "konuda": 3555,
      "amacıyla": 3556,
      "yerleş": 3557,
      "boğ": 3558,
      "komisyon": 3559,
      "nden": 3560,
      "ister": 3561,
      "kalar": 3562,
      "koronavirüs": 3563,
      "new": 3564,
      "2014": 3565,
      "elerinin": 3566,
      "tih": 3567,
      "serbest": 3568,
      "ova": 3569,
      "sert": 3570,
      "ligi": 3571,
      "195": 3572,
      "tren": 3573,
      "olmadı": 3574,
      "hafi": 3575,
      "ladığı": 3576,
      "tun": 3577,
      "yansı": 3578,
      "aslında": 3579,
      "yanl": 3580,
      "onlar": 3581,
      "guz": 3582,
      "bileceğini": 3583,
      "mür": 3584,
      "gönül": 3585,
      "tw": 3586,
      "çalışmaları": 3587,
      "işi": 3588,
      "eksik": 3589,
      "park": 3590,
      "istiyor": 3591,
      "lanması": 3592,
      "hastalık": 3593,
      "imz": 3594,
      "çö": 3595,
      "tok": 3596,
      "kate": 3597,
      "pil": 3598,
      "edin": 3599,
      "aylık": 3600,
      "elen": 3601,
      "görüyor": 3602,
      "soruşturma": 3603,
      "başına": 3604,
      "tekli": 3605,
      "anayasa": 3606,
      "bileceği": 3607,
      "ürünün": 3608,
      "dp": 3609,
      "hoş": 3610,
      "ori": 3611,
      "jandar": 3612,
      "back": 3613,
      "dra": 3614,
      "ülkede": 3615,
      "alama": 3616,
      "yaşında": 3617,
      "colspan": 3618,
      "hafif": 3619,
      "çalışıyor": 3620,
      "tehlik": 3621,
      "guzel": 3622,
      "kuru": 3623,
      "km": 3624,
      "beşiktaş": 3625,
      "nerede": 3626,
      "arada": 3627,
      "left": 3628,
      "color": 3629,
      "omet": 3630,
      "anne": 3631,
      "öğretim": 3632,
      "karakter": 3633,
      "2010": 3634,
      "000": 3635,
      "kanal": 3636,
      "düzey": 3637,
      "tiyat": 3638,
      "çekti": 3639,
      "üle": 3640,
      "düşünüyorum": 3641,
      "ces": 3642,
      "bunlar": 3643,
      "çu": 3644,
      "çağrı": 3645,
      "kulüb": 3646,
      "osmanlı": 3647,
      "bölgeler": 3648,
      "acı": 3649,
      "sefer": 3650,
      "ukrayna": 3651,
      "sona": 3652,
      ".,": 3653,
      "soğ": 3654,
      "önlem": 3655,
      "zir": 3656,
      "lasyon": 3657,
      "lemek": 3658,
      "i̇y": 3659,
      "hin": 3660,
      "lilik": 3661,
      "edim": 3662,
      "yanlış": 3663,
      "grubu": 3664,
      "sürede": 3665,
      "unuz": 3666,
      "blem": 3667,
      "2011": 3668,
      "kupa": 3669,
      "örnek": 3670,
      "ders": 3671,
      "dolayısıyla": 3672,
      "başında": 3673,
      "söyleyen": 3674,
      "takımı": 3675,
      "70": 3676,
      "neği": 3677,
      "hane": 3678,
      "benz": 3679,
      "yapım": 3680,
      "eyle": 3681,
      "numara": 3682,
      "elerini": 3683,
      "şehr": 3684,
      "lanıyor": 3685,
      "asına": 3686,
      "amerikalı": 3687,
      "kürt": 3688,
      "sanatçı": 3689,
      "ğının": 3690,
      "gündem": 3691,
      "tepe": 3692,
      "cor": 3693,
      "risk": 3694,
      "luğ": 3695,
      "tedbir": 3696,
      "biç": 3697,
      "çıka": 3698,
      "kral": 3699,
      "döneminde": 3700,
      "tane": 3701,
      "oluşan": 3702,
      "getirdi": 3703,
      "recep": 3704,
      "meli": 3705,
      "pkk": 3706,
      "tıp": 3707,
      "yerde": 3708,
      "evde": 3709,
      "ps": 3710,
      "bölgede": 3711,
      "ht": 3712,
      "lulu": 3713,
      "üçüncü": 3714,
      "deney": 3715,
      "oyunc": 3716,
      "laka": 3717,
      "sas": 3718,
      "500": 3719,
      "makin": 3720,
      "veriş": 3721,
      "boyut": 3722,
      "i̇d": 3723,
      "paşa": 3724,
      "çay": 3725,
      "tayyip": 3726,
      "mor": 3727,
      "person": 3728,
      "90": 3729,
      "euro": 3730,
      "umsuz": 3731,
      "ceği": 3732,
      "ilan": 3733,
      "çatış": 3734,
      "jinal": 3735,
      "ground": 3736,
      "yönetmen": 3737,
      "mit": 3738,
      "uyar": 3739,
      "arap": 3740,
      "üyle": 3741,
      "fransız": 3742,
      "mesinin": 3743,
      "etik": 3744,
      "ari": 3745,
      "güneş": 3746,
      "ükle": 3747,
      "orada": 3748,
      "olmadığı": 3749,
      "2012": 3750,
      "sınıf": 3751,
      "öncelik": 3752,
      "politik": 3753,
      "keş": 3754,
      "problem": 3755,
      "tanım": 3756,
      "yüzden": 3757,
      "mesel": 3758,
      "kitabı": 3759,
      "haline": 3760,
      "etme": 3761,
      "detay": 3762,
      "uçak": 3763,
      "diyen": 3764,
      "biy": 3765,
      "iktidar": 3766,
      "küresel": 3767,
      "akadem": 3768,
      "yöntem": 3769,
      "sene": 3770,
      "sanık": 3771,
      "çevir": 3772,
      "sonuc": 3773,
      "background": 3774,
      "beğendim": 3775,
      "hapis": 3776,
      "ilerek": 3777,
      "zey": 3778,
      "kendisine": 3779,
      "cat": 3780,
      "hala": 3781,
      "i̇şte": 3782,
      "nan": 3783,
      "buluş": 3784,
      "defa": 3785,
      "ödülü": 3786,
      "tepki": 3787,
      "deli": 3788,
      "düğünü": 3789,
      "murat": 3790,
      "ledi": 3791,
      "yse": 3792,
      "dıktan": 3793,
      "yaşama": 3794,
      "hayır": 3795,
      "hp": 3796,
      "mahalle": 3797,
      "parla": 3798,
      "2013": 3799,
      "benzer": 3800,
      "yangın": 3801,
      "bakır": 3802,
      "ğine": 3803,
      "gücü": 3804,
      "sevk": 3805,
      "ğe": 3806,
      "huz": 3807,
      "fu": 3808,
      "bileceğ": 3809,
      "tesli": 3810,
      "duğunu": 3811,
      "test": 3812,
      "tehdit": 3813,
      "hayal": 3814,
      "içi": 3815,
      "işlet": 3816,
      "ant": 3817,
      "asında": 3818,
      "tab": 3819,
      "ens": 3820,
      "büs": 3821,
      "kulüp": 3822,
      "jandarma": 3823,
      "doğumlular": 3824,
      "darbe": 3825,
      "unut": 3826,
      "motor": 3827,
      "bre": 3828,
      "oranı": 3829,
      "lamak": 3830,
      "ucuz": 3831,
      "yeri": 3832,
      "isten": 3833,
      "sınav": 3834,
      "savaşı": 3835,
      "katılım": 3836,
      "lüm": 3837,
      "öte": 3838,
      "fon": 3839,
      "cağım": 3840,
      "albüm": 3841,
      "gre": 3842,
      "etkinlik": 3843,
      "bayram": 3844,
      "ayda": 3845,
      "mutlaka": 3846,
      "şüphel": 3847,
      "kaybet": 3848,
      "masa": 3849,
      "asını": 3850,
      "koruma": 3851,
      "trab": 3852,
      "davran": 3853,
      "trabzon": 3854,
      "ündeki": 3855,
      "ıyla": 3856,
      "lal": 3857,
      "söylü": 3858,
      "olojik": 3859,
      "sebep": 3860,
      "yasak": 3861,
      "beklent": 3862,
      "doğr": 3863,
      "ortam": 3864,
      "nur": 3865,
      "tedavi": 3866,
      "meslek": 3867,
      "açıklamalar": 3868,
      "jap": 3869,
      "sorum": 3870,
      "ullah": 3871,
      "düm": 3872,
      "tanın": 3873,
      "etin": 3874,
      "sinin": 3875,
      "ediliyor": 3876,
      "lenmesi": 3877,
      "yere": 3878,
      "cilik": 3879,
      "kaf": 3880,
      "durdur": 3881,
      "satın": 3882,
      "tahmin": 3883,
      "avukat": 3884,
      "lon": 3885,
      "ıma": 3886,
      "bilmek": 3887,
      "çağı": 3888,
      "dünyada": 3889,
      "yemek": 3890,
      "ndan": 3891,
      "uygulama": 3892,
      "aktif": 3893,
      "filistin": 3894,
      "bis": 3895,
      "yarar": 3896,
      "kart": 3897,
      "mıştım": 3898,
      "bom": 3899,
      "yürü": 3900,
      "alanda": 3901,
      "başlan": 3902,
      "birinci": 3903,
      "194": 3904,
      "sürücü": 3905,
      "huzur": 3906,
      "turizm": 3907,
      "aşırı": 3908,
      "yerinde": 3909,
      "yakal": 3910,
      "madığı": 3911,
      "ölen": 3912,
      "alya": 3913,
      "yıldırım": 3914,
      "ex": 3915,
      "dos": 3916,
      "ettim": 3917,
      "profes": 3918,
      "üldü": 3919,
      "lığına": 3920,
      "dost": 3921,
      "bon": 3922,
      "etmeye": 3923,
      "2022": 3924,
      "kariy": 3925,
      "nat": 3926,
      "geçtiğimiz": 3927,
      "türlü": 3928,
      "ortal": 3929,
      "oğlum": 3930,
      "protes": 3931,
      "naz": 3932,
      "güm": 3933,
      "üstü": 3934,
      "tali": 3935,
      "ılmaz": 3936,
      "samsun": 3937,
      "alanı": 3938,
      "belki": 3939,
      "vas": 3940,
      "rem": 3941,
      "eceği": 3942,
      "müslüm": 3943,
      "bitir": 3944,
      "kayna": 3945,
      "karşısında": 3946,
      "sorunsuz": 3947,
      "hakları": 3948,
      "fakül": 3949,
      "ülü": 3950,
      "mahkeme": 3951,
      "makam": 3952,
      "kla": 3953,
      "kork": 3954,
      "politika": 3955,
      "transfer": 3956,
      "mahkemesi": 3957,
      "verdim": 3958,
      "teslimat": 3959,
      "varsa": 3960,
      "olumsuz": 3961,
      "kalın": 3962,
      "bilen": 3963,
      "olmaya": 3964,
      "gerekç": 3965,
      "raman": 3966,
      "i̇talya": 3967,
      "alarak": 3968,
      "getiren": 3969,
      "baskı": 3970,
      "maması": 3971,
      "amerikan": 3972,
      "kişiler": 3973,
      "değildir": 3974,
      "ediyoruz": 3975,
      "olun": 3976,
      "yumuş": 3977,
      "bağımsız": 3978,
      "çelik": 3979,
      "ff": 3980,
      "satıcı": 3981,
      "kaçır": 3982,
      "kredi": 3983,
      "sayın": 3984,
      "artesi": 3985,
      "ğından": 3986,
      ":#": 3987,
      "sözcü": 3988,
      "ros": 3989,
      "ital": 3990,
      "çeken": 3991,
      "geçer": 3992,
      "bunların": 3993,
      ":)": 3994,
      "anan": 3995,
      "desi": 3996,
      "demek": 3997,
      "kullandım": 3998,
      "aşağı": 3999,
      "başvuru": 4000,
      "kahraman": 4001,
      "resim": 4002,
      "akıl": 4003,
      "izde": 4004,
      "tasyon": 4005,
      "miktar": 4006,
      "asla": 4007,
      "silahlı": 4008,
      "lana": 4009,
      "33": 4010,
      "cumhuriyeti": 4011,
      "şır": 4012,
      "alışveriş": 4013,
      "bmm": 4014,
      "li̇": 4015,
      "les": 4016,
      "dışarı": 4017,
      "kendini": 4018,
      "düşür": 4019,
      "edilmesi": 4020,
      "kilomet": 4021,
      "2008": 4022,
      "pop": 4023,
      "tarak": 4024,
      "bizi": 4025,
      "lıkla": 4026,
      "bebeğim": 4027,
      "vaş": 4028,
      "mos": 4029,
      "not": 4030,
      "ja": 4031,
      "protesto": 4032,
      "hn": 4033,
      "yunanistan": 4034,
      "tbmm": 4035,
      "oz": 4036,
      "konuşan": 4037,
      "koşul": 4038,
      "giden": 4039,
      "derin": 4040,
      "neler": 4041,
      "2009": 4042,
      "fetö": 4043,
      "imza": 4044,
      "üsü": 4045,
      "diren": 4046,
      "lanmış": 4047,
      "düştü": 4048,
      "hayata": 4049,
      "sorunu": 4050,
      "vir": 4051,
      "nün": 4052,
      "diğinde": 4053,
      "tesis": 4054,
      "daroğlu": 4055,
      "yönetimi": 4056,
      "iyeti": 4057,
      "uyarı": 4058,
      "yapacak": 4059,
      "kullanılan": 4060,
      "mini": 4061,
      "hasta": 4062,
      "hüs": 4063,
      "olduğuna": 4064,
      "ruh": 4065,
      "bayra": 4066,
      "rahim": 4067,
      "şüph": 4068,
      "elerine": 4069,
      "fatih": 4070,
      "bilirim": 4071,
      "eği": 4072,
      "milletvekil": 4073,
      "hediye": 4074,
      "con": 4075,
      "hakim": 4076,
      "üniversite": 4077,
      "parlamen": 4078,
      "36": 4079,
      "fiz": 4080,
      "derneği": 4081,
      "cık": 4082,
      "ekte": 4083,
      "oloji": 4084,
      "metre": 4085,
      "tıra": 4086,
      "mısır": 4087,
      "lüt": 4088,
      "larımızın": 4089,
      "okun": 4090,
      "kanun": 4091,
      "progra": 4092,
      "hastanesi": 4093,
      "video": 4094,
      "nik": 4095,
      "gerekir": 4096,
      "kriz": 4097,
      "cad": 4098,
      "hır": 4099,
      "rı": 4100,
      "gim": 4101,
      "yerli": 4102,
      "verilm": 4103,
      "sanayi": 4104,
      "barı": 4105,
      "kullanıcı": 4106,
      "daşı": 4107,
      "isa": 4108,
      "yavaş": 4109,
      "kalı": 4110,
      "ilçesine": 4111,
      "\",": 4112,
      "raki": 4113,
      "eyalet": 4114,
      "çağ": 4115,
      "önümüz": 4116,
      "ade": 4117,
      "nam": 4118,
      "koku": 4119,
      "meydan": 4120,
      "şallah": 4121,
      "kızım": 4122,
      "gıda": 4123,
      "kullana": 4124,
      "hayatı": 4125,
      "ideal": 4126,
      "alarının": 4127,
      "kupası": 4128,
      "malzem": 4129,
      "sch": 4130,
      "fayd": 4131,
      "hasan": 4132,
      "halde": 4133,
      "emez": 4134,
      "ıldığını": 4135,
      "temsilc": 4136,
      "mic": 4137,
      "lanma": 4138,
      "kulak": 4139,
      "kurulan": 4140,
      "yönetic": 4141,
      "kazandı": 4142,
      "ğinde": 4143,
      "kılıçdaroğlu": 4144,
      "halı": 4145,
      "??": 4146,
      "proje": 4147,
      "istih": 4148,
      "32": 4149,
      "plat": 4150,
      "ışık": 4151,
      "bayrak": 4152,
      "istedi": 4153,
      "kaybetti": 4154,
      "kendisini": 4155,
      "cuma": 4156,
      "hastalı": 4157,
      "kıya": 4158,
      "elim": 4159,
      "bilgis": 4160,
      "ildiği": 4161,
      "web": 4162,
      "önüne": 4163,
      "yarat": 4164,
      "liy": 4165,
      "cevap": 4166,
      "borç": 4167,
      "almış": 4168,
      "kurtul": 4169,
      ").": 4170,
      "vol": 4171,
      "bilinen": 4172,
      "refer": 4173,
      "acil": 4174,
      "yaşadığı": 4175,
      "sizlik": 4176,
      "sig": 4177,
      "abon": 4178,
      "müşter": 4179,
      "rahatsız": 4180,
      "34": 4181,
      "kapalı": 4182,
      "asıl": 4183,
      "we": 4184,
      "amaz": 4185,
      "adana": 4186,
      "dy": 4187,
      "pas": 4188,
      "hatırla": 4189,
      "yapma": 4190,
      "hdp": 4191,
      "kitab": 4192,
      "işle": 4193,
      "si̇": 4194,
      "dat": 4195,
      "çuk": 4196,
      "faiz": 4197,
      "kısm": 4198,
      "danış": 4199,
      "rakam": 4200,
      "miyorum": 4201,
      "edilmiş": 4202,
      "gez": 4203,
      "traf": 4204,
      "süren": 4205,
      "mail": 4206,
      "mhp": 4207,
      "anlatan": 4208,
      "kural": 4209,
      "inç": 4210,
      "cenaz": 4211,
      "sap": 4212,
      "çoğu": 4213,
      "insanların": 4214,
      "bankası": 4215,
      "landa": 4216,
      "çıkıyor": 4217,
      "süz": 4218,
      "i̇lçe": 4219,
      "çocuklar": 4220,
      "liler": 4221,
      "ly": 4222,
      "liğinde": 4223,
      "paylaşım": 4224,
      "kamp": 4225,
      "günümüz": 4226,
      "salg": 4227,
      "güc": 4228,
      "kenti": 4229,
      "etkisi": 4230,
      "vazgeç": 4231,
      "eceğini": 4232,
      "isimli": 4233,
      "karşılık": 4234,
      "kullanımı": 4235,
      "ermen": 4236,
      "siyah": 4237,
      "şikay": 4238,
      "kırmızı": 4239,
      "edile": 4240,
      "saygı": 4241,
      "bb": 4242,
      "koç": 4243,
      "paketleme": 4244,
      "asyonu": 4245,
      "yarg": 4246,
      "zil": 4247,
      "afrika": 4248,
      "köpr": 4249,
      "komutan": 4250,
      "icin": 4251,
      "sağlıklı": 4252,
      "deter": 4253,
      "sinema": 4254,
      "saray": 4255,
      "yapılması": 4256,
      "bebe": 4257,
      "görüşmeler": 4258,
      "bugüne": 4259,
      "konut": 4260,
      "elerinde": 4261,
      "babası": 4262,
      "alır": 4263,
      "kayded": 4264,
      "bölgesinde": 4265,
      "est": 4266,
      "enflasyon": 4267,
      "cılığı": 4268,
      "onların": 4269,
      "kullanma": 4270,
      "udi": 4271,
      "lib": 4272,
      "layı": 4273,
      "liye": 4274,
      "sonraki": 4275,
      "yaralı": 4276,
      "sö": 4277,
      "ınar": 4278,
      "alanında": 4279,
      "olmasına": 4280,
      "serg": 4281,
      "maların": 4282,
      "lenmiş": 4283,
      "imkan": 4284,
      "i̇kin": 4285,
      "zengin": 4286,
      "ndeki": 4287,
      "bulaş": 4288,
      "alara": 4289,
      "veç": 4290,
      "onay": 4291,
      "kus": 4292,
      "banka": 4293,
      "buk": 4294,
      "öncesi": 4295,
      "kullanıl": 4296,
      "yahu": 4297,
      "diyar": 4298,
      "yıllarda": 4299,
      "korun": 4300,
      "doğum": 4301,
      "konuyla": 4302,
      "mesaf": 4303,
      "e9e9": 4304,
      "ulması": 4305,
      "haval": 4306,
      "twit": 4307,
      "kendisi": 4308,
      "toplu": 4309,
      "günlerde": 4310,
      "bölümü": 4311,
      "fo": 4312,
      "taban": 4313,
      "iyan": 4314,
      "teknoloji": 4315,
      "müdahale": 4316,
      "davet": 4317,
      "personel": 4318,
      "ilgi": 4319,
      "bölgesi": 4320,
      "layarak": 4321,
      "mül": 4322,
      "endi": 4323,
      "cinsel": 4324,
      "lığa": 4325,
      "kadınlar": 4326,
      "erz": 4327,
      "fan": 4328,
      "bildirdi": 4329,
      "yapıla": 4330,
      "ste": 4331,
      "teşem": 4332,
      "söylüyor": 4333,
      "2007": 4334,
      "olmuştur": 4335,
      "wid": 4336,
      "hor": 4337,
      "katılan": 4338,
      "attı": 4339,
      "haberler": 4340,
      "laya": 4341,
      "sorumlu": 4342,
      "paris": 4343,
      "gösteren": 4344,
      "land": 4345,
      "adayı": 4346,
      "ry": 4347,
      "seyi": 4348,
      "etmiş": 4349,
      "giren": 4350,
      "basit": 4351,
      "hâ": 4352,
      "muhteşem": 4353,
      "nokt": 4354,
      "eral": 4355,
      "arama": 4356,
      "37": 4357,
      "lideri": 4358,
      "peki": 4359,
      "mekan": 4360,
      "gesi": 4361,
      "sından": 4362,
      "tifak": 4363,
      "hassas": 4364,
      "alarına": 4365,
      "gali": 4366,
      "heye": 4367,
      "iyisi": 4368,
      "etkilen": 4369,
      "oyu": 4370,
      "ımızın": 4371,
      "süreci": 4372,
      "kendim": 4373,
      "plastik": 4374,
      "böylece": 4375,
      "trafik": 4376,
      "strate": 4377,
      "kesim": 4378,
      "değişiklik": 4379,
      "çap": 4380,
      "mensu": 4381,
      "binlerce": 4382,
      "twitter": 4383,
      "leye": 4384,
      "olumlu": 4385,
      "petrol": 4386,
      "i̇brahim": 4387,
      "döv": 4388,
      "ileş": 4389,
      "karan": 4390,
      "ila": 4391,
      "kop": 4392,
      "diyerek": 4393,
      "deterjan": 4394,
      "herkesin": 4395,
      "john": 4396,
      "ettir": 4397,
      "dakikada": 4398,
      "2000": 4399,
      "meş": 4400,
      "karşıya": 4401,
      "tesek": 4402,
      "width": 4403,
      "virüs": 4404,
      "özen": 4405,
      "müdahal": 4406,
      "yolcu": 4407,
      "birey": 4408,
      "kampanya": 4409,
      "muhalef": 4410,
      "üyeleri": 4411,
      "pratik": 4412,
      "edilir": 4413,
      "memur": 4414,
      "cısı": 4415,
      "38": 4416,
      "yav": 4417,
      "ticar": 4418,
      "maden": 4419,
      "şahin": 4420,
      "taraftar": 4421,
      "gösterdi": 4422,
      "sebeb": 4423,
      "yapmış": 4424,
      "vermek": 4425,
      "etmesi": 4426,
      "lığın": 4427,
      "kâ": 4428,
      "azer": 4429,
      "olacağını": 4430,
      "arz": 4431,
      "ekonomi": 4432,
      "devletleri": 4433,
      "moder": 4434,
      "içeri": 4435,
      "almaya": 4436,
      "karı": 4437,
      "teşkil": 4438,
      "terörist": 4439,
      "istiyorum": 4440,
      "vel": 4441,
      "imli": 4442,
      "bür": 4443,
      "liğe": 4444,
      "senar": 4445,
      "sultan": 4446,
      "hazırlık": 4447,
      "diyarbakır": 4448,
      "ilçe": 4449,
      "eceğiz": 4450,
      "demokratik": 4451,
      "bistan": 4452,
      "kısmı": 4453,
      "65": 4454,
      "tiği": 4455,
      "olim": 4456,
      "çıkış": 4457,
      "sy": 4458,
      "uğur": 4459,
      "girdi": 4460,
      "denetim": 4461,
      "içine": 4462,
      "onları": 4463,
      "cezası": 4464,
      "diğiniz": 4465,
      "muştu": 4466,
      "duruyor": 4467,
      "yazılı": 4468,
      "mesiyle": 4469,
      "je": 4470,
      "müslüman": 4471,
      "medim": 4472,
      "nükle": 4473,
      "tez": 4474,
      "dij": 4475,
      "vali": 4476,
      "sizin": 4477,
      "teklif": 4478,
      "kurban": 4479,
      "alıp": 4480,
      "masın": 4481,
      "urken": 4482,
      "sahn": 4483,
      "önümüzdeki": 4484,
      "anal": 4485,
      "tabii": 4486,
      "avan": 4487,
      "ett": 4488,
      "memiş": 4489,
      "ömer": 4490,
      "cılı": 4491,
      "zek": 4492,
      "servis": 4493,
      "projesi": 4494,
      "duyurdu": 4495,
      "\"|": 4496,
      "lanacak": 4497,
      "tepk": 4498,
      "dor": 4499,
      "şeyi": 4500,
      "cm": 4501,
      "hakkı": 4502,
      "mühen": 4503,
      "onur": 4504,
      "idi": 4505,
      "hr": 4506,
      "kab": 4507,
      "arkadaşlar": 4508,
      "lılık": 4509,
      "durumunda": 4510,
      "örne": 4511,
      "emeye": 4512,
      "elle": 4513,
      "size": 4514,
      "kilo": 4515,
      "eğlen": 4516,
      "dizi": 4517,
      "umut": 4518,
      "anlattı": 4519,
      "havalim": 4520,
      "gidiyor": 4521,
      "aralarında": 4522,
      "şer": 4523,
      "neredeyse": 4524,
      "kovid": 4525,
      "imar": 4526,
      "karg": 4527,
      "nükleer": 4528,
      "üler": 4529,
      "pandem": 4530,
      "bilgisayar": 4531,
      "kapan": 4532,
      "madığını": 4533,
      "şüpheli": 4534,
      "ves": 4535,
      "i̇yi̇": 4536,
      "2023": 4537,
      "ilerle": 4538,
      "azerbay": 4539,
      "şikayet": 4540,
      "ortalama": 4541,
      "liğine": 4542,
      "imizde": 4543,
      "genelinde": 4544,
      "çoğun": 4545,
      "açılış": 4546,
      "dijital": 4547,
      "programı": 4548,
      "araba": 4549,
      "vatandaşlar": 4550,
      "tiyatro": 4551,
      "bezi": 4552,
      "ağaç": 4553,
      "yarın": 4554,
      "tasarım": 4555,
      "laması": 4556,
      "kullandığı": 4557,
      "39": 4558,
      "yang": 4559,
      "75": 4560,
      "emedi": 4561,
      "ıntı": 4562,
      "muham": 4563,
      "edebi": 4564,
      "senin": 4565,
      "düzenlen": 4566,
      "2006": 4567,
      "filmin": 4568,
      "futbolcular": 4569,
      "ğan": 4570,
      "ilaç": 4571,
      "güncel": 4572,
      "tuk": 4573,
      "akdeniz": 4574,
      "manı": 4575,
      "larımızı": 4576,
      "evet": 4577,
      "parator": 4578,
      "wil": 4579,
      "esna": 4580,
      "ilmiştir": 4581,
      "yonel": 4582,
      "malzeme": 4583,
      "anti": 4584,
      "yapmaya": 4585,
      "tuğ": 4586,
      "öğrenci": 4587,
      "i̇spanya": 4588,
      "rad": 4589,
      "dolu": 4590,
      "birim": 4591,
      "gayr": 4592,
      "akar": 4593,
      "basket": 4594,
      "aldık": 4595,
      "kaza": 4596,
      "sonucunda": 4597,
      "istiyoruz": 4598,
      "cumhurbaşkanlığı": 4599,
      "yola": 4600,
      "başbakanı": 4601,
      "ğim": 4602,
      "malıdır": 4603,
      "seniz": 4604,
      "tılı": 4605,
      "kısıt": 4606,
      "ramaz": 4607,
      "hüseyin": 4608,
      "rej": 4609,
      "gösteriyor": 4610,
      "yaptır": 4611,
      "aracı": 4612,
      "saatlerinde": 4613,
      "kelim": 4614,
      "liğin": 4615,
      "kayıp": 4616,
      "peş": 4617,
      "covid": 4618,
      "kıl": 4619,
      "gam": 4620,
      "organiz": 4621,
      "kıbr": 4622,
      "kapas": 4623,
      "görülen": 4624,
      "geril": 4625,
      "kimse": 4626,
      "kıbrıs": 4627,
      "dünyaya": 4628,
      "onik": 4629,
      "olimpi": 4630,
      "tap": 4631,
      "sesi": 4632,
      "aşama": 4633,
      "gündeme": 4634,
      "maçı": 4635,
      "öğ": 4636,
      "york": 4637,
      "aşk": 4638,
      "yargılan": 4639,
      "pişman": 4640,
      "fırsat": 4641,
      "azerbaycan": 4642,
      "siy": 4643,
      "fakültesi": 4644,
      "sonuna": 4645,
      "bunları": 4646,
      "ales": 4647,
      "ela": 4648,
      "lardır": 4649,
      "i̇kinci": 4650,
      "eksiyon": 4651,
      "ent": 4652,
      "ağrı": 4653,
      "malarını": 4654,
      "esiz": 4655,
      "ani": 4656,
      "isyen": 4657,
      "parç": 4658,
      "avantaj": 4659,
      "öncelikle": 4660,
      "larındaki": 4661,
      "edildiği": 4662,
      "gus": 4663,
      "psik": 4664,
      "sus": 4665,
      "göçmen": 4666,
      "civar": 4667,
      "yici": 4668,
      "anlay": 4669,
      "isel": 4670,
      "nato": 4671,
      "hür": 4672,
      "metin": 4673,
      "ıştır": 4674,
      "çiç": 4675,
      "mali": 4676,
      "pres": 4677,
      "iri": 4678,
      "güvenli": 4679,
      "tatil": 4680,
      "parlamento": 4681,
      "ımıza": 4682,
      "ıza": 4683,
      "filmler": 4684,
      "geçiş": 4685,
      "fr": 4686,
      "yitir": 4687,
      "itibarı": 4688,
      "kaçak": 4689,
      "çocukların": 4690,
      "yaparak": 4691,
      "iklim": 4692,
      "yoruz": 4693,
      "geldiği": 4694,
      "urum": 4695,
      "atör": 4696,
      "mezar": 4697,
      "au": 4698,
      "konya": 4699,
      "kalp": 4700,
      "üzerindeki": 4701,
      "bekleniyor": 4702,
      "leyman": 4703,
      "anlamda": 4704,
      "ğinin": 4705,
      "gide": 4706,
      "vik": 4707,
      "uyuştur": 4708,
      "abet": 4709,
      "kurumu": 4710,
      "distan": 4711,
      "bilmesi": 4712,
      "antep": 4713,
      "ult": 4714,
      "kırık": 4715,
      "bazen": 4716,
      "konum": 4717,
      "ric": 4718,
      "kullanmak": 4719,
      "tüsü": 4720,
      "çey": 4721,
      "brik": 4722,
      "millî": 4723,
      "öğrenildi": 4724,
      "süleyman": 4725,
      "evinde": 4726,
      "seyir": 4727,
      "sağlığı": 4728,
      "asının": 4729,
      "sunu": 4730,
      "çama": 4731,
      "modern": 4732,
      "ımızı": 4733,
      "keti": 4734,
      "fikir": 4735,
      "odak": 4736,
      "genellikle": 4737,
      "sağlıyor": 4738,
      "anacak": 4739,
      "olimpiyat": 4740,
      "ildiğini": 4741,
      "büyükel": 4742,
      "altını": 4743,
      "mücadel": 4744,
      "i̇çişleri": 4745,
      "sporcu": 4746,
      "general": 4747,
      "i̇dar": 4748,
      "incelem": 4749,
      "liam": 4750,
      "day": 4751,
      "lığının": 4752,
      "lor": 4753,
      "taşın": 4754,
      "soka": 4755,
      "cik": 4756,
      "uluyor": 4757,
      "boğaz": 4758,
      "eve": 4759,
      "by": 4760,
      "fah": 4761,
      "işç": 4762,
      "yalan": 4763,
      "aldığım": 4764,
      "ağa": 4765,
      "standar": 4766,
      "2005": 4767,
      "yolc": 4768,
      "bende": 4769,
      "üye": 4770,
      "ihracat": 4771,
      "cağına": 4772,
      "afgan": 4773,
      "arken": 4774,
      "ayır": 4775,
      "ederken": 4776,
      "ürünler": 4777,
      "bildirildi": 4778,
      "tüket": 4779,
      "başlık": 4780,
      "i̇mam": 4781,
      "lenme": 4782,
      "üstün": 4783,
      "kaybeden": 4784,
      "yaygın": 4785,
      "sh": 4786,
      "yıllardır": 4787,
      "sün": 4788,
      "komisyonu": 4789,
      "uma": 4790,
      "isiyle": 4791,
      "uyuşturucu": 4792,
      "hiss": 4793,
      "adını": 4794,
      "dikten": 4795,
      "rekor": 4796,
      "konser": 4797,
      "özet": 4798,
      "toz": 4799,
      "giderek": 4800,
      "yılları": 4801,
      "sürüyor": 4802,
      "mesinde": 4803,
      "cinayet": 4804,
      "demokrasi": 4805,
      "şeyler": 4806,
      "kasa": 4807,
      "48": 4808,
      "adli": 4809,
      "ilgilen": 4810,
      "konseyi": 4811,
      "otel": 4812,
      "oyunu": 4813,
      "yürüy": 4814,
      "dk": 4815,
      "yayıl": 4816,
      "hesabından": 4817,
      "yaralandı": 4818,
      "ney": 4819,
      "kariyer": 4820,
      "gençlik": 4821,
      "buradan": 4822,
      "kore": 4823,
      "ramazan": 4824,
      "üretic": 4825,
      "başlangı": 4826,
      "salgın": 4827,
      "zira": 4828,
      "profesyonel": 4829,
      "yönünde": 4830,
      "slo": 4831,
      "verecek": 4832,
      "yerleştir": 4833,
      "mara": 4834,
      "stratej": 4835,
      "artı": 4836,
      "türü": 4837,
      "temizlik": 4838,
      "liğinin": 4839,
      "kalkın": 4840,
      "malara": 4841,
      "ruk": 4842,
      "örneğin": 4843,
      "kala": 4844,
      "vaka": 4845,
      "coğraf": 4846,
      "baz": 4847,
      "disi": 4848,
      "tesekkur": 4849,
      "--------": 4850,
      "rü": 4851,
      "arım": 4852,
      "gelenek": 4853,
      "etici": 4854,
      "yoksa": 4855,
      "salon": 4856,
      "duvar": 4857,
      "dent": 4858,
      "gon": 4859,
      "bg": 4860,
      "vic": 4861,
      "aldığını": 4862,
      "2004": 4863,
      "ürünleri": 4864,
      "özelliği": 4865,
      "lemeye": 4866,
      "ydi": 4867,
      "landığı": 4868,
      "55": 4869,
      "vermeye": 4870,
      "pozisyon": 4871,
      "sıkı": 4872,
      "çerçev": 4873,
      "kişilerin": 4874,
      "ılım": 4875,
      "cumhurbaşkan": 4876,
      "bası": 4877,
      "heyecan": 4878,
      "bot": 4879,
      "çamaşır": 4880,
      "300": 4881,
      "seya": 4882,
      "öden": 4883,
      "liyoruz": 4884,
      "yetiş": 4885,
      "dini": 4886,
      "lari": 4887,
      "çav": 4888,
      "mağdur": 4889,
      "sessiz": 4890,
      "esindeki": 4891,
      "sındaki": 4892,
      "cının": 4893,
      "kamera": 4894,
      "hasar": 4895,
      "kıt": 4896,
      "fab": 4897,
      "i̇lç": 4898,
      "faiye": 4899,
      "biliriz": 4900,
      "tası": 4901,
      "market": 4902,
      "kullanmaya": 4903,
      "kişilik": 4904,
      "taz": 4905,
      "buz": 4906,
      "diplo": 4907,
      "ılma": 4908,
      "mızda": 4909,
      "olursa": 4910,
      "ızı": 4911,
      "lenerek": 4912,
      "olmasını": 4913,
      "bilgiler": 4914,
      "parçası": 4915,
      "ölü": 4916,
      "iptal": 4917,
      "mede": 4918,
      "stur": 4919,
      "ekibi": 4920,
      "denem": 4921,
      "şem": 4922,
      "basketbol": 4923,
      "kalma": 4924,
      "meclisi": 4925,
      "pişik": 4926,
      "antren": 4927,
      "gerçekleştirilen": 4928,
      "400": 4929,
      "i̇smail": 4930,
      "anlamına": 4931,
      "okulu": 4932,
      "hastaneye": 4933,
      "yetiştir": 4934,
      "anam": 4935,
      "yağış": 4936,
      "ortadan": 4937,
      "başsav": 4938,
      "tacak": 4939,
      "cal": 4940,
      "hikay": 4941,
      "aker": 4942,
      "oyunları": 4943,
      "kulübü": 4944,
      "sahne": 4945,
      "tutuklu": 4946,
      "dokun": 4947,
      "kullandığım": 4948,
      "lıkta": 4949,
      "evine": 4950,
      "ph": 4951,
      "desteği": 4952,
      "konfer": 4953,
      "etmem": 4954,
      "ti̇": 4955,
      "mühendis": 4956,
      "soğuk": 4957,
      "ihtim": 4958,
      "kök": 4959,
      "gelişmeler": 4960,
      "rö": 4961,
      "alını": 4962,
      "hükümeti": 4963,
      "mediği": 4964,
      "olağan": 4965,
      "çalışması": 4966,
      "2002": 4967,
      "ırım": 4968,
      "inizi": 4969,
      "sağlamak": 4970,
      "lili": 4971,
      "farkı": 4972,
      "emekli": 4973,
      "yürüyüş": 4974,
      "altyapı": 4975,
      ")-": 4976,
      "şeker": 4977,
      "değerli": 4978,
      "gizli": 4979,
      "koor": 4980,
      "yıla": 4981,
      "günden": 4982,
      "celi": 4983,
      "hik": 4984,
      "arda": 4985,
      "maçta": 4986,
      "şube": 4987,
      "şirketi": 4988,
      "şk": 4989,
      "ailesi": 4990,
      "usuna": 4991,
      "gözlem": 4992,
      "zayı": 4993,
      "pir": 4994,
      "ölçü": 4995,
      "yoktur": 4996,
      "olacaktır": 4997,
      "devletin": 4998,
      "kör": 4999,
      "olmadan": 5000,
      "halkın": 5001,
      "taşıyan": 5002,
      "lamaya": 5003,
      "müsa": 5004,
      "süreçte": 5005,
      "indepen": 5006,
      "enler": 5007,
      "uyan": 5008,
      "annesi": 5009,
      "kullanıyor": 5010,
      "yumuşak": 5011,
      "insanları": 5012,
      "fizik": 5013,
      "dere": 5014,
      "doğrudan": 5015,
      "bö": 5016,
      "kazanan": 5017,
      "kıyı": 5018,
      "şiş": 5019,
      "leniyor": 5020,
      "vergi": 5021,
      "itibarıyla": 5022,
      "zorun": 5023,
      "ju": 5024,
      "sakin": 5025,
      "kanser": 5026,
      "kızı": 5027,
      "derg": 5028,
      "zayıf": 5029,
      "bıçak": 5030,
      "istifa": 5031,
      "değin": 5032,
      "asya": 5033,
      "mağaz": 5034,
      "kaydedildi": 5035,
      "filmleri": 5036,
      "azalt": 5037,
      "roma": 5038,
      "berg": 5039,
      "vey": 5040,
      "birisi": 5041,
      "pahalı": 5042,
      "suudi": 5043,
      "ars": 5044,
      "ogra": 5045,
      "rat": 5046,
      "ue": 5047,
      "independent": 5048,
      "hus": 5049,
      "yalnızca": 5050,
      "akış": 5051,
      "uyum": 5052,
      "esnaf": 5053,
      "şampiyonası": 5054,
      "utin": 5055,
      "olduklarını": 5056,
      "i̇ye": 5057,
      "çekim": 5058,
      "seyahat": 5059,
      "selçuk": 5060,
      "kullanan": 5061,
      "görünü": 5062,
      "emre": 5063,
      "görür": 5064,
      "bununla": 5065,
      "festi": 5066,
      "ticari": 5067,
      "kati": 5068,
      "sızdır": 5069,
      "yaşamını": 5070,
      "işgal": 5071,
      "suyu": 5072,
      "forma": 5073,
      "hakan": 5074,
      "festival": 5075,
      "lir": 5076,
      "lav": 5077,
      "gb": 5078,
      "enerj": 5079,
      "edip": 5080,
      "açtı": 5081,
      "merkezine": 5082,
      "yapımı": 5083,
      "my": 5084,
      "enek": 5085,
      "ısı": 5086,
      "larımıza": 5087,
      "tered": 5088,
      "şiir": 5089,
      "yüzyıl": 5090,
      "hac": 5091,
      "rum": 5092,
      "jen": 5093,
      "japonya": 5094,
      "44": 5095,
      "tıcı": 5096,
      "?\"": 5097,
      "ple": 5098,
      "gerekçesiyle": 5099,
      "85": 5100,
      "çavuş": 5101,
      "olanlar": 5102,
      "biyet": 5103,
      "66": 5104,
      "zafer": 5105,
      "kilometre": 5106,
      "laşma": 5107,
      "dök": 5108,
      "lerim": 5109,
      "kuvvetleri": 5110,
      "tavsiy": 5111,
      "alter": 5112,
      "ws": 5113,
      "kırı": 5114,
      "onlara": 5115,
      "lardı": 5116,
      "ufak": 5117,
      "sağlayan": 5118,
      "yapılmış": 5119,
      "gelin": 5120,
      "görsel": 5121,
      "demokrat": 5122,
      "telefonu": 5123,
      "derim": 5124,
      "almıştım": 5125,
      "uçuş": 5126,
      "ödem": 5127,
      "kazandır": 5128,
      "edeceğiz": 5129,
      "ismi": 5130,
      "bank": 5131,
      "çalıştı": 5132,
      "yada": 5133,
      "sitesinde": 5134,
      "tis": 5135,
      "şaşır": 5136,
      "burg": 5137,
      "güçlendir": 5138,
      "geldiğini": 5139,
      "yken": 5140,
      "mektu": 5141,
      "ash": 5142,
      "keyi": 5143,
      "gaziantep": 5144,
      "mün": 5145,
      "dahi": 5146,
      "süresi": 5147,
      "sivas": 5148,
      "usunu": 5149,
      "işi̇d": 5150,
      "lit": 5151,
      "düşen": 5152,
      "esir": 5153,
      "lütfen": 5154,
      "som": 5155,
      "yım": 5156,
      "güvenilir": 5157,
      "ald": 5158,
      "pür": 5159,
      "bölgeye": 5160,
      "çanak": 5161,
      "line": 5162,
      "korku": 5163,
      "cami": 5164,
      "tüp": 5165,
      "terk": 5166,
      "yağmur": 5167,
      "sonuçları": 5168,
      "yerini": 5169,
      "uzay": 5170,
      "are": 5171,
      "görevi": 5172,
      "mülte": 5173,
      "kullanıla": 5174,
      "hazırlanan": 5175,
      "itesi": 5176,
      "açılan": 5177,
      "abdullah": 5178,
      "vatandaşların": 5179,
      "kalıcı": 5180,
      "ilçesi": 5181,
      "çor": 5182,
      "bgcolor": 5183,
      "vurgulayan": 5184,
      "hızla": 5185,
      "kabl": 5186,
      "maçında": 5187,
      "mensup": 5188,
      "duygu": 5189,
      "ihtiyac": 5190,
      "hisse": 5191,
      "taleb": 5192,
      "wa": 5193,
      "yayınlanan": 5194,
      "yukarı": 5195,
      "esas": 5196,
      "toplumsal": 5197,
      "bert": 5198,
      "doldur": 5199,
      "yaptıkları": 5200,
      "fayda": 5201,
      "tecr": 5202,
      "başkenti": 5203,
      "sayf": 5204,
      "kutu": 5205,
      "mersin": 5206,
      "restor": 5207,
      "kategor": 5208,
      "ulaşım": 5209,
      "düşünc": 5210,
      "müzaker": 5211,
      "ds": 5212,
      "düşman": 5213,
      "kova": 5214,
      "verir": 5215,
      "sekret": 5216,
      "mediğini": 5217,
      "lemesi": 5218,
      "saf": 5219,
      "aca": 5220,
      "bayramı": 5221,
      "yılından": 5222,
      "47": 5223,
      "kişisel": 5224,
      "alesef": 5225,
      "belirlen": 5226,
      "lerdir": 5227,
      "hit": 5228,
      "ektedir": 5229,
      "tum": 5230,
      "maalesef": 5231,
      "koordin": 5232,
      "ww": 5233,
      "ılmıştır": 5234,
      "pal": 5235,
      "ücr": 5236,
      "muhammed": 5237,
      "ihtiyacı": 5238,
      "emir": 5239,
      "kadınların": 5240,
      "tey": 5241,
      "santr": 5242,
      "çıkma": 5243,
      "undaki": 5244,
      "bahar": 5245,
      "kalk": 5246,
      "brezil": 5247,
      "sunulan": 5248,
      "öldü": 5249,
      "içeren": 5250,
      "pınar": 5251,
      "işte": 5252,
      "i̇tal": 5253,
      "inti": 5254,
      "ihlal": 5255,
      "....": 5256,
      "öncesinde": 5257,
      "ameli": 5258,
      "adres": 5259,
      "açıldı": 5260,
      "yaptığını": 5261,
      "2003": 5262,
      "yaptırım": 5263,
      "takdir": 5264,
      "maktan": 5265,
      "baraj": 5266,
      "ulaştır": 5267,
      "çisi": 5268,
      "kendilerine": 5269,
      "odası": 5270,
      "süredir": 5271,
      "ertel": 5272,
      "gazeteci": 5273,
      "alınması": 5274,
      "iklet": 5275,
      "ceğim": 5276,
      "lerimizi": 5277,
      "bulut": 5278,
      "kalem": 5279,
      "zamanında": 5280,
      "tarz": 5281,
      "gördü": 5282,
      "hakem": 5283,
      "leşme": 5284,
      "ülebilir": 5285,
      "larca": 5286,
      "sebebiyle": 5287,
      "başlattı": 5288,
      "bisiklet": 5289,
      "kere": 5290,
      "rik": 5291,
      "ilerde": 5292,
      "standart": 5293,
      "lamalar": 5294,
      "sığın": 5295,
      "itiraz": 5296,
      "gulan": 5297,
      "konuşma": 5298,
      "izlen": 5299,
      "endiş": 5300,
      "tün": 5301,
      "gördük": 5302,
      "yaspor": 5303,
      "muhalefet": 5304,
      "ilerden": 5305,
      "yönel": 5306,
      "kesi": 5307,
      "öldürül": 5308,
      "arkadaşı": 5309,
      "ılmasını": 5310,
      "edilecek": 5311,
      "edilmiştir": 5312,
      "düşüş": 5313,
      "bra": 5314,
      "emiş": 5315,
      "keyif": 5316,
      "karadeniz": 5317,
      "medyada": 5318,
      "nav": 5319,
      "otobüs": 5320,
      "ity": 5321,
      "içindeki": 5322,
      "mezun": 5323,
      "verg": 5324,
      "nar": 5325,
      "muhabir": 5326,
      "gazetesi": 5327,
      "diğine": 5328,
      "aklı": 5329,
      "i̇talyan": 5330,
      "etraf": 5331,
      "finans": 5332,
      "görünüyor": 5333,
      "haberine": 5334,
      "kullanı": 5335,
      "çiçek": 5336,
      "diyorum": 5337,
      "09": 5338,
      "kişiye": 5339,
      "ertesi": 5340,
      "madalya": 5341,
      "beklediğim": 5342,
      "araz": 5343,
      "ifadesini": 5344,
      "cilerin": 5345,
      "genin": 5346,
      "elerle": 5347,
      "erzurum": 5348,
      "bekliyor": 5349,
      "sche": 5350,
      "federasyonu": 5351,
      "dönemi": 5352,
      "hum": 5353,
      "hali": 5354,
      "sözcüsü": 5355,
      "hindistan": 5356,
      "emiz": 5357,
      "meyin": 5358,
      "lardaki": 5359,
      "milliyet": 5360,
      "yazarı": 5361,
      "firma": 5362,
      "köpek": 5363,
      "çocukları": 5364,
      "wor": 5365,
      "metal": 5366,
      "oyuncular": 5367,
      "ilendir": 5368,
      "orjinal": 5369,
      "luluğu": 5370,
      "sanki": 5371,
      "işime": 5372,
      "anlaşma": 5373,
      "buldu": 5374,
      "devleti": 5375,
      "yükseldi": 5376,
      "otomo": 5377,
      "gazze": 5378,
      "tereddü": 5379,
      "tuz": 5380,
      "uğraş": 5381,
      "gat": 5382,
      "huku": 5383,
      "vat": 5384,
      "lâ": 5385,
      "key": 5386,
      "lanarak": 5387,
      "isinden": 5388,
      "gs": 5389,
      "artan": 5390,
      "ülkes": 5391,
      "turnu": 5392,
      "toplantısında": 5393,
      "boyu": 5394,
      "i̇sveç": 5395,
      "dönüştür": 5396,
      "bahçeli": 5397,
      "konuk": 5398,
      "tanış": 5399,
      "kızıl": 5400,
      "açıkça": 5401,
      "çekiyor": 5402,
      "yaşlı": 5403,
      "özgürlük": 5404,
      "sön": 5405,
      "sayılı": 5406,
      "hisar": 5407,
      "başkanlık": 5408,
      "sov": 5409,
      "ordusu": 5410,
      "valisi": 5411,
      "i̇mparator": 5412,
      "görmek": 5413,
      "port": 5414,
      "alandır": 5415,
      "yü": 5416,
      "inşaat": 5417,
      "bilgiye": 5418,
      "unsur": 5419,
      "nedir": 5420,
      "''": 5421,
      "dae": 5422,
      "denedim": 5423,
      "halkı": 5424,
      "insanın": 5425,
      "temas": 5426,
      "dep": 5427,
      "geçici": 5428,
      "iği": 5429,
      "toplantısı": 5430,
      "açıklaması": 5431,
      "kendine": 5432,
      "sıv": 5433,
      "lay": 5434,
      "bi̇": 5435,
      "nem": 5436,
      "book": 5437,
      "fam": 5438,
      "reklam": 5439,
      "kalıyor": 5440,
      "yerleşim": 5441,
      "zeytin": 5442,
      "gazeteciler": 5443,
      "buraya": 5444,
      "hisset": 5445,
      "şeri": 5446,
      "maliyet": 5447,
      "çıktığı": 5448,
      "seçmen": 5449,
      "ati": 5450,
      "vurguladı": 5451,
      "yaparken": 5452,
      "çocuğu": 5453,
      "başlayacak": 5454,
      "olayı": 5455,
      "fena": 5456,
      "edebiyat": 5457,
      "yoktu": 5458,
      "şarkıcı": 5459,
      "lığında": 5460,
      "değişim": 5461,
      "sevg": 5462,
      "sonuçlar": 5463,
      "aktör": 5464,
      "ty": 5465,
      "muğ": 5466,
      "49": 5467,
      "londra": 5468,
      "derec": 5469,
      "bulunmaktadır": 5470,
      "malat": 5471,
      "i̇ngilizce": 5472,
      "hollanda": 5473,
      "milletler": 5474,
      "harekete": 5475,
      "direktörü": 5476,
      "kaybe": 5477,
      "çam": 5478,
      "2001": 5479,
      "çanakkale": 5480,
      "mavi": 5481,
      "sayısının": 5482,
      "46": 5483,
      "ariel": 5484,
      "şekil": 5485,
      "kadının": 5486,
      "çerçevesinde": 5487,
      "elem": 5488,
      "diya": 5489,
      "iyileş": 5490,
      "havalimanı": 5491,
      "arabistan": 5492,
      "bün": 5493,
      "eğitimi": 5494,
      "alırken": 5495,
      "eld": 5496,
      "festiv": 5497,
      "tesekkurler": 5498,
      "katıldığı": 5499,
      "festivali": 5500,
      "iken": 5501,
      "olayın": 5502,
      "ehir": 5503,
      "alması": 5504,
      "platform": 5505,
      "sıfır": 5506,
      "dönüşüm": 5507,
      "ilmişti": 5508,
      "atık": 5509,
      "süt": 5510,
      "vekili": 5511,
      "kağı": 5512,
      "yusu": 5513,
      "io": 5514,
      "çıkart": 5515,
      "akın": 5516,
      "libya": 5517,
      "saydı": 5518,
      "kilis": 5519,
      "teşvik": 5520,
      "ğer": 5521,
      "müştür": 5522,
      "bakanlık": 5523,
      "ura": 5524,
      "elerden": 5525,
      "dilek": 5526,
      "uefa": 5527,
      "nedeni": 5528,
      "yıka": 5529,
      "gerçekleşti": 5530,
      "sis": 5531,
      "başkent": 5532,
      "super": 5533,
      "kenar": 5534,
      "dikkati": 5535,
      "ölenler": 5536,
      "orijinal": 5537,
      "beklenen": 5538,
      "zih": 5539,
      "iletişim": 5540,
      "sokağa": 5541,
      "kimlik": 5542,
      "muhar": 5543,
      "mol": 5544,
      "elerinden": 5545,
      "ındır": 5546,
      "karşılı": 5547,
      "sitesi": 5548,
      "sizi": 5549,
      "dun": 5550,
      "i̇çi̇n": 5551,
      "ambul": 5552,
      "liste": 5553,
      "bulama": 5554,
      "veri": 5555,
      "ensti": 5556,
      "geleceğ": 5557,
      "varlık": 5558,
      "aziz": 5559,
      "ülkelerin": 5560,
      "biliyoruz": 5561,
      "kadir": 5562,
      "uydu": 5563,
      "vermiş": 5564,
      "sürdü": 5565,
      "deneyim": 5566,
      "yusuf": 5567,
      "ington": 5568,
      "trabzonspor": 5569,
      "ks": 5570,
      "mimar": 5571,
      "lerken": 5572,
      "hayran": 5573,
      "yiz": 5574,
      "şük": 5575,
      "afganistan": 5576,
      "ilmez": 5577,
      "aydır": 5578,
      "pazartesi": 5579,
      "win": 5580,
      "yüzünden": 5581,
      "alin": 5582,
      "ndaki": 5583,
      "cüm": 5584,
      "otomatik": 5585,
      "aran": 5586,
      "halen": 5587,
      "cıların": 5588,
      "bos": 5589,
      "büyüm": 5590,
      "şans": 5591,
      "yaşandı": 5592,
      "formu": 5593,
      "lerimizin": 5594,
      "listesi": 5595,
      "pis": 5596,
      "soylu": 5597,
      "birleşmiş": 5598,
      "vü": 5599,
      "görülüyor": 5600,
      "bro": 5601,
      "civarında": 5602,
      "42": 5603,
      "gelmiş": 5604,
      "içerir": 5605,
      "finan": 5606,
      "akıllı": 5607,
      "1990": 5608,
      "kaldırıldı": 5609,
      "şef": 5610,
      "vs": 5611,
      "suriy": 5612,
      "vakfı": 5613,
      "i̇ne": 5614,
      "açıklandı": 5615,
      "kayseri": 5616,
      "aslan": 5617,
      "düzel": 5618,
      "lanmaktadır": 5619,
      "kaydeden": 5620,
      "gh": 5621,
      "yakıt": 5622,
      "aktardı": 5623,
      "star": 5624,
      "iyim": 5625,
      "sovyet": 5626,
      "i̇st": 5627,
      "03": 5628,
      "ron": 5629,
      "elbet": 5630,
      "endek": 5631,
      "arttır": 5632,
      "salı": 5633,
      "görüldü": 5634,
      "vücu": 5635,
      "aracılığı": 5636,
      "yör": 5637,
      "coğrafya": 5638,
      "adlandır": 5639,
      "i̇mamoğlu": 5640,
      "pandemi": 5641,
      "aşkın": 5642,
      "anım": 5643,
      "hizli": 5644,
      "rüz": 5645,
      "önceden": 5646,
      "oldum": 5647,
      "olmuyor": 5648,
      "deut": 5649,
      "doğrult": 5650,
      "ücretsiz": 5651,
      "olacağı": 5652,
      "insanı": 5653,
      "tanık": 5654,
      "önde": 5655,
      "uyun": 5656,
      "kahve": 5657,
      "metrek": 5658,
      "belirtilen": 5659,
      "gümüş": 5660,
      "suçundan": 5661,
      "kafa": 5662,
      "olmalı": 5663,
      "caddesi": 5664,
      "ers": 5665,
      "yenilen": 5666,
      "yedi": 5667,
      "doğdu": 5668,
      "muhtar": 5669,
      "1999": 5670,
      "aralı": 5671,
      "inize": 5672,
      "oyuncuları": 5673,
      "kısım": 5674,
      "01": 5675,
      "sorgu": 5676,
      "işler": 5677,
      "kavuş": 5678,
      "gul": 5679,
      "yel": 5680,
      "putin": 5681,
      "vo": 5682,
      "hemde": 5683,
      "tereddüt": 5684,
      "tatlı": 5685,
      "ester": 5686,
      "yaşar": 5687,
      "bütç": 5688,
      "kaldığı": 5689,
      "inda": 5690,
      "belg": 5691,
      "olmuştu": 5692,
      "evin": 5693,
      "hastanede": 5694,
      "karşılan": 5695,
      "iyiz": 5696,
      "muğla": 5697,
      "maaş": 5698,
      "olas": 5699,
      "bulunduğunu": 5700,
      "dedim": 5701,
      "bağış": 5702,
      "sahil": 5703,
      "klasik": 5704,
      "rast": 5705,
      "08": 5706,
      "ayla": 5707,
      "sürecinde": 5708,
      "çik": 5709,
      "itfaiye": 5710,
      "çıkacak": 5711,
      "uyoruz": 5712,
      "idare": 5713,
      "ekipler": 5714,
      "================": 5715,
      "landığını": 5716,
      "plas": 5717,
      "muhtemel": 5718,
      "alterna": 5719,
      "düzenlediği": 5720,
      "barat": 5721,
      "ebilecek": 5722,
      "çın": 5723,
      "döndü": 5724,
      "gurur": 5725,
      "hic": 5726,
      "kültürel": 5727,
      "char": 5728,
      "itan": 5729,
      "biliyorsunuz": 5730,
      "vin": 5731,
      "wo": 5732,
      "tüketim": 5733,
      "berlin": 5734,
      "kaynağı": 5735,
      "dede": 5736,
      "ılmasına": 5737,
      "150": 5738,
      "bilimsel": 5739,
      "uyku": 5740,
      "doğa": 5741,
      "drum": 5742,
      "yapıldığı": 5743,
      "noktada": 5744,
      "99": 5745,
      "gördüm": 5746,
      "kalkınma": 5747,
      "dosya": 5748,
      "sandık": 5749,
      "mağlu": 5750,
      "saatte": 5751,
      "pam": 5752,
      "organizasyon": 5753,
      "mıza": 5754,
      "başlıyor": 5755,
      "78": 5756,
      "yetkililer": 5757,
      "turist": 5758,
      "tabak": 5759,
      "feri": 5760,
      "maruz": 5761,
      "çağır": 5762,
      "davranış": 5763,
      "olog": 5764,
      "performansı": 5765,
      "yapılıyor": 5766,
      "koz": 5767,
      "takv": 5768,
      "alev": 5769,
      "tıklarını": 5770,
      "field": 5771,
      "makla": 5772,
      "biçimde": 5773,
      "rakip": 5774,
      "çıkardı": 5775,
      "elinde": 5776,
      "hatay": 5777,
      "kanıt": 5778,
      "sabit": 5779,
      "doğrultusunda": 5780,
      "kullanıyoruz": 5781,
      "tartışma": 5782,
      "int": 5783,
      "ısına": 5784,
      "birinin": 5785,
      "söylen": 5786,
      "aça": 5787,
      "attığı": 5788,
      "wash": 5789,
      "çabuk": 5790,
      "kentinde": 5791,
      "heyet": 5792,
      "sendi": 5793,
      "ılıp": 5794,
      "ell": 5795,
      "sir": 5796,
      "tekin": 5797,
      "açıklamaya": 5798,
      "haberi": 5799,
      "hekim": 5800,
      "geleneksel": 5801,
      "biden": 5802,
      "05": 5803,
      "eklen": 5804,
      "eni": 5805,
      "rin": 5806,
      "parlak": 5807,
      "sıvı": 5808,
      "kıyafet": 5809,
      "bula": 5810,
      "lığıyla": 5811,
      "merkezli": 5812,
      "hükümetin": 5813,
      "lanır": 5814,
      "hakkını": 5815,
      "dili": 5816,
      "ilebilir": 5817,
      "paylaştı": 5818,
      "ege": 5819,
      "gençler": 5820,
      "çocuğun": 5821,
      "eg": 5822,
      "ayrıldı": 5823,
      "kamyon": 5824,
      "dey": 5825,
      "adeta": 5826,
      "tale": 5827,
      "angel": 5828,
      "madım": 5829,
      "efsan": 5830,
      "ağırlık": 5831,
      "yaptım": 5832,
      "biliyorum": 5833,
      "kendilerini": 5834,
      "cumartesi": 5835,
      "acağız": 5836,
      "bodrum": 5837,
      "famil": 5838,
      "ithal": 5839,
      "uzmanı": 5840,
      "kullanarak": 5841,
      "söyleye": 5842,
      "bla": 5843,
      "ica": 5844,
      "bala": 5845,
      "pey": 5846,
      "pg": 5847,
      "yarım": 5848,
      "temsilcisi": 5849,
      "lus": 5850,
      "izley": 5851,
      "üretimi": 5852,
      "yazdı": 5853,
      "indirim": 5854,
      "tıkları": 5855,
      "canlandır": 5856,
      "devrim": 5857,
      "ciz": 5858,
      "çetin": 5859,
      "zet": 5860,
      "ekib": 5861,
      "değişikliği": 5862,
      "adil": 5863,
      "komutanı": 5864,
      "eliği": 5865,
      "washington": 5866,
      "istis": 5867,
      "ilinin": 5868,
      "tol": 5869,
      "=\"#": 5870,
      "i̇ha": 5871,
      "düzenli": 5872,
      "02": 5873,
      "çalıştır": 5874,
      "41": 5875,
      "çalışmalarını": 5876,
      "duğum": 5877,
      "uyucu": 5878,
      "bakış": 5879,
      "yayımlanan": 5880,
      "aktaran": 5881,
      "elbette": 5882,
      "besi": 5883,
      "galibiyet": 5884,
      "deutsche": 5885,
      "şet": 5886,
      "düşünüyor": 5887,
      "organize": 5888,
      "viç": 5889,
      "iddiası": 5890,
      "zorlu": 5891,
      "avustr": 5892,
      "gue": 5893,
      "',": 5894,
      "tahliye": 5895,
      "zda": 5896,
      "yolda": 5897,
      "irim": 5898,
      "açıdan": 5899,
      "orhan": 5900,
      "açıklamasında": 5901,
      "edildiğini": 5902,
      "açıklamalarda": 5903,
      "mikro": 5904,
      "kanunu": 5905,
      "nitelik": 5906,
      "zirv": 5907,
      "oranında": 5908,
      "kişiyi": 5909,
      "şanlı": 5910,
      "cins": 5911,
      "eskiş": 5912,
      "getirildi": 5913,
      "dönemin": 5914,
      "eskişehir": 5915,
      "iv": 5916,
      "til": 5917,
      "dikkate": 5918,
      "fre": 5919,
      "tom": 5920,
      "edik": 5921,
      "iade": 5922,
      "köken": 5923,
      "ülkeye": 5924,
      "balı": 5925,
      "krizi": 5926,
      "düzenlendi": 5927,
      "mamış": 5928,
      "istediği": 5929,
      "usta": 5930,
      "premi": 5931,
      "komşu": 5932,
      "filmde": 5933,
      "07": 5934,
      "görevl": 5935,
      "şehrin": 5936,
      "yaşıyor": 5937,
      "bölgedeki": 5938,
      "başlangıç": 5939,
      "amir": 5940,
      "suzluk": 5941,
      "nefes": 5942,
      "amaçlı": 5943,
      "zirve": 5944,
      "felak": 5945,
      "zinc": 5946,
      "boya": 5947,
      "gari": 5948,
      "yılına": 5949,
      "mesinden": 5950,
      "davut": 5951,
      "ımda": 5952,
      "işin": 5953,
      "memnunuz": 5954,
      "use": 5955,
      "balar": 5956,
      "arttı": 5957,
      "istihdam": 5958,
      "örü": 5959,
      "oyuncusu": 5960,
      "koal": 5961,
      "kaymakam": 5962,
      "düğün": 5963,
      "iter": 5964,
      "komutanlığı": 5965,
      "tebrik": 5966,
      "43": 5967,
      "yıp": 5968,
      "çalıştığı": 5969,
      "sağlaya": 5970,
      "bahs": 5971,
      "mama": 5972,
      "tanrı": 5973,
      "moskova": 5974,
      "dalı": 5975,
      "gran": 5976,
      "ök": 5977,
      "hakaret": 5978,
      "tte": 5979,
      "montaj": 5980,
      "referans": 5981,
      "adamı": 5982,
      "egem": 5983,
      "?”": 5984,
      "taşıma": 5985,
      "maske": 5986,
      "tutar": 5987,
      "prim": 5988,
      "sorumluluk": 5989,
      "uzat": 5990,
      "sayıl": 5991,
      "play": 5992,
      "adıyla": 5993,
      "yetersiz": 5994,
      "anlayış": 5995,
      "seviye": 5996,
      "mac": 5997,
      "lamış": 5998,
      "memlek": 5999,
      "değildi": 6000,
      "nüfusu": 6001,
      "06": 6002,
      "ilişkiler": 6003,
      "wn": 6004,
      "inşallah": 6005,
      "bölgesel": 6006,
      "seçimleri": 6007,
      "protok": 6008,
      "anak": 6009,
      "koalisyon": 6010,
      "lerindeki": 6011,
      "ölçüde": 6012,
      "lisans": 6013,
      "öyl": 6014,
      "ambulans": 6015,
      "leke": 6016,
      "namaz": 6017,
      "iyorlar": 6018,
      "ig": 6019,
      "sahte": 6020,
      "avustur": 6021,
      "hari": 6022,
      "gurbet": 6023,
      "alternatif": 6024,
      "sıralarında": 6025,
      "jam": 6026,
      "eşim": 6027,
      "ören": 6028,
      "öztürk": 6029,
      "gerçekleşen": 6030,
      "protokol": 6031,
      "mızın": 6032,
      "yoluyla": 6033,
      "i̇ddi": 6034,
      "şener": 6035,
      "aldim": 6036,
      "nesil": 6037,
      "büny": 6038,
      "diyebilirim": 6039,
      "egemen": 6040,
      "mm": 6041,
      "rektör": 6042,
      "belirlenen": 6043,
      "yolları": 6044,
      "ayrıl": 6045,
      "kıyas": 6046,
      "muk": 6047,
      "ıf": 6048,
      "ondan": 6049,
      "düşünül": 6050,
      "öykü": 6051,
      "ümit": 6052,
      "denildi": 6053,
      "görünt": 6054,
      "alkol": 6055,
      "ding": 6056,
      "yerden": 6057,
      "hata": 6058,
      "sanırım": 6059,
      "çeyrek": 6060,
      "falan": 6061,
      "tasarru": 6062,
      "kongre": 6063,
      "bedel": 6064,
      "manız": 6065,
      "ittifak": 6066,
      "tın": 6067,
      "kaybı": 6068,
      "gerektiği": 6069,
      "muhafaz": 6070,
      "iner": 6071,
      "bağlan": 6072,
      "dışına": 6073,
      "belirlendi": 6074,
      "yata": 6075,
      "piyasaya": 6076,
      "algı": 6077,
      "köyü": 6078,
      "üstünde": 6079,
      "çat": 6080,
      "kalab": 6081,
      "dayanış": 6082,
      "aykırı": 6083,
      "larken": 6084,
      "tutuklandı": 6085,
      "olası": 6086,
      "engelli": 6087,
      "95": 6088,
      "i̇nşallah": 6089,
      "basının": 6090,
      "güvenliği": 6091,
      "bakınız": 6092,
      "öğrencilerin": 6093,
      "yanına": 6094,
      "tc": 6095,
      "priz": 6096,
      "isiz": 6097,
      "gut": 6098,
      "layacak": 6099,
      "memesi": 6100,
      "düşünmeden": 6101,
      "yüzyılda": 6102,
      "rosu": 6103,
      "kardeşi": 6104,
      "diyal": 6105,
      "başladığı": 6106,
      "tamamladı": 6107,
      "düzenleme": 6108,
      "görüyoruz": 6109,
      "gelip": 6110,
      "elektronik": 6111,
      "alana": 6112,
      "kov": 6113,
      "welle": 6114,
      "aracılığıyla": 6115,
      "olmaması": 6116,
      "faydalı": 6117,
      "oluştu": 6118,
      "hizmetleri": 6119,
      "düs": 6120,
      "yasına": 6121,
      "olduğumuz": 6122,
      "che": 6123,
      "cası": 6124,
      "ms": 6125,
      "temin": 6126,
      "alak": 6127,
      "yılının": 6128,
      "hon": 6129,
      "iletişime": 6130,
      "yazık": 6131,
      "güreş": 6132,
      "referan": 6133,
      "umarım": 6134,
      "yatak": 6135,
      "alabilirsiniz": 6136,
      "tle": 6137,
      "savcı": 6138,
      "ısın": 6139,
      "hürr": 6140,
      "77": 6141,
      "fair": 6142,
      "rejim": 6143,
      "i̇ka": 6144,
      "kavga": 6145,
      "evren": 6146,
      "görevini": 6147,
      "potan": 6148,
      "kabı": 6149,
      "lise": 6150,
      "denk": 6151,
      "nci": 6152,
      "ts": 6153,
      "zu": 6154,
      "//": 6155,
      "üstelik": 6156,
      "alardan": 6157,
      "yatır": 6158,
      "gelmesi": 6159,
      "bülen": 6160,
      "yürür": 6161,
      "kiler": 6162,
      "dw": 6163,
      "büyüme": 6164,
      "ifadeleri": 6165,
      "başak": 6166,
      "vah": 6167,
      "dolan": 6168,
      "etmişti": 6169,
      "1980": 6170,
      "sayfa": 6171,
      "ödeme": 6172,
      "1998": 6173,
      "radyo": 6174,
      "antik": 6175,
      "kapsa": 6176,
      "sözlerini": 6177,
      "idari": 6178,
      "şahıs": 6179,
      "çatı": 6180,
      "edi̇": 6181,
      "potansiy": 6182,
      "sağlayacak": 6183,
      "kadro": 6184,
      "dolarlık": 6185,
      "bülent": 6186,
      "opter": 6187,
      "bankalar": 6188,
      "şunu": 6189,
      "lez": 6190,
      "sürdürdü": 6191,
      "muhalif": 6192,
      "köş": 6193,
      "sorunları": 6194,
      "e9e9e9": 6195,
      "cey": 6196,
      "işçi": 6197,
      "!!": 6198,
      "birden": 6199,
      "oldukları": 6200,
      "manisa": 6201,
      "kli": 6202,
      "ob": 6203,
      "marmara": 6204,
      "all": 6205,
      "helik": 6206,
      "yakından": 6207,
      "fc": 6208,
      "bine": 6209,
      "tarihli": 6210,
      "sözlerine": 6211,
      "füz": 6212,
      "olduğundan": 6213,
      "okum": 6214,
      "öğrenim": 6215,
      "maddi": 6216,
      "milletvekilleri": 6217,
      "moto": 6218,
      "evr": 6219,
      "hastalığı": 6220,
      "çöp": 6221,
      "tarihleri": 6222,
      "macar": 6223,
      "uyruk": 6224,
      "urfa": 6225,
      "bulunur": 6226,
      "yakalandı": 6227,
      "şiddetle": 6228,
      "makine": 6229,
      "edici": 6230,
      "endü": 6231,
      "düzenlem": 6232,
      "yaklaşım": 6233,
      "yürütülen": 6234,
      "almayı": 6235,
      "köp": 6236,
      "phil": 6237,
      "merkezinde": 6238,
      "mate": 6239,
      "bilgilendir": 6240,
      "aracın": 6241,
      "yönlendir": 6242,
      "oyuna": 6243,
      "gönüllü": 6244,
      "eyim": 6245,
      "jer": 6246,
      "şimdiye": 6247,
      "hayırlı": 6248,
      "müyor": 6249,
      "toplumun": 6250,
      "günümüzde": 6251,
      "kurmay": 6252,
      "içerik": 6253,
      "etki": 6254,
      "arya": 6255,
      "imizden": 6256,
      "vit": 6257,
      "inceleme": 6258,
      "poziti": 6259,
      "geor": 6260,
      "malarda": 6261,
      "belirli": 6262,
      "selam": 6263,
      "nic": 6264,
      "niş": 6265,
      "dökül": 6266,
      "olayla": 6267,
      "sigorta": 6268,
      "pri": 6269,
      "mete": 6270,
      "los": 6271,
      "stad": 6272,
      "ire": 6273,
      "zorluk": 6274,
      "yazdığı": 6275,
      "leri̇": 6276,
      "metro": 6277,
      "göreve": 6278,
      "afet": 6279,
      "cev": 6280,
      "areti": 6281,
      "tutul": 6282,
      "ğiyle": 6283,
      "ilmesini": 6284,
      "istikrar": 6285,
      "halka": 6286,
      "xx": 6287,
      "kurulum": 6288,
      "dönüm": 6289,
      "kanın": 6290,
      "şirketin": 6291,
      "tuş": 6292,
      "fek": 6293,
      "bulundur": 6294,
      "sinir": 6295,
      "lenin": 6296,
      "etkile": 6297,
      "gay": 6298,
      "81": 6299,
      "sakat": 6300,
      "56": 6301,
      "memnuniyet": 6302,
      "gercek": 6303,
      "ameliyat": 6304,
      "tipi": 6305,
      "lediği": 6306,
      "fra": 6307,
      "ki̇": 6308,
      "içinden": 6309,
      "cusu": 6310,
      "lerimize": 6311,
      "ziya": 6312,
      "liliği": 6313,
      "ödülleri": 6314,
      "malarına": 6315,
      "urt": 6316,
      "bulgar": 6317,
      "gelişim": 6318,
      "yerinden": 6319,
      "ğinden": 6320,
      "kurulumu": 6321,
      "helikopter": 6322,
      "alay": 6323,
      "bazıları": 6324,
      "köprü": 6325,
      "76": 6326,
      "istasyon": 6327,
      "döviz": 6328,
      "müdürlüğ": 6329,
      "müth": 6330,
      "verici": 6331,
      "sara": 6332,
      "kıy": 6333,
      "buradaki": 6334,
      "itibariyle": 6335,
      "imzalan": 6336,
      "korumak": 6337,
      "hızı": 6338,
      "geçerli": 6339,
      "arslan": 6340,
      "1994": 6341,
      "denet": 6342,
      "polonya": 6343,
      "üstüne": 6344,
      "ayn": 6345,
      "uyumlu": 6346,
      "yavuz": 6347,
      "brezilya": 6348,
      "aktiv": 6349,
      "oğl": 6350,
      "durumun": 6351,
      "salgını": 6352,
      "toplantıda": 6353,
      "gerektir": 6354,
      "zorunlu": 6355,
      "omuz": 6356,
      "misaf": 6357,
      "olmayacak": 6358,
      "pozitif": 6359,
      "donald": 6360,
      "japon": 6361,
      "sahiptir": 6362,
      "ilirken": 6363,
      "lılar": 6364,
      "04": 6365,
      "hürriyet": 6366,
      "lanmıştır": 6367,
      "kos": 6368,
      "eki": 6369,
      "doç": 6370,
      "face": 6371,
      "kararını": 6372,
      "lerdeki": 6373,
      "çalışmaya": 6374,
      "zamanlarda": 6375,
      "sinde": 6376,
      "severek": 6377,
      "verilmesi": 6378,
      "layıcı": 6379,
      "dağıt": 6380,
      "birik": 6381,
      "bütçe": 6382,
      "dizisi": 6383,
      "bitti": 6384,
      "ulacak": 6385,
      "gördüğü": 6386,
      "corona": 6387,
      "yolunda": 6388,
      "etmektedir": 6389,
      "kocaeli": 6390,
      "reform": 6391,
      "1996": 6392,
      "cuk": 6393,
      "birinc": 6394,
      "oba": 6395,
      "kimi": 6396,
      "espor": 6397,
      "gidip": 6398,
      "yil": 6399,
      "iyordu": 6400,
      "lendiği": 6401,
      "portek": 6402,
      "nö": 6403,
      "olağanüstü": 6404,
      "kusur": 6405,
      "led": 6406,
      "1997": 6407,
      "aleti": 6408,
      "etmiyor": 6409,
      "2024": 6410,
      "dördün": 6411,
      "adliy": 6412,
      "suçla": 6413,
      "tına": 6414,
      "markalar": 6415,
      "sho": 6416,
      "emeyen": 6417,
      "i̇nan": 6418,
      "takımın": 6419,
      "amac": 6420,
      "topra": 6421,
      "58": 6422,
      ".)": 6423,
      "portekiz": 6424,
      "pos": 6425,
      "bakımından": 6426,
      "perşem": 6427,
      "federal": 6428,
      "i̇şleri": 6429,
      "real": 6430,
      "parkı": 6431,
      "planı": 6432,
      "kendisinin": 6433,
      "uygulaması": 6434,
      "lisesi": 6435,
      "emeği": 6436,
      "hid": 6437,
      "bölümünde": 6438,
      "sahipleri": 6439,
      "ülkemizde": 6440,
      "57": 6441,
      "siklet": 6442,
      "tatistik": 6443,
      "hediy": 6444,
      "kurtarma": 6445,
      "ihtimal": 6446,
      "lıklar": 6447,
      "mc": 6448,
      "açtığı": 6449,
      "yapıyoruz": 6450,
      "vakit": 6451,
      "birleştir": 6452,
      "asgari": 6453,
      "plakalı": 6454,
      "verme": 6455,
      "rey": 6456,
      "leyici": 6457,
      "ast": 6458,
      "di̇r": 6459,
      "gah": 6460,
      "çaba": 6461,
      "bozuk": 6462,
      "çarşam": 6463,
      "kimyasal": 6464,
      "ekmek": 6465,
      "azı": 6466,
      "anlama": 6467,
      "ciğer": 6468,
      "geride": 6469,
      "altındaki": 6470,
      "tıyla": 6471,
      "cia": 6472,
      "ford": 6473,
      "yapacağı": 6474,
      "müthiş": 6475,
      "zehir": 6476,
      "rahatlıkla": 6477,
      "kimdir": 6478,
      "bulan": 6479,
      "çocuğum": 6480,
      "panyol": 6481,
      "ıldığında": 6482,
      "bugünkü": 6483,
      "böyl": 6484,
      "malatya": 6485,
      "ene": 6486,
      "dılar": 6487,
      "1995": 6488,
      "perşembe": 6489,
      "bıraktı": 6490,
      "gönderildi": 6491,
      "değeri": 6492,
      "trafi": 6493,
      "teor": 6494,
      "özellikleri": 6495,
      "manda": 6496,
      "çarşamba": 6497,
      "harca": 6498,
      "abilir": 6499,
      "saniye": 6500,
      "vüc": 6501,
      "merha": 6502,
      "slogan": 6503,
      "sinan": 6504,
      "işbirliği": 6505,
      "fabrika": 6506,
      "ülkeleri": 6507,
      "yazılım": 6508,
      "başından": 6509,
      "sürdürülebilir": 6510,
      "1992": 6511,
      "vücut": 6512,
      "raporu": 6513,
      "bolu": 6514,
      "soh": 6515,
      "sezonu": 6516,
      "alarla": 6517,
      "ekiplerin": 6518,
      "uça": 6519,
      "vor": 6520,
      "memiz": 6521,
      "sunuyor": 6522,
      "i̇nce": 6523,
      "i̇sviç": 6524,
      "ilmesine": 6525,
      "kanada": 6526,
      "karbon": 6527,
      "düğüm": 6528,
      "duyar": 6529,
      "hikâ": 6530,
      "emesi": 6531,
      "günler": 6532,
      "sorunun": 6533,
      "abonelik": 6534,
      "istediğini": 6535,
      "teşe": 6536,
      "dalg": 6537,
      "fiyatları": 6538,
      "liraya": 6539,
      "yüzey": 6540,
      "madr": 6541,
      "analiz": 6542,
      "krallık": 6543,
      "adası": 6544,
      "bozul": 6545,
      "hükû": 6546,
      "yaşadı": 6547,
      "lüb": 6548,
      "kütüp": 6549,
      "sağladı": 6550,
      "güne": 6551,
      "ülkemizin": 6552,
      "ıyordu": 6553,
      "ederiz": 6554,
      "diniz": 6555,
      "toplamda": 6556,
      "çif": 6557,
      "almıştır": 6558,
      "i̇le": 6559,
      "binden": 6560,
      "halil": 6561,
      "enstitüsü": 6562,
      "maraş": 6563,
      "istiyan": 6564,
      "kapasit": 6565,
      "meydanı": 6566,
      "anket": 6567,
      "kimsenin": 6568,
      "bulaşık": 6569,
      "yoksul": 6570,
      "sürdürüyor": 6571,
      "okuma": 6572,
      "yapısı": 6573,
      "53": 6574,
      "eren": 6575,
      "1993": 6576,
      "yükselt": 6577,
      "yalçın": 6578,
      "ag": 6579,
      "gergin": 6580,
      "duruma": 6581,
      "ayakkabı": 6582,
      "misafir": 6583,
      "bilgileri": 6584,
      "iyo": 6585,
      "polisin": 6586,
      "sebebi": 6587,
      "terim": 6588,
      "şehri": 6589,
      "i̇bb": 6590,
      "cir": 6591,
      "utu": 6592,
      "raporda": 6593,
      "kırım": 6594,
      "keşke": 6595,
      "kedi": 6596,
      "çalışmalarına": 6597,
      "derecede": 6598,
      "ilginç": 6599,
      "ale": 6600,
      "kaçın": 6601,
      "kg": 6602,
      "düzeyde": 6603,
      "verdiğini": 6604,
      "demiş": 6605,
      "i̇spanyol": 6606,
      "çavuşoğlu": 6607,
      "konferans": 6608,
      "59": 6609,
      "madrid": 6610,
      "terörle": 6611,
      "arkasında": 6612,
      "turan": 6613,
      "hy": 6614,
      "etmiştir": 6615,
      "kritik": 6616,
      "samsung": 6617,
      "ortada": 6618,
      "saldırgan": 6619,
      "pom": 6620,
      "bük": 6621,
      "rengi": 6622,
      "turk": 6623,
      "oynadığı": 6624,
      "buğ": 6625,
      "geleri": 6626,
      "arkadaşları": 6627,
      "özdemir": 6628,
      "iddianam": 6629,
      "haftada": 6630,
      "usul": 6631,
      "cy": 6632,
      "dernek": 6633,
      "52": 6634,
      "çök": 6635,
      "lübnan": 6636,
      "kuma": 6637,
      "görüşme": 6638,
      "lastik": 6639,
      "sevgil": 6640,
      "kavram": 6641,
      "sanı": 6642,
      "eh": 6643,
      "birbirine": 6644,
      "felse": 6645,
      "seçildi": 6646,
      "rüzgar": 6647,
      "ettiler": 6648,
      "avustralya": 6649,
      "dayanık": 6650,
      "i̇ttifak": 6651,
      "apple": 6652,
      "meyecek": 6653,
      "edirne": 6654,
      "görünce": 6655,
      "anet": 6656,
      "mektup": 6657,
      "inanılmaz": 6658,
      "bri": 6659,
      "bire": 6660,
      "liğiyle": 6661,
      "geçirdi": 6662,
      "sag": 6663,
      "olaylar": 6664,
      "cengiz": 6665,
      "ano": 6666,
      "eyecek": 6667,
      "vası": 6668,
      "tüy": 6669,
      "68": 6670,
      "yapması": 6671,
      "dolara": 6672,
      "anında": 6673,
      "kağıt": 6674,
      "sezonunda": 6675,
      "dördüncü": 6676,
      "begen": 6677,
      "sigara": 6678,
      "müştü": 6679,
      "yaptığımız": 6680,
      "vererek": 6681,
      "referandum": 6682,
      "anlaşması": 6683,
      "rela": 6684,
      "olama": 6685,
      "ettiklerini": 6686,
      "lüğe": 6687,
      "rük": 6688,
      "gas": 6689,
      "64": 6690,
      "alınacak": 6691,
      "hone": 6692,
      "hakkındaki": 6693,
      "parmak": 6694,
      "kanat": 6695,
      "ebe": 6696,
      "yarışma": 6697,
      "belde": 6698,
      "gündüz": 6699,
      "yüzlerce": 6700,
      "tedavisi": 6701,
      "yaralanan": 6702,
      "pt": 6703,
      "yarışması": 6704,
      "kablo": 6705,
      "renkli": 6706,
      "bölgenin": 6707,
      "amaya": 6708,
      "motosiklet": 6709,
      "hizmeti": 6710,
      "nef": 6711,
      "kazada": 6712,
      "baya": 6713,
      "müsabak": 6714,
      "resmen": 6715,
      "beli": 6716,
      "zev": 6717,
      "güçleri": 6718,
      "mamak": 6719,
      "ebil": 6720,
      "olat": 6721,
      "bizler": 6722,
      "seven": 6723,
      "600": 6724,
      "öm": 6725,
      "oynanan": 6726,
      "topu": 6727,
      "keşf": 6728,
      "vizyon": 6729,
      "sanın": 6730,
      "mıyorum": 6731,
      "üründen": 6732,
      "rekabet": 6733,
      "htt": 6734,
      "mesin": 6735,
      "koltuk": 6736,
      "stratejik": 6737,
      "masyon": 6738,
      "ust": 6739,
      "ie": 6740,
      "üzün": 6741,
      "oyunun": 6742,
      "kudüs": 6743,
      "açan": 6744,
      "gelerek": 6745,
      "dans": 6746,
      "yüzü": 6747,
      "cenaze": 6748,
      "i̇yor": 6749,
      "deplas": 6750,
      "nn": 6751,
      "parçal": 6752,
      "ayşe": 6753,
      "likleri": 6754,
      "çılık": 6755,
      "kilit": 6756,
      "gereği": 6757,
      "kalacak": 6758,
      "şof": 6759,
      "tasarı": 6760,
      "davutoğlu": 6761,
      "degil": 6762,
      "atu": 6763,
      "virüsü": 6764,
      "cema": 6765,
      "çalışıyoruz": 6766,
      "79": 6767,
      "kod": 6768,
      "hip": 6769,
      "sözleşme": 6770,
      "azal": 6771,
      "kapak": 6772,
      "aksiyon": 6773,
      "pakistan": 6774,
      "gözük": 6775,
      "avusturya": 6776,
      "balıkesir": 6777,
      "çocuklara": 6778,
      "ism": 6779,
      "kadros": 6780,
      "çanta": 6781,
      "maçın": 6782,
      "eriş": 6783,
      "ört": 6784,
      "anlatıyor": 6785,
      "yerlerde": 6786,
      "tıktan": 6787,
      "uzu": 6788,
      "tedar": 6789,
      "genişlet": 6790,
      "popüler": 6791,
      "noktalarını": 6792,
      "pamuk": 6793,
      "seçimi": 6794,
      "patlama": 6795,
      "bunda": 6796,
      "benzeri": 6797,
      "”,": 6798,
      "kana": 6799,
      "görevli": 6800,
      "jon": 6801,
      "maliye": 6802,
      "parf": 6803,
      "sohbet": 6804,
      "cıları": 6805,
      "eğil": 6806,
      "tehlikeli": 6807,
      "gönderi": 6808,
      "pilot": 6809,
      "önder": 6810,
      "hanım": 6811,
      "elendir": 6812,
      "milletin": 6813,
      "tazmin": 6814,
      "yetk": 6815,
      "ilerinden": 6816,
      "bina": 6817,
      "tahr": 6818,
      "cilt": 6819,
      "güler": 6820,
      "250": 6821,
      "çileri": 6822,
      "yıldızı": 6823,
      "yapay": 6824,
      "ermenistan": 6825,
      "yiye": 6826,
      "tre": 6827,
      "dilik": 6828,
      "gercekten": 6829,
      "portaj": 6830,
      "alarından": 6831,
      "çika": 6832,
      "nev": 6833,
      "ırk": 6834,
      "redde": 6835,
      "piyas": 6836,
      "finansal": 6837,
      "54": 6838,
      "kazı": 6839,
      "vakıf": 6840,
      "bunlardan": 6841,
      "gümrük": 6842,
      "hareketi": 6843,
      "evli": 6844,
      "abonelere": 6845,
      "indi": 6846,
      "süreli": 6847,
      "günün": 6848,
      "ömür": 6849,
      "röportaj": 6850,
      "erkekler": 6851,
      "mesafe": 6852,
      "bekliyoruz": 6853,
      "uncu": 6854,
      "yayımlanmaktadır": 6855,
      "başladım": 6856,
      "imkanı": 6857,
      "erdi": 6858,
      "yıllarında": 6859,
      "müzesi": 6860,
      "bireysel": 6861,
      "tma": 6862,
      "imzala": 6863,
      "gelince": 6864,
      "olurdu": 6865,
      "illa": 6866,
      "modeli": 6867,
      "dikkatli": 6868,
      "yetkilileri": 6869,
      "yerleri": 6870,
      "51": 6871,
      "sakarya": 6872,
      "geçiniz": 6873,
      "gitmek": 6874,
      "sekreteri": 6875,
      "kabil": 6876,
      "uzaklıkta": 6877,
      "temsilciler": 6878,
      "://": 6879,
      "fas": 6880,
      "alınır": 6881,
      "tsk": 6882,
      "radi": 6883,
      "özetlenerek": 6884,
      "geçirildi": 6885,
      "burak": 6886,
      "demirtaş": 6887,
      "mekaniz": 6888,
      "kurucu": 6889,
      "zincir": 6890,
      "verilecek": 6891,
      "işini": 6892,
      "related": 6893,
      "öf": 6894,
      "merkel": 6895,
      "erdem": 6896,
      "ermeni": 6897,
      "tanesi": 6898,
      "kampan": 6899,
      "tabl": 6900,
      "bulunması": 6901,
      "şif": 6902,
      "başlar": 6903,
      "emi": 6904,
      "ğünü": 6905,
      "sınırlı": 6906,
      "kemer": 6907,
      "sten": 6908,
      "şampiyonlar": 6909,
      "iphone": 6910,
      "gini": 6911,
      "seni": 6912,
      "mütte": 6913,
      "bini": 6914,
      "mesela": 6915,
      "ıyorlar": 6916,
      "belgeler": 6917,
      "malarının": 6918,
      "herşey": 6919,
      "wer": 6920,
      "versiyon": 6921,
      "veril": 6922,
      "niye": 6923,
      "çel": 6924,
      "fi̇": 6925,
      "çıl": 6926,
      "kaydı": 6927,
      "hb": 6928,
      "sürece": 6929,
      "beklem": 6930,
      "sing": 6931,
      "bran": 6932,
      "david": 6933,
      "beyin": 6934,
      "ülmesi": 6935,
      "kaldık": 6936,
      "yapış": 6937,
      "fiziksel": 6938,
      "uf": 6939,
      "ayrım": 6940,
      "kongr": 6941,
      "1970": 6942,
      "olunca": 6943,
      "hafız": 6944,
      "seslendir": 6945,
      "karma": 6946,
      "belirtiliyor": 6947,
      "facebook": 6948,
      "dakik": 6949,
      "mağlup": 6950,
      "gündür": 6951,
      "yecek": 6952,
      "1991": 6953,
      "yapıldığını": 6954,
      "ılacak": 6955,
      "konsol": 6956,
      "alp": 6957,
      "borsa": 6958,
      "maka": 6959,
      "yenin": 6960,
      "bomba": 6961,
      "çukur": 6962,
      "uygulanan": 6963,
      "çoğunluk": 6964,
      "olmasa": 6965,
      "pren": 6966,
      "kaları": 6967,
      "hayatta": 6968,
      "lok": 6969,
      "acağı": 6970,
      "vent": 6971,
      "dukları": 6972,
      "atlet": 6973,
      "tanıtım": 6974,
      "anları": 6975,
      "gezi": 6976,
      "tiler": 6977,
      "eksi": 6978,
      "bilmiyorum": 6979,
      "tokat": 6980,
      "hri": 6981,
      "talimat": 6982,
      "isimler": 6983,
      "teker": 6984,
      "yedek": 6985,
      "salih": 6986,
      "edilebilir": 6987,
      "kalitesiz": 6988,
      "ailen": 6989,
      "çıkması": 6990,
      "evlilik": 6991,
      "kaynaklı": 6992,
      "garant": 6993,
      "metr": 6994,
      "masi": 6995,
      "kitabın": 6996,
      "lısı": 6997,
      "halkının": 6998,
      "niha": 6999,
      "hü": 7000,
      "dairesi": 7001,
      "ikili": 7002,
      "i̇let": 7003,
      "yetkili": 7004,
      "yaman": 7005,
      "santral": 7006,
      "tasarruf": 7007,
      "istler": 7008,
      "oğuz": 7009,
      "başlatılan": 7010,
      "kariyeri": 7011,
      "li̇k": 7012,
      "tecrü": 7013,
      "fazlasıyla": 7014,
      "başlatıldı": 7015,
      "vermesi": 7016,
      "akademisyen": 7017,
      "sıcaklık": 7018,
      "i̇lçesi": 7019,
      "partinin": 7020,
      "öğle": 7021,
      "alınarak": 7022,
      "i̇nter": 7023,
      "ras": 7024,
      "derken": 7025,
      "çıkmış": 7026,
      "davası": 7027,
      "fonk": 7028,
      "olduğunun": 7029,
      "katar": 7030,
      "i̇ni̇": 7031,
      "fırat": 7032,
      "alanlarda": 7033,
      "karşın": 7034,
      "katılımı": 7035,
      "ekledi": 7036,
      "karşısına": 7037,
      "ülkeyi": 7038,
      "mun": 7039,
      "kalır": 7040,
      "ulmuş": 7041,
      "genelde": 7042,
      "mda": 7043,
      "i̇ma": 7044,
      "72": 7045,
      "komün": 7046,
      "hazine": 7047,
      "sekiz": 7048,
      "ladığını": 7049,
      "toplan": 7050,
      "fl": 7051,
      "heyeti": 7052,
      "dinam": 7053,
      "başrol": 7054,
      "danışman": 7055,
      "kendis": 7056,
      "endişe": 7057,
      "ürken": 7058,
      "gusal": 7059,
      "tının": 7060,
      "hükûmet": 7061,
      "belçika": 7062,
      "sahipliği": 7063,
      "gecik": 7064,
      "payı": 7065,
      "bağır": 7066,
      "subay": 7067,
      "insani": 7068,
      "alanları": 7069,
      "sandal": 7070,
      "kalmış": 7071,
      "salonu": 7072,
      "maddesi": 7073,
      "noktasında": 7074,
      "çağr": 7075,
      "açıklan": 7076,
      "bölün": 7077,
      "sana": 7078,
      "ihal": 7079,
      "kömür": 7080,
      "cisi": 7081,
      "uygul": 7082,
      "aksine": 7083,
      "basına": 7084,
      "fairy": 7085,
      "katliam": 7086,
      "chris": 7087,
      "enfeksiyon": 7088,
      "fonksiyon": 7089,
      "gününde": 7090,
      "liyorum": 7091,
      "nodes": 7092,
      "seb": 7093,
      "kapsamlı": 7094,
      "ilişkileri": 7095,
      "okur": 7096,
      "mutluluk": 7097,
      "değilim": 7098,
      "ss": 7099,
      "söndür": 7100,
      "ish": 7101,
      "yolculu": 7102,
      "yunus": 7103,
      "seçimlerinde": 7104,
      "py": 7105,
      "suriyeli": 7106,
      "çıkarı": 7107,
      "büyüklüğ": 7108,
      "ambala": 7109,
      "melerini": 7110,
      "yahudi": 7111,
      "fifa": 7112,
      "ılmıştı": 7113,
      "birer": 7114,
      "tutum": 7115,
      "deri": 7116,
      "kurtuluş": 7117,
      "william": 7118,
      "stil": 7119,
      "ny": 7120,
      "yaşaya": 7121,
      "800": 7122,
      "uyorum": 7123,
      "hard": 7124,
      "ekrem": 7125,
      "faktör": 7126,
      "mahmut": 7127,
      "bül": 7128,
      "iciler": 7129,
      "tüğü": 7130,
      "cha": 7131,
      "ımızda": 7132,
      "denizli": 7133,
      "meyve": 7134,
      "vb": 7135,
      "devreye": 7136,
      "büyükelç": 7137,
      "boşan": 7138,
      "şair": 7139,
      "kırsal": 7140,
      "dolaş": 7141,
      "city": 7142,
      "bekleyen": 7143,
      "medik": 7144,
      "veli": 7145,
      "getirilen": 7146,
      "dığımız": 7147,
      "usunun": 7148,
      "şanlıurfa": 7149,
      "ung": 7150,
      "birini": 7151,
      "yapmıyor": 7152,
      "zem": 7153,
      "sığınma": 7154,
      "daire": 7155,
      "apart": 7156,
      "mahkum": 7157,
      "şiddetli": 7158,
      "yorumlara": 7159,
      "rahmet": 7160,
      "kalabalık": 7161,
      "gölü": 7162,
      "getirmek": 7163,
      "ürüne": 7164,
      "sözleri": 7165,
      "kelime": 7166,
      "yapacağız": 7167,
      "mevsim": 7168,
      "ogle": 7169,
      "inanıyorum": 7170,
      "sözü": 7171,
      "bekir": 7172,
      "i̇sviçre": 7173,
      "projenin": 7174,
      "erişim": 7175,
      "diy": 7176,
      "edem": 7177,
      "lamaz": 7178,
      "olduğum": 7179,
      "bilinç": 7180,
      "i̇klim": 7181,
      "anma": 7182,
      "sembol": 7183,
      "ulmaz": 7184,
      "hede": 7185,
      "tamamı": 7186,
      "cezalandır": 7187,
      "istediğim": 7188,
      "67": 7189,
      "karıştır": 7190,
      "ettikleri": 7191,
      "eline": 7192,
      "verdik": 7193,
      "ortamda": 7194,
      "ikat": 7195,
      "wi": 7196,
      "obama": 7197,
      "biçim": 7198,
      "stagram": 7199,
      "görüntüler": 7200,
      "azından": 7201,
      "geçiyor": 7202,
      "hacı": 7203,
      "oynadı": 7204,
      "i̇mparatorluğu": 7205,
      "bi̇l": 7206,
      "tımı": 7207,
      "görevlendir": 7208,
      "ımın": 7209,
      "olacağız": 7210,
      "toplanan": 7211,
      "operasyonu": 7212,
      "karantin": 7213,
      "almaktadır": 7214,
      "geldiğinde": 7215,
      "wit": 7216,
      "sorunlar": 7217,
      "layıp": 7218,
      "★★": 7219,
      "yası": 7220,
      "mücadelede": 7221,
      "söyleyerek": 7222,
      "esen": 7223,
      "astr": 7224,
      "araştırmalar": 7225,
      "ae": 7226,
      "ılarak": 7227,
      "eleriyle": 7228,
      "süpür": 7229,
      "çapında": 7230,
      "sof": 7231,
      "google": 7232,
      "sözleşmesi": 7233,
      "intihar": 7234,
      "öv": 7235,
      "hoca": 7236,
      "delil": 7237,
      "alex": 7238,
      "vicdan": 7239,
      "getiriyor": 7240,
      "dayanışma": 7241,
      "sidir": 7242,
      "elektrikli": 7243,
      "tarafı": 7244,
      "başkanları": 7245,
      "tablo": 7246,
      "verilerine": 7247,
      "dolandır": 7248,
      "resm": 7249,
      "kargoya": 7250,
      "larınız": 7251,
      "rok": 7252,
      "ihraç": 7253,
      "yargıtay": 7254,
      "ikram": 7255,
      "vekil": 7256,
      "şok": 7257,
      "ekiplerinin": 7258,
      "kup": 7259,
      "baskın": 7260,
      "ai": 7261,
      "ambalaj": 7262,
      "unca": 7263,
      "gösterdiği": 7264,
      "ore": 7265,
      "konak": 7266,
      "kapsamda": 7267,
      "noktası": 7268,
      "doz": 7269,
      "tarif": 7270,
      "120": 7271,
      "das": 7272,
      "ght": 7273,
      "wat": 7274,
      "şap": 7275,
      "sahada": 7276,
      "suçlu": 7277,
      "tedarik": 7278,
      "şidde": 7279,
      "etmiyorum": 7280,
      "maddes": 7281,
      "fın": 7282,
      "grubun": 7283,
      "ague": 7284,
      "refah": 7285,
      "senaryo": 7286,
      "tutuyor": 7287,
      "konuşmada": 7288,
      "88": 7289,
      "paul": 7290,
      "yede": 7291,
      "hukuki": 7292,
      "69": 7293,
      "ülük": 7294,
      "sürpriz": 7295,
      "operasyonda": 7296,
      "online": 7297,
      "hij": 7298,
      "nez": 7299,
      "disip": 7300,
      "kurgu": 7301,
      "zamanı": 7302,
      "işlemleri": 7303,
      "yıldan": 7304,
      "trt": 7305,
      "eğlenceli": 7306,
      "63": 7307,
      "başlandı": 7308,
      "chi": 7309,
      "felaket": 7310,
      "mayacağını": 7311,
      "satan": 7312,
      "talebi": 7313,
      "kurdu": 7314,
      "cid": 7315,
      "hattin": 7316,
      "geldik": 7317,
      "taraftan": 7318,
      "evlen": 7319,
      "değerlendirme": 7320,
      "1989": 7321,
      "holding": 7322,
      "kıymet": 7323,
      "gerçekleştirildi": 7324,
      "luluğ": 7325,
      "hristiyan": 7326,
      "gayret": 7327,
      "geleceği": 7328,
      "töreni": 7329,
      "bırakıldı": 7330,
      "geze": 7331,
      "netic": 7332,
      "taç": 7333,
      "tedir": 7334,
      "istedim": 7335,
      "köylü": 7336,
      "):": 7337,
      "rezer": 7338,
      "oluşum": 7339,
      "ud": 7340,
      "yatı": 7341,
      "siyasal": 7342,
      "elazı": 7343,
      "avukatı": 7344,
      "ettiğimiz": 7345,
      "klav": 7346,
      "düzenledi": 7347,
      "etkisini": 7348,
      "reh": 7349,
      "bbi": 7350,
      "fal": 7351,
      "salgının": 7352,
      "seçenek": 7353,
      "piya": 7354,
      "düşünce": 7355,
      "quot": 7356,
      "hael": 7357,
      "instagram": 7358,
      "elazığ": 7359,
      "tarihçe": 7360,
      "emiyor": 7361,
      "öğrencisi": 7362,
      "yayınlandı": 7363,
      "gittik": 7364,
      "opera": 7365,
      "yapılır": 7366,
      "oğul": 7367,
      "taşıyor": 7368,
      "batar": 7369,
      "ordusun": 7370,
      "uzmanlar": 7371,
      "kalmadı": 7372,
      "vefat": 7373,
      "gerçekleştirdi": 7374,
      "1960": 7375,
      "avcı": 7376,
      "paraya": 7377,
      "genelkurmay": 7378,
      "psikolojik": 7379,
      "eşlik": 7380,
      "şansı": 7381,
      "işık": 7382,
      "mekten": 7383,
      "ailesinin": 7384,
      "hissi": 7385,
      "karşıtı": 7386,
      "çet": 7387,
      "birşey": 7388,
      "alındığı": 7389,
      "ülkedeki": 7390,
      "ypg": 7391,
      "önü": 7392,
      "paral": 7393,
      "girişimi": 7394,
      "atöl": 7395,
      "haftasında": 7396,
      "başladık": 7397,
      "lığından": 7398,
      "bilgisi": 7399,
      "bebeg": 7400,
      "saldırıda": 7401,
      "doğusunda": 7402,
      "arşi": 7403,
      "gri": 7404,
      "düzenlenecek": 7405,
      "komp": 7406,
      "kali̇": 7407,
      "palı": 7408,
      "olabileceğini": 7409,
      "digim": 7410,
      "kaba": 7411,
      "que": 7412,
      "ilişki": 7413,
      "tüs": 7414,
      "sağlan": 7415,
      "başsavcılığı": 7416,
      "kullanıldı": 7417,
      "sırt": 7418,
      "babam": 7419,
      "kadına": 7420,
      "ang": 7421,
      "bayıl": 7422,
      "oynayan": 7423,
      "hücr": 7424,
      "kuruldu": 7425,
      "istihbarat": 7426,
      "satışa": 7427,
      "ble": 7428,
      "robert": 7429,
      "markası": 7430,
      "âr": 7431,
      "ment": 7432,
      "kartı": 7433,
      "üretilen": 7434,
      "kun": 7435,
      "bitk": 7436,
      "göğ": 7437,
      "leyecek": 7438,
      "kulaklık": 7439,
      "milyonlarca": 7440,
      "duğumuz": 7441,
      "abdül": 7442,
      "komedi": 7443,
      "kiz": 7444,
      "tanıt": 7445,
      "hika": 7446,
      "kullanılır": 7447,
      "incelen": 7448,
      "i̇stik": 7449,
      "rr": 7450,
      "ayakta": 7451,
      "müte": 7452,
      "plak": 7453,
      "eğini": 7454,
      "meşru": 7455,
      "kaş": 7456,
      "ürünlerin": 7457,
      "politikası": 7458,
      "ters": 7459,
      "çıkarak": 7460,
      "acaba": 7461,
      "bünyesinde": 7462,
      "wood": 7463,
      "keskin": 7464,
      "gerilim": 7465,
      "kutlu": 7466,
      "him": 7467,
      "yasağı": 7468,
      "talık": 7469,
      "paketi": 7470,
      "edilerek": 7471,
      "yuz": 7472,
      "lamayı": 7473,
      "endeksi": 7474,
      "mardin": 7475,
      "hastane": 7476,
      "karşılıklı": 7477,
      "ergen": 7478,
      "albümü": 7479,
      "ky": 7480,
      "çiftç": 7481,
      "demokras": 7482,
      "elidir": 7483,
      "icinde": 7484,
      "sili": 7485,
      "ülkelerde": 7486,
      "alam": 7487,
      "deneme": 7488,
      "gülen": 7489,
      "koydu": 7490,
      "söylem": 7491,
      "koruyucu": 7492,
      "i̇letişim": 7493,
      "verim": 7494,
      "cav": 7495,
      "i̇şlet": 7496,
      "oyla": 7497,
      "zamanlar": 7498,
      "diyan": 7499,
      "mesajı": 7500,
      "tetik": 7501,
      "kaygı": 7502,
      "war": 7503,
      "gelişme": 7504,
      "afa": 7505,
      "anah": 7506,
      "konuyu": 7507,
      "beklediğimden": 7508,
      "michael": 7509,
      "apara": 7510,
      "yazıcı": 7511,
      "okula": 7512,
      "kentin": 7513,
      "ng": 7514,
      "düzgün": 7515,
      "gökhan": 7516,
      "tiz": 7517,
      "şampiyonluk": 7518,
      "esnas": 7519,
      "diliyorum": 7520,
      "paran": 7521,
      "olmaktan": 7522,
      "tifi": 7523,
      "görü": 7524,
      "kararın": 7525,
      "liga": 7526,
      "ecektir": 7527,
      "isindeki": 7528,
      "müşteri": 7529,
      "mutfak": 7530,
      "değerlendirmesinde": 7531,
      "dayalı": 7532,
      "selim": 7533,
      "gönderdi": 7534,
      "çizg": 7535,
      "iyiki": 7536,
      "görünüm": 7537,
      "konuya": 7538,
      "annem": 7539,
      "diven": 7540,
      "air": 7541,
      "ülkemiz": 7542,
      "atılan": 7543,
      "atuvar": 7544,
      "duran": 7545,
      "habere": 7546,
      "pri̇ma": 7547,
      "garanti": 7548,
      "baktığı": 7549,
      "yönde": 7550,
      "olurken": 7551,
      "etmeden": 7552,
      "ailenin": 7553,
      "isterim": 7554,
      "ision": 7555,
      "artıyor": 7556,
      "62": 7557,
      "bebeğimin": 7558,
      "kahramanmaraş": 7559,
      "ganda": 7560,
      "sergil": 7561,
      "korunması": 7562,
      "bilirler": 7563,
      "getirdiği": 7564,
      "isteyenler": 7565,
      "yacağı": 7566,
      "heykel": 7567,
      "huzurlu": 7568,
      "stadyum": 7569,
      "belirtiyor": 7570,
      "makamı": 7571,
      "çağrısı": 7572,
      "i̇liş": 7573,
      "kuruc": 7574,
      "geçmişte": 7575,
      "kira": 7576,
      "tasarımı": 7577,
      "kilometr": 7578,
      "yayla": 7579,
      "gidecek": 7580,
      "öğrencileri": 7581,
      "ente": 7582,
      "icra": 7583,
      "vurgulan": 7584,
      "ikna": 7585,
      "hang": 7586,
      "king": 7587,
      "uzaktan": 7588,
      "arjan": 7589,
      "larımı": 7590,
      "olamaz": 7591,
      "james": 7592,
      "rock": 7593,
      "okudum": 7594,
      "pik": 7595,
      "üme": 7596,
      "mevki": 7597,
      "unvan": 7598,
      "şehirler": 7599,
      "hani": 7600,
      "akra": 7601,
      "atıyor": 7602,
      "olayları": 7603,
      "gurbetçi": 7604,
      "insanlara": 7605,
      "hattı": 7606,
      "ansı": 7607,
      "haklı": 7608,
      "senary": 7609,
      "zemin": 7610,
      "işlev": 7611,
      "baları": 7612,
      "dediği": 7613,
      "gelişmiş": 7614,
      "lilerin": 7615,
      "düşünen": 7616,
      "karaca": 7617,
      "yenilik": 7618,
      "ci̇": 7619,
      "aley": 7620,
      "anahtar": 7621,
      "dönen": 7622,
      "biridir": 7623,
      "başarısız": 7624,
      "hizmetler": 7625,
      "özür": 7626,
      "arjantin": 7627,
      "oluşturulan": 7628,
      "kentte": 7629,
      "ysa": 7630,
      "eseri": 7631,
      "piyasada": 7632,
      "duklarını": 7633,
      "çekerek": 7634,
      "post": 7635,
      "zamanla": 7636,
      "oyuncak": 7637,
      "müttefik": 7638,
      "i̇nternet": 7639,
      "blo": 7640,
      "alarca": 7641,
      "tuğu": 7642,
      "yeten": 7643,
      "çevres": 7644,
      "çıkara": 7645,
      "memek": 7646,
      "sürük": 7647,
      "ortadoğu": 7648,
      "sabır": 7649,
      "stü": 7650,
      "yolsuzluk": 7651,
      "altay": 7652,
      "planlanan": 7653,
      "arnav": 7654,
      "ötesi": 7655,
      "ikinc": 7656,
      "sonuçta": 7657,
      "elif": 7658,
      "siyasetçi": 7659,
      "yiğ": 7660,
      "yönetiminin": 7661,
      "arasına": 7662,
      "nep": 7663,
      "numaralı": 7664,
      "cinin": 7665,
      "61": 7666,
      "başakşehir": 7667,
      "ena": 7668,
      "feth": 7669,
      "tatmin": 7670,
      "damar": 7671,
      "fos": 7672,
      "yiyecek": 7673,
      "parayı": 7674,
      "hadi": 7675,
      "fidan": 7676,
      "cd": 7677,
      "seçilen": 7678,
      "norveç": 7679,
      "bitki": 7680,
      "telek": 7681,
      "zel": 7682,
      "bunlara": 7683,
      "bileceğiniz": 7684,
      "muhtemelen": 7685,
      "cezasına": 7686,
      "hatırlatan": 7687,
      "yakış": 7688,
      "esnasında": 7689,
      "üründe": 7690,
      "baha": 7691,
      "1988": 7692,
      "doğduğ": 7693,
      "sika": 7694,
      "arnavut": 7695,
      "babasının": 7696,
      "federasyon": 7697,
      "seçimlerde": 7698,
      "teşkilatı": 7699,
      "usb": 7700,
      "platformu": 7701,
      "nation": 7702,
      "çıktığını": 7703,
      "max": 7704,
      "bulmak": 7705,
      "konularda": 7706,
      "98": 7707,
      "projeler": 7708,
      "melik": 7709,
      "amp": 7710,
      "f2": 7711,
      "vuruş": 7712,
      "off": 7713,
      "ailesine": 7714,
      "tutan": 7715,
      "imal": 7716,
      "aylarında": 7717,
      "kütüphan": 7718,
      "kullaniyorum": 7719,
      "zo": 7720,
      "etmeyi": 7721,
      "serisi": 7722,
      "karara": 7723,
      "çeş": 7724,
      "ikisi": 7725,
      "farkın": 7726,
      "engin": 7727,
      "teşkilat": 7728,
      "isyan": 7729,
      "ortasında": 7730,
      "ısının": 7731,
      "cemal": 7732,
      "macer": 7733,
      "günleri": 7734,
      "piyan": 7735,
      "detaylar": 7736,
      "eleme": 7737,
      "çekilen": 7738,
      "youtu": 7739,
      "korkut": 7740,
      "coşk": 7741,
      "değerlendirmeler": 7742,
      "ino": 7743,
      "karşılaştır": 7744,
      "ward": 7745,
      "hijyen": 7746,
      "çarpış": 7747,
      "olmayı": 7748,
      "iddiasıyla": 7749,
      "sisteminin": 7750,
      "die": 7751,
      "elinden": 7752,
      "oranda": 7753,
      "1987": 7754,
      "ısrar": 7755,
      "sınırları": 7756,
      "üste": 7757,
      "matematik": 7758,
      "atma": 7759,
      "davanın": 7760,
      "sağlanması": 7761,
      "mukemmel": 7762,
      "harekat": 7763,
      "alınabilir": 7764,
      "?'": 7765,
      "antrenman": 7766,
      "yapmıştır": 7767,
      "ilmeden": 7768,
      "hek": 7769,
      "adımlar": 7770,
      "delik": 7771,
      "içe": 7772,
      "düzelt": 7773,
      "dışındaki": 7774,
      "ağız": 7775,
      "cadde": 7776,
      "atak": 7777,
      "kula": 7778,
      "etap": 7779,
      "olayda": 7780,
      "iyileştir": 7781,
      "i̇p": 7782,
      "istismar": 7783,
      "başladığını": 7784,
      "öneririm": 7785,
      "afyon": 7786,
      "türkmen": 7787,
      "sayım": 7788,
      "savaşın": 7789,
      "çeve": 7790,
      "fit": 7791,
      "mülk": 7792,
      "acağını": 7793,
      "dalga": 7794,
      "kalitesini": 7795,
      "raz": 7796,
      "haft": 7797,
      "yoz": 7798,
      "yolculuk": 7799,
      "yarısı": 7800,
      "etiyle": 7801,
      "dele": 7802,
      "meme": 7803,
      "verimli": 7804,
      "çerçeve": 7805,
      "dv": 7806,
      "ettiğim": 7807,
      "hâlâ": 7808,
      "ılırken": 7809,
      "olsaydı": 7810,
      "şeyin": 7811,
      "liralık": 7812,
      "geçirdiği": 7813,
      "takdirde": 7814,
      "buy": 7815,
      "had": 7816,
      "leh": 7817,
      "yakınları": 7818,
      "familyasına": 7819,
      "etkisiyle": 7820,
      "bizde": 7821,
      "ami": 7822,
      "nehri": 7823,
      "somut": 7824,
      "tank": 7825,
      "çıkarıldı": 7826,
      "burcu": 7827,
      "ülkeden": 7828,
      "1986": 7829,
      "bahse": 7830,
      "frank": 7831,
      "çıkıp": 7832,
      "evden": 7833,
      "akşener": 7834,
      "buluştur": 7835,
      "polisi": 7836,
      "ou": 7837,
      "tamamlandı": 7838,
      "kartal": 7839,
      "barındır": 7840,
      "bebekler": 7841,
      "yaşandığı": 7842,
      "geçiren": 7843,
      "tff": 7844,
      "çekme": 7845,
      "denizi": 7846,
      "faydalan": 7847,
      "ski": 7848,
      "vadeli": 7849,
      "savundu": 7850,
      "cemaat": 7851,
      "başlı": 7852,
      "akl": 7853,
      "macaristan": 7854,
      "geriye": 7855,
      "kıv": 7856,
      "bölgelerde": 7857,
      "nama": 7858,
      "imen": 7859,
      "toprağa": 7860,
      "ped": 7861,
      "ünal": 7862,
      "şimdilik": 7863,
      "belgesel": 7864,
      "özkan": 7865,
      "gecesi": 7866,
      "görevden": 7867,
      "ort": 7868,
      "berbat": 7869,
      "kutsal": 7870,
      "71": 7871,
      "testi": 7872,
      "edeceğini": 7873,
      "ld": 7874,
      "biş": 7875,
      "katil": 7876,
      "binanın": 7877,
      "yaşamı": 7878,
      "olmasının": 7879,
      "yuvar": 7880,
      "oluşturan": 7881,
      "diyoruz": 7882,
      "aman": 7883,
      "işken": 7884,
      "komitesi": 7885,
      "ötes": 7886,
      "tarihinin": 7887,
      "premium": 7888,
      "abil": 7889,
      "luğunda": 7890,
      "riski": 7891,
      "kuvvetli": 7892,
      "vatandaşı": 7893,
      "meksika": 7894,
      "devre": 7895,
      "asıllı": 7896,
      "muam": 7897,
      "geçtik": 7898,
      "kırk": 7899,
      "erol": 7900,
      "lezzet": 7901,
      "kurucusu": 7902,
      "yumur": 7903,
      "bulunduk": 7904,
      "çakır": 7905,
      "laci": 7906,
      "kaybettiği": 7907,
      "caz": 7908,
      "stein": 7909,
      "700": 7910,
      "112": 7911,
      "andro": 7912,
      "glo": 7913,
      "ziraat": 7914,
      "kuruş": 7915,
      "yönündeki": 7916,
      "şimdiden": 7917,
      "kayser": 7918,
      "tarihte": 7919,
      "başlıklı": 7920,
      "tazminat": 7921,
      "seyr": 7922,
      "moda": 7923,
      "kitapları": 7924,
      "çekildi": 7925,
      "ebiliyor": 7926,
      "kontrolü": 7927,
      "jür": 7928,
      "mesle": 7929,
      "hastalıkları": 7930,
      "radikal": 7931,
      "yansıt": 7932,
      "ferah": 7933,
      "yeterince": 7934,
      "i̇ttifakı": 7935,
      "oyunda": 7936,
      "bebegim": 7937,
      "ıslak": 7938,
      "ked": 7939,
      "amatör": 7940,
      "bant": 7941,
      "yorumları": 7942,
      "görenler": 7943,
      "bulgaristan": 7944,
      "oysa": 7945,
      "layık": 7946,
      "lüğünü": 7947,
      "valiliği": 7948,
      "yaşamadım": 7949,
      "bilet": 7950,
      "şak": 7951,
      "calı": 7952,
      "sorusuna": 7953,
      "söylemek": 7954,
      "gemi": 7955,
      "fatur": 7956,
      "oturan": 7957,
      "faf": 7958,
      "liğinden": 7959,
      "elimde": 7960,
      "iddiaları": 7961,
      "andan": 7962,
      "iba": 7963,
      "anlaya": 7964,
      "tedbirleri": 7965,
      "almadan": 7966,
      "müzisyen": 7967,
      "veda": 7968,
      "güzellik": 7969,
      "fez": 7970,
      "kendimi": 7971,
      "kuruluşu": 7972,
      "burası": 7973,
      "özer": 7974,
      "seviyede": 7975,
      "rezerv": 7976,
      "kişiden": 7977,
      "yapıp": 7978,
      "fur": 7979,
      "cinsiyet": 7980,
      "hayati": 7981,
      "buldum": 7982,
      "fırsatı": 7983,
      "mamız": 7984,
      "artarak": 7985,
      "nil": 7986,
      "ağab": 7987,
      "luğa": 7988,
      "şampiyonu": 7989,
      "derek": 7990,
      "voley": 7991,
      "i̇çin": 7992,
      "hariç": 7993,
      "blu": 7994,
      "kaynaklar": 7995,
      "lerdi": 7996,
      "lılığı": 7997,
      "belgesi": 7998,
      "kolaylaştır": 7999,
      "ölümü": 8000,
      "89": 8001,
      "kazak": 8002,
      "press": 8003,
      "kararlı": 8004,
      "kendin": 8005,
      "hun": 8006,
      "konfor": 8007,
      "abı": 8008,
      "çarptır": 8009,
      "pazarı": 8010,
      "şuan": 8011,
      "varan": 8012,
      "diyanet": 8013,
      "lıkları": 8014,
      "vurdu": 8015,
      "başardı": 8016,
      "tamamlan": 8017,
      "zamandır": 8018,
      "sevgi": 8019,
      "oradan": 8020,
      "nec": 8021,
      "almayın": 8022,
      "kuran": 8023,
      "şimşek": 8024,
      "şirketler": 8025,
      "serma": 8026,
      "oyunculuk": 8027,
      "ülkesi": 8028,
      "nitelendir": 8029,
      "meh": 8030,
      "hükümetinin": 8031,
      "olanak": 8032,
      "labor": 8033,
      "sahib": 8034,
      "binası": 8035,
      "tasına": 8036,
      "syon": 8037,
      "gelebilir": 8038,
      "tuğr": 8039,
      "laciver": 8040,
      "görevlisi": 8041,
      "çadır": 8042,
      "tici": 8043,
      "miktarda": 8044,
      "tad": 8045,
      "uel": 8046,
      "temsilcileri": 8047,
      "hamil": 8048,
      "osunu": 8049,
      "lılı": 8050,
      "şik": 8051,
      "keyifli": 8052,
      "serdar": 8053,
      "iyiydi": 8054,
      "denize": 8055,
      "gönderilen": 8056,
      "racak": 8057,
      "teklifi": 8058,
      "diyalog": 8059,
      "değinen": 8060,
      "etkisiz": 8061,
      "uzaklaş": 8062,
      "adnan": 8063,
      "britan": 8064,
      "inanç": 8065,
      "sudan": 8066,
      "kararının": 8067,
      "banın": 8068,
      "ladım": 8069,
      "lamadı": 8070,
      "parfüm": 8071,
      "pel": 8072,
      "kurumsal": 8073,
      "afad": 8074,
      "ayrıntı": 8075,
      "krem": 8076,
      "efsane": 8077,
      "uyruklu": 8078,
      "beslenme": 8079,
      "guldak": 8080,
      "yücel": 8081,
      "açılması": 8082,
      "yürek": 8083,
      "akademik": 8084,
      "aydınlat": 8085,
      "jose": 8086,
      "dünyadaki": 8087,
      "zonguldak": 8088,
      "çalışmaların": 8089,
      "kullanılabilir": 8090,
      "kaynakları": 8091,
      "geliştirme": 8092,
      "hepimiz": 8093,
      "yaptıklarını": 8094,
      "ılmasının": 8095,
      "hatırlat": 8096,
      "dri": 8097,
      "ligde": 8098,
      "arke": 8099,
      "oluşuyor": 8100,
      "yükselen": 8101,
      "haftalık": 8102,
      "propa": 8103,
      "alanına": 8104,
      "mülteci": 8105,
      "faruk": 8106,
      "luğunu": 8107,
      "katkıda": 8108,
      "farkında": 8109,
      "gelmedi": 8110,
      "gençlerin": 8111,
      "cular": 8112,
      "rize": 8113,
      "jik": 8114,
      "1984": 8115,
      "şeffaf": 8116,
      "inler": 8117,
      "sıkış": 8118,
      "mantık": 8119,
      "74": 8120,
      "itiraf": 8121,
      "utan": 8122,
      "editör": 8123,
      "ulaşan": 8124,
      "birbirinden": 8125,
      "emici": 8126,
      "güzeldi": 8127,
      "karanlık": 8128,
      "pır": 8129,
      "çiğ": 8130,
      "nişan": 8131,
      "erkan": 8132,
      "gürül": 8133,
      "vitam": 8134,
      "tuval": 8135,
      "ilmesinin": 8136,
      "ihbar": 8137,
      "tuğrul": 8138,
      "eşliğinde": 8139,
      "bakın": 8140,
      "george": 8141,
      "örgütün": 8142,
      "ilçede": 8143,
      "gözden": 8144,
      "polise": 8145,
      "camii": 8146,
      "care": 8147,
      "dine": 8148,
      "cileri": 8149,
      "zamanlı": 8150,
      "lamanın": 8151,
      "iledi": 8152,
      "çekmek": 8153,
      "kemik": 8154,
      "akıcı": 8155,
      "krip": 8156,
      "yakala": 8157,
      "polat": 8158,
      "prens": 8159,
      "devir": 8160,
      "acık": 8161,
      "tıbbi": 8162,
      "mert": 8163,
      "demişti": 8164,
      "ülüyor": 8165,
      "sürükle": 8166,
      "youtube": 8167,
      "vazgeçilmez": 8168,
      "savcılık": 8169,
      "araçlar": 8170,
      "haksız": 8171,
      "uygulamaya": 8172,
      "sorularını": 8173,
      "82": 8174,
      "karşılığında": 8175,
      "sıradan": 8176,
      "kardeşim": 8177,
      "turgut": 8178,
      "esk": 8179,
      "yönetmeni": 8180,
      "gore": 8181,
      "bakarak": 8182,
      "atmos": 8183,
      "gerekse": 8184,
      "soğut": 8185,
      "yalar": 8186,
      "kerim": 8187,
      "kaleci": 8188,
      "cis": 8189,
      "aras": 8190,
      "rit": 8191,
      "hedefi": 8192,
      "çevresinde": 8193,
      "kralı": 8194,
      "katlı": 8195,
      "gusu": 8196,
      "girdiği": 8197,
      "larımızla": 8198,
      "73": 8199,
      "yapmayı": 8200,
      "sürecinin": 8201,
      "nöbet": 8202,
      "bulunduğ": 8203,
      "adliyeye": 8204,
      "bilgilere": 8205,
      "kullanılması": 8206,
      "alacağı": 8207,
      "sül": 8208,
      "yürürlüğe": 8209,
      "görüştü": 8210,
      "öğrencilere": 8211,
      "alanlar": 8212,
      "partisinin": 8213,
      "olimpiyatları": 8214,
      "bn": 8215,
      "uygulamalar": 8216,
      "süs": 8217,
      "eğin": 8218,
      "esnek": 8219,
      "yiğit": 8220,
      "ladık": 8221,
      "burun": 8222,
      "oturum": 8223,
      "diplomatik": 8224,
      "oktay": 8225,
      "tiğini": 8226,
      "fatma": 8227,
      "yavru": 8228,
      "konuşmasında": 8229,
      "oluşturuyor": 8230,
      "sinyal": 8231,
      "görme": 8232,
      "frag": 8233,
      "üyelerinin": 8234,
      "ladim": 8235,
      "sky": 8236,
      "tecav": 8237,
      "eks": 8238,
      "liber": 8239,
      "çalışanları": 8240,
      "hamas": 8241,
      "prote": 8242,
      "www": 8243,
      "destekle": 8244,
      "müzi": 8245,
      "taliban": 8246,
      "ekiplerince": 8247,
      "bileş": 8248,
      "çekici": 8249,
      "yazarın": 8250,
      "niteli": 8251,
      "potansiyel": 8252,
      "tutuklan": 8253,
      "ole": 8254,
      "andre": 8255,
      "sti": 8256,
      "kitl": 8257,
      "doğalgaz": 8258,
      "kaçan": 8259,
      "cle": 8260,
      "stok": 8261,
      "isimleri": 8262,
      "ceph": 8263,
      "muhabirine": 8264,
      "bağışık": 8265,
      "hd": 8266,
      "ref": 8267,
      "bakanlar": 8268,
      "bölümde": 8269,
      "giyen": 8270,
      "hizmete": 8271,
      "paralel": 8272,
      "meteor": 8273,
      "i̇dare": 8274,
      "lusu": 8275,
      "harcam": 8276,
      "tekir": 8277,
      "jet": 8278,
      "i̇hlas": 8279,
      "gözler": 8280,
      "zorla": 8281,
      "kasyon": 8282,
      "masız": 8283,
      "uzaklaştır": 8284,
      "yenil": 8285,
      "tohum": 8286,
      "cay": 8287,
      "cunun": 8288,
      "artışı": 8289,
      "dua": 8290,
      "pencer": 8291,
      "konusundaki": 8292,
      "ulduğu": 8293,
      "ilerleyen": 8294,
      "voleybol": 8295,
      "çekir": 8296,
      "gittiği": 8297,
      "getirerek": 8298,
      "tablet": 8299,
      "dom": 8300,
      "deng": 8301,
      "farklılık": 8302,
      "ğiniz": 8303,
      "dünyayı": 8304,
      "dağıtım": 8305,
      "sektöründe": 8306,
      "balkan": 8307,
      "mutabak": 8308,
      "konular": 8309,
      "oluşturduğu": 8310,
      "aksa": 8311,
      "mid": 8312,
      "sektörü": 8313,
      "yad": 8314,
      "tiyatrosu": 8315,
      "oraya": 8316,
      "basar": 8317,
      "yetenek": 8318,
      "asından": 8319,
      "demektir": 8320,
      "hazırladığı": 8321,
      "bağlam": 8322,
      "önemlidir": 8323,
      "gitar": 8324,
      "çalışmalarının": 8325,
      "manevi": 8326,
      "kurşun": 8327,
      "gürc": 8328,
      "işlemi": 8329,
      "kari": 8330,
      "tşk": 8331,
      "endüstr": 8332,
      "işbir": 8333,
      "çalışırken": 8334,
      "league": 8335,
      "tecavüz": 8336,
      "forni": 8337,
      "taksi": 8338,
      "zamana": 8339,
      "makul": 8340,
      "üstlen": 8341,
      "kökenli": 8342,
      "gezegen": 8343,
      "rettin": 8344,
      "görecek": 8345,
      "koleksiyon": 8346,
      "sızın": 8347,
      "hele": 8348,
      "kaldığını": 8349,
      "**": 8350,
      "edilmişti": 8351,
      "kele": 8352,
      "paketlenmiş": 8353,
      "detaylı": 8354,
      "denin": 8355,
      "merhaba": 8356,
      "kimin": 8357,
      "kadını": 8358,
      "chester": 8359,
      "meselesi": 8360,
      "almıştı": 8361,
      "seçen": 8362,
      "yüküm": 8363,
      "müj": 8364,
      "çağrısında": 8365,
      "iyer": 8366,
      "götürüldü": 8367,
      "şeye": 8368,
      "kampanyası": 8369,
      "ich": 8370,
      "müziği": 8371,
      "talima": 8372,
      "aranan": 8373,
      "cın": 8374,
      "çalışmak": 8375,
      "kars": 8376,
      "onunla": 8377,
      "1982": 8378,
      "kadr": 8379,
      "sarayı": 8380,
      "görüldüğü": 8381,
      "onlarca": 8382,
      "dayanıklı": 8383,
      "mö": 8384,
      "esad": 8385,
      "sürü": 8386,
      "aler": 8387,
      "skor": 8388,
      "1985": 8389,
      "ayrılan": 8390,
      "yemen": 8391,
      "eskiden": 8392,
      "gürcistan": 8393,
      "ograf": 8394,
      "hayatın": 8395,
      "deg": 8396,
      "yüzyılın": 8397,
      "tırman": 8398,
      "söylediği": 8399,
      "world": 8400,
      "sonradan": 8401,
      "imkâ": 8402,
      "çılar": 8403,
      "yanlar": 8404,
      "alışkan": 8405,
      "fri": 8406,
      "bulunmak": 8407,
      "anneler": 8408,
      "fuar": 8409,
      "hayatına": 8410,
      "bilme": 8411,
      "indan": 8412,
      "cildi": 8413,
      "kısmını": 8414,
      "dara": 8415,
      "cenazesi": 8416,
      "zirvesi": 8417,
      "davada": 8418,
      "zeki": 8419,
      "bayrağı": 8420,
      "86": 8421,
      "kaymakamı": 8422,
      "faaliyetleri": 8423,
      "zeynep": 8424,
      "programında": 8425,
      "ağz": 8426,
      "nb": 8427,
      "araçları": 8428,
      "abdul": 8429,
      "tho": 8430,
      "iğ": 8431,
      "milliyetçi": 8432,
      "çağdaş": 8433,
      "bron": 8434,
      "maça": 8435,
      "gücünü": 8436,
      "tech": 8437,
      "i̇stih": 8438,
      "yır": 8439,
      "önlemleri": 8440,
      "hareketli": 8441,
      "bosna": 8442,
      "sıkıntısı": 8443,
      "kelimeyle": 8444,
      "tro": 8445,
      "liman": 8446,
      "83": 8447,
      "ifadesi": 8448,
      "hz": 8449,
      "bacak": 8450,
      "kolayca": 8451,
      "sanığın": 8452,
      "kılın": 8453,
      "ezya": 8454,
      "laşması": 8455,
      "üse": 8456,
      "ajans": 8457,
      "okyan": 8458,
      "tarzı": 8459,
      "demirören": 8460,
      "mesut": 8461,
      "mahkemeye": 8462,
      "asi": 8463,
      "mann": 8464,
      "oral": 8465,
      "görüntüsü": 8466,
      "tarihine": 8467,
      "gerçekleştirdiği": 8468,
      "ate": 8469,
      "haklarını": 8470,
      "vermiyor": 8471,
      "propaganda": 8472,
      "uzaklıktadır": 8473,
      "pasa": 8474,
      "turu": 8475,
      "sağlar": 8476,
      "sürdüren": 8477,
      "perde": 8478,
      "1000": 8479,
      "saati": 8480,
      "darb": 8481,
      "şehircilik": 8482,
      "kurduğu": 8483,
      "başlamış": 8484,
      "stres": 8485,
      "dönemine": 8486,
      "sezonun": 8487,
      "ilme": 8488,
      "suyun": 8489,
      "özcan": 8490,
      "miyoruz": 8491,
      "emr": 8492,
      "esin": 8493,
      "jack": 8494,
      "sürecin": 8495,
      "dökümü": 8496,
      "way": 8497,
      "belge": 8498,
      "amıyor": 8499,
      "i̇sa": 8500,
      "yeğ": 8501,
      "arif": 8502,
      "tarafında": 8503,
      "çatışma": 8504,
      "ılmaya": 8505,
      "kamerası": 8506,
      "hikây": 8507,
      "rahatsızlık": 8508,
      "edinilen": 8509,
      "sürecek": 8510,
      "teri": 8511,
      "disiplin": 8512,
      "kullandık": 8513,
      "uzan": 8514,
      "efendi": 8515,
      "kims": 8516,
      "açıklanan": 8517,
      "ander": 8518,
      "gev": 8519,
      "ful": 8520,
      "vatandaşlara": 8521,
      "mücadelesi": 8522,
      "hk": 8523,
      "başlattığı": 8524,
      "olduğunda": 8525,
      "ons": 8526,
      "national": 8527,
      "becer": 8528,
      "geçtiği": 8529,
      "önlemler": 8530,
      "havuz": 8531,
      "latin": 8532,
      "beraberinde": 8533,
      "olmasın": 8534,
      "herkesi": 8535,
      "açıklamaları": 8536,
      "tekirdağ": 8537,
      "partiler": 8538,
      "gruplar": 8539,
      "açıkçası": 8540,
      "kendileri": 8541,
      "1979": 8542,
      "dokuz": 8543,
      "uçağı": 8544,
      "si̇n": 8545,
      "ülkelere": 8546,
      "atış": 8547,
      "fırtına": 8548,
      "bağlantılı": 8549,
      "eceğim": 8550,
      "paylaştığı": 8551,
      "ayhan": 8552,
      "tos": 8553,
      "eyaletinde": 8554,
      "dezen": 8555,
      "hikaye": 8556,
      "katılımcı": 8557,
      "84": 8558,
      "özerk": 8559,
      "sayısını": 8560,
      "ardı": 8561,
      "aldıkları": 8562,
      "yöneticisi": 8563,
      "????": 8564,
      "yaları": 8565,
      "ismini": 8566,
      "şirketleri": 8567,
      "fay": 8568,
      "çizgi": 8569,
      "ünüz": 8570,
      "kişilere": 8571,
      "eklenmiştir": 8572,
      "mahalleleri": 8573,
      "siyasetçiler": 8574,
      "etmez": 8575,
      "papa": 8576,
      "unum": 8577,
      "oynan": 8578,
      "topluluk": 8579,
      "diyorlar": 8580,
      "kali": 8581,
      "189": 8582,
      "i̇dlib": 8583,
      "dows": 8584,
      "dışından": 8585,
      "sela": 8586,
      "olabilecek": 8587,
      "belirsiz": 8588,
      "eğitime": 8589,
      "savunan": 8590,
      "univer": 8591,
      "1983": 8592,
      "1974": 8593,
      "rıza": 8594,
      "çıkarılan": 8595,
      "i̇nşa": 8596,
      "deaş": 8597,
      "katılımıyla": 8598,
      "makal": 8599,
      "dog": 8600,
      "oksi": 8601,
      "lamaları": 8602,
      "i̇nde": 8603,
      "duygusal": 8604,
      "memuru": 8605,
      "vatandaşın": 8606,
      "albayrak": 8607,
      "sermaye": 8608,
      "tavsi̇ye": 8609,
      "önemlisi": 8610,
      "duktan": 8611,
      "anlamı": 8612,
      "varlığı": 8613,
      "yazan": 8614,
      "üf": 8615,
      "tex": 8616,
      "koordinasyon": 8617,
      "şoför": 8618,
      "sunduğu": 8619,
      "lap": 8620,
      "android": 8621,
      "ersoy": 8622,
      "çil": 8623,
      "suika": 8624,
      "cihazı": 8625,
      "çalıştığını": 8626,
      "philip": 8627,
      "pes": 8628,
      "luğun": 8629,
      "bildiği": 8630,
      "divan": 8631,
      "etnik": 8632,
      "şubesi": 8633,
      "beraat": 8634,
      "karışık": 8635,
      "bilinmeyen": 8636,
      "öncü": 8637,
      "yakalanan": 8638,
      "vri": 8639,
      "çen": 8640,
      "sade": 8641,
      "birebir": 8642,
      "karaman": 8643,
      "hayatım": 8644,
      "defalarca": 8645,
      "sürücüsü": 8646,
      "hoşu": 8647,
      "etkileri": 8648,
      "görüntüleri": 8649,
      "geli": 8650,
      "çıkarma": 8651,
      "row": 8652,
      "biber": 8653,
      "mi̇t": 8654,
      "tarihe": 8655,
      "göm": 8656,
      "mark": 8657,
      "bizans": 8658,
      "tavır": 8659,
      "kadem": 8660,
      "uli": 8661,
      "parlamentosu": 8662,
      "seviyesinde": 8663,
      "köyünde": 8664,
      "tılar": 8665,
      "birde": 8666,
      "işten": 8667,
      "eyici": 8668,
      "eserleri": 8669,
      "muharrem": 8670,
      "cana": 8671,
      "i̇nsanlar": 8672,
      "i̇rlanda": 8673,
      "kurs": 8674,
      "tran": 8675,
      "suy": 8676,
      "eğe": 8677,
      "peter": 8678,
      "kokulu": 8679,
      "resmî": 8680,
      "ting": 8681,
      "taciz": 8682,
      "başkanvekili": 8683,
      "eminim": 8684,
      "lamıyor": 8685,
      "i̇stiklal": 8686,
      "işsiz": 8687,
      "nefret": 8688,
      "sistemleri": 8689,
      "çıkmadı": 8690,
      "ceo": 8691,
      "loj": 8692,
      "yayınları": 8693,
      "cili": 8694,
      "hoşuma": 8695,
      "olik": 8696,
      "cher": 8697,
      "hepsini": 8698,
      "fonu": 8699,
      "durumlarda": 8700,
      "zır": 8701,
      "oynama": 8702,
      "akım": 8703,
      "sergilen": 8704,
      "volkan": 8705,
      "rolü": 8706,
      "kong": 8707,
      "koyun": 8708,
      "partili": 8709,
      "1950": 8710,
      "özenli": 8711,
      "cron": 8712,
      "memleket": 8713,
      "üksel": 8714,
      "malıyız": 8715,
      "labilir": 8716,
      "gözü": 8717,
      "daki̇ka": 8718,
      "mecbur": 8719,
      "mutfa": 8720,
      "turnuva": 8721,
      "istediklerini": 8722,
      "verip": 8723,
      "evlat": 8724,
      "mevzu": 8725,
      "kep": 8726,
      "sözde": 8727,
      "başlaya": 8728,
      "skan": 8729,
      "i̇pek": 8730,
      "pur": 8731,
      "özgürlüğü": 8732,
      "izleyen": 8733,
      "kalması": 8734,
      "rehber": 8735,
      "lou": 8736,
      "meniz": 8737,
      "noktaya": 8738,
      "aşağıdaki": 8739,
      "bölgesine": 8740,
      "gerçekleştirilecek": 8741,
      "(@": 8742,
      "rahatlığıyla": 8743,
      "hırvat": 8744,
      "abi": 8745,
      "yim": 8746,
      "kırmız": 8747,
      "oynuyor": 8748,
      "fabrik": 8749,
      "kurmak": 8750,
      "liydi": 8751,
      "saldırıya": 8752,
      "duman": 8753,
      "işletmeler": 8754,
      "brüksel": 8755,
      "girecek": 8756,
      "kaynağından": 8757,
      "olabilirdi": 8758,
      "gk": 8759,
      "yaşı": 8760,
      "ınızı": 8761,
      "edilemez": 8762,
      "gösteri": 8763,
      "bilem": 8764,
      "cesaret": 8765,
      "master": 8766,
      "nel": 8767,
      "imizle": 8768,
      "cnn": 8769,
      "alıyorum": 8770,
      "ülasyon": 8771,
      "ktan": 8772,
      "tüketici": 8773,
      "boyutu": 8774,
      "çilerin": 8775,
      "atla": 8776,
      "diyet": 8777,
      "verdiğim": 8778,
      "sayede": 8779,
      "yazıyor": 8780,
      "problemi": 8781,
      "özlem": 8782,
      "evinin": 8783,
      "liradan": 8784,
      "ahlak": 8785,
      "plana": 8786,
      "aldığımız": 8787,
      "jean": 8788,
      "olanı": 8789,
      "düğümüz": 8790,
      "yetişkin": 8791,
      "şartları": 8792,
      "levent": 8793,
      "lüks": 8794,
      "usa": 8795,
      "tüketic": 8796,
      "güvenle": 8797,
      "ayıp": 8798,
      "blok": 8799,
      "dolay": 8800,
      "malzemesi": 8801,
      "şeref": 8802,
      "mayacağı": 8803,
      "yalım": 8804,
      "ihtimali": 8805,
      "denemek": 8806,
      "laboratuvar": 8807,
      "köprüsü": 8808,
      "şampu": 8809,
      "yitirdi": 8810,
      "olmasından": 8811,
      "otomobilin": 8812,
      "yapama": 8813,
      "yolun": 8814,
      "era": 8815,
      "arkadaşım": 8816,
      "ölçüm": 8817,
      "buçuk": 8818,
      "görüle": 8819,
      "tiş": 8820,
      "deme": 8821,
      "bizzat": 8822,
      "trak": 8823,
      "arzu": 8824,
      "işsizlik": 8825,
      "doğduğu": 8826,
      "eyiz": 8827,
      "i̇ste": 8828,
      "alındığını": 8829,
      "alınabilecek": 8830,
      "güçlerinin": 8831,
      "vermişti": 8832,
      "ges": 8833,
      "gözaltı": 8834,
      "parasını": 8835,
      "ruhsat": 8836,
      "kit": 8837,
      "ston": 8838,
      "ulaştırma": 8839,
      "elli": 8840,
      "vara": 8841,
      "çoğunlukla": 8842,
      "cezaevi": 8843,
      "makinesi": 8844,
      "reut": 8845,
      "ebilirsiniz": 8846,
      "açıklamıştı": 8847,
      "olanlara": 8848,
      "ibar": 8849,
      "ysk": 8850,
      "istek": 8851,
      "taah": 8852,
      "kapısı": 8853,
      "kadık": 8854,
      "reş": 8855,
      "külot": 8856,
      "geçerek": 8857,
      "satışı": 8858,
      "low": 8859,
      "yönelt": 8860,
      "aradan": 8861,
      "beyan": 8862,
      "koşu": 8863,
      "gos": 8864,
      "karşılığını": 8865,
      "pişir": 8866,
      "87": 8867,
      "çeği": 8868,
      "kurut": 8869,
      "bastır": 8870,
      "yürüten": 8871,
      "görüntülen": 8872,
      "sistemin": 8873,
      "yapıştır": 8874,
      "işlemlerinin": 8875,
      "minik": 8876,
      "dedik": 8877,
      "ölümüne": 8878,
      "kitapta": 8879,
      "teb": 8880,
      "kentsel": 8881,
      "benden": 8882,
      "kadıköy": 8883,
      "mesleki": 8884,
      "anlaşmaya": 8885,
      "sordu": 8886,
      "sunan": 8887,
      "kamuoyu": 8888,
      "ulur": 8889,
      "sym": 8890,
      "bürokra": 8891,
      "çalışmalara": 8892,
      "fikr": 8893,
      "akademisi": 8894,
      "ürler": 8895,
      "nadir": 8896,
      "danim": 8897,
      "1975": 8898,
      "robot": 8899,
      "ilmek": 8900,
      "penaltı": 8901,
      "sokakta": 8902,
      "zevk": 8903,
      "coun": 8904,
      "kimliği": 8905,
      "barcel": 8906,
      "anıt": 8907,
      "isabet": 8908,
      "spek": 8909,
      "çekin": 8910,
      "izleyic": 8911,
      "melidir": 8912,
      "başarılar": 8913,
      "danimarka": 8914,
      "hut": 8915,
      "törende": 8916,
      "kaleme": 8917,
      "kararnam": 8918,
      "black": 8919,
      "ilerinde": 8920,
      "dediler": 8921,
      "zul": 8922,
      "önemi": 8923,
      "1973": 8924,
      "reddetti": 8925,
      "irti": 8926,
      "mim": 8927,
      "miras": 8928,
      "ayının": 8929,
      "ekonomisi": 8930,
      "cra": 8931,
      "macron": 8932,
      "etmedi": 8933,
      "yarattı": 8934,
      "cihan": 8935,
      "fed": 8936,
      "ilave": 8937,
      "çoğunluğu": 8938,
      "hazırlan": 8939,
      "sakın": 8940,
      "dünyası": 8941,
      "harekatı": 8942,
      "bakalım": 8943,
      "saadet": 8944,
      "sto": 8945,
      "abilecek": 8946,
      "martin": 8947,
      "geçmek": 8948,
      "pic": 8949,
      "üyeliği": 8950,
      "sırbistan": 8951,
      "kısmında": 8952,
      "üyeli": 8953,
      "normalde": 8954,
      "programda": 8955,
      "kızıla": 8956,
      "ayir": 8957,
      "yerler": 8958,
      "yayınladı": 8959,
      "görevine": 8960,
      "sürecini": 8961,
      "kütah": 8962,
      "grupları": 8963,
      "von": 8964,
      "budur": 8965,
      "hassasiyet": 8966,
      "1981": 8967,
      "birimi": 8968,
      "ötürü": 8969,
      "lanabilir": 8970,
      "kıyasla": 8971,
      "emeyecek": 8972,
      "ertelen": 8973,
      "yağlı": 8974,
      "kararlar": 8975,
      "valilik": 8976,
      "hesa": 8977,
      "gazetecilerin": 8978,
      "idam": 8979,
      "i̇lg": 8980,
      "manchester": 8981,
      "ınıza": 8982,
      "artışla": 8983,
      "bs": 8984,
      "yınca": 8985,
      "barın": 8986,
      "kumaş": 8987,
      "hüc": 8988,
      "finlan": 8989,
      "nereye": 8990,
      "arız": 8991,
      "olabileceği": 8992,
      "yaşamak": 8993,
      "düşünüyoruz": 8994,
      "etkilenen": 8995,
      "dönemlerde": 8996,
      "johnson": 8997,
      "yönettiği": 8998,
      "değişen": 8999,
      "üreten": 9000,
      "misyon": 9001,
      "profesör": 9002,
      "kurulması": 9003,
      "kaldırılması": 9004,
      "kader": 9005,
      "rahatlığı": 9006,
      "ee": 9007,
      "gelecekte": 9008,
      "i̇daresi": 9009,
      "ther": 9010,
      "ölçek": 9011,
      "https": 9012,
      "suçu": 9013,
      "antal": 9014,
      "spon": 9015,
      "deplasmanda": 9016,
      "yorumlar": 9017,
      "mışlar": 9018,
      "çıkarmak": 9019,
      "güneydoğu": 9020,
      "kuruluşları": 9021,
      "vatandaşlarımızın": 9022,
      "gelmiştir": 9023,
      "laf": 9024,
      "topla": 9025,
      "özbek": 9026,
      "kktc": 9027,
      "diyecek": 9028,
      "değiştirilmeden": 9029,
      "şüphelilerin": 9030,
      "i̇la": 9031,
      "sıralama": 9032,
      "bbc": 9033,
      "kokuyor": 9034,
      "emizde": 9035,
      "ılabilir": 9036,
      "i̇kti": 9037,
      "ozan": 9038,
      "cast": 9039,
      "bekliyorum": 9040,
      "kanlı": 9041,
      "ertuğrul": 9042,
      "unite": 9043,
      "emisyon": 9044,
      "çektiği": 9045,
      "dizinin": 9046,
      "servisi": 9047,
      "barcelona": 9048,
      "sistemini": 9049,
      "prensi": 9050,
      "kurak": 9051,
      "varsın": 9052,
      "şırnak": 9053,
      "bok": 9054,
      "neticesinde": 9055,
      "yansıdı": 9056,
      "1978": 9057,
      "cıoğlu": 9058,
      "1977": 9059,
      "vatandaşları": 9060,
      "yönetimindeki": 9061,
      "ilçesindeki": 9062,
      "adıyaman": 9063,
      "atmosfer": 9064,
      "beslen": 9065,
      "windows": 9066,
      "wal": 9067,
      "posta": 9068,
      "gösterir": 9069,
      "besin": 9070,
      "aksi": 9071,
      "1972": 9072,
      "açlık": 9073,
      "listesinde": 9074,
      "cağınız": 9075,
      "alakalı": 9076,
      "feda": 9077,
      "saldırısı": 9078,
      "ure": 9079,
      "durumunun": 9080,
      "okumak": 9081,
      "doları": 9082,
      "tanınan": 9083,
      "lıyoruz": 9084,
      "esince": 9085,
      "ziyareti": 9086,
      "kadınlara": 9087,
      "emic": 9088,
      "tarımsal": 9089,
      "söylemişti": 9090,
      "manuel": 9091,
      "doğduğundan": 9092,
      "esun": 9093,
      "peygam": 9094,
      "i̇lhan": 9095,
      "yazılmış": 9096,
      "yaka": 9097,
      "ayrılık": 9098,
      "atmak": 9099,
      "gelişmeleri": 9100,
      "yararlan": 9101,
      "çarptı": 9102,
      "rom": 9103,
      "yoluna": 9104,
      "alınmış": 9105,
      "hitap": 9106,
      "seviyesi": 9107,
      "karşılığı": 9108,
      "kuyu": 9109,
      "aşık": 9110,
      "anlamında": 9111,
      "rev": 9112,
      "giderken": 9113,
      "kenan": 9114,
      "madık": 9115,
      "emine": 9116,
      "göv": 9117,
      "parta": 9118,
      "sundu": 9119,
      "çalışır": 9120,
      "gösterilen": 9121,
      "eşinin": 9122,
      "çü": 9123,
      "kender": 9124,
      "bizden": 9125,
      "leyerek": 9126,
      "kılav": 9127,
      "united": 9128,
      "pin": 9129,
      "netan": 9130,
      "ateşkes": 9131,
      "katal": 9132,
      "ayağı": 9133,
      "sosyalist": 9134,
      "tehlike": 9135,
      "kodu": 9136,
      "ortağı": 9137,
      "niz": 9138,
      "böcek": 9139,
      "havacılık": 9140,
      "düşüyor": 9141,
      "asa": 9142,
      "medeniyet": 9143,
      "etkileyici": 9144,
      "çiftçi": 9145,
      "konuları": 9146,
      "hırsızlık": 9147,
      "duyduğu": 9148,
      "seviyorum": 9149,
      "söyler": 9150,
      "ediyorlar": 9151,
      "müyorum": 9152,
      "uni": 9153,
      "artması": 9154,
      "dondur": 9155,
      "kâr": 9156,
      "batman": 9157,
      "adaylar": 9158,
      "arşiv": 9159,
      "önlemek": 9160,
      "yıllarca": 9161,
      "iyice": 9162,
      "seçime": 9163,
      "evleri": 9164,
      "olmaları": 9165,
      "otomotiv": 9166,
      "urunu": 9167,
      "insanlık": 9168,
      "veriliyor": 9169,
      "çatışmalar": 9170,
      "çarşı": 9171,
      "global": 9172,
      "leyip": 9173,
      "1976": 9174,
      "şirketlerin": 9175,
      "ato": 9176,
      "atıldı": 9177,
      "yolunu": 9178,
      "i̇si̇": 9179,
      "ahmed": 9180,
      "dığınız": 9181,
      "şarkıları": 9182,
      "giresun": 9183,
      "etrafında": 9184,
      "başbakanlık": 9185,
      "albay": 9186,
      "kırmızılı": 9187,
      "nuri": 9188,
      "zorlan": 9189,
      "araçların": 9190,
      "süm": 9191,
      "bankacılık": 9192,
      "cuları": 9193,
      "reuters": 9194,
      "ilgisi": 9195,
      "filme": 9196,
      "lerimi": 9197,
      "tavsiyem": 9198,
      "kanaat": 9199,
      "örneği": 9200,
      "programına": 9201,
      "miting": 9202,
      "sonsuz": 9203,
      "netanyahu": 9204,
      "söylüyorum": 9205,
      "muay": 9206,
      "kripto": 9207,
      "husus": 9208,
      "sovyetler": 9209,
      "kararına": 9210,
      "unç": 9211,
      "imam": 9212,
      "rut": 9213,
      "traş": 9214,
      "satılan": 9215,
      "ayına": 9216,
      "ki̇m": 9217,
      "şeyh": 9218,
      "ücreti": 9219,
      "sistemine": 9220,
      "ngc": 9221,
      "i̇zm": 9222,
      "okulda": 9223,
      "tedbirler": 9224,
      "uygulamaları": 9225,
      "t24": 9226,
      "elikle": 9227,
      "yağışı": 9228,
      "soruları": 9229,
      "bab": 9230,
      "geçirmek": 9231,
      "i̇hbar": 9232,
      "sekreter": 9233,
      "hesabı": 9234,
      "wol": 9235,
      "aileler": 9236,
      "gönderim": 9237,
      "haftadır": 9238,
      "eli̇": 9239,
      "vida": 9240,
      "bask": 9241,
      "şev": 9242,
      "tunus": 9243,
      "ografi": 9244,
      "galip": 9245,
      "yüklü": 9246,
      "suya": 9247,
      "olmazsa": 9248,
      "ilmeye": 9249,
      "doku": 9250,
      "tıracak": 9251,
      "iii": 9252,
      "şarjı": 9253,
      "arazi": 9254,
      "gerçeği": 9255,
      "kavra": 9256,
      "vücud": 9257,
      "askerlik": 9258,
      "hırsız": 9259,
      "olanların": 9260,
      "veriler": 9261,
      "estetik": 9262,
      "ling": 9263,
      "otop": 9264,
      "yakınlarında": 9265,
      "verileri": 9266,
      "cas": 9267,
      "atarak": 9268,
      "yardımı": 9269,
      "geleceğini": 9270,
      "vladim": 9271,
      "edeceğim": 9272,
      "ithalat": 9273,
      "sebeple": 9274,
      "arkadaşlarım": 9275,
      "büyüt": 9276,
      "okuyun": 9277,
      "mişler": 9278,
      "seçimler": 9279,
      "1967": 9280,
      "finlandiya": 9281,
      "kriter": 9282,
      "eurov": 9283,
      "damla": 9284,
      "kullanır": 9285,
      "dışarıda": 9286,
      "yıcı": 9287,
      "1971": 9288,
      "kid": 9289,
      "tunç": 9290,
      "namazı": 9291,
      "tüfek": 9292,
      "kred": 9293,
      "istatistik": 9294,
      "rüş": 9295,
      "layın": 9296,
      "sahasında": 9297,
      "uyandır": 9298,
      "avrupalı": 9299,
      "oğra": 9300,
      "bulgu": 9301,
      "yasası": 9302,
      "neti": 9303,
      "mi̇l": 9304,
      "ida": 9305,
      "imparator": 9306,
      "foto": 9307,
      "boru": 9308,
      "olmanın": 9309,
      "ularak": 9310,
      "yürütü": 9311,
      "vladimir": 9312,
      "helal": 9313,
      "times": 9314,
      "yüze": 9315,
      "gazetecilere": 9316,
      "thy": 9317,
      "ofis": 9318,
      "arayış": 9319,
      "fazlası": 9320,
      "umuzu": 9321,
      "atom": 9322,
      "çıkmak": 9323,
      "gereksiz": 9324,
      "sorumlusu": 9325,
      "fabri": 9326,
      "----------------": 9327,
      "konsolos": 9328,
      "bileceğine": 9329,
      "sömür": 9330,
      "tertemiz": 9331,
      "görmüş": 9332,
      "şehrinde": 9333,
      "bağımsızlık": 9334,
      "eric": 9335,
      "eyerek": 9336,
      "ederi̇m": 9337,
      "sizler": 9338,
      "kazanç": 9339,
      "kastam": 9340,
      "albümleri": 9341,
      "personeli": 9342,
      "anlayışı": 9343,
      "ll": 9344,
      "riz": 9345,
      "tri": 9346,
      "mb": 9347,
      "milletimizin": 9348,
      "göze": 9349,
      "şüphelinin": 9350,
      "dinamik": 9351,
      "gelmişti": 9352,
      "ihraca": 9353,
      "yin": 9354,
      "düğünde": 9355,
      "landalı": 9356,
      "diğinden": 9357,
      "sergi": 9358,
      "sad": 9359,
      "görevlileri": 9360,
      "duruşmada": 9361,
      "kurma": 9362,
      "çeyre": 9363,
      "1968": 9364,
      "hissettir": 9365,
      "yaprak": 9366,
      "ifadelerine": 9367,
      "aşamasında": 9368,
      "aleyh": 9369,
      "kurumları": 9370,
      "arın": 9371,
      "sanatçısı": 9372,
      "üretici": 9373,
      "cus": 9374,
      "telefonla": 9375,
      "gum": 9376,
      "kaplan": 9377,
      "fli": 9378,
      "zanlı": 9379,
      "gözyaş": 9380,
      "drom": 9381,
      "eurovision": 9382,
      "altun": 9383,
      "suretiyle": 9384,
      "yakında": 9385,
      "beste": 9386,
      "fırça": 9387,
      "edilmektedir": 9388,
      "nal": 9389,
      "miz": 9390,
      "sığ": 9391,
      "yolo": 9392,
      "uta": 9393,
      "ekstra": 9394,
      "tev": 9395,
      "uzlaş": 9396,
      "atöly": 9397,
      "kullanımda": 9398,
      "projeleri": 9399,
      "inizin": 9400,
      "şikayetçi": 9401,
      "sürülen": 9402,
      "pon": 9403,
      "fotoğrafı": 9404,
      "tansiyon": 9405,
      "dursun": 9406,
      "plaj": 9407,
      "sınırı": 9408,
      "gidece": 9409,
      "vanın": 9410,
      "mira": 9411,
      "türkç": 9412,
      "ese": 9413,
      "karşıladı": 9414,
      "başarıyla": 9415,
      "saldırının": 9416,
      "markanın": 9417,
      "finale": 9418,
      "dergisi": 9419,
      "eğilim": 9420,
      "tarihlerinde": 9421,
      "yarattığı": 9422,
      "sağanak": 9423,
      "çoban": 9424,
      "merakla": 9425,
      "omo": 9426,
      "köyün": 9427,
      "hire": 9428,
      "kamuoyuna": 9429,
      "doktora": 9430,
      "hua": 9431,
      "işletme": 9432,
      "hatt": 9433,
      "ınızda": 9434,
      "verdiğimiz": 9435,
      "ileceği": 9436,
      "desteğiyle": 9437,
      "tabiki": 9438,
      "hakkari": 9439,
      "anton": 9440,
      "şahit": 9441,
      "istemedi": 9442,
      "örgütünün": 9443,
      "i̇skender": 9444,
      "mari": 9445,
      "güz": 9446,
      "açıklayan": 9447,
      "dükkan": 9448,
      "etmesini": 9449,
      "yerlere": 9450,
      "müzakere": 9451,
      "bilmektedir": 9452,
      "alper": 9453,
      "survi": 9454,
      "tm": 9455,
      "minibüs": 9456,
      "bağdat": 9457,
      "yumurta": 9458,
      "geçtiğini": 9459,
      "politikaları": 9460,
      "iyisini": 9461,
      "ero": 9462,
      "padi": 9463,
      "şarkısı": 9464,
      "eğlence": 9465,
      "başlama": 9466,
      "kitaplar": 9467,
      "arıyor": 9468,
      "çalın": 9469,
      "zırh": 9470,
      "kütahya": 9471,
      "enter": 9472,
      "oft": 9473,
      "kaptan": 9474,
      "paranın": 9475,
      "sırasıyla": 9476,
      "ilişkilerin": 9477,
      "göstermek": 9478,
      "yapıyorum": 9479,
      "salar": 9480,
      "rakib": 9481,
      "bakar": 9482,
      "erzin": 9483,
      "oli": 9484,
      "bilmiyor": 9485,
      "joe": 9486,
      "buda": 9487,
      "antrenör": 9488,
      "aşa": 9489,
      "kararları": 9490,
      "boşalt": 9491,
      "vermedi": 9492,
      "sanal": 9493,
      "üzeri": 9494,
      "yeni̇": 9495,
      "pp": 9496,
      "dönümü": 9497,
      "yanıl": 9498,
      "esi̇": 9499,
      "yazılan": 9500,
      "romanya": 9501,
      "olayların": 9502,
      "kanalı": 9503,
      "çıkarıyor": 9504,
      "danışmanı": 9505,
      "micros": 9506,
      "rakibi": 9507,
      "alkış": 9508,
      "koyu": 9509,
      "yüzüne": 9510,
      "sahası": 9511,
      "afyonkara": 9512,
      "akşamı": 9513,
      "birine": 9514,
      "mars": 9515,
      "cim": 9516,
      "taydı": 9517,
      "topar": 9518,
      "korkmaz": 9519,
      "geliştirmek": 9520,
      "hint": 9521,
      "bölgelerinde": 9522,
      "iyordum": 9523,
      "haricinde": 9524,
      "kıta": 9525,
      "taksim": 9526,
      "finansman": 9527,
      "otik": 9528,
      "ordusunun": 9529,
      "okullar": 9530,
      "alim": 9531,
      "buhar": 9532,
      "başkanımız": 9533,
      "ettin": 9534,
      "çekiş": 9535,
      "ls": 9536,
      "show": 9537,
      "ân": 9538,
      "firması": 9539,
      "maddeleri": 9540,
      "ıntılı": 9541,
      "hara": 9542,
      "kongresi": 9543,
      "zede": 9544,
      "dostu": 9545,
      "charles": 9546,
      "alıcı": 9547,
      "cük": 9548,
      "yasin": 9549,
      "piyasadaki": 9550,
      "cur": 9551,
      "tlar": 9552,
      "i̇şçi": 9553,
      "ülkelerden": 9554,
      "peygamber": 9555,
      "pc": 9556,
      "istir": 9557,
      "tahran": 9558,
      "amadı": 9559,
      "kardeşler": 9560,
      "masum": 9561,
      "binin": 9562,
      "komünist": 9563,
      "i̇hra": 9564,
      "bişey": 9565,
      "adap": 9566,
      "fikri": 9567,
      "ağırlıklı": 9568,
      "gerektiğine": 9569,
      "anlı": 9570,
      "bilinir": 9571,
      "monte": 9572,
      "ülkemize": 9573,
      "yanıtladı": 9574,
      "çözümü": 9575,
      "değerlendirdi": 9576,
      "pyd": 9577,
      "köl": 9578,
      "1969": 9579,
      "cla": 9580,
      "emizin": 9581,
      "yaptığım": 9582,
      "emedim": 9583,
      "dilekç": 9584,
      "ülüğ": 9585,
      "hazırda": 9586,
      "geleceğe": 9587,
      "kastamonu": 9588,
      "döner": 9589,
      "tian": 9590,
      "rahi": 9591,
      "evler": 9592,
      "keşif": 9593,
      "oluşturmak": 9594,
      "siber": 9595,
      "anlamlı": 9596,
      "dinde": 9597,
      "ihmal": 9598,
      "gib": 9599,
      "öğret": 9600,
      "konuşuyor": 9601,
      "haberde": 9602,
      "gelişen": 9603,
      "derhal": 9604,
      "tları": 9605,
      "masraf": 9606,
      "adamın": 9607,
      "oranla": 9608,
      "primadan": 9609,
      "ceae": 9610,
      "mum": 9611,
      "dönüştü": 9612,
      "eceğimiz": 9613,
      "çektir": 9614,
      "tadı": 9615,
      "oğlunun": 9616,
      "evlerinde": 9617,
      "oluşturdu": 9618,
      "vurgulayarak": 9619,
      "muaz": 9620,
      "konunun": 9621,
      "oturma": 9622,
[...]
