{
  "version": "1.0",
  "truncation": null,
  "padding": null,
  "added_tokens": [],
  "normalizer": null,
  "pre_tokenizer": {
    "type": "Whitespace"
  },
  "post_processor": null,
  "decoder": null,
  "model": {
    "type": "BPE",
    "dropout": null,
    "unk_token": null,
    "continuing_subword_prefix": null,
    "end_of_word_suffix": null,
    "fuse_unk": false,
    "byte_fallback": false,
    "ignore_merges": false,
    "vocab": {
      "!": 0,
      "\"": 1,
      "#": 2,
      "$": 3,
      "%": 4,
      "&": 5,
      "'": 6,
      "(": 7,
      ")": 8,
      "*": 9,
      "+": 10,
      ",": 11,
      "-": 12,
      ".": 13,
      "/": 14,
      "0": 15,
      "1": 16,
      "2": 17,
      "3": 18,
      "4": 19,
      "5": 20,
      "6": 21,
      "7": 22,
      "8": 23,
      "9": 24,
      ":": 25,
      ";": 26,
      "<": 27,
      "=": 28,
      ">": 29,
      "?": 30,
      "@": 31,
      "[": 32,
      "\\": 33,
      "]": 34,
      "^": 35,
      "_": 36,
      "`": 37,
      "a": 38,
      "b": 39,
      "c": 40,
      "d": 41,
      "e": 42,
      "f": 43,
      "g": 44,
      "h": 45,
      "i": 46,
      "j": 47,
      "k": 48,
      "l": 49,
      "m": 50,
      "n": 51,
      "o": 52,
      "p": 53,
      "q": 54,
      "r": 55,
      "s": 56,
      "t": 57,
      "u": 58,
      "v": 59,
      "w": 60,
      "x": 61,
      "y": 62,
      "z": 63,
      "{": 64,
      "|": 65,
      "}": 66,
      "~": 67,
      "¡": 68,
      "¢": 69,
      "£": 70,
      "¥": 71,
      "¦": 72,
      "§": 73,
      "¨": 74,
      "©": 75,
      "ª": 76,
      "«": 77,
      "¬": 78,
      "­": 79,
      "®": 80,
      "°": 81,
      "±": 82,
      "²": 83,
      "³": 84,
      "´": 85,
      "µ": 86,
      "¶": 87,
      "·": 88,
      "¸": 89,
      "¹": 90,
      "º": 91,
      "»": 92,
      "¼": 93,
      "½": 94,
      "¾": 95,
      "¿": 96,
      "×": 97,
      "ß": 98,
      "à": 99,
      "á": 100,
      "â": 101,
      "ã": 102,
      "ä": 103,
      "å": 104,
      "æ": 105,
      "ç": 106,
      "è": 107,
      "é": 108,
      "ê": 109,
      "ë": 110,
      "ì": 111,
      "í": 112,
      "î": 113,
      "ï": 114,
      "ð": 115,
      "ñ": 116,
      "ò": 117,
      "ó": 118,
      "ô": 119,
      "õ": 120,
      "ö": 121,
      "÷": 122,
      "ø": 123,
      "ù": 124,
      "ú": 125,
      "û": 126,
      "ü": 127,
      "ý": 128,
      "þ": 129,
      "ÿ": 130,
      "ā": 131,
      "ă": 132,
      "ą": 133,
      "ć": 134,
      "ĉ": 135,
      "č": 136,
      "ď": 137,
      "đ": 138,
      "ē": 139,
      "ĕ": 140,
      "ė": 141,
      "ę": 142,
      "ě": 143,
      "ĝ": 144,
      "ğ": 145,
      "ġ": 146,
      "ģ": 147,
      "ĥ": 148,
      "ħ": 149,
      "ĩ": 150,
      "ī": 151,
      "ĭ": 152,
      "į": 153,
      "ı": 154,
      "ķ": 155,
      "ļ": 156,
      "ľ": 157,
      "ł": 158,
      "ń": 159,
      "ņ": 160,
      "ň": 161,
      "ŋ": 162,
      "ō": 163,
      "ŏ": 164,
      "ő": 165,
      "œ": 166,
      "ř": 167,
      "ś": 168,
      "ŝ": 169,
      "ş": 170,
      "š": 171,
      "ţ": 172,
      "ť": 173,
      "ũ": 174,
      "ū": 175,
      "ŭ": 176,
      "ů": 177,
      "ű": 178,
      "ų": 179,
      "ź": 180,
      "ż": 181,
      "ž": 182,
      "ƒ": 183,
      "ơ": 184,
      "ƣ": 185,
      "ư": 186,
      "ǎ": 187,
      "ǐ": 188,
      "ǒ": 189,
      "ǔ": 190,
      "ǧ": 191,
      "ǫ": 192,
      "ș": 193,
      "ț": 194,
      "ȟ": 195,
      "ȧ": 196,
      "ɐ": 197,
      "ɑ": 198,
      "ɒ": 199,
      "ɔ": 200,
      "ɕ": 201,
      "ə": 202,
      "ɛ": 203,
      "ɡ": 204,
      "ɣ": 205,
      "ɨ": 206,
      "ɪ": 207,
      "ɬ": 208,
      "ɾ": 209,
      "ʁ": 210,
      "ʂ": 211,
      "ʃ": 212,
      "ʉ": 213,
      "ʊ": 214,
      "ʒ": 215,
      "ʔ": 216,
      "ʙ": 217,
      "ʰ": 218,
      "ʲ": 219,
      "ʷ": 220,
      "ʹ": 221,
      "ʻ": 222,
      "ʼ": 223,
      "ʾ": 224,
      "ʿ": 225,
      "ˁ": 226,
      "ˆ": 227,
      "ˈ": 228,
      "ˌ": 229,
      "ː": 230,
      "˚": 231,
      "̀": 232,
      "́": 233,
      "̂": 234,
      "̃": 235,
      "̄": 236,
      "̅": 237,
      "̇": 238,
      "̈": 239,
      "̌": 240,
      "̓": 241,
      "̗": 242,
      "̡": 243,
      "̣": 244,
      "̧": 245,
      "̨": 246,
      "̯": 247,
      "̱": 248,
      "̲": 249,
      "̶": 250,
      "͡": 251,
      "΄": 252,
      "ά": 253,
      "έ": 254,
      "ή": 255,
      "ί": 256,
      "α": 257,
      "β": 258,
      "γ": 259,
      "δ": 260,
      "ε": 261,
      "ζ": 262,
      "η": 263,
      "θ": 264,
      "ι": 265,
      "κ": 266,
      "λ": 267,
      "μ": 268,
      "ν": 269,
      "ξ": 270,
      "ο": 271,
      "π": 272,
      "ρ": 273,
      "ς": 274,
      "σ": 275,
      "τ": 276,
      "υ": 277,
      "φ": 278,
      "χ": 279,
      "ψ": 280,
      "ω": 281,
      "ϊ": 282,
      "ό": 283,
      "ύ": 284,
      "ώ": 285,
      "а": 286,
      "б": 287,
      "в": 288,
      "г": 289,
      "д": 290,
      "е": 291,
      "ж": 292,
      "з": 293,
      "и": 294,
      "й": 295,
      "к": 296,
      "л": 297,
      "м": 298,
      "н": 299,
      "о": 300,
      "п": 301,
      "р": 302,
      "с": 303,
      "т": 304,
      "у": 305,
      "ф": 306,
      "х": 307,
      "ц": 308,
      "ч": 309,
      "ш": 310,
      "щ": 311,
      "ъ": 312,
      "ы": 313,
      "ь": 314,
      "э": 315,
      "ю": 316,
      "я": 317,
      "ё": 318,
      "ђ": 319,
      "є": 320,
      "і": 321,
      "ї": 322,
      "ј": 323,
      "љ": 324,
      "њ": 325,
      "ћ": 326,
      "ў": 327,
      "џ": 328,
      "ғ": 329,
      "ҙ": 330,
      "қ": 331,
      "ҡ": 332,
      "ң": 333,
      "ҫ": 334,
      "ү": 335,
      "ұ": 336,
      "ҳ": 337,
      "һ": 338,
      "ӏ": 339,
      "ә": 340,
      "ӧ": 341,
      "ө": 342,
      "ա": 343,
      "բ": 344,
      "գ": 345,
      "դ": 346,
      "ե": 347,
      "զ": 348,
      "է": 349,
      "ը": 350,
      "թ": 351,
      "ժ": 352,
      "ի": 353,
      "լ": 354,
      "խ": 355,
      "ծ": 356,
      "կ": 357,
      "հ": 358,
      "ղ": 359,
      "ճ": 360,
      "մ": 361,
      "յ": 362,
      "ն": 363,
      "շ": 364,
      "ո": 365,
      "չ": 366,
      "պ": 367,
      "ջ": 368,
      "ռ": 369,
      "ս": 370,
      "վ": 371,
      "տ": 372,
      "ր": 373,
      "ց": 374,
      "ւ": 375,
      "փ": 376,
      "ք": 377,
      "օ": 378,
      "և": 379,
      "ְ": 380,
      "ִ": 381,
      "ֵ": 382,
      "ֶ": 383,
      "ַ": 384,
      "ָ": 385,
      "ֹ": 386,
      "ּ": 387,
      "ׁ": 388,
      "א": 389,
      "ב": 390,
      "ג": 391,
      "ד": 392,
      "ה": 393,
      "ו": 394,
      "ז": 395,
      "ח": 396,
      "ט": 397,
      "י": 398,
      "ך": 399,
      "כ": 400,
      "ל": 401,
      "ם": 402,
      "מ": 403,
      "ן": 404,
      "נ": 405,
      "ס": 406,
      "ע": 407,
      "פ": 408,
      "צ": 409,
      "ק": 410,
      "ר": 411,
      "ש": 412,
      "ת": 413,
      "،": 414,
      "؟": 415,
      "ء": 416,
      "آ": 417,
      "أ": 418,
      "ؤ": 419,
      "إ": 420,
      "ئ": 421,
      "ا": 422,
      "ب": 423,
      "ة": 424,
      "ت": 425,
      "ث": 426,
      "ج": 427,
      "ح": 428,
      "خ": 429,
      "د": 430,
      "ذ": 431,
      "ر": 432,
      "ز": 433,
      "س": 434,
      "ش": 435,
      "ص": 436,
      "ض": 437,
      "ط": 438,
      "ظ": 439,
      "ع": 440,
      "غ": 441,
      "ـ": 442,
      "ف": 443,
      "ق": 444,
      "ك": 445,
      "ل": 446,
      "م": 447,
      "ن": 448,
      "ه": 449,
      "و": 450,
      "ى": 451,
      "ي": 452,
      "ً": 453,
      "ٌ": 454,
      "ٍ": 455,
      "َ": 456,
      "ُ": 457,
      "ِ": 458,
      "ّ": 459,
      "ْ": 460,
      "٠": 461,
      "١": 462,
      "٢": 463,
      "٥": 464,
      "ٰ": 465,
      "پ": 466,
      "چ": 467,
      "ژ": 468,
      "ک": 469,
      "ڭ": 470,
      "گ": 471,
      "ھ": 472,
      "ہ": 473,
      "ۆ": 474,
      "ۇ": 475,
      "ی": 476,
      "ێ": 477,
      "ە": 478,
      "۪": 479,
      "۱": 480,
      "ܐ": 481,
      "ܕ": 482,
      "ܘ": 483,
      "ܝ": 484,
      "ܢ": 485,
      "ܪ": 486,
      "ܬ": 487,
      "ं": 488,
      "क": 489,
      "ग": 490,
      "ज": 491,
      "ण": 492,
      "त": 493,
      "द": 494,
      "ध": 495,
      "न": 496,
      "प": 497,
      "ब": 498,
      "भ": 499,
      "म": 500,
      "य": 501,
      "र": 502,
      "ल": 503,
      "व": 504,
      "श": 505,
      "स": 506,
      "ह": 507,
      "़": 508,
      "ा": 509,
      "ि": 510,
      "ी": 511,
      "ु": 512,
      "े": 513,
      "ो": 514,
      "्": 515,
      "ন": 516,
      "ব": 517,
      "ম": 518,
      "র": 519,
      "া": 520,
      "ি": 521,
      "্": 522,
      "ા": 523,
      "க": 524,
      "ர": 525,
      "ா": 526,
      "ி": 527,
      "்": 528,
      "್": 529,
      "්": 530,
      "ก": 531,
      "ค": 532,
      "ง": 533,
      "จ": 534,
      "ช": 535,
      "ด": 536,
      "ต": 537,
      "ท": 538,
      "น": 539,
      "บ": 540,
      "พ": 541,
      "ม": 542,
      "ย": 543,
      "ร": 544,
      "ล": 545,
      "ว": 546,
      "ส": 547,
      "ห": 548,
      "อ": 549,
      "ะ": 550,
      "ั": 551,
      "า": 552,
      "ิ": 553,
      "ี": 554,
      "ุ": 555,
      "เ": 556,
      "่": 557,
      "้": 558,
      "་": 559,
      "်": 560,
      "ა": 561,
      "ბ": 562,
      "გ": 563,
      "დ": 564,
      "ე": 565,
      "ვ": 566,
      "ზ": 567,
      "თ": 568,
      "ი": 569,
      "კ": 570,
      "ლ": 571,
      "მ": 572,
      "ნ": 573,
      "ო": 574,
      "პ": 575,
      "რ": 576,
      "ს": 577,
      "ტ": 578,
      "უ": 579,
      "ფ": 580,
      "ქ": 581,
      "ღ": 582,
      "ყ": 583,
      "შ": 584,
      "ჩ": 585,
      "ც": 586,
      "ძ": 587,
      "წ": 588,
      "ჭ": 589,
      "ხ": 590,
      "ჯ": 591,
      "ር": 592,
      "ት": 593,
      "ን": 594,
      "ᐃ": 595,
      "ᐅ": 596,
      "ᐊ": 597,
      "ᑐ": 598,
      "ᑦ": 599,
      "ᒃ": 600,
      "ᓂ": 601,
      "ᔪ": 602,
      "ᕐ": 603,
      "ᖅ": 604,
      "រ": 605,
      "ា": 606,
      "្": 607,
      "ᴀ": 608,
      "ḋ": 609,
      "ḍ": 610,
      "ḏ": 611,
      "ḗ": 612,
      "ḡ": 613,
      "ḥ": 614,
      "ḫ": 615,
      "ḳ": 616,
      "ḵ": 617,
      "ḷ": 618,
      "ṃ": 619,
      "ṇ": 620,
      "ṛ": 621,
      "ṡ": 622,
      "ṣ": 623,
      "ṫ": 624,
      "ṭ": 625,
      "ṯ": 626,
      "ẓ": 627,
      "ạ": 628,
      "ả": 629,
      "ấ": 630,
      "ầ": 631,
      "ắ": 632,
      "ế": 633,
      "ễ": 634,
      "ệ": 635,
      "ị": 636,
      "ọ": 637,
      "ố": 638,
      "ồ": 639,
      "ộ": 640,
      "ự": 641,
      "ἀ": 642,
      "ἄ": 643,
      "ἐ": 644,
      "ἑ": 645,
      "ἔ": 646,
      "ἡ": 647,
      "ἰ": 648,
      "ἱ": 649,
      "ὁ": 650,
      "ὐ": 651,
      "ὰ": 652,
      "ὴ": 653,
      "ὶ": 654,
      "ὸ": 655,
      "ῆ": 656,
      "ῖ": 657,
      "ῦ": 658,
      "ῶ": 659,
      "​": 660,
      "‌": 661,
      "‍": 662,
      "‎": 663,
      "‏": 664,
      "‐": 665,
      "‑": 666,
      "‒": 667,
      "–": 668,
      "—": 669,
      "―": 670,
      "‘": 671,
      "’": 672,
      "‚": 673,
      "“": 674,
      "”": 675,
      "„": 676,
      "‟": 677,
      "†": 678,
      "‡": 679,
      "•": 680,
      "‣": 681,
      "…": 682,
      "‬": 683,
      "‭": 684,
      "‰": 685,
      "′": 686,
      "″": 687,
      "›": 688,
      "⁄": 689,
      "⁰": 690,
      "₂": 691,
      "€": 692,
      "₺": 693,
      "⃣": 694,
      "℃": 695,
      "ℓ": 696,
      "№": 697,
      "™": 698,
      "←": 699,
      "↑": 700,
      "→": 701,
      "↓": 702,
      "↔": 703,
      "⇒": 704,
      "∈": 705,
      "−": 706,
      "∗": 707,
      "√": 708,
      "∞": 709,
      "≈": 710,
      "≠": 711,
      "≡": 712,
      "≤": 713,
      "≥": 714,
      "⋅": 715,
      "─": 716,
      "│": 717,
      "└": 718,
      "├": 719,
      "█": 720,
      "■": 721,
      "▪": 722,
      "►": 723,
      "◊": 724,
      "○": 725,
      "●": 726,
      "★": 727,
      "☆": 728,
      "☉": 729,
      "♥": 730,
      "♦": 731,
      "♭": 732,
      "♯": 733,
      "⚽": 734,
      "✔": 735,
      "❗": 736,
      "❝": 737,
      "❞": 738,
      "❤": 739,
      "➡": 740,
      "⟨": 741,
      "⟩": 742,
      "⦁": 743,
      "ⱨ": 744,
      "ⱪ": 745,
      "ⴰ": 746,
      "、": 747,
      "。": 748,
      "《": 749,
      "》": 750,
      "「": 751,
      "」": 752,
      "『": 753,
      "』": 754,
      "〜": 755,
      "あ": 756,
      "い": 757,
      "う": 758,
      "え": 759,
      "お": 760,
      "か": 761,
      "が": 762,
      "き": 763,
      "く": 764,
      "け": 765,
      "こ": 766,
      "さ": 767,
      "し": 768,
      "す": 769,
      "た": 770,
      "だ": 771,
      "ち": 772,
      "っ": 773,
      "つ": 774,
      "て": 775,
      "で": 776,
      "と": 777,
      "な": 778,
      "に": 779,
      "の": 780,
      "は": 781,
      "び": 782,
      "ま": 783,
      "み": 784,
      "め": 785,
      "も": 786,
      "よ": 787,
      "ら": 788,
      "り": 789,
      "る": 790,
      "れ": 791,
      "を": 792,
      "ん": 793,
      "ア": 794,
      "ィ": 795,
      "イ": 796,
      "ウ": 797,
      "ェ": 798,
      "エ": 799,
      "オ": 800,
      "カ": 801,
      "ガ": 802,
      "キ": 803,
      "ク": 804,
      "グ": 805,
      "ケ": 806,
      "コ": 807,
      "サ": 808,
      "シ": 809,
      "ジ": 810,
      "ス": 811,
      "ズ": 812,
      "セ": 813,
      "ソ": 814,
      "タ": 815,
      "ダ": 816,
      "チ": 817,
      "ッ": 818,
      "ツ": 819,
      "テ": 820,
      "デ": 821,
      "ト": 822,
      "ド": 823,
      "ナ": 824,
      "ニ": 825,
      "ハ": 826,
      "バ": 827,
      "パ": 828,
      "ビ": 829,
      "フ": 830,
      "ブ": 831,
      "プ": 832,
      "ベ": 833,
      "ボ": 834,
      "マ": 835,
      "ミ": 836,
      "ム": 837,
      "メ": 838,
      "モ": 839,
      "ャ": 840,
      "ュ": 841,
      "ョ": 842,
      "ラ": 843,
      "リ": 844,
      "ル": 845,
      "レ": 846,
      "ロ": 847,
      "ン": 848,
      "・": 849,
      "ー": 850,
      "一": 851,
      "七": 852,
      "三": 853,
      "上": 854,
      "下": 855,
      "不": 856,
      "世": 857,
      "东": 858,
      "中": 859,
      "主": 860,
      "之": 861,
      "九": 862,
      "乡": 863,
      "事": 864,
      "二": 865,
      "于": 866,
      "五": 867,
      "井": 868,
      "京": 869,
      "人": 870,
      "仁": 871,
      "代": 872,
      "伊": 873,
      "会": 874,
      "保": 875,
      "信": 876,
      "元": 877,
      "光": 878,
      "克": 879,
      "党": 880,
      "全": 881,
      "八": 882,
      "公": 883,
      "六": 884,
      "共": 885,
      "兵": 886,
      "出": 887,
      "別": 888,
      "利": 889,
      "化": 890,
      "北": 891,
      "区": 892,
      "區": 893,
      "十": 894,
      "华": 895,
      "南": 896,
      "博": 897,
      "原": 898,
      "县": 899,
      "古": 900,
      "可": 901,
      "台": 902,
      "史": 903,
      "号": 904,
      "司": 905,
      "合": 906,
      "吉": 907,
      "名": 908,
      "君": 909,
      "周": 910,
      "和": 911,
      "唐": 912,
      "單": 913,
      "四": 914,
      "回": 915,
      "国": 916,
      "國": 917,
      "土": 918,
      "地": 919,
      "城": 920,
      "場": 921,
      "塔": 922,
      "士": 923,
      "夏": 924,
      "夜": 925,
      "大": 926,
      "天": 927,
      "太": 928,
      "夫": 929,
      "女": 930,
      "子": 931,
      "学": 932,
      "宁": 933,
      "安": 934,
      "宗": 935,
      "宮": 936,
      "家": 937,
      "富": 938,
      "寺": 939,
      "小": 940,
      "少": 941,
      "尔": 942,
      "居": 943,
      "山": 944,
      "岳": 945,
      "島": 946,
      "川": 947,
      "州": 948,
      "市": 949,
      "帝": 950,
      "師": 951,
      "平": 952,
      "年": 953,
      "府": 954,
      "建": 955,
      "式": 956,
      "張": 957,
      "後": 958,
      "德": 959,
      "心": 960,
      "情": 961,
      "愛": 962,
      "成": 963,
      "我": 964,
      "戦": 965,
      "房": 966,
      "手": 967,
      "拉": 968,
      "政": 969,
      "教": 970,
      "文": 971,
      "斯": 972,
      "新": 973,
      "方": 974,
      "族": 975,
      "日": 976,
      "昌": 977,
      "明": 978,
      "星": 979,
      "春": 980,
      "時": 981,
      "書": 982,
      "月": 983,
      "有": 984,
      "朝": 985,
      "木": 986,
      "本": 987,
      "李": 988,
      "村": 989,
      "東": 990,
      "松": 991,
      "林": 992,
      "株": 993,
      "機": 994,
      "歌": 995,
      "正": 996,
      "武": 997,
      "氏": 998,
      "民": 999,
      "水": 1000,
      "永": 1001,
      "汗": 1002,
      "江": 1003,
      "沙": 1004,
      "河": 1005,
      "治": 1006,
      "法": 1007,
      "洞": 1008,
      "流": 1009,
      "海": 1010,
      "清": 1011,
      "湖": 1012,
      "漢": 1013,
      "火": 1014,
      "版": 1015,
      "物": 1016,
      "特": 1017,
      "玉": 1018,
      "王": 1019,
      "理": 1020,
      "生": 1021,
      "田": 1022,
      "疆": 1023,
      "白": 1024,
      "百": 1025,
      "的": 1026,
      "皇": 1027,
      "真": 1028,
      "石": 1029,
      "社": 1030,
      "神": 1031,
      "秀": 1032,
      "空": 1033,
      "立": 1034,
      "第": 1035,
      "縣": 1036,
      "羅": 1037,
      "美": 1038,
      "義": 1039,
      "者": 1040,
      "自": 1041,
      "花": 1042,
      "英": 1043,
      "茶": 1044,
      "草": 1045,
      "華": 1046,
      "行": 1047,
      "術": 1048,
      "衛": 1049,
      "西": 1050,
      "見": 1051,
      "記": 1052,
      "語": 1053,
      "谷": 1054,
      "趙": 1055,
      "軍": 1056,
      "通": 1057,
      "道": 1058,
      "達": 1059,
      "那": 1060,
      "郎": 1061,
      "部": 1062,
      "都": 1063,
      "里": 1064,
      "野": 1065,
      "金": 1066,
      "镇": 1067,
      "長": 1068,
      "門": 1069,
      "阳": 1070,
      "阿": 1071,
      "院": 1072,
      "陵": 1073,
      "陸": 1074,
      "隊": 1075,
      "雄": 1076,
      "集": 1077,
      "青": 1078,
      "面": 1079,
      "風": 1080,
      "飛": 1081,
      "馬": 1082,
      "高": 1083,
      "黄": 1084,
      "龍": 1085,
      "龙": 1086,
      "가": 1087,
      "강": 1088,
      "경": 1089,
      "고": 1090,
      "공": 1091,
      "구": 1092,
      "국": 1093,
      "군": 1094,
      "그": 1095,
      "금": 1096,
      "기": 1097,
      "김": 1098,
      "나": 1099,
      "남": 1100,
      "는": 1101,
      "니": 1102,
      "다": 1103,
      "당": 1104,
      "대": 1105,
      "도": 1106,
      "동": 1107,
      "라": 1108,
      "랑": 1109,
      "로": 1110,
      "리": 1111,
      "마": 1112,
      "무": 1113,
      "문": 1114,
      "미": 1115,
      "민": 1116,
      "박": 1117,
      "배": 1118,
      "보": 1119,
      "부": 1120,
      "비": 1121,
      "사": 1122,
      "산": 1123,
      "상": 1124,
      "서": 1125,
      "선": 1126,
      "성": 1127,
      "세": 1128,
      "소": 1129,
      "수": 1130,
      "스": 1131,
      "시": 1132,
      "신": 1133,
      "씨": 1134,
      "아": 1135,
      "안": 1136,
      "어": 1137,
      "에": 1138,
      "여": 1139,
      "연": 1140,
      "영": 1141,
      "오": 1142,
      "왕": 1143,
      "요": 1144,
      "우": 1145,
      "원": 1146,
      "유": 1147,
      "은": 1148,
      "을": 1149,
      "음": 1150,
      "의": 1151,
      "이": 1152,
      "인": 1153,
      "일": 1154,
      "자": 1155,
      "장": 1156,
      "재": 1157,
      "전": 1158,
      "젓": 1159,
      "정": 1160,
      "제": 1161,
      "조": 1162,
      "주": 1163,
      "지": 1164,
      "진": 1165,
      "차": 1166,
      "채": 1167,
      "천": 1168,
      "청": 1169,
      "최": 1170,
      "태": 1171,
      "터": 1172,
      "트": 1173,
      "하": 1174,
      "한": 1175,
      "해": 1176,
      "현": 1177,
      "호": 1178,
      "화": 1179,
      "회": 1180,
      "희": 1181,
      "ﬁ": 1182,
      "️": 1183,
      "﻿": 1184,
      "（": 1185,
      "）": 1186,
      "，": 1187,
      "－": 1188,
      "：": 1189,
      "～": 1190,
      "�": 1191,
      "🇷": 1192,
      "🇹": 1193,
      "🏆": 1194,
      "🏻": 1195,
      "👇": 1196,
      "👏": 1197,
      "📌": 1198,
      "📍": 1199,
      "ar": 1200,
      "an": 1201,
      "er": 1202,
      "in": 1203,
      "ın": 1204,
      "de": 1205,
      "il": 1206,
      "al": 1207,
      "en": 1208,
      "ir": 1209,
      "da": 1210,
      "ya": 1211,
      "ma": 1212,
      "lar": 1213,
      "el": 1214,
      "la": 1215,
      "et": 1216,
      "ak": 1217,
      "ek": 1218,
      "or": 1219,
      "di": 1220,
      "un": 1221,
      "on": 1222,
      "ol": 1223,
      "ka": 1224,
      "es": 1225,
      "ler": 1226,
      "dı": 1227,
      "ve": 1228,
      "bir": 1229,
      "ur": 1230,
      "ba": 1231,
      "is": 1232,
      "le": 1233,
      "iy": 1234,
      "tı": 1235,
      "im": 1236,
      "ik": 1237,
      "ün": 1238,
      "sa": 1239,
      "ta": 1240,
      "ür": 1241,
      "ha": 1242,
      "sı": 1243,
      "bu": 1244,
      "lı": 1245,
      "iz": 1246,
      "em": 1247,
      "i̇": 1248,
      "iş": 1249,
      "den": 1250,
      "lan": 1251,
      "yı": 1252,
      "ra": 1253,
      "ara": 1254,
      "ti": 1255,
      "ında": 1256,
      "dan": 1257,
      "ey": 1258,
      "du": 1259,
      "li": 1260,
      "gö": 1261,
      "te": 1262,
      "ını": 1263,
      "ğı": 1264,
      "ön": 1265,
      "baş": 1266,
      "um": 1267,
      "ki": 1268,
      "inde": 1269,
      "ini": 1270,
      "iç": 1271,
      "üz": 1272,
      "st": 1273,
      "ul": 1274,
      "mı": 1275,
      "ok": 1276,
      "ları": 1277,
      "it": 1278,
      "yap": 1279,
      "ine": 1280,
      "ık": 1281,
      "yor": 1282,
      "ce": 1283,
      "ile": 1284,
      "ay": 1285,
      "at": 1286,
      "me": 1287,
      "esi": 1288,
      "am": 1289,
      "anı": 1290,
      "ük": 1291,
      "alı": 1292,
      "ına": 1293,
      "ül": 1294,
      "iler": 1295,
      "arı": 1296,
      "re": 1297,
      "son": 1298,
      "oğ": 1299,
      "ca": 1300,
      "bil": 1301,
      "tür": 1302,
      "ver": 1303,
      "uz": 1304,
      "şı": 1305,
      "inin": 1306,
      "leri": 1307,
      "gel": 1308,
      "20": 1309,
      "us": 1310,
      "kar": 1311,
      "uş": 1312,
      "se": 1313,
      "ği": 1314,
      "kı": 1315,
      "bul": 1316,
      "kon": 1317,
      "üm": 1318,
      "ken": 1319,
      "çık": 1320,
      "ut": 1321,
      "ge": 1322,
      "ne": 1323,
      "dir": 1324,
      "fa": 1325,
      "rı": 1326,
      "için": 1327,
      "ından": 1328,
      "ının": 1329,
      "yıl": 1330,
      "yan": 1331,
      "eler": 1332,
      "cak": 1333,
      "oldu": 1334,
      "lu": 1335,
      "to": 1336,
      "iye": 1337,
      "öz": 1338,
      "bel": 1339,
      "ro": 1340,
      "mak": 1341,
      "man": 1342,
      "ist": 1343,
      "türk": 1344,
      "gün": 1345,
      "lik": 1346,
      "as": 1347,
      "der": 1348,
      "olar": 1349,
      "cı": 1350,
      "len": 1351,
      "ger": 1352,
      "iyor": 1353,
      "oy": 1354,
      "ye": 1355,
      "lık": 1356,
      "alar": 1357,
      "az": 1358,
      "yer": 1359,
      "gi": 1360,
      "ması": 1361,
      "öy": 1362,
      "19": 1363,
      "kur": 1364,
      "ör": 1365,
      "üş": 1366,
      "unu": 1367,
      "cu": 1368,
      "si": 1369,
      "ola": 1370,
      "ter": 1371,
      "hal": 1372,
      "tir": 1373,
      "yapı": 1374,
      "olarak": 1375,
      "ci": 1376,
      "zı": 1377,
      "kal": 1378,
      "san": 1379,
      "ştı": 1380,
      "öl": 1381,
      "üy": 1382,
      "dil": 1383,
      "yon": 1384,
      "gör": 1385,
      "ev": 1386,
      "yen": 1387,
      "kay": 1388,
      "mek": 1389,
      "sür": 1390,
      "dar": 1391,
      "başk": 1392,
      "mas": 1393,
      "tar": 1394,
      "bi": 1395,
      "ip": 1396,
      "ber": 1397,
      "çok": 1398,
      "bak": 1399,
      "değ": 1400,
      "yar": 1401,
      "ke": 1402,
      "dır": 1403,
      "yla": 1404,
      "geç": 1405,
      "yaş": 1406,
      "olduğ": 1407,
      "ların": 1408,
      "doğ": 1409,
      "mil": 1410,
      "ko": 1411,
      "dev": 1412,
      "nin": 1413,
      "va": 1414,
      "cek": 1415,
      "ru": 1416,
      "par": 1417,
      "gen": 1418,
      "dur": 1419,
      "os": 1420,
      "gü": 1421,
      "tan": 1422,
      "sında": 1423,
      "olan": 1424,
      "miş": 1425,
      "ab": 1426,
      "mü": 1427,
      "edi": 1428,
      "ili": 1429,
      "na": 1430,
      "let": 1431,
      "tur": 1432,
      "çalı": 1433,
      "met": 1434,
      "be": 1435,
      "ih": 1436,
      "öyle": 1437,
      "dığı": 1438,
      "çek": 1439,
      "ça": 1440,
      "isi": 1441,
      "eye": 1442,
      "iyle": 1443,
      "ğını": 1444,
      "daha": 1445,
      "göre": 1446,
      "kul": 1447,
      "top": 1448,
      "türkiye": 1449,
      "var": 1450,
      "tak": 1451,
      "men": 1452,
      "diğ": 1453,
      "su": 1454,
      "mes": 1455,
      "yön": 1456,
      "uk": 1457,
      "lerin": 1458,
      "tek": 1459,
      "her": 1460,
      "bulun": 1461,
      "açık": 1462,
      "alan": 1463,
      "imiz": 1464,
      "büy": 1465,
      "üzer": 1466,
      "mer": 1467,
      "sal": 1468,
      "ama": 1469,
      "lü": 1470,
      "önem": 1471,
      "unda": 1472,
      "leş": 1473,
      "sonra": 1474,
      "pro": 1475,
      "edil": 1476,
      "çı": 1477,
      "tara": 1478,
      "mu": 1479,
      "belir": 1480,
      "uy": 1481,
      "ise": 1482,
      "mız": 1483,
      "ad": 1484,
      "iyet": 1485,
      "taraf": 1486,
      "bin": 1487,
      "sağ": 1488,
      "yüz": 1489,
      "pa": 1490,
      "karşı": 1491,
      "stan": 1492,
      "sor": 1493,
      "ada": 1494,
      "etti": 1495,
      "lama": 1496,
      "ede": 1497,
      "av": 1498,
      "büyük": 1499,
      "böl": 1500,
      "tr": 1501,
      "kullan": 1502,
      "çalış": 1503,
      "nın": 1504,
      "hak": 1505,
      "mal": 1506,
      "başkanı": 1507,
      "larını": 1508,
      "kan": 1509,
      "eş": 1510,
      "yeni": 1511,
      "201": 1512,
      "dem": 1513,
      "dür": 1514,
      "laş": 1515,
      "00": 1516,
      "id": 1517,
      "dün": 1518,
      "yaptı": 1519,
      "bun": 1520,
      "dik": 1521,
      "alt": 1522,
      "kiş": 1523,
      "tü": 1524,
      "ser": 1525,
      "ch": 1526,
      "por": 1527,
      "mesi": 1528,
      "diği": 1529,
      "şe": 1530,
      "lerini": 1531,
      "inden": 1532,
      "maya": 1533,
      "tal": 1534,
      "sel": 1535,
      "tem": 1536,
      "gu": 1537,
      "eli": 1538,
      "tu": 1539,
      "dü": 1540,
      "yak": 1541,
      "ten": 1542,
      "lığı": 1543,
      "düş": 1544,
      "şa": 1545,
      "yol": 1546,
      "ran": 1547,
      "han": 1548,
      "ladı": 1549,
      "biz": 1550,
      "mi": 1551,
      "za": 1552,
      "daki": 1553,
      "ben": 1554,
      "ldı": 1555,
      "gerek": 1556,
      "kez": 1557,
      "ır": 1558,
      "kap": 1559,
      "kadar": 1560,
      "ilen": 1561,
      "lara": 1562,
      "yat": 1563,
      "zam": 1564,
      "bur": 1565,
      "düz": 1566,
      "gibi": 1567,
      "öğ": 1568,
      "esinde": 1569,
      "i̇n": 1570,
      "tarafından": 1571,
      "etk": 1572,
      "oyun": 1573,
      "per": 1574,
      "kat": 1575,
      "söyle": 1576,
      "kor": 1577,
      "ban": 1578,
      "ren": 1579,
      "ğini": 1580,
      "şek": 1581,
      "har": 1582,
      "lam": 1583,
      "ştır": 1584,
      "sah": 1585,
      "mar": 1586,
      "bilir": 1587,
      "mış": 1588,
      "ali": 1589,
      "eri": 1590,
      "anda": 1591,
      "ğu": 1592,
      "bağ": 1593,
      "etim": 1594,
      "eğ": 1595,
      "deki": 1596,
      "neden": 1597,
      "ilk": 1598,
      "om": 1599,
      "pol": 1600,
      "i̇s": 1601,
      "ilg": 1602,
      "kara": 1603,
      "orta": 1604,
      "cum": 1605,
      "gir": 1606,
      "konuş": 1607,
      "ifa": 1608,
      "ot": 1609,
      "ildi": 1610,
      "dırı": 1611,
      "üs": 1612,
      "şeh": 1613,
      "bol": 1614,
      "seç": 1615,
      "olduğunu": 1616,
      "eti": 1617,
      "yal": 1618,
      "hur": 1619,
      "ster": 1620,
      "ven": 1621,
      "ri": 1622,
      "tarih": 1623,
      "can": 1624,
      "lem": 1625,
      "olma": 1626,
      "sek": 1627,
      "söz": 1628,
      "sun": 1629,
      "haber": 1630,
      "i̇l": 1631,
      "yük": 1632,
      "he": 1633,
      "fi": 1634,
      "tes": 1635,
      "genel": 1636,
      "ifade": 1637,
      "sını": 1638,
      "dım": 1639,
      "uştur": 1640,
      "çe": 1641,
      "dedi": 1642,
      "kad": 1643,
      "cumhur": 1644,
      "siz": 1645,
      "gaz": 1646,
      "olduğu": 1647,
      "elik": 1648,
      "ard": 1649,
      "dış": 1650,
      "şu": 1651,
      "bakan": 1652,
      "sız": 1653,
      "özel": 1654,
      "ah": 1655,
      "gerçek": 1656,
      "fil": 1657,
      "arasında": 1658,
      "başkan": 1659,
      "larının": 1660,
      "oğlu": 1661,
      "get": 1662,
      "devam": 1663,
      "ayrı": 1664,
      "ço": 1665,
      "mo": 1666,
      "nak": 1667,
      "kendi": 1668,
      "kes": 1669,
      "sayı": 1670,
      "süre": 1671,
      "200": 1672,
      "kü": 1673,
      "getir": 1674,
      "dünya": 1675,
      "beledi": 1676,
      "göster": 1677,
      "liği": 1678,
      "düzen": 1679,
      "tör": 1680,
      "ileri": 1681,
      "zan": 1682,
      "i̇stan": 1683,
      "bo": 1684,
      "larda": 1685,
      "i̇stanbul": 1686,
      "mey": 1687,
      "bek": 1688,
      "sen": 1689,
      "din": 1690,
      "çocu": 1691,
      "nı": 1692,
      "ilgili": 1693,
      "kem": 1694,
      "alın": 1695,
      "tır": 1696,
      "göz": 1697,
      "insan": 1698,
      "zaman": 1699,
      "çi": 1700,
      "bile": 1701,
      "yaz": 1702,
      "cağı": 1703,
      "merkez": 1704,
      "katı": 1705,
      "sin": 1706,
      "yapılan": 1707,
      "malar": 1708,
      "yüzde": 1709,
      "devlet": 1710,
      "eleri": 1711,
      "vi": 1712,
      "durum": 1713,
      "tik": 1714,
      "tut": 1715,
      "üt": 1716,
      "başla": 1717,
      "yın": 1718,
      "hem": 1719,
      "iki": 1720,
      "bas": 1721,
      "lere": 1722,
      "birlik": 1723,
      "dönem": 1724,
      "bar": 1725,
      "sonu": 1726,
      "ulu": 1727,
      "ünü": 1728,
      "eden": 1729,
      "ku": 1730,
      "usu": 1731,
      "tüm": 1732,
      "ım": 1733,
      "anla": 1734,
      "ecek": 1735,
      "vur": 1736,
      "arak": 1737,
      "lerinin": 1738,
      "10": 1739,
      "değil": 1740,
      "ardından": 1741,
      "dön": 1742,
      "gı": 1743,
      "res": 1744,
      "kaynak": 1745,
      ".\"": 1746,
      "öğren": 1747,
      "iyi": 1748,
      "karar": 1749,
      "fer": 1750,
      "dık": 1751,
      "pan": 1752,
      "una": 1753,
      "diye": 1754,
      "güven": 1755,
      "van": 1756,
      "aret": 1757,
      "gelen": 1758,
      "alık": 1759,
      "ala": 1760,
      "istem": 1761,
      "for": 1762,
      "far": 1763,
      "hat": 1764,
      "larında": 1765,
      "önce": 1766,
      "yorum": 1767,
      "sil": 1768,
      "meye": 1769,
      "ancak": 1770,
      "larına": 1771,
      "açı": 1772,
      "spor": 1773,
      "sit": 1774,
      "dığını": 1775,
      "sev": 1776,
      "yılında": 1777,
      "yoruz": 1778,
      "fut": 1779,
      "gra": 1780,
      "olu": 1781,
      "==": 1782,
      "abd": 1783,
      "unun": 1784,
      "kim": 1785,
      "sıra": 1786,
      "af": 1787,
      "futbol": 1788,
      "mem": 1789,
      "yok": 1790,
      "rak": 1791,
      "=\"": 1792,
      "zla": 1793,
      "artı": 1794,
      "kö": 1795,
      "ana": 1796,
      "..": 1797,
      "diğini": 1798,
      "vat": 1799,
      "ciler": 1800,
      "değiş": 1801,
      "lantı": 1802,
      "değer": 1803,
      "önemli": 1804,
      "lerine": 1805,
      "ret": 1806,
      "maz": 1807,
      "doğan": 1808,
      "çocuk": 1809,
      "görev": 1810,
      "det": 1811,
      "tas": 1812,
      "bulundu": 1813,
      "belirt": 1814,
      "bah": 1815,
      "tel": 1816,
      "sav": 1817,
      "işk": 1818,
      "lendir": 1819,
      "lerde": 1820,
      "bay": 1821,
      "olay": 1822,
      "art": 1823,
      "yas": 1824,
      "yet": 1825,
      "lo": 1826,
      "ünde": 1827,
      "şekil": 1828,
      "leştir": 1829,
      "15": 1830,
      "lığ": 1831,
      "mayı": 1832,
      "millet": 1833,
      "ece": 1834,
      "taş": 1835,
      "çev": 1836,
      "eğit": 1837,
      "asyon": 1838,
      "kullanı": 1839,
      "tay": 1840,
      "zor": 1841,
      "duy": 1842,
      "milyon": 1843,
      "olo": 1844,
      "nde": 1845,
      "şey": 1846,
      "ğü": 1847,
      "gru": 1848,
      "kadın": 1849,
      "erek": 1850,
      "eder": 1851,
      "aç": 1852,
      "mah": 1853,
      "birlikte": 1854,
      "cü": 1855,
      "18": 1856,
      "üst": 1857,
      "kr": 1858,
      "ef": 1859,
      "eğitim": 1860,
      "aynı": 1861,
      "geliş": 1862,
      "inci": 1863,
      "fazla": 1864,
      "lanan": 1865,
      "söyledi": 1866,
      "part": 1867,
      "ındaki": 1868,
      "yaptığı": 1869,
      "konu": 1870,
      "şehir": 1871,
      "sam": 1872,
      "şekilde": 1873,
      "yi": 1874,
      "diğer": 1875,
      "ans": 1876,
      "lerinde": 1877,
      "kom": 1878,
      "ülk": 1879,
      "saat": 1880,
      "seçim": 1881,
      "iti": 1882,
      "uygu": 1883,
      "fark": 1884,
      "liğ": 1885,
      "po": 1886,
      "avru": 1887,
      "bugün": 1888,
      "açıklama": 1889,
      "do": 1890,
      "nun": 1891,
      "haf": 1892,
      "istan": 1893,
      "iyon": 1894,
      "ket": 1895,
      "sahip": 1896,
      "dav": 1897,
      "görüş": 1898,
      "ilişk": 1899,
      "yardım": 1900,
      "dest": 1901,
      "yarı": 1902,
      "makta": 1903,
      "iver": 1904,
      "ulus": 1905,
      "mam": 1906,
      "masını": 1907,
      "içinde": 1908,
      "kazan": 1909,
      "avrupa": 1910,
      "so": 1911,
      "i̇ş": 1912,
      "deniz": 1913,
      "bulunan": 1914,
      "),": 1915,
      "sur": 1916,
      "zır": 1917,
      "raf": 1918,
      "hük": 1919,
      "sos": 1920,
      "destek": 1921,
      "mıştır": 1922,
      "ni": 1923,
      "ilç": 1924,
      "masına": 1925,
      "güç": 1926,
      "kişi": 1927,
      "fak": 1928,
      "maları": 1929,
      "müdür": 1930,
      "şam": 1931,
      "mez": 1932,
      "üniver": 1933,
      "cel": 1934,
      "arka": 1935,
      "rus": 1936,
      "suç": 1937,
      "zon": 1938,
      "sağlık": 1939,
      "film": 1940,
      "kaç": 1941,
      "tekn": 1942,
      "pi": 1943,
      "co": 1944,
      "hazır": 1945,
      "vatanda": 1946,
      "dr": 1947,
      "ası": 1948,
      "gan": 1949,
      "cen": 1950,
      "sistem": 1951,
      "kür": 1952,
      "eyi": 1953,
      "hayat": 1954,
      "alman": 1955,
      "erdoğan": 1956,
      "üp": 1957,
      "tep": 1958,
      "ker": 1959,
      "pr": 1960,
      "atı": 1961,
      "veya": 1962,
      "tin": 1963,
      "hiç": 1964,
      "muş": 1965,
      "med": 1966,
      "gil": 1967,
      "içer": 1968,
      "sosyal": 1969,
      "üzerine": 1970,
      "oloj": 1971,
      "yür": 1972,
      "12": 1973,
      "yatı": 1974,
      "larla": 1975,
      "sava": 1976,
      "yüksek": 1977,
      "bunun": 1978,
      "proj": 1979,
      "ekip": 1980,
      "199": 1981,
      "hakk": 1982,
      "imi": 1983,
      "para": 1984,
      "kurul": 1985,
      "ilik": 1986,
      "tor": 1987,
      "kası": 1988,
      "yanı": 1989,
      "val": 1990,
      "ekon": 1991,
      "kil": 1992,
      "landı": 1993,
      "ener": 1994,
      "usunda": 1995,
      "yönetim": 1996,
      "esine": 1997,
      "ete": 1998,
      "hi": 1999,
      "lenen": 2000,
      "acak": 2001,
      "lardan": 2002,
      "müca": 2003,
      "laşı": 2004,
      "oto": 2005,
      "nedeniyle": 2006,
      "bazı": 2007,
      "şir": 2008,
      "luk": 2009,
      "tah": 2010,
      "üne": 2011,
      "sına": 2012,
      "miştir": 2013,
      "belediye": 2014,
      "indeki": 2015,
      "polis": 2016,
      "üç": 2017,
      "mücade": 2018,
      "likle": 2019,
      "harek": 2020,
      "bilg": 2021,
      "ülke": 2022,
      "olmak": 2023,
      "mekte": 2024,
      "lması": 2025,
      "say": 2026,
      "ira": 2027,
      "yazı": 2028,
      "tanı": 2029,
      "pay": 2030,
      "ağ": 2031,
      "hiz": 2032,
      "30": 2033,
      "yasa": 2034,
      "maç": 2035,
      "genç": 2036,
      "pla": 2037,
      "202": 2038,
      "aş": 2039,
      "ck": 2040,
      "parti": 2041,
      "tış": 2042,
      "lis": 2043,
      "aj": 2044,
      "nda": 2045,
      "ilerin": 2046,
      "i̇z": 2047,
      "köy": 2048,
      "kam": 2049,
      "dece": 2050,
      "takım": 2051,
      "ho": 2052,
      "mıştı": 2053,
      "vek": 2054,
      "müz": 2055,
      "bır": 2056,
      "ap": 2057,
      "gür": 2058,
      "laştı": 2059,
      "görün": 2060,
      "fran": 2061,
      "hüküm": 2062,
      "bet": 2063,
      "git": 2064,
      "ed": 2065,
      "gön": 2066,
      "vatandaş": 2067,
      "bakanı": 2068,
      "arası": 2069,
      "yayın": 2070,
      "büt": 2071,
      "maktadır": 2072,
      "başladı": 2073,
      "konuştu": 2074,
      "akı": 2075,
      "ft": 2076,
      "bağlı": 2077,
      "geçen": 2078,
      "pek": 2079,
      "mad": 2080,
      "geçir": 2081,
      "plan": 2082,
      "şi": 2083,
      "olacak": 2084,
      "bit": 2085,
      "hizmet": 2086,
      "üniversit": 2087,
      "üzere": 2088,
      "iddi": 2089,
      "eski": 2090,
      "kın": 2091,
      "sü": 2092,
      "aldı": 2093,
      "terör": 2094,
      "sak": 2095,
      "ceza": 2096,
      "futbolcu": 2097,
      "çıktı": 2098,
      "ağı": 2099,
      "uzun": 2100,
      "sadece": 2101,
      "hı": 2102,
      "örgü": 2103,
      "of": 2104,
      "rek": 2105,
      "bölg": 2106,
      "bölüm": 2107,
      "hay": 2108,
      "ham": 2109,
      "ttı": 2110,
      "doğru": 2111,
      "ediyor": 2112,
      "teş": 2113,
      "ayrıca": 2114,
      "mahal": 2115,
      "yaşa": 2116,
      "ortaya": 2117,
      "yakın": 2118,
      "haz": 2119,
      "--": 2120,
      "hastan": 2121,
      "geldi": 2122,
      "16": 2123,
      "sır": 2124,
      "net": 2125,
      "lük": 2126,
      "ga": 2127,
      "iyoruz": 2128,
      "the": 2129,
      "larımız": 2130,
      "gerçekleştir": 2131,
      "lacak": 2132,
      "cin": 2133,
      "sta": 2134,
      "mişti": 2135,
      "iste": 2136,
      "bes": 2137,
      "17": 2138,
      "manın": 2139,
      "umlu": 2140,
      "gn": 2141,
      "yaklaş": 2142,
      "ankara": 2143,
      "min": 2144,
      "des": 2145,
      "cumhurbaşkanı": 2146,
      "aları": 2147,
      "fin": 2148,
      "yaşan": 2149,
      "kül": 2150,
      "lıyor": 2151,
      "tarı": 2152,
      "hafta": 2153,
      "zi": 2154,
      "lah": 2155,
      "şar": 2156,
      "biri": 2157,
      "günü": 2158,
      "14": 2159,
      "eme": 2160,
      "cağını": 2161,
      "rım": 2162,
      "isinde": 2163,
      "layan": 2164,
      "böyle": 2165,
      "başarı": 2166,
      "farklı": 2167,
      "meler": 2168,
      "taşı": 2169,
      "oyuncu": 2170,
      "kent": 2171,
      "hava": 2172,
      "demir": 2173,
      "siya": 2174,
      "şim": 2175,
      "bor": 2176,
      "mahkem": 2177,
      "cumhuriyet": 2178,
      "gram": 2179,
      "enin": 2180,
      "saldırı": 2181,
      "sonuç": 2182,
      "verdi": 2183,
      "yapan": 2184,
      "kır": 2185,
      "dola": 2186,
      "mızı": 2187,
      "50": 2188,
      "lim": 2189,
      "masının": 2190,
      "larından": 2191,
      "hede": 2192,
      "ele": 2193,
      "bey": 2194,
      "edildi": 2195,
      "üyor": 2196,
      "oluş": 2197,
      "oluştur": 2198,
      "belediy": 2199,
      "burada": 2200,
      "i̇ngil": 2201,
      "kabul": 2202,
      "ton": 2203,
      "düşün": 2204,
      "lum": 2205,
      "edilen": 2206,
      "kapsam": 2207,
      "işim": 2208,
      "üc": 2209,
      "oper": 2210,
      "mektedir": 2211,
      "görül": 2212,
      "kol": 2213,
      "aşı": 2214,
      "hakkında": 2215,
      "mir": 2216,
      "mut": 2217,
      "ekonom": 2218,
      "hes": 2219,
      "lerinden": 2220,
      "11": 2221,
      "kurum": 2222,
      "müş": 2223,
      "mus": 2224,
      "yaklaşık": 2225,
      "diler": 2226,
      "car": 2227,
      "mücadele": 2228,
      "tamam": 2229,
      "araç": 2230,
      "uç": 2231,
      "nok": 2232,
      "col": 2233,
      "altına": 2234,
      "yönelik": 2235,
      "araştır": 2236,
      "bölge": 2237,
      "ses": 2238,
      "değerlendir": 2239,
      "sıl": 2240,
      "dül": 2241,
      "hast": 2242,
      "lerle": 2243,
      "sine": 2244,
      "çağ": 2245,
      "grup": 2246,
      "kaynakça": 2247,
      "i̇k": 2248,
      "mev": 2249,
      "sanat": 2250,
      "ata": 2251,
      "kalan": 2252,
      "önc": 2253,
      "oğun": 2254,
      "açıklamada": 2255,
      "13": 2256,
      "gın": 2257,
      "dolar": 2258,
      "ış": 2259,
      "ünün": 2260,
      "emek": 2261,
      "tra": 2262,
      "ziy": 2263,
      "konusunda": 2264,
      "uluslar": 2265,
      "align": 2266,
      "isim": 2267,
      "tl": 2268,
      "üzerinde": 2269,
      "198": 2270,
      "lerden": 2271,
      "esinin": 2272,
      "bütün": 2273,
      "okul": 2274,
      "savun": 2275,
      "birliği": 2276,
      "bilin": 2277,
      "ülkeler": 2278,
      "ümüz": 2279,
      "çıkar": 2280,
      "rol": 2281,
      "şirket": 2282,
      "okra": 2283,
      "fes": 2284,
      "vak": 2285,
      "silah": 2286,
      "savaş": 2287,
      "bunu": 2288,
      "mec": 2289,
      "hmet": 2290,
      "bağı": 2291,
      "====": 2292,
      "ağır": 2293,
      "güvenlik": 2294,
      "ödül": 2295,
      "hedef": 2296,
      "paz": 2297,
      "birçok": 2298,
      "sezon": 2299,
      "bildir": 2300,
      "alet": 2301,
      "bağlantı": 2302,
      "gar": 2303,
      "tale": 2304,
      "başka": 2305,
      "isyon": 2306,
      "toplantı": 2307,
      "ettiği": 2308,
      "geri": 2309,
      "dana": 2310,
      "nasıl": 2311,
      "ceğ": 2312,
      "eşit": 2313,
      "uluslararası": 2314,
      "halk": 2315,
      "las": 2316,
      "gin": 2317,
      "del": 2318,
      "rar": 2319,
      "daş": 2320,
      "hen": 2321,
      "rusya": 2322,
      "cam": 2323,
      "bat": 2324,
      "gül": 2325,
      "adı": 2326,
      "olur": 2327,
      "milli": 2328,
      "çar": 2329,
      "güz": 2330,
      "25": 2331,
      "yerine": 2332,
      "olması": 2333,
      "24": 2334,
      "dikkat": 2335,
      "ing": 2336,
      "rağ": 2337,
      "sürdür": 2338,
      "barı": 2339,
      "hale": 2340,
      "hep": 2341,
      "trol": 2342,
      "gönder": 2343,
      "dok": 2344,
      "yardımcı": 2345,
      "muz": 2346,
      "lerimiz": 2347,
      "leme": 2348,
      "çalışmalar": 2349,
      "üniversitesi": 2350,
      "bizim": 2351,
      "oğraf": 2352,
      "ilişkin": 2353,
      "talya": 2354,
      "yüksel": 2355,
      "hil": 2356,
      "açıkla": 2357,
      "sınır": 2358,
      "eyen": 2359,
      "ail": 2360,
      "fet": 2361,
      "milletvek": 2362,
      "yeniden": 2363,
      "onu": 2364,
      "lüğü": 2365,
      "ayan": 2366,
      "teh": 2367,
      "sorun": 2368,
      "kültür": 2369,
      "veril": 2370,
      "dolayı": 2371,
      "özellikle": 2372,
      "ekim": 2373,
      "no": 2374,
      "aya": 2375,
      "kontrol": 2376,
      "yur": 2377,
      "çin": 2378,
      "medya": 2379,
      "malı": 2380,
      "güzel": 2381,
      "çöz": 2382,
      "chp": 2383,
      "iniz": 2384,
      "geçti": 2385,
      "şarkı": 2386,
      "şöyle": 2387,
      "beş": 2388,
      "toplum": 2389,
      "bal": 2390,
      "oda": 2391,
      "kları": 2392,
      "almanya": 2393,
      "br": 2394,
      "kita": 2395,
      "şamp": 2396,
      "iyorum": 2397,
      "ziyaret": 2398,
      "etmek": 2399,
      "mesini": 2400,
      "go": 2401,
      "tif": 2402,
      "uğ": 2403,
      "if": 2404,
      "demokra": 2405,
      "suz": 2406,
      "kuru": 2407,
      "ner": 2408,
      "yapıl": 2409,
      "çalışan": 2410,
      "kut": 2411,
      "lider": 2412,
      "irüs": 2413,
      "şampiyon": 2414,
      "i̇r": 2415,
      "ze": 2416,
      "ilecek": 2417,
      "erk": 2418,
      "hangi": 2419,
      "tim": 2420,
      "kuz": 2421,
      "dal": 2422,
      "vet": 2423,
      "kısa": 2424,
      "küç": 2425,
      "yo": 2426,
      "mehmet": 2427,
      "yım": 2428,
      ".”": 2429,
      "sının": 2430,
      "bilim": 2431,
      "baba": 2432,
      "cağız": 2433,
      "his": 2434,
      "ğunu": 2435,
      "bakanlığı": 2436,
      "hareket": 2437,
      "koru": 2438,
      "sıyla": 2439,
      "yetk": 2440,
      "tat": 2441,
      "kamu": 2442,
      "sat": 2443,
      "197": 2444,
      "aday": 2445,
      "toplam": 2446,
      "altında": 2447,
      "engel": 2448,
      "tutuk": 2449,
      "dakika": 2450,
      "düğ": 2451,
      "ceğini": 2452,
      "dair": 2453,
      "nü": 2454,
      "gun": 2455,
      "kav": 2456,
      "yacak": 2457,
      "pat": 2458,
      "isti": 2459,
      "ize": 2460,
      "operasyon": 2461,
      "lin": 2462,
      "altı": 2463,
      "çıkan": 2464,
      "yargı": 2465,
      "dönüş": 2466,
      "mart": 2467,
      "sar": 2468,
      "kayb": 2469,
      "gazete": 2470,
      "kaz": 2471,
      "tiya": 2472,
      "duğu": 2473,
      "izin": 2474,
      "işleri": 2475,
      "kayı": 2476,
      "ibi": 2477,
      "th": 2478,
      "don": 2479,
      "avu": 2480,
      "aray": 2481,
      "bırak": 2482,
      "suriye": 2483,
      "uyor": 2484,
      "...": 2485,
      "temmuz": 2486,
      "lül": 2487,
      "hükümet": 2488,
      "mesine": 2489,
      "konusu": 2490,
      "erik": 2491,
      "asker": 2492,
      "niyet": 2493,
      "şüp": 2494,
      "tam": 2495,
      "kurulu": 2496,
      "yun": 2497,
      "osman": 2498,
      "kullandı": 2499,
      "lek": 2500,
      "dile": 2501,
      "yara": 2502,
      "milyar": 2503,
      "merkezi": 2504,
      "siyon": 2505,
      "hiçbir": 2506,
      "sey": 2507,
      "rail": 2508,
      "elek": 2509,
      "medi": 2510,
      "ram": 2511,
      "nis": 2512,
      "anlaş": 2513,
      "huk": 2514,
      "yönet": 2515,
      "ona": 2516,
      "şan": 2517,
      "ikinci": 2518,
      "zar": 2519,
      "temel": 2520,
      "ihtiya": 2521,
      "dağ": 2522,
      "birleş": 2523,
      "öldür": 2524,
      "onun": 2525,
      "vil": 2526,
      "ürün": 2527,
      "ceği": 2528,
      "cep": 2529,
      "yu": 2530,
      "ji": 2531,
      "küçük": 2532,
      "esini": 2533,
      "kapsamında": 2534,
      "siyasi": 2535,
      "i̇srail": 2536,
      "pu": 2537,
      "lira": 2538,
      "lamalar": 2539,
      "tük": 2540,
      "oku": 2541,
      "gerekti": 2542,
      "ez": 2543,
      "bera": 2544,
      "sağla": 2545,
      "yaşam": 2546,
      "ris": 2547,
      "program": 2548,
      "rağmen": 2549,
      "iran": 2550,
      "karde": 2551,
      "pit": 2552,
      "ortak": 2553,
      "çalışma": 2554,
      "rapor": 2555,
      "21": 2556,
      "başvur": 2557,
      "zen": 2558,
      "doğu": 2559,
      "üzerinden": 2560,
      "yoğun": 2561,
      "fır": 2562,
      "teknik": 2563,
      "ölüm": 2564,
      "klarını": 2565,
      "aldığı": 2566,
      "ac": 2567,
      "güney": 2568,
      "gol": 2569,
      "amerik": 2570,
      "|-": 2571,
      "artık": 2572,
      "ayd": 2573,
      "100": 2574,
      "örgüt": 2575,
      "diz": 2576,
      "uzak": 2577,
      "mahall": 2578,
      "üretim": 2579,
      "larıyla": 2580,
      "anlam": 2581,
      "temsil": 2582,
      "ted": 2583,
      "aliyet": 2584,
      "benim": 2585,
      "kuzey": 2586,
      "yine": 2587,
      "mayıs": 2588,
      "sından": 2589,
      "veren": 2590,
      "kişinin": 2591,
      "ocak": 2592,
      "siyas": 2593,
      "ayı": 2594,
      "erkek": 2595,
      "yurt": 2596,
      "lig": 2597,
      "gal": 2598,
      "görüntü": 2599,
      "fot": 2600,
      "zer": 2601,
      "pen": 2602,
      "23": 2603,
      "esel": 2604,
      "belirten": 2605,
      "partisi": 2606,
      "ğa": 2607,
      "masında": 2608,
      "mur": 2609,
      "ğına": 2610,
      "||": 2611,
      "2020": 2612,
      "belediyesi": 2613,
      "i̇ran": 2614,
      "bağlantılar": 2615,
      "ddi": 2616,
      "çün": 2617,
      "ğimiz": 2618,
      "hayvan": 2619,
      "vurgu": 2620,
      "i̇m": 2621,
      "söy": 2622,
      "lır": 2623,
      "ait": 2624,
      "kesin": 2625,
      "leyen": 2626,
      "kız": 2627,
      "diyor": 2628,
      "eylül": 2629,
      "196": 2630,
      "gelir": 2631,
      "uluk": 2632,
      "jan": 2633,
      "batı": 2634,
      "koy": 2635,
      "sik": 2636,
      "soruştur": 2637,
      "kararı": 2638,
      "yarış": 2639,
      "hayatını": 2640,
      "hin": 2641,
      "düzenlenen": 2642,
      "madı": 2643,
      "isinin": 2644,
      "ordu": 2645,
      "çünkü": 2646,
      "değişik": 2647,
      "kah": 2648,
      "haziran": 2649,
      "meden": 2650,
      "geliştir": 2651,
      "nüf": 2652,
      "ann": 2653,
      "incel": 2654,
      "fotoğraf": 2655,
      "çeşit": 2656,
      "ilere": 2657,
      "sebe": 2658,
      "çalışı": 2659,
      "yatırım": 2660,
      "oyna": 2661,
      "kasım": 2662,
      "soy": 2663,
      "duyur": 2664,
      "ilmesi": 2665,
      "fik": 2666,
      "izi": 2667,
      "şüph": 2668,
      "lendi": 2669,
      "endi": 2670,
      "aralık": 2671,
      "etkin": 2672,
      "ıyor": 2673,
      "yanın": 2674,
      "işlem": 2675,
      "soru": 2676,
      "terek": 2677,
      "ldığı": 2678,
      "yaşayan": 2679,
      "dö": 2680,
      "yum": 2681,
      "22": 2682,
      "tarihi": 2683,
      "anad": 2684,
      "boy": 2685,
      "i̇lk": 2686,
      "biliyor": 2687,
      "şimdi": 2688,
      "alarında": 2689,
      "lüğ": 2690,
      "i̇ç": 2691,
      "otomo": 2692,
      "itibar": 2693,
      "başkanlığı": 2694,
      "yıldı": 2695,
      "anadolu": 2696,
      "belirtti": 2697,
      "dör": 2698,
      "ley": 2699,
      "hız": 2700,
      "jo": 2701,
      "boyun": 2702,
      "sem": 2703,
      "pe": 2704,
      "beraber": 2705,
      "dha": 2706,
      "cisi": 2707,
      "arkadaş": 2708,
      "musta": 2709,
      "tespit": 2710,
      "ğin": 2711,
      "boz": 2712,
      "faaliyet": 2713,
      "takı": 2714,
      "nor": 2715,
      "dağı": 2716,
      "40": 2717,
      "sini": 2718,
      "bm": 2719,
      "2019": 2720,
      "şun": 2721,
      "bilecek": 2722,
      "organ": 2723,
      "we": 2724,
      "içerisinde": 2725,
      "sayısı": 2726,
      "yolu": 2727,
      "gem": 2728,
      "mağ": 2729,
      "gelecek": 2730,
      "nisan": 2731,
      "manı": 2732,
      "müdürlüğü": 2733,
      "tığı": 2734,
      "mustafa": 2735,
      "sektör": 2736,
      "kel": 2737,
      "çalıştı": 2738,
      "i̇zmir": 2739,
      "oran": 2740,
      "sanı": 2741,
      "prem": 2742,
      "mada": 2743,
      "detti": 2744,
      "bı": 2745,
      "pazar": 2746,
      "savcı": 2747,
      "hu": 2748,
      "eur": 2749,
      "tarihinde": 2750,
      "gerçekleş": 2751,
      "buna": 2752,
      "beklen": 2753,
      "satı": 2754,
      "hap": 2755,
      "sırasında": 2756,
      "teknoloj": 2757,
      "bulunduğu": 2758,
      "telef": 2759,
      "isini": 2760,
      "altın": 2761,
      "lım": 2762,
      ".'": 2763,
      "laşım": 2764,
      "üret": 2765,
      "alınan": 2766,
      "zamanda": 2767,
      "leriyle": 2768,
      "dava": 2769,
      "öğrenciler": 2770,
      "allah": 2771,
      "fiyat": 2772,
      "nokta": 2773,
      "belirterek": 2774,
      "sarı": 2775,
      "fe": 2776,
      "yle": 2777,
      "elerin": 2778,
      "elektr": 2779,
      "geler": 2780,
      "basın": 2781,
      "başbakan": 2782,
      "tic": 2783,
      "ameri": 2784,
      "2018": 2785,
      "kaldırı": 2786,
      "şid": 2787,
      "kir": 2788,
      "umuz": 2789,
      "yaşındaki": 2790,
      "müda": 2791,
      "meydana": 2792,
      "28": 2793,
      "izm": 2794,
      "sol": 2795,
      "büyükşehir": 2796,
      "ulaş": 2797,
      "lak": 2798,
      "yani": 2799,
      "lış": 2800,
      "aların": 2801,
      "ince": 2802,
      "center": 2803,
      "ülen": 2804,
      "gider": 2805,
      "yayım": 2806,
      "fir": 2807,
      "düğü": 2808,
      "talep": 2809,
      "uldu": 2810,
      "mik": 2811,
      "ayında": 2812,
      "ekonomik": 2813,
      "madde": 2814,
      "tören": 2815,
      "kaya": 2816,
      "yapıldı": 2817,
      "hir": 2818,
      "ledi": 2819,
      "dük": 2820,
      "undan": 2821,
      "yana": 2822,
      "direk": 2823,
      "yaşanan": 2824,
      "saha": 2825,
      "amacı": 2826,
      "şekl": 2827,
      "kapı": 2828,
      "meyi": 2829,
      "otur": 2830,
      "ünden": 2831,
      "elde": 2832,
      "futbolcuları": 2833,
      "siyaset": 2834,
      "çift": 2835,
      "takip": 2836,
      "eleş": 2837,
      "elere": 2838,
      "sok": 2839,
      "kuruluş": 2840,
      "madan": 2841,
      "karak": 2842,
      "ansı": 2843,
      "fransa": 2844,
      "bilgi": 2845,
      "ici": 2846,
      "boyunca": 2847,
      "değiştir": 2848,
      "ahmet": 2849,
      "emniyet": 2850,
      "adlı": 2851,
      "ekipleri": 2852,
      "özgür": 2853,
      "hukuk": 2854,
      "adam": 2855,
      "kızı": 2856,
      "ğında": 2857,
      "27": 2858,
      "ilçesinde": 2859,
      "op": 2860,
      "yalı": 2861,
      "milletvekili": 2862,
      "tartış": 2863,
      "ask": 2864,
      "tekrar": 2865,
      "nek": 2866,
      "anın": 2867,
      "ederek": 2868,
      "dek": 2869,
      "gala": 2870,
      "yarak": 2871,
      "adım": 2872,
      "26": 2873,
      "alıyor": 2874,
      "eleştir": 2875,
      "ray": 2876,
      "pet": 2877,
      "araştırma": 2878,
      "bahçe": 2879,
      "tere": 2880,
      "and": 2881,
      "antalya": 2882,
      "alındı": 2883,
      "izyon": 2884,
      "cer": 2885,
      "resmi": 2886,
      "çıkarı": 2887,
      "kayde": 2888,
      "devr": 2889,
      "amerika": 2890,
      "rah": 2891,
      "kıs": 2892,
      "askeri": 2893,
      "und": 2894,
      "giz": 2895,
      "kilo": 2896,
      "unuyor": 2897,
      "erken": 2898,
      "inter": 2899,
      "kuv": 2900,
      "taki": 2901,
      "dim": 2902,
      "prof": 2903,
      "öğret": 2904,
      "siniz": 2905,
      "lanması": 2906,
      "deprem": 2907,
      "kuş": 2908,
      "üyesi": 2909,
      "üsü": 2910,
      "sk": 2911,
      "yunan": 2912,
      "sonucu": 2913,
      "ğın": 2914,
      "nan": 2915,
      "yapa": 2916,
      "hol": 2917,
      "sın": 2918,
      "i̇ngiliz": 2919,
      "kaydetti": 2920,
      "2021": 2921,
      "muh": 2922,
      "i̇b": 2923,
      "imizin": 2924,
      "gözaltına": 2925,
      "şubat": 2926,
      "stos": 2927,
      "ifadelerini": 2928,
      "itik": 2929,
      "gök": 2930,
      "eceğ": 2931,
      "ağu": 2932,
      "kün": 2933,
      "yerek": 2934,
      "sonrası": 2935,
      "ağustos": 2936,
      "yaralan": 2937,
      "larak": 2938,
      "----": 2939,
      "çevre": 2940,
      "ic": 2941,
      "olsun": 2942,
      "edecek": 2943,
      "geniş": 2944,
      "muştur": 2945,
      "vid": 2946,
      "yaban": 2947,
      "inşa": 2948,
      "fener": 2949,
      "sim": 2950,
      "tarım": 2951,
      "dünyanın": 2952,
      "yağ": 2953,
      "aydın": 2954,
      "dönemde": 2955,
      "kılı": 2956,
      "süreç": 2957,
      "üncü": 2958,
      "verdiği": 2959,
      "açıkladı": 2960,
      "list": 2961,
      "meclis": 2962,
      "dahil": 2963,
      "sul": 2964,
      "gazet": 2965,
      "yıllık": 2966,
      "mesinin": 2967,
      "teki": 2968,
      "kuvvet": 2969,
      "menin": 2970,
      "barış": 2971,
      "uygun": 2972,
      "dam": 2973,
      "yılı": 2974,
      "itir": 2975,
      "verilen": 2976,
      "çiler": 2977,
      "rahat": 2978,
      "i̇h": 2979,
      "kenin": 2980,
      "bağım": 2981,
      "çevr": 2982,
      "ec": 2983,
      "irken": 2984,
      "doğumlu": 2985,
      "mat": 2986,
      "lığını": 2987,
      "2017": 2988,
      "lmış": 2989,
      "luğu": 2990,
      "i̇ngiltere": 2991,
      "göç": 2992,
      "kend": 2993,
      "kardeş": 2994,
      "orman": 2995,
      "metre": 2996,
      "di̇": 2997,
      "fı": 2998,
      "nit": 2999,
      "çeşitli": 3000,
      "ateş": 3001,
      "araya": 3002,
      "çalışmaları": 3003,
      "sistemi": 3004,
      "çiz": 3005,
      "giriş": 3006,
      "katıldı": 3007,
      "ii": 3008,
      "hey": 3009,
      "ia": 3010,
      "cılık": 3011,
      "koron": 3012,
      "yazar": 3013,
      "yetkil": 3014,
      "sch": 3015,
      "müm": 3016,
      "ülkem": 3017,
      "sırada": 3018,
      "zat": 3019,
      "şehit": 3020,
      "29": 3021,
      "yay": 3022,
      "arasındaki": 3023,
      "dışında": 3024,
      "ump": 3025,
      "ebilir": 3026,
      "muha": 3027,
      "dört": 3028,
      "olduk": 3029,
      "kitap": 3030,
      "hatır": 3031,
      "sık": 3032,
      "ülkenin": 3033,
      "şen": 3034,
      "gro": 3035,
      "katkı": 3036,
      "panya": 3037,
      "çağrı": 3038,
      "ticaret": 3039,
      "müdürü": 3040,
      "aşa": 3041,
      "yandan": 3042,
      "koronav": 3043,
      "istik": 3044,
      "str": 3045,
      "uygula": 3046,
      "müzik": 3047,
      "yürüt": 3048,
      "cılar": 3049,
      "şiddet": 3050,
      "2016": 3051,
      "tav": 3052,
      "yıldız": 3053,
      "tama": 3054,
      "indir": 3055,
      "gerekiyor": 3056,
      "tion": 3057,
      "eylem": 3058,
      "ünlü": 3059,
      "artış": 3060,
      "kk": 3061,
      "yardımcısı": 3062,
      "yerel": 3063,
      "toprak": 3064,
      "irak": 3065,
      "ajansı": 3066,
      "yeter": 3067,
      "kurt": 3068,
      "esiyle": 3069,
      "yılın": 3070,
      "cez": 3071,
      "politi": 3072,
      "çözüm": 3073,
      "dak": 3074,
      "şunları": 3075,
      "uyu": 3076,
      "akp": 3077,
      "günde": 3078,
      "yız": 3079,
      "çarp": 3080,
      "gerektiğini": 3081,
      "diklerini": 3082,
      "olabilir": 3083,
      "yapılacak": 3084,
      "şeklinde": 3085,
      "olmayan": 3086,
      "sahibi": 3087,
      "has": 3088,
      "aa": 3089,
      "nes": 3090,
      "ciddi": 3091,
      "ilet": 3092,
      "mayan": 3093,
      "kaldı": 3094,
      "çer": 3095,
      "euro": 3096,
      "ulusal": 3097,
      "galatas": 3098,
      "mesaj": 3099,
      "çak": 3100,
      "sanay": 3101,
      "galatasaray": 3102,
      "fenerbahçe": 3103,
      "ib": 3104,
      "od": 3105,
      "nu": 3106,
      "yılda": 3107,
      "başı": 3108,
      "sayıda": 3109,
      "miyor": 3110,
      "tiv": 3111,
      "kalı": 3112,
      "savunma": 3113,
      "türkçe": 3114,
      "lerce": 3115,
      "iddia": 3116,
      "best": 3117,
      "ikti": 3118,
      "meyen": 3119,
      "mıyor": 3120,
      "götür": 3121,
      "koca": 3122,
      "kılıç": 3123,
      "doğal": 3124,
      "karı": 3125,
      "i̇t": 3126,
      "komut": 3127,
      "üb": 3128,
      "trans": 3129,
      "alarını": 3130,
      "yeş": 3131,
      "otomobil": 3132,
      "alb": 3133,
      "mümkün": 3134,
      "evi": 3135,
      "uğra": 3136,
      "güçlü": 3137,
      "ücret": 3138,
      "enerji": 3139,
      "zarar": 3140,
      "poz": 3141,
      "onya": 3142,
      "aka": 3143,
      "mill": 3144,
      "dikleri": 3145,
      "meli": 3146,
      "kre": 3147,
      "herhangi": 3148,
      "kötü": 3149,
      "matik": 3150,
      "mahallesi": 3151,
      "bahç": 3152,
      "pak": 3153,
      "verildi": 3154,
      "final": 3155,
      "gazi": 3156,
      "i̇nsan": 3157,
      "anlar": 3158,
      "tabi": 3159,
      "koş": 3160,
      "diğimiz": 3161,
      "60": 3162,
      "span": 3163,
      "herkes": 3164,
      "gören": 3165,
      "adalet": 3166,
      "mel": 3167,
      "eser": 3168,
      "meleri": 3169,
      "gur": 3170,
      "mon": 3171,
      "emin": 3172,
      "nüfus": 3173,
      "isine": 3174,
      "aile": 3175,
      "kayıt": 3176,
      "ettiğini": 3177,
      "vide": 3178,
      "olmadığını": 3179,
      "iliyor": 3180,
      "iliği": 3181,
      "kış": 3182,
      "albüm": 3183,
      "yılmaz": 3184,
      "haberleri": 3185,
      "31": 3186,
      "ayet": 3187,
      "feder": 3188,
      "attı": 3189,
      "hemen": 3190,
      "kale": 3191,
      "itibaren": 3192,
      "trump": 3193,
      "sokak": 3194,
      "bara": 3195,
      "istin": 3196,
      "izle": 3197,
      "öğretmen": 3198,
      "geçmiş": 3199,
      "fakat": 3200,
      "ettik": 3201,
      "aktar": 3202,
      "birleşik": 3203,
      "sonunda": 3204,
      "dum": 3205,
      "tehdi": 3206,
      "dışı": 3207,
      "yip": 3208,
      "öner": 3209,
      "müs": 3210,
      "kemal": 3211,
      "sürec": 3212,
      "yasal": 3213,
      "kamer": 3214,
      "bize": 3215,
      "oluyor": 3216,
      "dis": 3217,
      "başlayan": 3218,
      "öne": 3219,
      "fen": 3220,
      "gece": 3221,
      "yapmak": 3222,
      "giy": 3223,
      "uzman": 3224,
      "ceva": 3225,
      "enf": 3226,
      "ukray": 3227,
      "bursa": 3228,
      "yabancı": 3229,
      "öncek": 3230,
      "insanlar": 3231,
      "beyaz": 3232,
      "birbir": 3233,
      "rika": 3234,
      "öğr": 3235,
      "rken": 3236,
      "belirtildi": 3237,
      "telefon": 3238,
      "bana": 3239,
      "yanıt": 3240,
      "seviy": 3241,
      "gre": 3242,
      "bırakı": 3243,
      "direktör": 3244,
      "ınız": 3245,
      "yakalan": 3246,
      "boş": 3247,
      "balık": 3248,
      "2015": 3249,
      "ihra": 3250,
      "yata": 3251,
      "e9": 3252,
      "teşek": 3253,
      "red": 3254,
      "com": 3255,
      "sunu": 3256,
      "sivil": 3257,
      "telev": 3258,
      "mızın": 3259,
      "amaç": 3260,
      "örgütü": 3261,
      "gereken": 3262,
      "deste": 3263,
      "girişim": 3264,
      "========": 3265,
      "alarda": 3266,
      "yır": 3267,
      "masıyla": 3268,
      "koronavirüs": 3269,
      "form": 3270,
      "duruş": 3271,
      "takımı": 3272,
      "liyor": 3273,
      "önceki": 3274,
      "elen": 3275,
      "up": 3276,
      "durumu": 3277,
      "terci": 3278,
      "liğini": 3279,
      "çoğ": 3280,
      "sözleş": 3281,
      "style": 3282,
      "kupa": 3283,
      "hesab": 3284,
      "geliyor": 3285,
      "muhal": 3286,
      "yanında": 3287,
      "dışişleri": 3288,
      "tip": 3289,
      "göl": 3290,
      "adına": 3291,
      "imizi": 3292,
      "gitti": 3293,
      "inc": 3294,
      "adet": 3295,
      "35": 3296,
      "tih": 3297,
      "olup": 3298,
      "ihtiyaç": 3299,
      "kendiler": 3300,
      "komisyon": 3301,
      "ladığı": 3302,
      "durumda": 3303,
      "beşik": 3304,
      "beri": 3305,
      "işaret": 3306,
      "televizyon": 3307,
      "halinde": 3308,
      "kas": 3309,
      "nden": 3310,
      "dıkları": 3311,
      "elektrik": 3312,
      "195": 3313,
      "atatürk": 3314,
      "serbest": 3315,
      "isteyen": 3316,
      "kırı": 3317,
      "yerleş": 3318,
      "ayak": 3319,
      "teşekkür": 3320,
      "new": 3321,
      "sp": 3322,
      "eşi": 3323,
      "olmaya": 3324,
      "düzenle": 3325,
      "vardı": 3326,
      "seri": 3327,
      "amacıyla": 3328,
      "2014": 3329,
      "fat": 3330,
      "zorunda": 3331,
      "cut": 3332,
      "muştu": 3333,
      "çan": 3334,
      "soruşturma": 3335,
      "inan": 3336,
      "alım": 3337,
      "yeşil": 3338,
      "düşünü": 3339,
      "stra": 3340,
      "ölç": 3341,
      "umu": 3342,
      "bundan": 3343,
      "anayasa": 3344,
      "hastalık": 3345,
      "lisi": 3346,
      "sıcak": 3347,
      "ina": 3348,
      "cr": 3349,
      "jandar": 3350,
      "yıllar": 3351,
      "dp": 3352,
      "asl": 3353,
      "beden": 3354,
      "colspan": 3355,
      "elerinin": 3356,
      "önünde": 3357,
      "hav": 3358,
      "öde": 3359,
      "194": 3360,
      "ülkede": 3361,
      "back": 3362,
      "acı": 3363,
      "qu": 3364,
      "tekli": 3365,
      "cem": 3366,
      "left": 3367,
      "color": 3368,
      "beşiktaş": 3369,
      "ekli": 3370,
      "doktor": 3371,
      "ime": 3372,
      "sunuz": 3373,
      "mevcut": 3374,
      "omi": 3375,
      "tok": 3376,
      "gor": 3377,
      "elerde": 3378,
      "bağımsız": 3379,
      "atan": 3380,
      "ide": 3381,
      "tren": 3382,
      "boğ": 3383,
      "ceğiz": 3384,
      "vardır": 3385,
      "öğretim": 3386,
      "süper": 3387,
      "luluk": 3388,
      "iştir": 3389,
      "one": 3390,
      "virüs": 3391,
      "grubu": 3392,
      "canlı": 3393,
      "kulüb": 3394,
      "zım": 3395,
      "cileri": 3396,
      "lanıyor": 3397,
      "2010": 3398,
      "ukrayna": 3399,
      "ilmiş": 3400,
      "nedenle": 3401,
      "imz": 3402,
      "bulunuyor": 3403,
      "aracı": 3404,
      ".,": 3405,
      "lasyon": 3406,
      "tehlik": 3407,
      "ces": 3408,
      "üle": 3409,
      "tercih": 3410,
      "park": 3411,
      "şart": 3412,
      "kanı": 3413,
      "sonrasında": 3414,
      "tv": 3415,
      "sabah": 3416,
      "birkaç": 3417,
      "sanatçı": 3418,
      "ilerek": 3419,
      "cor": 3420,
      "yağı": 3421,
      "hesap": 3422,
      "mıza": 3423,
      "derece": 3424,
      "wit": 3425,
      "bölgeler": 3426,
      "hatırla": 3427,
      "risk": 3428,
      "imize": 3429,
      "masından": 3430,
      "söyleyen": 3431,
      "şehr": 3432,
      "uygulama": 3433,
      "satış": 3434,
      "yansı": 3435,
      "amerikalı": 3436,
      "2011": 3437,
      "neği": 3438,
      "trab": 3439,
      "cusu": 3440,
      "zir": 3441,
      "dra": 3442,
      "gündem": 3443,
      "tiyat": 3444,
      "osmanlı": 3445,
      "tedbir": 3446,
      "gay": 3447,
      "landır": 3448,
      "tepe": 3449,
      "pkk": 3450,
      "kısı": 3451,
      "eğer": 3452,
      "belli": 3453,
      "başına": 3454,
      "temiz": 3455,
      "lilik": 3456,
      "karşılaş": 3457,
      "kürt": 3458,
      "recep": 3459,
      "roman": 3460,
      "normal": 3461,
      "tayyip": 3462,
      "esinden": 3463,
      "dip": 3464,
      "kral": 3465,
      "açısından": 3466,
      "şık": 3467,
      "bölgede": 3468,
      "model": 3469,
      "yem": 3470,
      "paşa": 3471,
      "fel": 3472,
      "döneminde": 3473,
      "laştır": 3474,
      "ground": 3475,
      "person": 3476,
      "lığın": 3477,
      "hızlı": 3478,
      "500": 3479,
      "tedav": 3480,
      "kate": 3481,
      "ov": 3482,
      "80": 3483,
      "savaşı": 3484,
      "çu": 3485,
      "henüz": 3486,
      "onlar": 3487,
      "alanı": 3488,
      "tiyatro": 3489,
      "şah": 3490,
      "landırı": 3491,
      "uyarı": 3492,
      "cilik": 3493,
      "ydı": 3494,
      "fransız": 3495,
      "mor": 3496,
      "politik": 3497,
      "sanık": 3498,
      "dolayısıyla": 3499,
      "başında": 3500,
      "biy": 3501,
      "küresel": 3502,
      "background": 3503,
      "tun": 3504,
      "başarılı": 3505,
      "çekti": 3506,
      "ucu": 3507,
      "sona": 3508,
      "yapıyor": 3509,
      "konuda": 3510,
      "arap": 3511,
      "bunlar": 3512,
      "asında": 3513,
      "gerekli": 3514,
      "tasarı": 3515,
      "alma": 3516,
      "başta": 3517,
      "uçak": 3518,
      "2012": 3519,
      "km": 3520,
      "mit": 3521,
      "tab": 3522,
      "osu": 3523,
      "oluşan": 3524,
      "hapis": 3525,
      "getirdi": 3526,
      "ulaştı": 3527,
      "fu": 3528,
      "orada": 3529,
      "lemek": 3530,
      "layı": 3531,
      "lığına": 3532,
      "bakım": 3533,
      "internet": 3534,
      "kaza": 3535,
      "ödülü": 3536,
      "çatış": 3537,
      "num": 3538,
      "bb": 3539,
      "kanal": 3540,
      "mahalle": 3541,
      "çıka": 3542,
      "örnek": 3543,
      "eyle": 3544,
      "murat": 3545,
      "sorum": 3546,
      "yöneti": 3547,
      "tehdit": 3548,
      "ilan": 3549,
      "kulüp": 3550,
      "doğumlular": 3551,
      "jandarma": 3552,
      "düğünü": 3553,
      "bre": 3554,
      "akadem": 3555,
      "teda": 3556,
      "ht": 3557,
      "tesi": 3558,
      "cat": 3559,
      "tepki": 3560,
      "mür": 3561,
      "yangın": 3562,
      "ücü": 3563,
      "taj": 3564,
      "lulu": 3565,
      "bakır": 3566,
      "puan": 3567,
      "kendisine": 3568,
      "önlem": 3569,
      "günlük": 3570,
      "elerini": 3571,
      "katılım": 3572,
      "70": 3573,
      "i̇slam": 3574,
      "2013": 3575,
      "yöntem": 3576,
      "akşam": 3577,
      "yalnı": 3578,
      "dıklarını": 3579,
      "kadro": 3580,
      "site": 3581,
      "haline": 3582,
      "başlatı": 3583,
      "düzey": 3584,
      "yaşında": 3585,
      "adan": 3586,
      "işi": 3587,
      "sevk": 3588,
      "yapım": 3589,
      "buluş": 3590,
      "dol": 3591,
      "vaz": 3592,
      "i̇şte": 3593,
      "lanacak": 3594,
      "ligi": 3595,
      "trabzon": 3596,
      "ğine": 3597,
      "may": 3598,
      "işlet": 3599,
      "ulan": 3600,
      "otor": 3601,
      "darbe": 3602,
      "sınav": 3603,
      "edin": 3604,
      "yalnız": 3605,
      "lal": 3606,
      "zey": 3607,
      "mutlu": 3608,
      "biç": 3609,
      "lığa": 3610,
      "mara": 3611,
      "yasak": 3612,
      "parça": 3613,
      "tedavi": 3614,
      "tıp": 3615,
      "büyü": 3616,
      "meslek": 3617,
      "90": 3618,
      "alarının": 3619,
      "avukat": 3620,
      "oyn": 3621,
      "alarak": 3622,
      "duk": 3623,
      "hp": 3624,
      "kin": 3625,
      "etin": 3626,
      "saldır": 3627,
      "zaten": 3628,
      "çö": 3629,
      "lma": 3630,
      "aslında": 3631,
      "filistin": 3632,
      "lüm": 3633,
      "hakları": 3634,
      "ela": 3635,
      "turizm": 3636,
      "yıldırı": 3637,
      "ndan": 3638,
      "güneş": 3639,
      "000": 3640,
      "protes": 3641,
      "ders": 3642,
      "tım": 3643,
      "luğ": 3644,
      "tamamen": 3645,
      "alya": 3646,
      "nur": 3647,
      "anım": 3648,
      "tık": 3649,
      "bayram": 3650,
      "üyle": 3651,
      "yönetmen": 3652,
      "etkinlik": 3653,
      "i̇d": 3654,
      "yıldırım": 3655,
      "ilerinin": 3656,
      "2022": 3657,
      "ğe": 3658,
      "ova": 3659,
      "durdur": 3660,
      "hane": 3661,
      "vas": 3662,
      "alış": 3663,
      "sene": 3664,
      "lanma": 3665,
      "yıldır": 3666,
      "politika": 3667,
      "başvuru": 3668,
      "üçüncü": 3669,
      "jap": 3670,
      "dünyada": 3671,
      "kariy": 3672,
      "rul": 3673,
      "olojik": 3674,
      "açıklamalar": 3675,
      "ölen": 3676,
      "geçtiğimiz": 3677,
      "lana": 3678,
      "öte": 3679,
      "mahkeme": 3680,
      "fakül": 3681,
      "düşük": 3682,
      "almak": 3683,
      "parla": 3684,
      "mahkemesi": 3685,
      "ündeki": 3686,
      "karakter": 3687,
      "bom": 3688,
      "45": 3689,
      "üldü": 3690,
      "teslim": 3691,
      "gerekç": 3692,
      "i̇talya": 3693,
      "transfer": 3694,
      "hayatı": 3695,
      "oranı": 3696,
      "sınıf": 3697,
      "ps": 3698,
      "beni": 3699,
      "piyasa": 3700,
      "karşısında": 3701,
      "mesiyle": 3702,
      "makam": 3703,
      ":#": 3704,
      "müslüm": 3705,
      "og": 3706,
      "mis": 3707,
      "güm": 3708,
      "birinci": 3709,
      "biraz": 3710,
      "serv": 3711,
      "olmadığı": 3712,
      "kayna": 3713,
      "sinin": 3714,
      "eceği": 3715,
      "kolay": 3716,
      "alanda": 3717,
      "kapa": 3718,
      "istiyor": 3719,
      "sonuc": 3720,
      "tali": 3721,
      "kırmızı": 3722,
      "çağı": 3723,
      "kaybet": 3724,
      "tanın": 3725,
      "hayır": 3726,
      "nerede": 3727,
      "asına": 3728,
      "sefer": 3729,
      "sayın": 3730,
      "idar": 3731,
      "lon": 3732,
      "silahlı": 3733,
      "sıkın": 3734,
      "stik": 3735,
      "liy": 3736,
      "dul": 3737,
      "cumhuriyeti": 3738,
      "bmm": 3739,
      "ff": 3740,
      "kurtar": 3741,
      "hatta": 3742,
      "ilerini": 3743,
      "getiren": 3744,
      "olsa": 3745,
      "işle": 3746,
      "eyin": 3747,
      "sanayi": 3748,
      "protesto": 3749,
      "imza": 3750,
      "bank": 3751,
      "tbmm": 3752,
      "dos": 3753,
      "nat": 3754,
      "yunanistan": 3755,
      "yanlış": 3756,
      "tanım": 3757,
      "fetö": 3758,
      "tasyon": 3759,
      "etmeye": 3760,
      "bon": 3761,
      "anlattı": 3762,
      "konuşan": 3763,
      "etik": 3764,
      "etme": 3765,
      "diyen": 3766,
      "daroğlu": 3767,
      "2008": 3768,
      "söylü": 3769,
      "kaydedil": 3770,
      "amerikan": 3771,
      "deli": 3772,
      "yakal": 3773,
      "detay": 3774,
      "bileceğini": 3775,
      "def": 3776,
      "kriz": 3777,
      "2009": 3778,
      "33": 3779,
      "nün": 3780,
      "tuğ": 3781,
      "benz": 3782,
      "sıkıntı": 3783,
      "lazım": 3784,
      "siy": 3785,
      "milletvekil": 3786,
      "ortam": 3787,
      "i̇yi": 3788,
      "bayra": 3789,
      "benzer": 3790,
      "yönetimi": 3791,
      "hakim": 3792,
      "şüphel": 3793,
      "kişiler": 3794,
      "çevir": 3795,
      "bilmek": 3796,
      "değildir": 3797,
      "rahim": 3798,
      "tesis": 3799,
      "başlattı": 3800,
      "ediliyor": 3801,
      "progra": 3802,
      "parlamen": 3803,
      "bunların": 3804,
      "desi": 3805,
      "ant": 3806,
      "derneği": 3807,
      "i̇ki": 3808,
      "sürekli": 3809,
      "ital": 3810,
      "iktidar": 3811,
      "hastanesi": 3812,
      "gr": 3813,
      "fatih": 3814,
      "dy": 3815,
      "gec": 3816,
      "çeken": 3817,
      "kanun": 3818,
      "mos": 3819,
      "etkili": 3820,
      "anne": 3821,
      "kredi": 3822,
      "\",": 3823,
      "ilçesine": 3824,
      "eyalet": 3825,
      "kum": 3826,
      "ilerine": 3827,
      "cil": 3828,
      "yemek": 3829,
      "hayata": 3830,
      "dayan": 3831,
      "kupası": 3832,
      "baskı": 3833,
      "cad": 3834,
      "kural": 3835,
      "proje": 3836,
      "hasta": 3837,
      "hüs": 3838,
      "işe": 3839,
      "larımızın": 3840,
      "oloji": 3841,
      "test": 3842,
      "meydan": 3843,
      "mısır": 3844,
      "imde": 3845,
      "fiz": 3846,
      "kılıçdaroğlu": 3847,
      "önümüz": 3848,
      "oldukça": 3849,
      "ükle": 3850,
      "içi": 3851,
      "hakkı": 3852,
      "hn": 3853,
      "kurulan": 3854,
      "landığı": 3855,
      "istih": 3856,
      "iletişim": 3857,
      "perfor": 3858,
      "lamak": 3859,
      "lenmesi": 3860,
      "yürü": 3861,
      "hasan": 3862,
      "yaşadığı": 3863,
      "koşul": 3864,
      "naz": 3865,
      "sebep": 3866,
      "con": 3867,
      "elerine": 3868,
      "aşağı": 3869,
      "diren": 3870,
      "tarak": 3871,
      "sızlık": 3872,
      "bayrak": 3873,
      "lat": 3874,
      "yaşı": 3875,
      "gıda": 3876,
      "alacak": 3877,
      "hastalı": 3878,
      "alama": 3879,
      "kazandı": 3880,
      "lib": 3881,
      "ediyorum": 3882,
      "mızda": 3883,
      "kaybetti": 3884,
      "daşı": 3885,
      "36": 3886,
      "performan": 3887,
      "ülü": 3888,
      "yarın": 3889,
      "abon": 3890,
      "çelik": 3891,
      "koruma": 3892,
      "ümü": 3893,
      "faiz": 3894,
      "ekonomi": 3895,
      "refer": 3896,
      "hdp": 3897,
      "yapacak": 3898,
      "çap": 3899,
      "ika": 3900,
      "ldığını": 3901,
      "edilmesi": 3902,
      "merak": 3903,
      "giden": 3904,
      "ediyoruz": 3905,
      "adana": 3906,
      "nik": 3907,
      "ruh": 3908,
      "mhp": 3909,
      "olduğuna": 3910,
      "rem": 3911,
      "dizi": 3912,
      "düştü": 3913,
      "cenaz": 3914,
      "hır": 3915,
      "ja": 3916,
      "borç": 3917,
      "büs": 3918,
      "imar": 3919,
      "asyonu": 3920,
      "unut": 3921,
      "arken": 3922,
      "dost": 3923,
      "mede": 3924,
      "i̇lçe": 3925,
      "ortal": 3926,
      "34": 3927,
      "umsuz": 3928,
      "kenti": 3929,
      "şır": 3930,
      "yakı": 3931,
      "arttı": 3932,
      "landa": 3933,
      "bizi": 3934,
      "plat": 3935,
      "traf": 3936,
      "tahmin": 3937,
      "les": 3938,
      "türlü": 3939,
      "koç": 3940,
      "ğının": 3941,
      "yeri": 3942,
      "profes": 3943,
      "paylaşım": 3944,
      "akıl": 3945,
      "bankası": 3946,
      "ermen": 3947,
      "çekil": 3948,
      "web": 3949,
      "kendisini": 3950,
      "afrika": 3951,
      "soğ": 3952,
      "lıklı": 3953,
      "düşür": 3954,
      "konut": 3955,
      "vol": 3956,
      "üstü": 3957,
      "sert": 3958,
      "yaralı": 3959,
      "gönül": 3960,
      "saygı": 3961,
      "enflasyon": 3962,
      "köpr": 3963,
      "karşıya": 3964,
      "süren": 3965,
      "yerde": 3966,
      "bakı": 3967,
      "danış": 3968,
      "görüşmeler": 3969,
      "çıkış": 3970,
      "lanmış": 3971,
      "yapılması": 3972,
      "bileceği": 3973,
      "esindeki": 3974,
      "salg": 3975,
      "deney": 3976,
      "mail": 3977,
      "lüt": 3978,
      "ori": 3979,
      ").": 3980,
      "ale": 3981,
      "geçer": 3982,
      "ndeki": 3983,
      "zem": 3984,
      "yerinde": 3985,
      "kullanılan": 3986,
      "yıkı": 3987,
      "cilerin": 3988,
      "esna": 3989,
      "udi": 3990,
      "banka": 3991,
      "haval": 3992,
      "sizlik": 3993,
      "babası": 3994,
      "bilinen": 3995,
      "tasar": 3996,
      "raman": 3997,
      "cevap": 3998,
      "e9e9": 3999,
      "bilen": 4000,
      "alarına": 4001,
      "ly": 4002,
      "32": 4003,
      "acil": 4004,
      "veç": 4005,
      "isimli": 4006,
      "yorlar": 4007,
      "iyeti": 4008,
      "konya": 4009,
      "önüne": 4010,
      "elerinde": 4011,
      "serg": 4012,
      "adayı": 4013,
      "twit": 4014,
      "ınar": 4015,
      "istedi": 4016,
      "inanı": 4017,
      "madığı": 4018,
      "müdahale": 4019,
      "kork": 4020,
      "liye": 4021,
      "onların": 4022,
      "çay": 4023,
      "raki": 4024,
      "diyar": 4025,
      "kamp": 4026,
      "ister": 4027,
      "sig": 4028,
      "konuyla": 4029,
      "bildirdi": 4030,
      "personel": 4031,
      "eceğini": 4032,
      "davet": 4033,
      "lığının": 4034,
      "insanların": 4035,
      "dat": 4036,
      "kahraman": 4037,
      "liğinde": 4038,
      "yarar": 4039,
      "wid": 4040,
      "üreti": 4041,
      "olumsuz": 4042,
      "haberler": 4043,
      "erz": 4044,
      "sıkı": 4045,
      "katılan": 4046,
      "aşırı": 4047,
      "video": 4048,
      "hâ": 4049,
      "mül": 4050,
      "bölgesi": 4051,
      "land": 4052,
      "lamaya": 4053,
      "yahu": 4054,
      "yazılı": 4055,
      "ulması": 4056,
      "sorumlu": 4057,
      "sınız": 4058,
      "abdul": 4059,
      "yıllarda": 4060,
      "zil": 4061,
      "onay": 4062,
      "2007": 4063,
      "bulan": 4064,
      "asını": 4065,
      "paris": 4066,
      "paylaştı": 4067,
      "derin": 4068,
      "tifak": 4069,
      "komutan": 4070,
      "neler": 4071,
      "izde": 4072,
      "artesi": 4073,
      "lideri": 4074,
      "sever": 4075,
      "cinsel": 4076,
      "ettir": 4077,
      "başar": 4078,
      "bis": 4079,
      "alanında": 4080,
      "memur": 4081,
      "kadınlar": 4082,
      "saray": 4083,
      "pop": 4084,
      "zu": 4085,
      "asıl": 4086,
      "kart": 4087,
      "mensu": 4088,
      "korun": 4089,
      "olmaz": 4090,
      "mini": 4091,
      "peki": 4092,
      "öncesi": 4093,
      "ıntı": 4094,
      "mıyla": 4095,
      "twitter": 4096,
      "artır": 4097,
      "strate": 4098,
      "arada": 4099,
      "yerli": 4100,
      "demek": 4101,
      "kesim": 4102,
      "trafik": 4103,
      "fo": 4104,
      "i̇brahim": 4105,
      "layarak": 4106,
      "37": 4107,
      "yere": 4108,
      "giren": 4109,
      "width": 4110,
      "lığında": 4111,
      "ğinde": 4112,
      "isten": 4113,
      "günümüz": 4114,
      "duğunu": 4115,
      "zengin": 4116,
      "petrol": 4117,
      "fon": 4118,
      "eral": 4119,
      "hayal": 4120,
      "olmuştur": 4121,
      "cuma": 4122,
      "muhalef": 4123,
      "malara": 4124,
      "çuk": 4125,
      "üyeleri": 4126,
      "müdahal": 4127,
      "binlerce": 4128,
      "yolcu": 4129,
      "ilçe": 4130,
      "düzenlen": 4131,
      "mayacak": 4132,
      "masa": 4133,
      "ğından": 4134,
      "rama": 4135,
      "diğinde": 4136,
      "paylaş": 4137,
      "liler": 4138,
      "üniversite": 4139,
      "hür": 4140,
      "seyi": 4141,
      "kâ": 4142,
      "devletleri": 4143,
      "maden": 4144,
      "şahin": 4145,
      "azer": 4146,
      "terörist": 4147,
      "bölümü": 4148,
      "çocuğ": 4149,
      "demokratik": 4150,
      "ticar": 4151,
      "gösteren": 4152,
      "keş": 4153,
      "isa": 4154,
      "arkadaşı": 4155,
      "kullanım": 4156,
      "emez": 4157,
      "olim": 4158,
      "halkı": 4159,
      "bistan": 4160,
      "diyarbakır": 4161,
      "cezası": 4162,
      "başbakanı": 4163,
      "denetim": 4164,
      "yse": 4165,
      "döv": 4166,
      "birey": 4167,
      "rakam": 4168,
      "eği": 4169,
      "nükle": 4170,
      "günlerde": 4171,
      "not": 4172,
      "toplu": 4173,
      "başlan": 4174,
      "meş": 4175,
      "laştırı": 4176,
      "ens": 4177,
      "duyurdu": 4178,
      "teşkil": 4179,
      "pil": 4180,
      "eb": 4181,
      "bugüne": 4182,
      "böylece": 4183,
      "teknoloji": 4184,
      "eceğiz": 4185,
      "özellik": 4186,
      "bür": 4187,
      "yapma": 4188,
      "diyerek": 4189,
      "mali": 4190,
      "şikay": 4191,
      "sayesinde": 4192,
      "38": 4193,
      "teklif": 4194,
      "renk": 4195,
      "uğur": 4196,
      "ds": 4197,
      "lıkla": 4198,
      "değişiklik": 4199,
      "john": 4200,
      "motor": 4201,
      "vali": 4202,
      "\"|": 4203,
      "sap": 4204,
      "anlatı": 4205,
      "gez": 4206,
      "aylık": 4207,
      "projesi": 4208,
      "önümüzdeki": 4209,
      "arama": 4210,
      "süreci": 4211,
      "ry": 4212,
      "ju": 4213,
      "2000": 4214,
      "ayar": 4215,
      "güc": 4216,
      "sultan": 4217,
      "je": 4218,
      "anlatan": 4219,
      "sonraki": 4220,
      "veriyor": 4221,
      "mesinde": 4222,
      "kaçı": 4223,
      "onur": 4224,
      "öncelik": 4225,
      "havalim": 4226,
      "kovid": 4227,
      "gösterdi": 4228,
      "samsun": 4229,
      "bitir": 4230,
      "nükleer": 4231,
      "lmıştır": 4232,
      "ömer": 4233,
      "pandem": 4234,
      "65": 4235,
      "sinema": 4236,
      "lanır": 4237,
      "unuz": 4238,
      "konser": 4239,
      "li̇": 4240,
      "ade": 4241,
      "vaş": 4242,
      "leye": 4243,
      "müslüman": 4244,
      "2023": 4245,
      "azerbay": 4246,
      "mesaf": 4247,
      "sy": 4248,
      "labilir": 4249,
      "şüpheli": 4250,
      "vatandaşlar": 4251,
      "tiler": 4252,
      "dışarı": 4253,
      "gerekir": 4254,
      "etmesi": 4255,
      "okulu": 4256,
      "tepk": 4257,
      "vel": 4258,
      "genelinde": 4259,
      "iyan": 4260,
      "müşter": 4261,
      "hala": 4262,
      "gali": 4263,
      "maçı": 4264,
      "kıb": 4265,
      "arac": 4266,
      "yang": 4267,
      "moder": 4268,
      "çoğu": 4269,
      "ste": 4270,
      "dij": 4271,
      "birim": 4272,
      "ileş": 4273,
      "futbolcular": 4274,
      "sh": 4275,
      "yürüy": 4276,
      "est": 4277,
      "girdi": 4278,
      "mühen": 4279,
      "inç": 4280,
      "muham": 4281,
      "liğe": 4282,
      "akdeniz": 4283,
      "karan": 4284,
      "aralarında": 4285,
      "evde": 4286,
      "oyu": 4287,
      "ştırı": 4288,
      "açtı": 4289,
      "39": 4290,
      "elim": 4291,
      "i̇spanya": 4292,
      "2006": 4293,
      "wel": 4294,
      "ranı": 4295,
      "dor": 4296,
      "cumhurbaşkanlığı": 4297,
      "parator": 4298,
      "dakikada": 4299,
      "anal": 4300,
      "pas": 4301,
      "onları": 4302,
      "örne": 4303,
      "programı": 4304,
      "çoğun": 4305,
      "ktan": 4306,
      "tey": 4307,
      "alına": 4308,
      "kapalı": 4309,
      "durumunda": 4310,
      "wil": 4311,
      "covid": 4312,
      "kendini": 4313,
      "rıs": 4314,
      "paylaşı": 4315,
      "basket": 4316,
      "ağaç": 4317,
      "hüseyin": 4318,
      "hr": 4319,
      "rej": 4320,
      "incelem": 4321,
      "iydi": 4322,
      "kıbrıs": 4323,
      "dijital": 4324,
      "ildiği": 4325,
      "olimpi": 4326,
      "umut": 4327,
      "defa": 4328,
      "ekran": 4329,
      "şer": 4330,
      "ilir": 4331,
      "organiz": 4332,
      "ayda": 4333,
      "gündeme": 4334,
      "ani": 4335,
      "duğ": 4336,
      "huz": 4337,
      "saatlerinde": 4338,
      "istiyoruz": 4339,
      "iklim": 4340,
      "fakültesi": 4341,
      "azerbaycan": 4342,
      "kurtul": 4343,
      "york": 4344,
      "kendisi": 4345,
      "satın": 4346,
      "zek": 4347,
      "ilaç": 4348,
      "ila": 4349,
      "eksik": 4350,
      "akar": 4351,
      "öğrenci": 4352,
      "ilgi": 4353,
      "üler": 4354,
      "yüzden": 4355,
      "tatil": 4356,
      "mesel": 4357,
      "görülen": 4358,
      "kısıt": 4359,
      "cha": 4360,
      "şallah": 4361,
      "etkilen": 4362,
      "belki": 4363,
      "göçmen": 4364,
      "nato": 4365,
      "yavaş": 4366,
      "yav": 4367,
      "gücü": 4368,
      "liğine": 4369,
      "parlamento": 4370,
      "hazırlık": 4371,
      "kurban": 4372,
      "isyen": 4373,
      "anlaşı": 4374,
      "açılış": 4375,
      "asit": 4376,
      "huzur": 4377,
      "vermek": 4378,
      "itibarı": 4379,
      "faz": 4380,
      "75": 4381,
      "sürede": 4382,
      "senin": 4383,
      "mezar": 4384,
      "sonucunda": 4385,
      "kaçak": 4386,
      "diş": 4387,
      "memiş": 4388,
      "leyman": 4389,
      "bekleniyor": 4390,
      "istifa": 4391,
      "kapatı": 4392,
      "peş": 4393,
      "sözc": 4394,
      "belg": 4395,
      "gerçekten": 4396,
      "ğinin": 4397,
      "millî": 4398,
      "kurumu": 4399,
      "öğrenildi": 4400,
      "lığıyla": 4401,
      "uyuştur": 4402,
      "metr": 4403,
      "vic": 4404,
      "bilirsiniz": 4405,
      "şikayet": 4406,
      "varı": 4407,
      "antep": 4408,
      "süleyman": 4409,
      "sus": 4410,
      "yitir": 4411,
      "liğin": 4412,
      "eksiyon": 4413,
      "olimpiyat": 4414,
      "büyükel": 4415,
      "i̇çişleri": 4416,
      "imkan": 4417,
      "olmadı": 4418,
      "tabii": 4419,
      "doğum": 4420,
      "metin": 4421,
      "au": 4422,
      "ğan": 4423,
      "sas": 4424,
      "kayıp": 4425,
      "mekan": 4426,
      "yola": 4427,
      "olumlu": 4428,
      "parç": 4429,
      "lardır": 4430,
      "larındaki": 4431,
      "olası": 4432,
      "kampanya": 4433,
      "kaldır": 4434,
      "vik": 4435,
      "abile": 4436,
      "larımızı": 4437,
      "imin": 4438,
      "belirlen": 4439,
      "dünyaya": 4440,
      "ulaşı": 4441,
      "laya": 4442,
      "halde": 4443,
      "kıya": 4444,
      "ihracat": 4445,
      "distan": 4446,
      "abet": 4447,
      "mücadel": 4448,
      "sebeb": 4449,
      "çocuklar": 4450,
      "nokt": 4451,
      "etmiş": 4452,
      "bildirildi": 4453,
      "ts": 4454,
      "ti̇": 4455,
      "kalp": 4456,
      "ramazan": 4457,
      "afgan": 4458,
      "komisyonu": 4459,
      "sporcu": 4460,
      "urum": 4461,
      "yılları": 4462,
      "tüsü": 4463,
      "lmasını": 4464,
      "general": 4465,
      "olacağını": 4466,
      "i̇mam": 4467,
      "kimse": 4468,
      "görü": 4469,
      "olayla": 4470,
      "2005": 4471,
      "kaybeden": 4472,
      "miktar": 4473,
      "soka": 4474,
      "uyuşturucu": 4475,
      "ağrı": 4476,
      "bunları": 4477,
      "edile": 4478,
      "demokrasi": 4479,
      "laması": 4480,
      "konseyi": 4481,
      "i̇kinci": 4482,
      "abilecek": 4483,
      "disi": 4484,
      "edebi": 4485,
      "üye": 4486,
      "boğaz": 4487,
      "yaralandı": 4488,
      "genellikle": 4489,
      "rekor": 4490,
      "uyar": 4491,
      "çiç": 4492,
      "hesabından": 4493,
      "yaygın": 4494,
      "rad": 4495,
      "yaparak": 4496,
      "ilerle": 4497,
      "imizde": 4498,
      "bölgesinde": 4499,
      "boyut": 4500,
      "salgın": 4501,
      "vaka": 4502,
      "madığını": 4503,
      "adli": 4504,
      "giderek": 4505,
      "taşın": 4506,
      "isel": 4507,
      "ves": 4508,
      "evinde": 4509,
      "otel": 4510,
      "söylüyor": 4511,
      "i̇y": 4512,
      "taban": 4513,
      "kariyer": 4514,
      "çey": 4515,
      "alara": 4516,
      "heye": 4517,
      "kore": 4518,
      "stratej": 4519,
      "kalkın": 4520,
      "olun": 4521,
      "onik": 4522,
      "yapmaya": 4523,
      "--------": 4524,
      "keti": 4525,
      "uc": 4526,
      "slo": 4527,
      "konum": 4528,
      "anlayı": 4529,
      "modern": 4530,
      "ep": 4531,
      "gençlik": 4532,
      "coğraf": 4533,
      "set": 4534,
      "odak": 4535,
      "etkil": 4536,
      "lor": 4537,
      "taraftar": 4538,
      "memnun": 4539,
      "yönünde": 4540,
      "ihtiyacı": 4541,
      "gelenek": 4542,
      "çav": 4543,
      "dent": 4544,
      "maların": 4545,
      "diplo": 4546,
      "2004": 4547,
      "tiği": 4548,
      "i̇lç": 4549,
      "faiye": 4550,
      "bi̇r": 4551,
      "nam": 4552,
      "ilmiştir": 4553,
      "adını": 4554,
      "ınca": 4555,
      "geril": 4556,
      "emedi": 4557,
      "olmuş": 4558,
      "laşma": 4559,
      "öden": 4560,
      "filmi": 4561,
      "kullanıcı": 4562,
      "ğen": 4563,
      "48": 4564,
      "psik": 4565,
      "hor": 4566,
      "filmler": 4567,
      "isiyle": 4568,
      "tez": 4569,
      "dikten": 4570,
      "meclisi": 4571,
      "kop": 4572,
      "atör": 4573,
      "kafa": 4574,
      "liğinin": 4575,
      "gerçekleştirilen": 4576,
      "edildiği": 4577,
      "geçiş": 4578,
      "fah": 4579,
      "arayı": 4580,
      "altyapı": 4581,
      "ruk": 4582,
      "kişilerin": 4583,
      "basketbol": 4584,
      "gide": 4585,
      "mağdur": 4586,
      "örneğin": 4587,
      "bilmesi": 4588,
      "kısm": 4589,
      "fırsat": 4590,
      "hastaneye": 4591,
      "pozisyon": 4592,
      "tutuklu": 4593,
      "i̇smail": 4594,
      "kulübü": 4595,
      "rat": 4596,
      "sizin": 4597,
      "çocukların": 4598,
      "sürücü": 4599,
      "sağlıklı": 4600,
      "by": 4601,
      "yağış": 4602,
      "içeri": 4603,
      "cağına": 4604,
      "çisi": 4605,
      "konfer": 4606,
      "asının": 4607,
      "hükümeti": 4608,
      "sahn": 4609,
      "çerçev": 4610,
      "mimar": 4611,
      "antren": 4612,
      "başsavcı": 4613,
      "bg": 4614,
      "güncel": 4615,
      "malıdır": 4616,
      "geldiği": 4617,
      "gelişmeler": 4618,
      "fab": 4619,
      "anlamına": 4620,
      "fan": 4621,
      "istiyorum": 4622,
      "emre": 4623,
      "ölü": 4624,
      "2002": 4625,
      "sürüyor": 4626,
      "emekli": 4627,
      "iptal": 4628,
      "iri": 4629,
      "kıyı": 4630,
      "verecek": 4631,
      ")-": 4632,
      "yordu": 4633,
      "maçta": 4634,
      "yalan": 4635,
      "koor": 4636,
      "ent": 4637,
      "lenerek": 4638,
      "oyunu": 4639,
      "aktif": 4640,
      "aker": 4641,
      "yetiştir": 4642,
      "55": 4643,
      "davranı": 4644,
      "özet": 4645,
      "indepen": 4646,
      "seyir": 4647,
      "ekibi": 4648,
      "macı": 4649,
      "devletin": 4650,
      "şube": 4651,
      "yapıla": 4652,
      "rö": 4653,
      "cinayet": 4654,
      "halkın": 4655,
      "baz": 4656,
      "dere": 4657,
      "sağlamak": 4658,
      "süz": 4659,
      "stur": 4660,
      "vergi": 4661,
      "prob": 4662,
      "zira": 4663,
      "lmak": 4664,
      "mühendis": 4665,
      "doğrul": 4666,
      "üzerindeki": 4667,
      "taz": 4668,
      "sağlığı": 4669,
      "kazanan": 4670,
      "hafi": 4671,
      "türü": 4672,
      "bası": 4673,
      "kaydedildi": 4674,
      "itibarıyla": 4675,
      "bine": 4676,
      "imli": 4677,
      "sındaki": 4678,
      "müsa": 4679,
      "fikir": 4680,
      "çıkı": 4681,
      "suudi": 4682,
      "senar": 4683,
      "independent": 4684,
      "şampiyonası": 4685,
      "taşıyan": 4686,
      "sorgu": 4687,
      "kanser": 4688,
      "sorunu": 4689,
      "asya": 4690,
      "yerleştir": 4691,
      "süreçte": 4692,
      "kök": 4693,
      "oyunları": 4694,
      "idi": 4695,
      "kullandığı": 4696,
      "anti": 4697,
      "doğrudan": 4698,
      "roma": 4699,
      "bot": 4700,
      "gösteriyor": 4701,
      "ue": 4702,
      "dıktan": 4703,
      "lili": 4704,
      "seya": 4705,
      "utin": 4706,
      "derg": 4707,
      "400": 4708,
      "zorun": 4709,
      "dep": 4710,
      "kişilik": 4711,
      "çıkma": 4712,
      "gus": 4713,
      "yolc": 4714,
      "hik": 4715,
      "evine": 4716,
      "cağım": 4717,
      "hisse": 4718,
      "selçuk": 4719,
      "asla": 4720,
      "tival": 4721,
      "yaşamını": 4722,
      "yürüyüş": 4723,
      "?\"": 4724,
      "dayanı": 4725,
      "parçası": 4726,
      "festival": 4727,
      "kaf": 4728,
      "kilometre": 4729,
      "sanız": 4730,
      "yeterli": 4731,
      "gerekçesiyle": 4732,
      "çavuş": 4733,
      "merkezine": 4734,
      "işgal": 4735,
      "olduklarını": 4736,
      "yıla": 4737,
      "biyet": 4738,
      "lenme": 4739,
      "fizik": 4740,
      "hakan": 4741,
      "kuvvetleri": 4742,
      "herkesin": 4743,
      "varsa": 4744,
      "akış": 4745,
      "ph": 4746,
      "ticari": 4747,
      "japonya": 4748,
      "dini": 4749,
      "gizli": 4750,
      "ilendir": 4751,
      "yüzyıl": 4752,
      "annesi": 4753,
      "anlamda": 4754,
      "ash": 4755,
      "demokrat": 4756,
      "300": 4757,
      "forma": 4758,
      "insanları": 4759,
      "siyah": 4760,
      "berg": 4761,
      "zafer": 4762,
      "liam": 4763,
      "hac": 4764,
      "burg": 4765,
      "memesi": 4766,
      "my": 4767,
      "bö": 4768,
      "yonel": 4769,
      "ederken": 4770,
      "kati": 4771,
      "lıkta": 4772,
      "şirketi": 4773,
      "lmasına": 4774,
      "şem": 4775,
      "ars": 4776,
      "uma": 4777,
      "66": 4778,
      "işi̇d": 4779,
      "kör": 4780,
      "oz": 4781,
      "gaziantep": 4782,
      "bilgis": 4783,
      "çal": 4784,
      "altını": 4785,
      "hafif": 4786,
      "sivas": 4787,
      "bayramı": 4788,
      "larımıza": 4789,
      "mün": 4790,
      "chi": 4791,
      "salon": 4792,
      "liyoruz": 4793,
      "mülte": 4794,
      "tc": 4795,
      "uçuş": 4796,
      "lav": 4797,
      "tap": 4798,
      "vatandaşların": 4799,
      "değin": 4800,
      "ilçesi": 4801,
      "bgcolor": 4802,
      "buldu": 4803,
      "olağan": 4804,
      "tacak": 4805,
      "yaptıkları": 4806,
      "bölgeye": 4807,
      "cık": 4808,
      "biliriz": 4809,
      "şeyi": 4810,
      "jen": 4811,
      "urken": 4812,
      "44": 4813,
      "düşen": 4814,
      "gelin": 4815,
      "abdullah": 4816,
      "maçında": 4817,
      "servis": 4818,
      "sahne": 4819,
      "vurgulayan": 4820,
      "esir": 4821,
      "mensup": 4822,
      "sonuna": 4823,
      "gözlem": 4824,
      "şarkıcı": 4825,
      "lanarak": 4826,
      "başkenti": 4827,
      "üstün": 4828,
      "lok": 4829,
      "tasarım": 4830,
      "hazırlanan": 4831,
      "müzaker": 4832,
      "mektu": 4833,
      "yayınlanan": 4834,
      "hus": 4835,
      "malarını": 4836,
      "malzem": 4837,
      "rum": 4838,
      "kova": 4839,
      "vey": 4840,
      "başlangı": 4841,
      "sitesinde": 4842,
      "sekret": 4843,
      "mersin": 4844,
      "ortalama": 4845,
      "rü": 4846,
      "i̇dar": 4847,
      "emeye": 4848,
      "sonuçları": 4849,
      "civar": 4850,
      "restor": 4851,
      "güçlendir": 4852,
      "edeceğiz": 4853,
      "desteği": 4854,
      "yalnızca": 4855,
      "şif": 4856,
      "çalışması": 4857,
      "koordin": 4858,
      "neredeyse": 4859,
      "çanak": 4860,
      "çocukları": 4861,
      "pren": 4862,
      "çıkıyor": 4863,
      "mediği": 4864,
      "dolu": 4865,
      "görevi": 4866,
      "yoktur": 4867,
      "diğim": 4868,
      "tamamladı": 4869,
      "ihtim": 4870,
      "yılından": 4871,
      "geldiğini": 4872,
      "brezil": 4873,
      "sakin": 4874,
      "ihlal": 4875,
      "lemeye": 4876,
      "santr": 4877,
      "lerdir": 4878,
      "toplumsal": 4879,
      "muhammed": 4880,
      "yaptırım": 4881,
      "açılan": 4882,
      "baraj": 4883,
      "ales": 4884,
      "etkisi": 4885,
      "yapımı": 4886,
      "cının": 4887,
      "ortadan": 4888,
      "aran": 4889,
      "şeker": 4890,
      "düm": 4891,
      "aktarı": 4892,
      "okun": 4893,
      "emir": 4894,
      "47": 4895,
      "sunulan": 4896,
      "ödem": 4897,
      "duygu": 4898,
      "pınar": 4899,
      "öldü": 4900,
      "alır": 4901,
      "arda": 4902,
      "yaşlı": 4903,
      "2003": 4904,
      "i̇tal": 4905,
      "are": 4906,
      "gazeteci": 4907,
      "onlara": 4908,
      "değerli": 4909,
      "hakem": 4910,
      "hit": 4911,
      "uzay": 4912,
      "mesinden": 4913,
      "esas": 4914,
      "bebek": 4915,
      "yaptık": 4916,
      "seyahat": 4917,
      "wa": 4918,
      "bilgiler": 4919,
      "ameli": 4920,
      "muhalefet": 4921,
      "ald": 4922,
      "steri": 4923,
      "edilmiş": 4924,
      "yaşama": 4925,
      "ordusu": 4926,
      "itiraz": 4927,
      "ertel": 4928,
      "standar": 4929,
      "ww": 4930,
      "sığın": 4931,
      "sov": 4932,
      "leşme": 4933,
      "landığını": 4934,
      "yapmış": 4935,
      "yetkililer": 4936,
      "cinin": 4937,
      "öldürül": 4938,
      "kadınların": 4939,
      "hızla": 4940,
      "muhabir": 4941,
      "tartı": 4942,
      "gazetesi": 4943,
      "coğrafya": 4944,
      "bulut": 4945,
      "veriş": 4946,
      "lıklar": 4947,
      "haberine": 4948,
      "verg": 4949,
      "mezun": 4950,
      "finans": 4951,
      "ülebilir": 4952,
      "kus": 4953,
      "karadeniz": 4954,
      "medyada": 4955,
      "lit": 4956,
      "maması": 4957,
      "kalit": 4958,
      "almaya": 4959,
      "day": 4960,
      "madalya": 4961,
      "terk": 4962,
      "ulaşım": 4963,
      "ifadesini": 4964,
      "federasyonu": 4965,
      "kategor": 4966,
      "mediğini": 4967,
      "evet": 4968,
      "otobüs": 4969,
      "i̇talyan": 4970,
      "size": 4971,
      "düşman": 4972,
      "vurguladı": 4973,
      "sözcüsü": 4974,
      "lerimizi": 4975,
      "lâ": 4976,
      "tuk": 4977,
      "çalışıyor": 4978,
      "aldığını": 4979,
      "enerj": 4980,
      "erzurum": 4981,
      "hel": 4982,
      "aşk": 4983,
      "vermeye": 4984,
      "odası": 4985,
      "metrek": 4986,
      "bro": 4987,
      "kurtarı": 4988,
      "süt": 4989,
      "ws": 4990,
      "bununla": 4991,
      "kendilerine": 4992,
      "filmleri": 4993,
      "gazze": 4994,
      "hedi": 4995,
      "düşüş": 4996,
      "anlaşma": 4997,
      "ty": 4998,
      "karşılık": 4999,
      "sche": 5000,
      "laka": 5001,
      "içeren": 5002,
      "uluyor": 5003,
      "öncesinde": 5004,
      "oynan": 5005,
      "cihaz": 5006,
      "huku": 5007,
      "lanmaktadır": 5008,
      "cami": 5009,
      "yuk": 5010,
      "larca": 5011,
      "toplantısında": 5012,
      "lir": 5013,
      "ney": 5014,
      "cilere": 5015,
      "milliyet": 5016,
      "devleti": 5017,
      "i̇sveç": 5018,
      "başkanlık": 5019,
      "turnu": 5020,
      "olmasına": 5021,
      "konuk": 5022,
      "bahçeli": 5023,
      "valisi": 5024,
      "olmasını": 5025,
      "yükseldi": 5026,
      "açıldı": 5027,
      "resim": 5028,
      "hisar": 5029,
      "sahil": 5030,
      "sayılı": 5031,
      "olacaktır": 5032,
      "tane": 5033,
      "i̇st": 5034,
      "artırı": 5035,
      "09": 5036,
      "katıldığı": 5037,
      "dae": 5038,
      "alınması": 5039,
      "hindistan": 5040,
      "toplantısı": 5041,
      "wor": 5042,
      "esnaf": 5043,
      "undaki": 5044,
      "i̇mparator": 5045,
      "kişisel": 5046,
      "sc": 5047,
      "düşünüyorum": 5048,
      "inşaat": 5049,
      "havalimanı": 5050,
      "yerleşim": 5051,
      "rahatsız": 5052,
      "yazarı": 5053,
      "içine": 5054,
      "profesyonel": 5055,
      "kasa": 5056,
      "diğine": 5057,
      "brik": 5058,
      "bilgiye": 5059,
      "ailesi": 5060,
      "direktörü": 5061,
      "edilmiştir": 5062,
      "milletler": 5063,
      "kala": 5064,
      "sayfa": 5065,
      "artan": 5066,
      "özgürlük": 5067,
      "kapasit": 5068,
      "genin": 5069,
      "londra": 5070,
      "hollanda": 5071,
      "eve": 5072,
      "seçmen": 5073,
      "muğ": 5074,
      "bekle": 5075,
      "alter": 5076,
      "hüc": 5077,
      "kitab": 5078,
      "şiir": 5079,
      "ismi": 5080,
      "masın": 5081,
      "gam": 5082,
      "ington": 5083,
      "sağladı": 5084,
      "şeyler": 5085,
      "malat": 5086,
      "bulunmaktadır": 5087,
      "geçici": 5088,
      "buz": 5089,
      "arabistan": 5090,
      "gösteri": 5091,
      "fayd": 5092,
      "festiv": 5093,
      "yağmur": 5094,
      "tis": 5095,
      "enek": 5096,
      "sayısının": 5097,
      "festivali": 5098,
      "güvenli": 5099,
      "cısı": 5100,
      "başkent": 5101,
      "çerçevesinde": 5102,
      "açıklaması": 5103,
      "wo": 5104,
      "gat": 5105,
      "vekili": 5106,
      "taleb": 5107,
      "hasar": 5108,
      "tüp": 5109,
      "libya": 5110,
      "bilgisayar": 5111,
      "''": 5112,
      "2001": 5113,
      "line": 5114,
      "kızıl": 5115,
      "çanakkale": 5116,
      "harekete": 5117,
      "diya": 5118,
      "saf": 5119,
      "uefa": 5120,
      "ehir": 5121,
      "şeri": 5122,
      "leniyor": 5123,
      "kapan": 5124,
      "i̇ha": 5125,
      "emiz": 5126,
      "ök": 5127,
      "dönemi": 5128,
      "yönel": 5129,
      "49": 5130,
      "lıkları": 5131,
      "ölenler": 5132,
      "başlayacak": 5133,
      "yaptığını": 5134,
      "luluğu": 5135,
      "sağlayan": 5136,
      "ilişkiler": 5137,
      "yü": 5138,
      "kişiye": 5139,
      "bert": 5140,
      "kilis": 5141,
      "i̇ddi": 5142,
      "vakfı": 5143,
      "çiçek": 5144,
      "elem": 5145,
      "eld": 5146,
      "46": 5147,
      "ıs": 5148,
      "olursa": 5149,
      "müştür": 5150,
      "dikkati": 5151,
      "muhar": 5152,
      "dilek": 5153,
      "nas": 5154,
      "takdir": 5155,
      "görüyor": 5156,
      "unsur": 5157,
      "olayın": 5158,
      "ambulan": 5159,
      "ensti": 5160,
      "yerini": 5161,
      "hum": 5162,
      "trabzonspor": 5163,
      "bileceğ": 5164,
      "dönüşüm": 5165,
      "yusu": 5166,
      "edip": 5167,
      "platform": 5168,
      "ülkelerin": 5169,
      "maliyet": 5170,
      "til": 5171,
      "los": 5172,
      "sokağa": 5173,
      "ex": 5174,
      "dey": 5175,
      "sonuçlar": 5176,
      "teşvik": 5177,
      "yukarı": 5178,
      "insanı": 5179,
      "kesi": 5180,
      "vatan": 5181,
      "kadir": 5182,
      "kimlik": 5183,
      "vir": 5184,
      "ölçü": 5185,
      "vatandaşı": 5186,
      "lütfen": 5187,
      "ndaki": 5188,
      "ity": 5189,
      "afganistan": 5190,
      "akın": 5191,
      "düşünc": 5192,
      "aziz": 5193,
      "usuna": 5194,
      "oyuncular": 5195,
      "fam": 5196,
      "formu": 5197,
      "gördük": 5198,
      "soğuk": 5199,
      "sebebiyle": 5200,
      "ilgilen": 5201,
      "i̇ngilizce": 5202,
      "kaldırıldı": 5203,
      "yaratı": 5204,
      "bün": 5205,
      "suriy": 5206,
      "birleşmiş": 5207,
      "açıklandı": 5208,
      "makin": 5209,
      "elerle": 5210,
      "eğitimi": 5211,
      "tün": 5212,
      "yusuf": 5213,
      "gon": 5214,
      "listesi": 5215,
      "1990": 5216,
      "yaşandı": 5217,
      "mobil": 5218,
      "kaydeden": 5219,
      "içerir": 5220,
      "tüketi": 5221,
      "bazen": 5222,
      "kıl": 5223,
      "kadının": 5224,
      "finan": 5225,
      "oyuncuları": 5226,
      "aktardı": 5227,
      "korku": 5228,
      "sovyet": 5229,
      "dönüştür": 5230,
      "aktör": 5231,
      "vin": 5232,
      "zeytin": 5233,
      "pandemi": 5234,
      "i̇mamoğlu": 5235,
      "işç": 5236,
      "kayseri": 5237,
      "veri": 5238,
      "iyileş": 5239,
      "vazgeç": 5240,
      "dosya": 5241,
      "deut": 5242,
      "problem": 5243,
      "gerçekleşti": 5244,
      "nar": 5245,
      "görüldü": 5246,
      "mağlu": 5247,
      "dök": 5248,
      "almış": 5249,
      "jin": 5250,
      "soylu": 5251,
      "suçundan": 5252,
      "endek": 5253,
      "caddesi": 5254,
      "buraya": 5255,
      "kun": 5256,
      "sitesi": 5257,
      "aslan": 5258,
      "lırken": 5259,
      "kov": 5260,
      "görülüyor": 5261,
      "putin": 5262,
      "edilecek": 5263,
      "zih": 5264,
      "bıçak": 5265,
      "1999": 5266,
      "maktan": 5267,
      "ron": 5268,
      "vanın": 5269,
      "beklent": 5270,
      "tecr": 5271,
      "sis": 5272,
      "bulunduğunu": 5273,
      "muğla": 5274,
      "hoş": 5275,
      "ekipler": 5276,
      "itfaiye": 5277,
      "köpek": 5278,
      "büyüm": 5279,
      "cal": 5280,
      "bahar": 5281,
      "================": 5282,
      "nedir": 5283,
      "çam": 5284,
      "gördü": 5285,
      "tac": 5286,
      "03": 5287,
      "ers": 5288,
      "çor": 5289,
      "düzenlediği": 5290,
      "bağış": 5291,
      "endiş": 5292,
      "elerinden": 5293,
      "tanık": 5294,
      "görmek": 5295,
      "hiss": 5296,
      "kazanı": 5297,
      "doğrult": 5298,
      "adres": 5299,
      "algı": 5300,
      "dokun": 5301,
      "barat": 5302,
      "kararlı": 5303,
      "doğa": 5304,
      "verir": 5305,
      "fek": 5306,
      "arz": 5307,
      "malatya": 5308,
      "tası": 5309,
      "lerimizin": 5310,
      "kültürel": 5311,
      "attığı": 5312,
      "gümüş": 5313,
      "lanı": 5314,
      "saç": 5315,
      "yardı": 5316,
      "beğen": 5317,
      "edebiyat": 5318,
      "sön": 5319,
      "temas": 5320,
      "itan": 5321,
      "hastanede": 5322,
      "süredir": 5323,
      "berlin": 5324,
      "kalkınma": 5325,
      "01": 5326,
      "inti": 5327,
      "turist": 5328,
      "gs": 5329,
      "lus": 5330,
      "ayrıldı": 5331,
      "lmaz": 5332,
      "drum": 5333,
      "duvar": 5334,
      "lardı": 5335,
      "aykırı": 5336,
      "sandık": 5337,
      "nedeni": 5338,
      "çıktığı": 5339,
      "42": 5340,
      "hekim": 5341,
      "08": 5342,
      "ogra": 5343,
      "sürüc": 5344,
      "suyu": 5345,
      "oyunc": 5346,
      "kısmı": 5347,
      "sürecinde": 5348,
      "alması": 5349,
      "neti": 5350,
      "ildiğini": 5351,
      "uni": 5352,
      "kentinde": 5353,
      "hatay": 5354,
      "heyet": 5355,
      "field": 5356,
      "çab": 5357,
      "müzi": 5358,
      "mda": 5359,
      "tartışma": 5360,
      "alev": 5361,
      "civarında": 5362,
      "bakanlık": 5363,
      "iyiz": 5364,
      "olacağı": 5365,
      "hükümetin": 5366,
      "olog": 5367,
      "pal": 5368,
      "yel": 5369,
      "metro": 5370,
      "star": 5371,
      "etraf": 5372,
      "çocuğu": 5373,
      "sün": 5374,
      "merkezli": 5375,
      "açıklamaya": 5376,
      "döndü": 5377,
      "rik": 5378,
      "buradan": 5379,
      "yenilen": 5380,
      "ışık": 5381,
      "alıp": 5382,
      "mutlaka": 5383,
      "maaş": 5384,
      "kamera": 5385,
      "haberi": 5386,
      "şahı": 5387,
      "paket": 5388,
      "wash": 5389,
      "maruz": 5390,
      "acağız": 5391,
      "geleneksel": 5392,
      "noktada": 5393,
      "organizasyon": 5394,
      "tekin": 5395,
      "famil": 5396,
      "78": 5397,
      "birisi": 5398,
      "doğrultusunda": 5399,
      "ester": 5400,
      "vo": 5401,
      "yapıldığı": 5402,
      "dili": 5403,
      "feri": 5404,
      "biden": 5405,
      "ple": 5406,
      "book": 5407,
      "tuz": 5408,
      "araz": 5409,
      "alını": 5410,
      "barın": 5411,
      "bodrum": 5412,
      "çın": 5413,
      "io": 5414,
      "şef": 5415,
      "iklet": 5416,
      "=\"#": 5417,
      "rin": 5418,
      "temsilcisi": 5419,
      "ege": 5420,
      "gurur": 5421,
      "angel": 5422,
      "kamyon": 5423,
      "avan": 5424,
      "fra": 5425,
      "zayı": 5426,
      "arkadaşları": 5427,
      "çıkacak": 5428,
      "kaynağı": 5429,
      "rüz": 5430,
      "alışveriş": 5431,
      "bilimsel": 5432,
      "deutsche": 5433,
      "ite": 5434,
      "lılar": 5435,
      "doğdu": 5436,
      "galibiyet": 5437,
      "atma": 5438,
      "salı": 5439,
      "yayımlanan": 5440,
      "çalışmalarını": 5441,
      "çetin": 5442,
      "kaldığı": 5443,
      "leyi": 5444,
      "bisiklet": 5445,
      "yakıt": 5446,
      "derec": 5447,
      "gençler": 5448,
      "komutanı": 5449,
      "uzmanı": 5450,
      "washington": 5451,
      "',": 5452,
      "lisans": 5453,
      "lanmıştır": 5454,
      "eklen": 5455,
      "değişim": 5456,
      "anlat": 5457,
      "ilinin": 5458,
      "win": 5459,
      "gue": 5460,
      "aktaran": 5461,
      "avustr": 5462,
      "düzenlendi": 5463,
      "pir": 5464,
      "yıp": 5465,
      "iddiası": 5466,
      "organize": 5467,
      "lardaki": 5468,
      "biliyoruz": 5469,
      "sürdü": 5470,
      "atık": 5471,
      "kendilerini": 5472,
      "beklenen": 5473,
      "istis": 5474,
      "gh": 5475,
      "kanunu": 5476,
      "nüfusu": 5477,
      "tahliye": 5478,
      "konuşma": 5479,
      "çarptı": 5480,
      "i̇yi̇": 5481,
      "değişikliği": 5482,
      "kavuş": 5483,
      "şük": 5484,
      "şma": 5485,
      "viç": 5486,
      "yedi": 5487,
      "yapar": 5488,
      "zirv": 5489,
      "bahse": 5490,
      "02": 5491,
      "muyor": 5492,
      "eskiş": 5493,
      "eskişehir": 5494,
      "performans": 5495,
      "muta": 5496,
      "port": 5497,
      "ülkeye": 5498,
      "krizi": 5499,
      "şanlı": 5500,
      "05": 5501,
      "çatı": 5502,
      "yaşar": 5503,
      "amir": 5504,
      "şın": 5505,
      "halen": 5506,
      "yazdı": 5507,
      "bölgedeki": 5508,
      "davut": 5509,
      "sevg": 5510,
      "ğer": 5511,
      "köken": 5512,
      "şehrin": 5513,
      "takv": 5514,
      "85": 5515,
      "ayla": 5516,
      "bıraktı": 5517,
      "namaz": 5518,
      "besi": 5519,
      "ömür": 5520,
      "hoca": 5521,
      "ob": 5522,
      "koal": 5523,
      "rey": 5524,
      "gesi": 5525,
      "orhan": 5526,
      "kişiyi": 5527,
      "istihdam": 5528,
      "tüketim": 5529,
      "lmaya": 5530,
      "kitabı": 5531,
      "doldur": 5532,
      "yılına": 5533,
      "önde": 5534,
      "komutanlığı": 5535,
      "ima": 5536,
      "görevl": 5537,
      "meyecek": 5538,
      "tanrı": 5539,
      "yapılıyor": 5540,
      "cro": 5541,
      "şans": 5542,
      "oranında": 5543,
      "41": 5544,
      "açıklamalarda": 5545,
      "moskova": 5546,
      "suzluk": 5547,
      "olmuştu": 5548,
      "gari": 5549,
      "cüm": 5550,
      "olayı": 5551,
      "pg": 5552,
      "?”": 5553,
      "üyeli": 5554,
      "elbet": 5555,
      "nö": 5556,
      "oyuncusu": 5557,
      "birinin": 5558,
      "pey": 5559,
      "egem": 5560,
      "koalisyon": 5561,
      "yüzünden": 5562,
      "dahi": 5563,
      "protok": 5564,
      "elinde": 5565,
      "ks": 5566,
      "cins": 5567,
      "mın": 5568,
      "eğlen": 5569,
      "char": 5570,
      "getirildi": 5571,
      "ören": 5572,
      "devrim": 5573,
      "hakaret": 5574,
      "99": 5575,
      "koz": 5576,
      "tro": 5577,
      "aca": 5578,
      "zirve": 5579,
      "seçimleri": 5580,
      "gurbet": 5581,
      "avustur": 5582,
      "gul": 5583,
      "sorumluluk": 5584,
      "racak": 5585,
      "ati": 5586,
      "adıyla": 5587,
      "laştırma": 5588,
      "sıralarında": 5589,
      "standart": 5590,
      "protokol": 5591,
      "bölgesel": 5592,
      "egemen": 5593,
      "vü": 5594,
      "ithal": 5595,
      "biçimde": 5596,
      "memiz": 5597,
      "edildiğini": 5598,
      "yoksa": 5599,
      "gerçekleşen": 5600,
      "muhtemel": 5601,
      "zayıf": 5602,
      "hassas": 5603,
      "dalı": 5604,
      "öztürk": 5605,
      "rast": 5606,
      "uyum": 5607,
      "07": 5608,
      "referans": 5609,
      "kongre": 5610,
      "belirtilen": 5611,
      "belirlenen": 5612,
      "kullanan": 5613,
      "iken": 5614,
      "elerden": 5615,
      "rektör": 5616,
      "balı": 5617,
      "mol": 5618,
      "davranış": 5619,
      "maske": 5620,
      "ittifak": 5621,
      "bekliyor": 5622,
      "açıklamasında": 5623,
      "bütç": 5624,
      "belirlendi": 5625,
      "insanın": 5626,
      "yoluyla": 5627,
      "dönemin": 5628,
      "yolları": 5629,
      "adamı": 5630,
      "kaymakam": 5631,
      "tutuklandı": 5632,
      "felak": 5633,
      "memlek": 5634,
      "başladığı": 5635,
      "iv": 5636,
      "dk": 5637,
      "i̇ne": 5638,
      "otomatik": 5639,
      "iter": 5640,
      "içindeki": 5641,
      "köyü": 5642,
      "sman": 5643,
      "denildi": 5644,
      "makla": 5645,
      "arya": 5646,
      "bakınız": 5647,
      "ura": 5648,
      "çeyrek": 5649,
      "hepsi": 5650,
      "vücu": 5651,
      "gelmiş": 5652,
      "ding": 5653,
      "hali": 5654,
      "gidiyor": 5655,
      "welle": 5656,
      "wi": 5657,
      "yüzyılda": 5658,
      "şener": 5659,
      "büny": 5660,
      "06": 5661,
      "üretimi": 5662,
      "çıkardı": 5663,
      "planı": 5664,
      "komşu": 5665,
      "edir": 5666,
      "düzenleme": 5667,
      "ebilecek": 5668,
      "diğiniz": 5669,
      "hürr": 5670,
      "güreş": 5671,
      "kardeşi": 5672,
      "43": 5673,
      "kelim": 5674,
      "coş": 5675,
      "alkol": 5676,
      "urfa": 5677,
      "kanıt": 5678,
      "engelli": 5679,
      "öğrencilerin": 5680,
      "yılının": 5681,
      "heyecan": 5682,
      "güvenliği": 5683,
      "istediği": 5684,
      "kazı": 5685,
      "ayır": 5686,
      "işler": 5687,
      "rejim": 5688,
      "lmıştı": 5689,
      "dun": 5690,
      "hikay": 5691,
      "kullanarak": 5692,
      "sahte": 5693,
      "bedel": 5694,
      "//": 5695,
      "cıların": 5696,
      "kalın": 5697,
      "ürünleri": 5698,
      "dağıtı": 5699,
      "ifadeleri": 5700,
      "yasına": 5701,
      "başak": 5702,
      "olmadan": 5703,
      "alterna": 5704,
      "işçi": 5705,
      "kendine": 5706,
      "bülen": 5707,
      "idari": 5708,
      "150": 5709,
      "isinden": 5710,
      "potan": 5711,
      "rakip": 5712,
      "aracılığıyla": 5713,
      "yıllardır": 5714,
      "1980": 5715,
      "sözlerini": 5716,
      "basının": 5717,
      "nitelik": 5718,
      "büyüme": 5719,
      "sözcü": 5720,
      "sürdürdü": 5721,
      "nci": 5722,
      "yarattı": 5723,
      "referan": 5724,
      "uygulamalar": 5725,
      "kapsa": 5726,
      "e9e9e9": 5727,
      "1998": 5728,
      "düzenlem": 5729,
      "dolarlık": 5730,
      "akıllı": 5731,
      "avantaj": 5732,
      "muhalif": 5733,
      "bülent": 5734,
      "sağlaya": 5735,
      "marmara": 5736,
      "ölçüde": 5737,
      "görüyoruz": 5738,
      "antik": 5739,
      "tma": 5740,
      "manisa": 5741,
      "alesef": 5742,
      "maalesef": 5743,
      "alardan": 5744,
      "fre": 5745,
      "şahıs": 5746,
      "57": 5747,
      "ayr": 5748,
      "milletvekilleri": 5749,
      "jam": 5750,
      "sözlerine": 5751,
      "ilerde": 5752,
      "dede": 5753,
      "potansiy": 5754,
      "kalma": 5755,
      "arım": 5756,
      "çalıştığı": 5757,
      "opter": 5758,
      "lay": 5759,
      "öğrenim": 5760,
      "elbette": 5761,
      "imzala": 5762,
      "füz": 5763,
      "yakalandı": 5764,
      "yürütülen": 5765,
      "pazartesi": 5766,
      "ekib": 5767,
      "yayıl": 5768,
      "market": 5769,
      "klas": 5770,
      "macar": 5771,
      "lerindeki": 5772,
      "helik": 5773,
      "yken": 5774,
      "zinc": 5775,
      "gönüllü": 5776,
      "ödeme": 5777,
      "ms": 5778,
      "key": 5779,
      "kurmay": 5780,
      "hastalığı": 5781,
      "yürür": 5782,
      "aça": 5783,
      "işin": 5784,
      "siye": 5785,
      "endü": 5786,
      "iletişime": 5787,
      "ümit": 5788,
      "wn": 5789,
      "düs": 5790,
      "etmişti": 5791,
      "merkezinde": 5792,
      "tte": 5793,
      "ücretsiz": 5794,
      "mete": 5795,
      "suna": 5796,
      "stad": 5797,
      "tarihleri": 5798,
      "tom": 5799,
      "pres": 5800,
      "göreve": 5801,
      "yaptır": 5802,
      "görünt": 5803,
      "evren": 5804,
      "iner": 5805,
      "espor": 5806,
      "gut": 5807,
      "ambulans": 5808,
      "toplumun": 5809,
      "edilir": 5810,
      "hizmetleri": 5811,
      "katılı": 5812,
      "oldukları": 5813,
      "lise": 5814,
      "kırık": 5815,
      "melidir": 5816,
      "56": 5817,
      "lendiği": 5818,
      "kalab": 5819,
      "afet": 5820,
      "kaybe": 5821,
      "usunu": 5822,
      "şirketin": 5823,
      "geor": 5824,
      "tın": 5825,
      "denet": 5826,
      "itesi": 5827,
      "azalt": 5828,
      "yör": 5829,
      "aralı": 5830,
      "dikkate": 5831,
      "58": 5832,
      "aktiv": 5833,
      "ght": 5834,
      "tol": 5835,
      "adlandırı": 5836,
      "dönüm": 5837,
      "fc": 5838,
      "kavga": 5839,
      "parkı": 5840,
      "müdürlüğ": 5841,
      "dışına": 5842,
      "bulgar": 5843,
      "ştığı": 5844,
      "marka": 5845,
      "şiş": 5846,
      "tutar": 5847,
      "cey": 5848,
      "oyuna": 5849,
      "ödülleri": 5850,
      "zorlu": 5851,
      "çekim": 5852,
      "döviz": 5853,
      "imzalan": 5854,
      "ong": 5855,
      "bri": 5856,
      "kaybı": 5857,
      "istikrar": 5858,
      "play": 5859,
      "reklam": 5860,
      "lenin": 5861,
      "etkile": 5862,
      "ameliyat": 5863,
      "salgını": 5864,
      "helikopter": 5865,
      "toplantıda": 5866,
      "1994": 5867,
      "sakat": 5868,
      "poziti": 5869,
      "brezilya": 5870,
      "köş": 5871,
      "bulunur": 5872,
      "moto": 5873,
      "köprü": 5874,
      "nesil": 5875,
      "polonya": 5876,
      "diyal": 5877,
      "maddi": 5878,
      "alarla": 5879,
      "memek": 5880,
      "sorunları": 5881,
      "corona": 5882,
      "bos": 5883,
      "düğün": 5884,
      "jer": 5885,
      "sigorta": 5886,
      "arslan": 5887,
      "olduğumuz": 5888,
      "mavi": 5889,
      "hürriyet": 5890,
      "doç": 5891,
      "çocuğun": 5892,
      "hari": 5893,
      "hid": 5894,
      "adeta": 5895,
      "çik": 5896,
      "sağlayacak": 5897,
      "dalg": 5898,
      "halka": 5899,
      "sir": 5900,
      "örü": 5901,
      "kararını": 5902,
      "all": 5903,
      "cumartesi": 5904,
      "donald": 5905,
      "adil": 5906,
      "çekiyor": 5907,
      "yakından": 5908,
      "görevini": 5909,
      "isiz": 5910,
      "tedir": 5911,
      "1996": 5912,
      "raporu": 5913,
      "portek": 5914,
      "kocaeli": 5915,
      "adliy": 5916,
      "durumun": 5917,
      "dolan": 5918,
      "2024": 5919,
      "oluştu": 5920,
      "etmektedir": 5921,
      "istasyon": 5922,
      "reform": 5923,
      "sahiptir": 5924,
      "iliş": 5925,
      "i̇nşallah": 5926,
      "günümüzde": 5927,
      "niş": 5928,
      "federal": 5929,
      "inceleme": 5930,
      "oba": 5931,
      "enler": 5932,
      "portekiz": 5933,
      "1997": 5934,
      "öncelikle": 5935,
      "yaklaşım": 5936,
      "takımın": 5937,
      "zorunlu": 5938,
      "belirli": 5939,
      "bla": 5940,
      "lediği": 5941,
      "i̇şleri": 5942,
      "lisesi": 5943,
      "alarından": 5944,
      "başlar": 5945,
      "vizyon": 5946,
      "yavuz": 5947,
      "dizisi": 5948,
      "layıcı": 5949,
      "95": 5950,
      "lacağı": 5951,
      "pra": 5952,
      "kurtarma": 5953,
      "imizden": 5954,
      "deneyim": 5955,
      "yaparken": 5956,
      "sezonu": 5957,
      "plakalı": 5958,
      "tatistik": 5959,
      "tle": 5960,
      "fiyatı": 5961,
      "kalk": 5962,
      "asgari": 5963,
      "pozitif": 5964,
      "sahipleri": 5965,
      "usta": 5966,
      "nefes": 5967,
      "uyruk": 5968,
      "kimdir": 5969,
      "yazdığı": 5970,
      "tatlı": 5971,
      "xx": 5972,
      "bütçe": 5973,
      "real": 5974,
      "açıdan": 5975,
      "1995": 5976,
      "dördün": 5977,
      "vah": 5978,
      "gördüğü": 5979,
      "bugünkü": 5980,
      "liliği": 5981,
      "som": 5982,
      "yanına": 5983,
      "karşılaştı": 5984,
      "devre": 5985,
      "ciğer": 5986,
      "alternatif": 5987,
      "sendi": 5988,
      "panyol": 5989,
      "mayın": 5990,
      "yönlendir": 5991,
      "trafi": 5992,
      "korumak": 5993,
      "ire": 5994,
      "sürdürülebilir": 5995,
      "lerimize": 5996,
      "işbirliği": 5997,
      "ekiplerin": 5998,
      "ülkeleri": 5999,
      "uyan": 6000,
      "öyl": 6001,
      "hikâ": 6002,
      "gerektiği": 6003,
      "vit": 6004,
      "kendisinin": 6005,
      "1992": 6006,
      "81": 6007,
      "kanada": 6008,
      "76": 6009,
      "zehir": 6010,
      "abonelik": 6011,
      "eki": 6012,
      "hükû": 6013,
      "eğil": 6014,
      "yapacağı": 6015,
      "fur": 6016,
      "meydanı": 6017,
      "i̇sviç": 6018,
      "geçerli": 6019,
      "hafı": 6020,
      "amaçlı": 6021,
      "bolu": 6022,
      "kesinlikle": 6023,
      "layacak": 6024,
      "ğiyle": 6025,
      "lüb": 6026,
      "adası": 6027,
      "elektronik": 6028,
      "temin": 6029,
      "madr": 6030,
      "filmin": 6031,
      "04": 6032,
      "kurdu": 6033,
      "varlık": 6034,
      "enstitüsü": 6035,
      "santral": 6036,
      "halı": 6037,
      "anıyor": 6038,
      "bölümünde": 6039,
      "gelip": 6040,
      "lenmiş": 6041,
      "rich": 6042,
      "evin": 6043,
      "geleceğ": 6044,
      "amı": 6045,
      "ene": 6046,
      "anacak": 6047,
      "cia": 6048,
      "anket": 6049,
      "düzel": 6050,
      "sinan": 6051,
      "maraş": 6052,
      "face": 6053,
      "çaba": 6054,
      "verilmesi": 6055,
      "i̇bb": 6056,
      "fabrika": 6057,
      "areti": 6058,
      "raporda": 6059,
      "anak": 6060,
      "tarihli": 6061,
      "tına": 6062,
      "krallık": 6063,
      "kırım": 6064,
      "çarpı": 6065,
      "almıştır": 6066,
      "yapıyoruz": 6067,
      "1993": 6068,
      "polisin": 6069,
      "yolunda": 6070,
      "olanlar": 6071,
      "yoksul": 6072,
      "çalışmalarına": 6073,
      "ülkemizin": 6074,
      "çalışmaya": 6075,
      "teor": 6076,
      "yolda": 6077,
      "si̇": 6078,
      "şehri": 6079,
      "çavuşoğlu": 6080,
      "muhtar": 6081,
      "çif": 6082,
      "ülkemizde": 6083,
      "bi̇": 6084,
      "madrid": 6085,
      "lamaları": 6086,
      "mc": 6087,
      "yalçın": 6088,
      "japon": 6089,
      "yaşadı": 6090,
      "terörle": 6091,
      "ast": 6092,
      "istediğini": 6093,
      "bina": 6094,
      "istiyan": 6095,
      "azı": 6096,
      "incisi": 6097,
      "binden": 6098,
      "i̇spanyol": 6099,
      "konferans": 6100,
      "mate": 6101,
      "ano": 6102,
      "lübnan": 6103,
      "araba": 6104,
      "tipi": 6105,
      "chel": 6106,
      "ülkes": 6107,
      "dernek": 6108,
      "bazıları": 6109,
      "sakarya": 6110,
      "ate": 6111,
      "i̇ttifak": 6112,
      "ilerden": 6113,
      "emeyen": 6114,
      "siklet": 6115,
      "kritik": 6116,
      "eren": 6117,
      "avustralya": 6118,
      ".)": 6119,
      "gah": 6120,
      "ullah": 6121,
      "53": 6122,
      "77": 6123,
      "alana": 6124,
      "oynadığı": 6125,
      "gran": 6126,
      "halil": 6127,
      "yetiş": 6128,
      "eg": 6129,
      "edirne": 6130,
      "ilebilir": 6131,
      "gergin": 6132,
      "rim": 6133,
      "kimi": 6134,
      "terim": 6135,
      "sezonunda": 6136,
      "özdemir": 6137,
      "59": 6138,
      "mikro": 6139,
      "başlangıç": 6140,
      "rük": 6141,
      "cy": 6142,
      "etmiştir": 6143,
      "dolara": 6144,
      "52": 6145,
      "anlaşması": 6146,
      "karbon": 6147,
      "yiz": 6148,
      "vermiş": 6149,
      "kazandır": 6150,
      "ford": 6151,
      "int": 6152,
      "soh": 6153,
      "uydu": 6154,
      "radyo": 6155,
      "boyu": 6156,
      "geride": 6157,
      "yaralanan": 6158,
      "turnuva": 6159,
      "turan": 6160,
      "gas": 6161,
      "yarışması": 6162,
      "rela": 6163,
      "celi": 6164,
      "lmasının": 6165,
      "kimsenin": 6166,
      "alay": 6167,
      "açıkça": 6168,
      "ziya": 6169,
      "gb": 6170,
      "öre": 6171,
      "kazada": 6172,
      "toprağ": 6173,
      "müsabak": 6174,
      "cengiz": 6175,
      "davran": 6176,
      "bölgenin": 6177,
      "aşama": 6178,
      "yapılmış": 6179,
      "ras": 6180,
      "şet": 6181,
      "piş": 6182,
      "usul": 6183,
      "işte": 6184,
      "depla": 6185,
      "aldık": 6186,
      "geçirdi": 6187,
      "indi": 6188,
      "belde": 6189,
      "pos": 6190,
      "tedavisi": 6191,
      "güçleri": 6192,
      "analiz": 6193,
      "mark": 6194,
      "zorluk": 6195,
      "bilgilendir": 6196,
      "altındaki": 6197,
      "verdiğini": 6198,
      "stratejik": 6199,
      "lüğe": 6200,
      "ettiklerini": 6201,
      "malarda": 6202,
      "oynanan": 6203,
      "ağa": 6204,
      "cenaze": 6205,
      "olağanüstü": 6206,
      "verme": 6207,
      "dw": 6208,
      "önceden": 6209,
      "aracın": 6210,
      "tüket": 6211,
      "htt": 6212,
      "oğl": 6213,
      "liraya": 6214,
      "birden": 6215,
      "davutoğlu": 6216,
      "virüsü": 6217,
      "sinir": 6218,
      "mağlup": 6219,
      "erişim": 6220,
      "toplamda": 6221,
      "kudüs": 6222,
      "yaptığımız": 6223,
      "misaf": 6224,
      "birik": 6225,
      "duruma": 6226,
      "sıfır": 6227,
      "sözleşme": 6228,
      "görüşme": 6229,
      "rekabet": 6230,
      "68": 6231,
      "gelerek": 6232,
      "birleştir": 6233,
      "bebe": 6234,
      "düzenli": 6235,
      "avusturya": 6236,
      "sorunun": 6237,
      "vakı": 6238,
      "bakış": 6239,
      "kenar": 6240,
      "bitk": 6241,
      "geleri": 6242,
      "maçın": 6243,
      "herkese": 6244,
      "cema": 6245,
      "hri": 6246,
      "pakistan": 6247,
      "mektup": 6248,
      "tartışı": 6249,
      "hediye": 6250,
      "maliye": 6251,
      "”,": 6252,
      "yüzlerce": 6253,
      "maka": 6254,
      "çarşam": 6255,
      "balıkesir": 6256,
      "sağlam": 6257,
      "tazmin": 6258,
      "lerdeki": 6259,
      "noktalarını": 6260,
      "tarz": 6261,
      "çök": 6262,
      "süresi": 6263,
      "ayrıntı": 6264,
      "deplasman": 6265,
      "çika": 6266,
      "görevli": 6267,
      "çalışıyoruz": 6268,
      "yacağı": 6269,
      "basit": 6270,
      "gerektir": 6271,
      "hakkındaki": 6272,
      "ermenistan": 6273,
      "çileri": 6274,
      "perşem": 6275,
      "uygulan": 6276,
      "bilgileri": 6277,
      "saldırgan": 6278,
      "uzan": 6279,
      "abonelere": 6280,
      "finansal": 6281,
      "çarşamba": 6282,
      "leri̇": 6283,
      "ang": 6284,
      "şof": 6285,
      "çöp": 6286,
      "gümrük": 6287,
      "yayımlanmaktadır": 6288,
      "ekmek": 6289,
      "anlayış": 6290,
      "motosiklet": 6291,
      "redde": 6292,
      "milletin": 6293,
      "pilot": 6294,
      "önder": 6295,
      "getiril": 6296,
      "bizler": 6297,
      "müzesi": 6298,
      "olat": 6299,
      "ihtimal": 6300,
      "başından": 6301,
      "vakıf": 6302,
      "açan": 6303,
      "ier": 6304,
      "itibariyle": 6305,
      "bab": 6306,
      "ğinden": 6307,
      "geçiniz": 6308,
      "yayı": 6309,
      "miyorum": 6310,
      "sekreteri": 6311,
      "dro": 6312,
      "avcı": 6313,
      "başlıyor": 6314,
      "malarına": 6315,
      "sevgil": 6316,
      "seçildi": 6317,
      "://": 6318,
      "olmalı": 6319,
      "cev": 6320,
      "özetlenerek": 6321,
      "müştü": 6322,
      "gelişim": 6323,
      "röpor": 6324,
      "ladığını": 6325,
      "uzaklıkta": 6326,
      "demirtaş": 6327,
      "ülmesi": 6328,
      "related": 6329,
      "buğ": 6330,
      "merkel": 6331,
      "iktid": 6332,
      "dans": 6333,
      "perşembe": 6334,
      "değeri": 6335,
      "operasyonu": 6336,
      "röportaj": 6337,
      "ari": 6338,
      "yarat": 6339,
      "oyunun": 6340,
      "kurucu": 6341,
      "gezi": 6342,
      "yıllarında": 6343,
      "bulundur": 6344,
      "şampiyonlar": 6345,
      "nem": 6346,
      "temsilciler": 6347,
      "radi": 6348,
      "mütte": 6349,
      "vererek": 6350,
      "ayşe": 6351,
      "telefonu": 6352,
      "evli": 6353,
      "bireysel": 6354,
      "kullanımı": 6355,
      "ermeni": 6356,
      "51": 6357,
      "buk": 6358,
      "ğim": 6359,
      "duyar": 6360,
      "kıy": 6361,
      "aşkın": 6362,
      "buradaki": 6363,
      "liğiyle": 6364,
      "kanat": 6365,
      "hip": 6366,
      "nav": 6367,
      "böyl": 6368,
      "nef": 6369,
      "denk": 6370,
      "burak": 6371,
      "ami": 6372,
      "bini": 6373,
      "fiyatları": 6374,
      "kendim": 6375,
      "kongr": 6376,
      "borsa": 6377,
      "kavram": 6378,
      "erdem": 6379,
      "lerken": 6380,
      "1970": 6381,
      "1991": 6382,
      "yarım": 6383,
      "lıp": 6384,
      "amaz": 6385,
      "i̇ye": 6386,
      "sing": 6387,
      "54": 6388,
      "verici": 6389,
      "içerik": 6390,
      "popüler": 6391,
      "kendis": 6392,
      "patlama": 6393,
      "harca": 6394,
      "açtığı": 6395,
      "elendir": 6396,
      "tehlikeli": 6397,
      "misafir": 6398,
      "600": 6399,
      "ürken": 6400,
      "söylen": 6401,
      "uygulanan": 6402,
      "sohbet": 6403,
      "abilir": 6404,
      "bük": 6405,
      "belirtiliyor": 6406,
      "latı": 6407,
      "dördüncü": 6408,
      "alp": 6409,
      "rüzgar": 6410,
      "başlatıldı": 6411,
      "keşf": 6412,
      "sınırlı": 6413,
      "ört": 6414,
      "genişlet": 6415,
      "başlatılan": 6416,
      "dairesi": 6417,
      "hareketi": 6418,
      "ekledi": 6419,
      "salih": 6420,
      "şaşır": 6421,
      "i̇lçesi": 6422,
      "halkının": 6423,
      "reti": 6424,
      "partinin": 6425,
      "kariyeri": 6426,
      "vent": 6427,
      "zet": 6428,
      "güler": 6429,
      "bomba": 6430,
      "visi": 6431,
      "vüc": 6432,
      "uygulaması": 6433,
      "verilecek": 6434,
      "istler": 6435,
      "çat": 6436,
      "blo": 6437,
      "yapıldığını": 6438,
      "kimyasal": 6439,
      "yetkilileri": 6440,
      "geçirildi": 6441,
      "öf": 6442,
      "başkanları": 6443,
      "67": 6444,
      "davası": 6445,
      "64": 6446,
      "yaman": 6447,
      "bunlardan": 6448,
      "şanlıurfa": 6449,
      "erdi": 6450,
      "alınarak": 6451,
      "belgeler": 6452,
      "anet": 6453,
      "ss": 6454,
      "yerinden": 6455,
      "kütüp": 6456,
      "vücut": 6457,
      "hü": 6458,
      "tokat": 6459,
      "akademisyen": 6460,
      "stil": 6461,
      "erkekler": 6462,
      "heyeti": 6463,
      "isimler": 6464,
      "fırat": 6465,
      "facebook": 6466,
      "lacağını": 6467,
      "seçimi": 6468,
      "esiz": 6469,
      "ayrım": 6470,
      "hükûmet": 6471,
      "etki": 6472,
      "metal": 6473,
      "ülkeyi": 6474,
      "cezalan": 6475,
      "sahipliği": 6476,
      "belçika": 6477,
      "omuz": 6478,
      "şunu": 6479,
      "komün": 6480,
      "arın": 6481,
      "evlilik": 6482,
      "seslendir": 6483,
      "gitmek": 6484,
      "çukur": 6485,
      "oğuz": 6486,
      "vor": 6487,
      "fiziksel": 6488,
      "hazine": 6489,
      "hacı": 6490,
      "ondan": 6491,
      "kalıcı": 6492,
      "hizmeti": 6493,
      "hayırlı": 6494,
      "tutul": 6495,
      "nodes": 6496,
      "david": 6497,
      "yiye": 6498,
      "doz": 6499,
      "yazılım": 6500,
      "derken": 6501,
      "kana": 6502,
      "karşısına": 6503,
      "topu": 6504,
      "tasarru": 6505,
      "bozuk": 6506,
      "çel": 6507,
      "iyordu": 6508,
      "seçimlerinde": 6509,
      "aklı": 6510,
      "seniz": 6511,
      "suriyeli": 6512,
      "raz": 6513,
      "alanları": 6514,
      "katar": 6515,
      "yaşıyor": 6516,
      "ihal": 6517,
      "üzün": 6518,
      "çoğunluk": 6519,
      "enfeksiyon": 6520,
      "lari": 6521,
      "konsol": 6522,
      "diyoruz": 6523,
      "bran": 6524,
      "nev": 6525,
      "kod": 6526,
      "mesafe": 6527,
      "ism": 6528,
      "arkasında": 6529,
      "saydı": 6530,
      "oynadı": 6531,
      "gelmesi": 6532,
      "lamaz": 6533,
      "beyin": 6534,
      "ae": 6535,
      "kabil": 6536,
      "sürpr": 6537,
      "i̇let": 6538,
      "kaygı": 6539,
      "ekrem": 6540,
      "melerini": 6541,
      "almaktadır": 6542,
      "beli": 6543,
      "mahmut": 6544,
      "saatte": 6545,
      "danışman": 6546,
      "iyorlar": 6547,
      "bilinç": 6548,
      "araştırı": 6549,
      "koydu": 6550,
      "lmaktadır": 6551,
      "alanlarda": 6552,
      "olduğunun": 6553,
      "ırk": 6554,
      "mük": 6555,
      "kağı": 6556,
      "mıyorum": 6557,
      "sekiz": 6558,
      "mağaz": 6559,
      "izleyi": 6560,
      "kırsal": 6561,
      "yapması": 6562,
      "maddesi": 6563,
      "söyleye": 6564,
      "hy": 6565,
      "i̇klim": 6566,
      "denizli": 6567,
      "getirilen": 6568,
      "turk": 6569,
      "yükselt": 6570,
      "efendi": 6571,
      "ailen": 6572,
      "olaylar": 6573,
      "tum": 6574,
      "söndür": 6575,
      "duyu": 6576,
      "bül": 6577,
      "atlet": 6578,
      "gölü": 6579,
      "yahudi": 6580,
      "alındığı": 6581,
      "fifa": 6582,
      "projenin": 6583,
      "insani": 6584,
      "derek": 6585,
      "gereği": 6586,
      "noktasında": 6587,
      "ilişkileri": 6588,
      "sizi": 6589,
      "kömür": 6590,
      "yunus": 6591,
      "uçağ": 6592,
      "indirim": 6593,
      "lığından": 6594,
      "250": 6595,
      "çılık": 6596,
      "uncu": 6597,
      "obama": 6598,
      "city": 6599,
      "yapacağız": 6600,
      "salonu": 6601,
      "i̇sviçre": 6602,
      "iyim": 6603,
      "william": 6604,
      "hayran": 6605,
      "mevsim": 6606,
      "rezer": 6607,
      "★★": 6608,
      "avukatı": 6609,
      "tının": 6610,
      "görevlendir": 6611,
      "hata": 6612,
      "i̇mparatorluğu": 6613,
      "kurtuluş": 6614,
      "ülüyor": 6615,
      "ettiler": 6616,
      "çıl": 6617,
      "plastik": 6618,
      "yenil": 6619,
      "karantin": 6620,
      "larken": 6621,
      "sözleşmesi": 6622,
      "mahkum": 6623,
      "sözleri": 6624,
      "olmayacak": 6625,
      "toplanan": 6626,
      "dedim": 6627,
      "mücadelede": 6628,
      "ışı": 6629,
      "bırakıldı": 6630,
      "zincir": 6631,
      "işkin": 6632,
      "şiddetli": 6633,
      "söyleyerek": 6634,
      "imkanı": 6635,
      "yumur": 6636,
      "bağımlı": 6637,
      "anları": 6638,
      "benzeri": 6639,
      "verilerine": 6640,
      "ihraç": 6641,
      "kok": 6642,
      "olacağız": 6643,
      "vekil": 6644,
      "boşan": 6645,
      "basına": 6646,
      "ekiplerinin": 6647,
      "büyükelç": 6648,
      "fayda": 6649,
      "jinal": 6650,
      "gazeteciler": 6651,
      "que": 6652,
      "sidir": 6653,
      "canlandır": 6654,
      "py": 6655,
      "kapsamda": 6656,
      "niha": 6657,
      "delil": 6658,
      "daire": 6659,
      "endişe": 6660,
      "bekir": 6661,
      "bbi": 6662,
      "talimat": 6663,
      "birbirine": 6664,
      "günün": 6665,
      "sembol": 6666,
      "rahmet": 6667,
      "tutum": 6668,
      "kullanıldı": 6669,
      "dayanışma": 6670,
      "özen": 6671,
      "operasyonda": 6672,
      "saniye": 6673,
      "sözü": 6674,
      "hukuki": 6675,
      "kemer": 6676,
      "tanıtım": 6677,
      "dildi": 6678,
      "acağı": 6679,
      "ague": 6680,
      "felse": 6681,
      "niye": 6682,
      "diyorum": 6683,
      "yargıtay": 6684,
      "ikili": 6685,
      "pik": 6686,
      "grubun": 6687,
      "alex": 6688,
      "stagram": 6689,
      "ai": 6690,
      "düzenledi": 6691,
      "referandum": 6692,
      "ğünü": 6693,
      "getirmek": 6694,
      "konuşmada": 6695,
      "sahada": 6696,
      "maddes": 6697,
      "rok": 6698,
      "inizi": 6699,
      "konak": 6700,
      "subay": 6701,
      "lıyoruz": 6702,
      "holding": 6703,
      "ladi": 6704,
      "töreni": 6705,
      "faktör": 6706,
      "ettikleri": 6707,
      "ung": 6708,
      "sten": 6709,
      "başlandı": 6710,
      "72": 6711,
      "gayret": 6712,
      "çapında": 6713,
      "1989": 6714,
      "sho": 6715,
      "bra": 6716,
      "sinde": 6717,
      "bze": 6718,
      "şik": 6719,
      "ulmaz": 6720,
      "lamış": 6721,
      "vicdan": 6722,
      "suçlu": 6723,
      "alınacak": 6724,
      "görüntüler": 6725,
      "):": 6726,
      "salgının": 6727,
      "stron": 6728,
      "aleti": 6729,
      "karşın": 6730,
      "piyasaya": 6731,
      "esen": 6732,
      "69": 6733,
      "fl": 6734,
      "tarihçe": 6735,
      "elazı": 6736,
      "başrol": 6737,
      "yoktu": 6738,
      "gerçekleştirildi": 6739,
      "di̇r": 6740,
      "disip": 6741,
      "yerden": 6742,
      "800": 6743,
      "tüğü": 6744,
      "sağlıyor": 6745,
      "makamı": 6746,
      "ish": 6747,
      "demiş": 6748,
      "bölün": 6749,
      "köylü": 6750,
      "elazığ": 6751,
      "talebi": 6752,
      "kapsamlı": 6753,
      "baskın": 6754,
      "büyüklüğ": 6755,
      "trt": 6756,
      "yayınlandı": 6757,
      "63": 6758,
      "dakik": 6759,
      "haya": 6760,
      "devreye": 6761,
      "opera": 6762,
      "genelkurmay": 6763,
      "cıları": 6764,
      "siyasal": 6765,
      "hristiyan": 6766,
      "ypg": 6767,
      "ebil": 6768,
      "uzmanlar": 6769,
      "gönderildi": 6770,
      "yolculu": 6771,
      "illa": 6772,
      "yetkili": 6773,
      "müte": 6774,
      "eriş": 6775,
      "azal": 6776,
      "hayatta": 6777,
      "bekleyen": 6778,
      "ülkedeki": 6779,
      "biçim": 6780,
      "sabit": 6781,
      "ülük": 6782,
      "leyecek": 6783,
      "girişimi": 6784,
      "vefat": 6785,
      "88": 6786,
      "1960": 6787,
      "çıkması": 6788,
      "cik": 6789,
      "nez": 6790,
      "eleriyle": 6791,
      "görünü": 6792,
      "yaşamı": 6793,
      "saldırıda": 6794,
      "alanya": 6795,
      "doğusunda": 6796,
      "ag": 6797,
      "mesajı": 6798,
      "düzenlenecek": 6799,
      "ikram": 6800,
      "şair": 6801,
      "çocuklara": 6802,
      "başsavcılığı": 6803,
      "değiştiril": 6804,
      "kalabalık": 6805,
      "gösterdiği": 6806,
      "yapay": 6807,
      "sürdürüyor": 6808,
      "tablo": 6809,
      "zamanlarda": 6810,
      "gerçekleştirdi": 6811,
      "resm": 6812,
      "likleri": 6813,
      "sürece": 6814,
      "karşıtı": 6815,
      "intihar": 6816,
      "liste": 6817,
      "fli": 6818,
      "i̇nce": 6819,
      "haftasında": 6820,
      "zamanı": 6821,
      "işlemleri": 6822,
      "sessiz": 6823,
      "instagram": 6824,
      "istihbarat": 6825,
      "niteli": 6826,
      "dılar": 6827,
      "geze": 6828,
      "atöl": 6829,
      "birer": 6830,
      "geleceği": 6831,
      "günden": 6832,
      "kıyafet": 6833,
      "ny": 6834,
      "uf": 6835,
      "düzeyde": 6836,
      "vermesi": 6837,
      "hücr": 6838,
      "yüzü": 6839,
      "meşru": 6840,
      "düşünüyor": 6841,
      "yetersiz": 6842,
      "i̇stik": 6843,
      "apart": 6844,
      "klasik": 6845,
      "eşlik": 6846,
      "che": 6847,
      "palı": 6848,
      "seni": 6849,
      "şidde": 6850,
      "veli": 6851,
      "ailesinin": 6852,
      "sigara": 6853,
      "yasağı": 6854,
      "karma": 6855,
      "antrenman": 6856,
      "piyas": 6857,
      "ortada": 6858,
      "öğrencisi": 6859,
      "milyonlarca": 6860,
      "atılan": 6861,
      "okur": 6862,
      "çağır": 6863,
      "dinam": 6864,
      "temizlik": 6865,
      "kuruldu": 6866,
      "seçil": 6867,
      "hattin": 6868,
      "oğul": 6869,
      "kadına": 6870,
      "bünyesinde": 6871,
      "öğle": 6872,
      "ogle": 6873,
      "endeksi": 6874,
      "mardin": 6875,
      "ülkelerde": 6876,
      "politikası": 6877,
      "kentin": 6878,
      "ilişki": 6879,
      "geldik": 6880,
      "afa": 6881,
      "selam": 6882,
      "hine": 6883,
      "yatak": 6884,
      "micha": 6885,
      "taç": 6886,
      "önü": 6887,
      "şampiyonluk": 6888,
      "kulak": 6889,
      "google": 6890,
      "diyan": 6891,
      "komp": 6892,
      "yıldızı": 6893,
      "cav": 6894,
      "çet": 6895,
      "karşılıklı": 6896,
      "noktası": 6897,
      "kararın": 6898,
      "çiftç": 6899,
      "felaket": 6900,
      "masyon": 6901,
      "kapat": 6902,
      "tanıtı": 6903,
      "âr": 6904,
      "gökhan": 6905,
      "vı": 6906,
      "malarının": 6907,
      "yıldan": 6908,
      "değerlendirmesinde": 6909,
      "değildi": 6910,
      "habere": 6911,
      "pt": 6912,
      "phil": 6913,
      "ud": 6914,
      "paral": 6915,
      "incelen": 6916,
      "edik": 6917,
      "i̇letişim": 6918,
      "i̇şlet": 6919,
      "ng": 6920,
      "inşallah": 6921,
      "hattı": 6922,
      "albümü": 6923,
      "mekaniz": 6924,
      "cay": 6925,
      "açıklan": 6926,
      "yayla": 6927,
      "kahramanmaraş": 6928,
      "paul": 6929,
      "stadyum": 6930,
      "gününde": 6931,
      "izlen": 6932,
      "haftada": 6933,
      "çağrısı": 6934,
      "söylem": 6935,
      "haklı": 6936,
      "utu": 6937,
      "güne": 6938,
      "gidip": 6939,
      "tüs": 6940,
      "sana": 6941,
      "lez": 6942,
      "üretilen": 6943,
      "hastane": 6944,
      "fay": 6945,
      "heykel": 6946,
      "diniz": 6947,
      "satışa": 6948,
      "ettiğimiz": 6949,
      "selim": 6950,
      "uyucu": 6951,
      "eni": 6952,
      "korunması": 6953,
      "gittik": 6954,
      "gündüz": 6955,
      "apple": 6956,
      "gelişme": 6957,
      "sebebi": 6958,
      "cir": 6959,
      "off": 6960,
      "emeği": 6961,
      "meyve": 6962,
      "yanlı": 6963,
      "şimdiye": 6964,
      "rız": 6965,
      "hanım": 6966,
      "oluşum": 6967,
      "arjan": 6968,
      "mevki": 6969,
      "gurbetçi": 6970,
      "çıkarak": 6971,
      "kahve": 6972,
      "ganda": 6973,
      "belirtiyor": 6974,
      "62": 6975,
      "pom": 6976,
      "bekliyoruz": 6977,
      "online": 6978,
      "luluğ": 6979,
      "cumhurbaşkan": 6980,
      "günler": 6981,
      "gülen": 6982,
      "taraftan": 6983,
      "icra": 6984,
      "ski": 6985,
      "dayalı": 6986,
      "dilen": 6987,
      "ldığında": 6988,
      "79": 6989,
      "emi": 6990,
      "dığımız": 6991,
      "yerlerde": 6992,
      "potansiyel": 6993,
      "kentte": 6994,
      "değerlendirme": 6995,
      "ergen": 6996,
      "mesela": 6997,
      "arjantin": 6998,
      "ilginç": 6999,
      "oluşturulan": 7000,
      "sorunlar": 7001,
      "hizmetler": 7002,
      "ülkemiz": 7003,
      "öv": 7004,
      "michael": 7005,
      "pri": 7006,
      "müttefik": 7007,
      "duman": 7008,
      "ceğim": 7009,
      "karaca": 7010,
      "alırken": 7011,
      "edilerek": 7012,
      "şehirler": 7013,
      "taşıma": 7014,
      "seven": 7015,
      "efsan": 7016,
      "kalacak": 7017,
      "geçmişte": 7018,
      "yolsuzluk": 7019,
      "arnav": 7020,
      "ment": 7021,
      "kilometr": 7022,
      "siyasetçi": 7023,
      "başakşehir": 7024,
      "syon": 7025,
      "daki̇": 7026,
      "yönetiminin": 7027,
      "platformu": 7028,
      "aley": 7029,
      "liga": 7030,
      "bakımından": 7031,
      "yapılır": 7032,
      "teşkilatı": 7033,
      "kira": 7034,
      "altay": 7035,
      "cezasına": 7036,
      "getirdiği": 7037,
      "alak": 7038,
      "planlanan": 7039,
      "kasyon": 7040,
      "mb": 7041,
      "kaynaklı": 7042,
      "seçimlerde": 7043,
      "ortamda": 7044,
      "lanmasına": 7045,
      "sunun": 7046,
      "lamanın": 7047,
      "1988": 7048,
      "arnavut": 7049,
      "sağlanması": 7050,
      "lamayı": 7051,
      "pam": 7052,
      "norveç": 7053,
      "federasyon": 7054,
      "savundu": 7055,
      "nation": 7056,
      "şok": 7057,
      "ailenin": 7058,
      "lilerin": 7059,
      "çıkartı": 7060,
      "cn": 7061,
      "rıza": 7062,
      "pel": 7063,
      "f2": 7064,
      "ortadoğu": 7065,
      "arazi": 7066,
      "projeler": 7067,
      "sika": 7068,
      "seçilen": 7069,
      "yakala": 7070,
      "tecrü": 7071,
      "61": 7072,
      "olmaması": 7073,
      "satan": 7074,
      "karara": 7075,
      "leyici": 7076,
      "ydi": 7077,
      "ble": 7078,
      "gusal": 7079,
      "çekerek": 7080,
      "matı": 7081,
      "evlen": 7082,
      "abı": 7083,
      "kilit": 7084,
      "ikna": 7085,
      "post": 7086,
      "cıoğlu": 7087,
      "hatırlatan": 7088,
      "iddiasıyla": 7089,
      "kutlu": 7090,
      "mamız": 7091,
      "yazık": 7092,
      "ulmuş": 7093,
      "teşkilat": 7094,
      "öğrencileri": 7095,
      "fın": 7096,
      "gelişmiş": 7097,
      "him": 7098,
      "olabileceğini": 7099,
      "anamede": 7100,
      "1987": 7101,
      "davanın": 7102,
      "nep": 7103,
      "çevres": 7104,
      "zo": 7105,
      "babasının": 7106,
      "?'": 7107,
      "birini": 7108,
      "rock": 7109,
      "harekat": 7110,
      "vuruş": 7111,
      "siyonu": 7112,
      "yöneticiler": 7113,
      "özür": 7114,
      "tri": 7115,
      "tebrik": 7116,
      "değerlendirmeler": 7117,
      "war": 7118,
      "seviye": 7119,
      "okula": 7120,
      "abdül": 7121,
      "elektrikli": 7122,
      "psikolojik": 7123,
      "aksine": 7124,
      "edi̇": 7125,
      "sesi": 7126,
      "mamak": 7127,
      "sınırları": 7128,
      "tifi": 7129,
      "adımlar": 7130,
      "yakınları": 7131,
      "james": 7132,
      "kli": 7133,
      "farkı": 7134,
      "hâlâ": 7135,
      "olayda": 7136,
      "türkmen": 7137,
      "fidan": 7138,
      "bence": 7139,
      "çıkarıldı": 7140,
      "düşünce": 7141,
      "melik": 7142,
      "vakit": 7143,
      "kamuoyu": 7144,
      "mülk": 7145,
      "familyasına": 7146,
      "engin": 7147,
      "anma": 7148,
      "cadde": 7149,
      "olmayı": 7150,
      "cemal": 7151,
      "98": 7152,
      "kampan": 7153,
      "tedar": 7154,
      "nehri": 7155,
      "bilgisi": 7156,
      "pazarı": 7157,
      "isyan": 7158,
      "tetik": 7159,
      "akra": 7160,
      "inanıyorum": 7161,
      "ld": 7162,
      "akşener": 7163,
      "yapmıştır": 7164,
      "sisteminin": 7165,
      "afyon": 7166,
      "jon": 7167,
      "süreli": 7168,
      "1986": 7169,
      "tff": 7170,
      "ülkeden": 7171,
      "anç": 7172,
      "polisi": 7173,
      "sürpriz": 7174,
      "ente": 7175,
      "bitki": 7176,
      "ısı": 7177,
      "taşıyor": 7178,
      "netic": 7179,
      "burcu": 7180,
      "yaklaşı": 7181,
      "görevden": 7182,
      "kuruluşu": 7183,
      "macaristan": 7184,
      "kıymet": 7185,
      "özelliği": 7186,
      "geçirdiği": 7187,
      "wood": 7188,
      "denizi": 7189,
      "refah": 7190,
      "anında": 7191,
      "ünal": 7192,
      "komitesi": 7193,
      "olurken": 7194,
      "yaşandığı": 7195,
      "serma": 7196,
      "120": 7197,
      "sayım": 7198,
      "kartal": 7199,
      "dıran": 7200,
      "yiyecek": 7201,
      "oynayan": 7202,
      "i̇ttifakı": 7203,
      "somut": 7204,
      "toprağa": 7205,
      "kolayla": 7206,
      "cemaat": 7207,
      "etiyle": 7208,
      "kaları": 7209,
      "frank": 7210,
      "yüzey": 7211,
      "asıllı": 7212,
      "eleme": 7213,
      "i̇nter": 7214,
      "diliyorum": 7215,
      "çıktığını": 7216,
      "fos": 7217,
      "dönen": 7218,
      "meksika": 7219,
      "işık": 7220,
      "ürünler": 7221,
      "binanın": 7222,
      "mutluluk": 7223,
      "yönde": 7224,
      "dri": 7225,
      "özkan": 7226,
      "hakkını": 7227,
      "çıkmış": 7228,
      "kıyas": 7229,
      "payı": 7230,
      "kurucusu": 7231,
      "ziraat": 7232,
      "atak": 7233,
      "sanın": 7234,
      "tamamlandı": 7235,
      "yık": 7236,
      "çakır": 7237,
      "feth": 7238,
      "tazminat": 7239,
      "sandal": 7240,
      "tarif": 7241,
      "inler": 7242,
      "öğrenc": 7243,
      "yönündeki": 7244,
      "iddiaları": 7245,
      "bulunması": 7246,
      "cron": 7247,
      "112": 7248,
      "erol": 7249,
      "konularda": 7250,
      "firma": 7251,
      "insanlara": 7252,
      "ayakta": 7253,
      "kaybettiği": 7254,
      "zel": 7255,
      "hani": 7256,
      "nec": 7257,
      "hastalıkları": 7258,
      "ecektir": 7259,
      "inda": 7260,
      "jür": 7261,
      "valiliği": 7262,
      "duran": 7263,
      "yatırı": 7264,
      "ore": 7265,
      "ward": 7266,
      "farkın": 7267,
      "ky": 7268,
      "radikal": 7269,
      "günleri": 7270,
      "bulgaristan": 7271,
      "kayser": 7272,
      "çizg": 7273,
      "usunun": 7274,
      "71": 7275,
      "gidecek": 7276,
      "vurdu": 7277,
      "geçiren": 7278,
      "piyan": 7279,
      "tedbirleri": 7280,
      "glo": 7281,
      "bağır": 7282,
      "detaylar": 7283,
      "konuya": 7284,
      "yası": 7285,
      "isindeki": 7286,
      "biridir": 7287,
      "savaşın": 7288,
      "çekilen": 7289,
      "oluşturan": 7290,
      "vadeli": 7291,
      "tiğini": 7292,
      "tıra": 7293,
      "kutsal": 7294,
      "muam": 7295,
      "göğ": 7296,
      "buluştur": 7297,
      "ettim": 7298,
      "toplan": 7299,
      "gemi": 7300,
      "fez": 7301,
      "edeceğini": 7302,
      "olmaktan": 7303,
      "talık": 7304,
      "elif": 7305,
      "ilirken": 7306,
      "özer": 7307,
      "şampiyonu": 7308,
      "rezerv": 7309,
      "mari": 7310,
      "bilet": 7311,
      "ilmesine": 7312,
      "rettin": 7313,
      "rit": 7314,
      "sili": 7315,
      "iyileştir": 7316,
      "matematik": 7317,
      "başladığını": 7318,
      "konuyu": 7319,
      "bunlara": 7320,
      "müzisyen": 7321,
      "air": 7322,
      "mun": 7323,
      "ağab": 7324,
      "bunda": 7325,
      "ortasında": 7326,
      "bl": 7327,
      "cili": 7328,
      "luğunda": 7329,
      "mamış": 7330,
      "yenin": 7331,
      "diyanet": 7332,
      "bölgelerde": 7333,
      "layıp": 7334,
      "kırk": 7335,
      "voley": 7336,
      "reh": 7337,
      "hükümetinin": 7338,
      "binası": 7339,
      "artarak": 7340,
      "şirketler": 7341,
      "org": 7342,
      "sergil": 7343,
      "şeyin": 7344,
      "etkisiyle": 7345,
      "duğumuz": 7346,
      "ayn": 7347,
      "dışındaki": 7348,
      "britan": 7349,
      "keyi": 7350,
      "telek": 7351,
      "ki̇": 7352,
      "sorusuna": 7353,
      "cinsiyet": 7354,
      "görme": 7355,
      "kaynaklar": 7356,
      "liber": 7357,
      "tabl": 7358,
      "mesle": 7359,
      "kararının": 7360,
      "azaltı": 7361,
      "ena": 7362,
      "abileceği": 7363,
      "afad": 7364,
      "ülkesi": 7365,
      "temsilcileri": 7366,
      "labor": 7367,
      "varan": 7368,
      "teklifi": 7369,
      "lüğünü": 7370,
      "sürük": 7371,
      "hadi": 7372,
      "medim": 7373,
      "testi": 7374,
      "haft": 7375,
      "ysa": 7376,
      "görsel": 7377,
      "uyruklu": 7378,
      "robert": 7379,
      "mekten": 7380,
      "şimşek": 7381,
      "lamadı": 7382,
      "mac": 7383,
      "modeli": 7384,
      "görenler": 7385,
      "kaçır": 7386,
      "adnan": 7387,
      "plak": 7388,
      "meh": 7389,
      "oranda": 7390,
      "89": 7391,
      "ğit": 7392,
      "olayları": 7393,
      "değinen": 7394,
      "ölümü": 7395,
      "çeş": 7396,
      "ligde": 7397,
      "görevlisi": 7398,
      "başlıklı": 7399,
      "gecesi": 7400,
      "nil": 7401,
      "guldak": 7402,
      "çalışmaların": 7403,
      "yoz": 7404,
      "mülteci": 7405,
      "kaynakları": 7406,
      "prim": 7407,
      "jose": 7408,
      "iba": 7409,
      "yaptıklarını": 7410,
      "zonguldak": 7411,
      "ort": 7412,
      "hayati": 7413,
      "ou": 7414,
      "arke": 7415,
      "nitelendir": 7416,
      "tsk": 7417,
      "ters": 7418,
      "serdar": 7419,
      "yacağını": 7420,
      "sıcaklık": 7421,
      "rize": 7422,
      "damar": 7423,
      "verim": 7424,
      "almıştı": 7425,
      "kazak": 7426,
      "yükselen": 7427,
      "atu": 7428,
      "camii": 7429,
      "faruk": 7430,
      "vision": 7431,
      "1984": 7432,
      "üste": 7433,
      "örgütün": 7434,
      "wer": 7435,
      "ino": 7436,
      "kaymakamı": 7437,
      "polise": 7438,
      "tasarruf": 7439,
      "yil": 7440,
      "taları": 7441,
      "i̇çi̇n": 7442,
      "takdirde": 7443,
      "krip": 7444,
      "lemi": 7445,
      "çeve": 7446,
      "hafız": 7447,
      "kontrolü": 7448,
      "uzu": 7449,
      "geliştirme": 7450,
      "aylarında": 7451,
      "başardı": 7452,
      "arasına": 7453,
      "çerçeve": 7454,
      "editör": 7455,
      "öm": 7456,
      "tarafı": 7457,
      "imal": 7458,
      "sorularını": 7459,
      "etap": 7460,
      "dünyadaki": 7461,
      "yenilik": 7462,
      "katkıda": 7463,
      "ebe": 7464,
      "uşak": 7465,
      "baktığı": 7466,
      "korkut": 7467,
      "polat": 7468,
      "orijinal": 7469,
      "kanın": 7470,
      "kurumsal": 7471,
      "etkisiz": 7472,
      "alanına": 7473,
      "propa": 7474,
      "inanç": 7475,
      "tuğrul": 7476,
      "arttır": 7477,
      "senary": 7478,
      "artıyor": 7479,
      "araştırmalar": 7480,
      "yede": 7481,
      "kaleci": 7482,
      "tıbbi": 7483,
      "adliyeye": 7484,
      "kader": 7485,
      "zamanlı": 7486,
      "hek": 7487,
      "laşması": 7488,
      "yürürlüğe": 7489,
      "dolandırı": 7490,
      "olimpiyatları": 7491,
      "partisinin": 7492,
      "fal": 7493,
      "ilçede": 7494,
      "unca": 7495,
      "verdik": 7496,
      "liralık": 7497,
      "kaydı": 7498,
      "kuran": 7499,
      "evden": 7500,
      "riski": 7501,
      "yınca": 7502,
      "oturan": 7503,
      "diplomatik": 7504,
      "gençlerin": 7505,
      "moda": 7506,
      "74": 7507,
      "kişiden": 7508,
      "iledi": 7509,
      "kaçırı": 7510,
      "yücel": 7511,
      "zemin": 7512,
      "çıkıp": 7513,
      "dele": 7514,
      "cunun": 7515,
      "hamas": 7516,
      "belgesel": 7517,
      "tarihinin": 7518,
      "sürecinin": 7519,
      "hedefi": 7520,
      "konuşmasında": 7521,
      "ısrar": 7522,
      "nöbet": 7523,
      "itiraf": 7524,
      "ekiplerince": 7525,
      "gri": 7526,
      "şartı": 7527,
      "üyelerinin": 7528,
      "erkan": 7529,
      "zanlı": 7530,
      "gecik": 7531,
      "george": 7532,
      "luğa": 7533,
      "gönderdi": 7534,
      "lerim": 7535,
      "kullanılır": 7536,
      "görüştü": 7537,
      "üstüne": 7538,
      "yürek": 7539,
      "muhabirine": 7540,
      "meteor": 7541,
      "700": 7542,
      "ulduğu": 7543,
      "ilmişti": 7544,
      "mert": 7545,
      "sağlan": 7546,
      "burası": 7547,
      "partiler": 7548,
      "kere": 7549,
      "lıktan": 7550,
      "astron": 7551,
      "zamanlar": 7552,
      "açılması": 7553,
      "larımızla": 7554,
      "cle": 7555,
      "tuttu": 7556,
      "olanak": 7557,
      "cular": 7558,
      "eyecek": 7559,
      "demişti": 7560,
      "cezalandırı": 7561,
      "sattı": 7562,
      "i̇hlas": 7563,
      "oysa": 7564,
      "tığını": 7565,
      "i̇le": 7566,
      "oyunda": 7567,
      "karşılığında": 7568,
      "ilmesini": 7569,
      "hazırladığı": 7570,
      "muhafaz": 7571,
      "çevresinde": 7572,
      "içe": 7573,
      "çiğ": 7574,
      "fatma": 7575,
      "stü": 7576,
      "tecav": 7577,
      "bakanlar": 7578,
      "hizmete": 7579,
      "dediği": 7580,
      "destekle": 7581,
      "süs": 7582,
      "taliban": 7583,
      "kısım": 7584,
      "turgut": 7585,
      "tiyatrosu": 7586,
      "öğrencilere": 7587,
      "haksız": 7588,
      "eşliğinde": 7589,
      "oturum": 7590,
      "ihbar": 7591,
      "mutabak": 7592,
      "katil": 7593,
      "oktay": 7594,
      "bağışık": 7595,
      "andre": 7596,
      "nişan": 7597,
      "laci": 7598,
      "kari": 7599,
      "arzu": 7600,
      "uzaktan": 7601,
      "mamalı": 7602,
      "gürc": 7603,
      "denize": 7604,
      "bilgilere": 7605,
      "73": 7606,
      "doğalgaz": 7607,
      "renkli": 7608,
      "getiriyor": 7609,
      "die": 7610,
      "tekir": 7611,
      "tasına": 7612,
      "i̇ni̇": 7613,
      "sektörü": 7614,
      "yerleri": 7615,
      "forni": 7616,
      "chester": 7617,
      "www": 7618,
      "canı": 7619,
      "etmeyi": 7620,
      "çalışmalarının": 7621,
      "voleybol": 7622,
      "larım": 7623,
      "esn": 7624,
      "had": 7625,
      "çekildi": 7626,
      "getirerek": 7627,
      "üme": 7628,
      "tanesi": 7629,
      "işbir": 7630,
      "işçiler": 7631,
      "kabı": 7632,
      "lıca": 7633,
      "league": 7634,
      "başarısız": 7635,
      "çağrısında": 7636,
      "kralı": 7637,
      "ulaşan": 7638,
      "sarayı": 7639,
      "82": 7640,
      "götürüldü": 7641,
      "akademik": 7642,
      "cını": 7643,
      "yüküm": 7644,
      "seçenek": 7645,
      "uygulamaya": 7646,
      "iğ": 7647,
      "sudan": 7648,
      "kökenli": 7649,
      "balkan": 7650,
      "kalıyor": 7651,
      "giyen": 7652,
      "yad": 7653,
      "1982": 7654,
      "tecavüz": 7655,
      "atıldı": 7656,
      "sayf": 7657,
      "luğunu": 7658,
      "oradan": 7659,
      "kitl": 7660,
      "taksi": 7661,
      "üstünde": 7662,
      "liman": 7663,
      "müj": 7664,
      "kaçan": 7665,
      "esad": 7666,
      "cis": 7667,
      "imkâ": 7668,
      "sky": 7669,
      "hun": 7670,
      "beslenme": 7671,
      "gürcistan": 7672,
      "laboratu": 7673,
      "sevgi": 7674,
      "oluşturduğu": 7675,
      "1985": 7676,
      "zda": 7677,
      "isimleri": 7678,
      "sektöründe": 7679,
      "konusundaki": 7680,
      "skor": 7681,
      "dikkatli": 7682,
      "cenazesi": 7683,
      "piya": 7684,
      "arşi": 7685,
      "yönetmeni": 7686,
      "vize": 7687,
      "davada": 7688,
      "hepimiz": 7689,
      "yayınladı": 7690,
      "mö": 7691,
      "yemen": 7692,
      "kalem": 7693,
      "veda": 7694,
      "geriye": 7695,
      "girdiği": 7696,
      "olmasının": 7697,
      "çalışanları": 7698,
      "üstlen": 7699,
      "turu": 7700,
      "kurşun": 7701,
      "geçiyor": 7702,
      "alındığını": 7703,
      "ref": 7704,
      "çıkara": 7705,
      "farkında": 7706,
      "zirvesi": 7707,
      "özellikleri": 7708,
      "kemik": 7709,
      "işken": 7710,
      "ilde": 7711,
      "tho": 7712,
      "arız": 7713,
      "yetenek": 7714,
      "tit": 7715,
      "parmak": 7716,
      "tavsiye": 7717,
      "i̇stih": 7718,
      "faaliyetleri": 7719,
      "ston": 7720,
      "laciver": 7721,
      "sanığın": 7722,
      "maça": 7723,
      "lerdi": 7724,
      "gezegen": 7725,
      "demirören": 7726,
      "araçlar": 7727,
      "gözden": 7728,
      "önlemleri": 7729,
      "paralel": 7730,
      "sürecin": 7731,
      "muhtemelen": 7732,
      "sunuyor": 7733,
      "olduğundan": 7734,
      "ajans": 7735,
      "manevi": 7736,
      "milliyetçi": 7737,
      "tedarik": 7738,
      "üse": 7739,
      "haklarını": 7740,
      "ezya": 7741,
      "çılar": 7742,
      "mahkemeye": 7743,
      "kılın": 7744,
      "bosna": 7745,
      "mızdan": 7746,
      "ucuz": 7747,
      "acağını": 7748,
      "uzaklıktadır": 7749,
      "araçları": 7750,
      "katılımcı": 7751,
      "lusu": 7752,
      "yiğit": 7753,
      "gittiği": 7754,
      "şehircilik": 7755,
      "şak": 7756,
      "eh": 7757,
      "bayrağı": 7758,
      "yapısı": 7759,
      "sundu": 7760,
      "gerçekleştirdiği": 7761,
      "kadını": 7762,
      "sahib": 7763,
      "eyerek": 7764,
      "elinden": 7765,
      "dağıtım": 7766,
      "siyasetçiler": 7767,
      "yecek": 7768,
      "numaralı": 7769,
      "ulduğunu": 7770,
      "edinilen": 7771,
      "sürdüren": 7772,
      "vanı": 7773,
      "katliam": 7774,
      "teşe": 7775,
      "yüzyılın": 7776,
      "tamamı": 7777,
      "kullanma": 7778,
      "alacağı": 7779,
      "görünüyor": 7780,
      "dua": 7781,
      "sezonun": 7782,
      "belge": 7783,
      "programında": 7784,
      "anlatıyor": 7785,
      "vatandaşlara": 7786,
      "aranan": 7787,
      "86": 7788,
      "açıklanan": 7789,
      "yolculuk": 7790,
      "bölümde": 7791,
      "eğin": 7792,
      "sela": 7793,
      "ayrılan": 7794,
      "ifadesi": 7795,
      "mesut": 7796,
      "kartı": 7797,
      "hikây": 7798,
      "tank": 7799,
      "ons": 7800,
      "başlattığı": 7801,
      "katlı": 7802,
      "çağdaş": 7803,
      "dökümü": 7804,
      "national": 7805,
      "açıklamaları": 7806,
      "kütüphan": 7807,
      "tarihte": 7808,
      "zeynep": 7809,
      "şansı": 7810,
      "sermaye": 7811,
      "önlemler": 7812,
      "lanabilir": 7813,
      "belgesi": 7814,
      "defne": 7815,
      "kurduğu": 7816,
      "pasa": 7817,
      "özcan": 7818,
      "endüstr": 7819,
      "gruplar": 7820,
      "eyaletinde": 7821,
      "dünyayı": 7822,
      "kağıt": 7823,
      "1979": 7824,
      "wat": 7825,
      "tekirdağ": 7826,
      "şap": 7827,
      "ülkelere": 7828,
      "ander": 7829,
      "uçağı": 7830,
      "slogan": 7831,
      "uyku": 7832,
      "stein": 7833,
      "özerk": 7834,
      "okyan": 7835,
      "latin": 7836,
      "kimin": 7837,
      "disiplin": 7838,
      "sürecek": 7839,
      "mahalleleri": 7840,
      "propaganda": 7841,
      "i̇dlib": 7842,
      "rüya": 7843,
      "dırma": 7844,
      "eklenmiştir": 7845,
      "vası": 7846,
      "edilmişti": 7847,
      "beyan": 7848,
      "kına": 7849,
      "yöneticisi": 7850,
      "memuru": 7851,
      "gerçe": 7852,
      "ayhan": 7853,
      "layık": 7854,
      "ısın": 7855,
      "bron": 7856,
      "83": 7857,
      "dönemine": 7858,
      "artışı": 7859,
      "hayatına": 7860,
      "ceph": 7861,
      "paylaştığı": 7862,
      "tutan": 7863,
      "eline": 7864,
      "deaş": 7865,
      "bağlam": 7866,
      "katılımıyla": 7867,
      "1983": 7868,
      "world": 7869,
      "189": 7870,
      "1974": 7871,
      "oluşturuyor": 7872,
      "duyarlı": 7873,
      "nel": 7874,
      "arif": 7875,
      "albayrak": 7876,
      "topluluk": 7877,
      "verimli": 7878,
      "fri": 7879,
      "kullanmak": 7880,
      "diyalog": 7881,
      "kerim": 7882,
      "i̇p": 7883,
      "fırtına": 7884,
      "gos": 7885,
      "savunan": 7886,
      "mazı": 7887,
      "vatandaşın": 7888,
      "kampanyası": 7889,
      "koleksiyon": 7890,
      "eğitime": 7891,
      "mücadelesi": 7892,
      "sırala": 7893,
      "sızın": 7894,
      "önemlidir": 7895,
      "liğinden": 7896,
      "eyim": 7897,
      "i̇sa": 7898,
      "yuvar": 7899,
      "yacağız": 7900,
      "tesinde": 7901,
      "ersoy": 7902,
      "olik": 7903,
      "beraat": 7904,
      "sunda": 7905,
      "denin": 7906,
      "çekmek": 7907,
      "çatışma": 7908,
      "şirketleri": 7909,
      "meselesi": 7910,
      "lanırken": 7911,
      "çıkarılan": 7912,
      "iade": 7913,
      "dezen": 7914,
      "atmos": 7915,
      "yakalanan": 7916,
      "karaman": 7917,
      "söylediği": 7918,
      "dokuz": 7919,
      "oli": 7920,
      "gördüğ": 7921,
      "parlamentosu": 7922,
      "etnik": 7923,
      "bağlantılı": 7924,
      "miktarda": 7925,
      "kaldığını": 7926,
      "mi̇t": 7927,
      "iyer": 7928,
      "kars": 7929,
      "talimatı": 7930,
      "84": 7931,
      "resmî": 7932,
      "onlarca": 7933,
      "abil": 7934,
      "use": 7935,
      "oluşturdu": 7936,
      "söylemek": 7937,
      "univer": 7938,
      "başkanvekili": 7939,
      "köyünde": 7940,
      "geldiğinde": 7941,
      "oksi": 7942,
      "cm": 7943,
      "muharrem": 7944,
      "sayısını": 7945,
      "yeten": 7946,
      "i̇lişk": 7947,
      "bulunduğ": 7948,
      "sürücüsü": 7949,
      "filmde": 7950,
      "fit": 7951,
      "i̇rlanda": 7952,
      "hazırladı": 7953,
      "taciz": 7954,
      "miyoruz": 7955,
      "kaş": 7956,
      "ceo": 7957,
      "esnasında": 7958,
      "i̇stiklal": 7959,
      "şubesi": 7960,
      "anlama": 7961,
      "i̇nşa": 7962,
      "mayacağını": 7963,
      "koordinasyon": 7964,
      "emem": 7965,
      "yapımcı": 7966,
      "veriler": 7967,
      "yarısı": 7968,
      "istismar": 7969,
      "üksel": 7970,
      "atla": 7971,
      "partili": 7972,
      "king": 7973,
      "kalmış": 7974,
      "bizans": 7975,
      "gk": 7976,
      "çekir": 7977,
      "alanlar": 7978,
      "vb": 7979,
      "harcam": 7980,
      "yapmayı": 7981,
      "müziği": 7982,
      "oğlum": 7983,
      "volkan": 7984,
      "medik": 7985,
      "(@": 7986,
      "gerçekleştirilecek": 7987,
      "kaba": 7988,
      "aradan": 7989,
      "hırvat": 7990,
      "haftalık": 7991,
      "kele": 7992,
      "demektir": 7993,
      "ting": 7994,
      "1950": 7995,
      "fas": 7996,
      "papa": 7997,
      "brüksel": 7998,
      "sergilen": 7999,
      "trak": 8000,
      "tex": 8001,
      "anlayışı": 8002,
      "kurgu": 8003,
      "saldırıya": 8004,
      "boya": 8005,
      "lanmak": 8006,
      "prens": 8007,
      "yarışı": 8008,
      "açıklamıştı": 8009,
      "kaynağından": 8010,
      "bez": 8011,
      "istediklerini": 8012,
      "tavır": 8013,
      "genelde": 8014,
      "cnn": 8015,
      "nb": 8016,
      "chr": 8017,
      "way": 8018,
      "keskin": 8019,
      "lou": 8020,
      "hk": 8021,
      "skan": 8022,
      "tohum": 8023,
      "cid": 8024,
      "dökül": 8025,
      "işletmeler": 8026,
      "fabrik": 8027,
      "görüntüleri": 8028,
      "yaları": 8029,
      "belirsiz": 8030,
      "herkesi": 8031,
      "etkisini": 8032,
      "oraya": 8033,
      "sistemleri": 8034,
      "etkileri": 8035,
      "akım": 8036,
      "frag": 8037,
      "çekme": 8038,
      "otomobilin": 8039,
      "daki̇ka": 8040,
      "sanki": 8041,
      "hazı": 8042,
      "bölgesine": 8043,
      "sırt": 8044,
      "darb": 8045,
      "ülasyon": 8046,
      "mevzu": 8047,
      "i̇nsanlar": 8048,
      "alarca": 8049,
      "öykü": 8050,
      "beraberinde": 8051,
      "savcılık": 8052,
      "spek": 8053,
      "işsiz": 8054,
      "mesin": 8055,
      "kong": 8056,
      "deng": 8057,
      "konular": 8058,
      "köprüsü": 8059,
      "işsizlik": 8060,
      "çilerin": 8061,
      "özgürlüğü": 8062,
      "kendileri": 8063,
      "burun": 8064,
      "luğun": 8065,
      "max": 8066,
      "şoför": 8067,
      "youtu": 8068,
      "peter": 8069,
      "memleket": 8070,
      "güçlerinin": 8071,
      "bitti": 8072,
      "yitirdi": 8073,
      "aşağıdaki": 8074,
      "çarptırı": 8075,
      "cs": 8076,
      "katıl": 8077,
      "aldıkları": 8078,
      "işini": 8079,
      "gözaltı": 8080,
      "birbirinden": 8081,
      "ysk": 8082,
      "şeref": 8083,
      "ruhsat": 8084,
      "liradan": 8085,
      "cezaevi": 8086,
      "vri": 8087,
      "sto": 8088,
      "tarihine": 8089,
      "bi̇l": 8090,
      "micro": 8091,
      "elle": 8092,
      "teker": 8093,
      "gözler": 8094,
      "riz": 8095,
      "varlığı": 8096,
      "fırsatı": 8097,
      "çoğunluğu": 8098,
      "kını": 8099,
      "gusu": 8100,
      "kadık": 8101,
      "metrekar": 8102,
      "hesabı": 8103,
      "geçtik": 8104,
      "yürüten": 8105,
      "i̇nternet": 8106,
      "sınırı": 8107,
      "kentsel": 8108,
      "i̇pek": 8109,
      "mıyoruz": 8110,
      "evlat": 8111,
      "işlemlerinin": 8112,
      "reut": 8113,
      "rom": 8114,
      "anlaşmaya": 8115,
      "nefret": 8116,
      "hayatın": 8117,
      "ulaştırma": 8118,
      "levent": 8119,
      "pencer": 8120,
      "şartları": 8121,
      "penaltı": 8122,
      "aksa": 8123,
      "hon": 8124,
      "calı": 8125,
      "akademisi": 8126,
      "karanlık": 8127,
      "ozan": 8128,
      "zeki": 8129,
      "makal": 8130,
      "suçu": 8131,
      "zorla": 8132,
      "cilt": 8133,
      "olamaz": 8134,
      "dışından": 8135,
      "prote": 8136,
      "geçtiği": 8137,
      "güzellik": 8138,
      "mann": 8139,
      "bilinmeyen": 8140,
      "danim": 8141,
      "baha": 8142,
      "kadıköy": 8143,
      "anıt": 8144,
      "mesleki": 8145,
      "zamanında": 8146,
      "yolun": 8147,
      "tüketici": 8148,
      "1975": 8149,
      "teb": 8150,
      "törende": 8151,
      "bürokra": 8152,
      "jet": 8153,
      "danimarka": 8154,
      "blok": 8155,
      "rolü": 8156,
      "macron": 8157,
      "stres": 8158,
      "yarışma": 8159,
      "barcel": 8160,
      "tmak": 8161,
      "edilebilir": 8162,
      "çalışmalara": 8163,
      "birinc": 8164,
      "ölümüne": 8165,
      "gördüm": 8166,
      "harekatı": 8167,
      "teri": 8168,
      "gündür": 8169,
      "gerilim": 8170,
      "1973": 8171,
      "görür": 8172,
      "reddetti": 8173,
      "monu": 8174,
      "vermişti": 8175,
      "memnuniyet": 8176,
      "sırbistan": 8177,
      "sordu": 8178,
      "topla": 8179,
      "çadır": 8180,
      "i̇çin": 8181,
      "kimliği": 8182,
      "cher": 8183,
      "çen": 8184,
      "kurs": 8185,
      "derecede": 8186,
      "üyeliği": 8187,
      "saadet": 8188,
      "görevine": 8189,
      "jean": 8190,
      "komedi": 8191,
      "başlamış": 8192,
      "vatandaşları": 8193,
      "coun": 8194,
      "satışı": 8195,
      "kuruş": 8196,
      "noktaya": 8197,
      "valilik": 8198,
      "1981": 8199,
      "miras": 8200,
      "imizle": 8201,
      "geçerek": 8202,
      "ayının": 8203,
      "manchester": 8204,
      "suçla": 8205,
      "ure": 8206,
      "gazetecilerin": 8207,
      "artışla": 8208,
      "çalışmak": 8209,
      "lüks": 8210,
      "ekonomisi": 8211,
      "ato": 8212,
      "grupları": 8213,
      "uel": 8214,
      "ole": 8215,
      "von": 8216,
      "kararlar": 8217,
      "ıklı": 8218,
      "hut": 8219,
      "yayınları": 8220,
      "solun": 8221,
      "master": 8222,
      "i̇daresi": 8223,
      "sistemin": 8224,
      "cihan": 8225,
      "şaş": 8226,
      "deplasmanda": 8227,
      "bula": 8228,
      "etkilenen": 8229,
      "hang": 8230,
      "gücünü": 8231,
      "tarihe": 8232,
      "ederim": 8233,
      "cra": 8234,
      "birimi": 8235,
      "vatandaşlarımızın": 8236,
      "kuruluşları": 8237,
      "kaldırılması": 8238,
      "sözde": 8239,
      "diven": 8240,
      "şüphelilerin": 8241,
      "https": 8242,
      "özbek": 8243,
      "kapısı": 8244,
      "kktc": 8245,
      "idam": 8246,
      "finlan": 8247,
      "çalıştığını": 8248,
      "kütah": 8249,
      "fed": 8250,
      "değiştirilmeden": 8251,
      "misyon": 8252,
      "ilerleyen": 8253,
      "meme": 8254,
      "johnson": 8255,
      "görüle": 8256,
      "pes": 8257,
      "kali": 8258,
      "87": 8259,
      "buluştu": 8260,
      "ges": 8261,
      "fonk": 8262,
      "bbc": 8263,
      "gönderilen": 8264,
      "yönettiği": 8265,
      "sym": 8266,
      "bulunu": 8267,
      "i̇kti": 8268,
      "suyun": 8269,
      "güneydoğu": 8270,
      "evinin": 8271,
      "yavru": 8272,
      "çil": 8273,
      "ilçesindeki": 8274,
      "ismini": 8275,
      "emisyon": 8276,
      "kurak": 8277,
      "görünce": 8278,
      "yönetimindeki": 8279,
      "kalır": 8280,
      "fotoğrafı": 8281,
      "biyogra": 8282,
      "spon": 8283,
      "barcelona": 8284,
      "1978": 8285,
      "abileceğini": 8286,
      "1977": 8287,
      "yansıdı": 8288,
      "başladık": 8289,
      "girecek": 8290,
      "kims": 8291,
      "adıyaman": 8292,
      "bulunmak": 8293,
      "işten": 8294,
      "meyin": 8295,
      "vladi": 8296,
      "tarafında": 8297,
      "martin": 8298,
      "1972": 8299,
      "şırnak": 8300,
      "doları": 8301,
      "eserleri": 8302,
      "saldırısı": 8303,
      "ziyareti": 8304,
      "ahlak": 8305,
      "sürecini": 8306,
      "sağlar": 8307,
      "tarımsal": 8308,
      "oluşuyor": 8309,
      "taah": 8310,
      "politikaları": 8311,
      "ceğine": 8312,
      "durumunun": 8313,
      "seviyesinde": 8314,
      "bilirim": 8315,
      "profesör": 8316,
      "i̇yor": 8317,
      "kuyu": 8318,
      "ci̇": 8319,
      "ertuğrul": 8320,
      "toz": 8321,
      "ikisi": 8322,
      "çoğunlukla": 8323,
      "kedi": 8324,
      "sunduğu": 8325,
      "jik": 8326,
      "kurulması": 8327,
      "rut": 8328,
      "netan": 8329,
      "esun": 8330,
      "ateşkes": 8331,
      "bn": 8332,
      "olabileceği": 8333,
      "sokakta": 8334,
      "united": 8335,
      "bildiği": 8336,
      "kg": 8337,
      "kişilere": 8338,
      "istek": 8339,
      "edilemez": 8340,
      "düşünül": 8341,
      "diyorlar": 8342,
      "dizinin": 8343,
      "tanınan": 8344,
      "ertelen": 8345,
      "rehber": 8346,
      "kullanılması": 8347,
      "sosyalist": 8348,
      "plana": 8349,
      "yönelt": 8350,
      "kurmak": 8351,
      "faf": 8352,
      "yapıp": 8353,
      "havacılık": 8354,
      "demokras": 8355,
      "eşinin": 8356,
      "ettin": 8357,
      "gelişmeleri": 8358,
      "pamuk": 8359,
      "içinden": 8360,
      "biliyorum": 8361,
      "grafi": 8362,
      "ortağı": 8363,
      "seçime": 8364,
      "sığınmacı": 8365,
      "gelecekte": 8366,
      "low": 8367,
      "şeyh": 8368,
      "çiftçi": 8369,
      "bulama": 8370,
      "zul": 8371,
      "söylemişti": 8372,
      "işlemi": 8373,
      "atarak": 8374,
      "evr": 8375,
      "pon": 8376,
      "azından": 8377,
      "i̇lhan": 8378,
      "ayir": 8379,
      "reuters": 8380,
      "şirketlerin": 8381,
      "1976": 8382,
      "artması": 8383,
      "yoluna": 8384,
      "alin": 8385,
      "prensi": 8386,
      "giresun": 8387,
      "hırsızlık": 8388,
      "eseri": 8389,
      "yapama": 8390,
      "netanyahu": 8391,
      "çatışmalar": 8392,
      "bakın": 8393,
      "emine": 8394,
      "sıvı": 8395,
      "otomotiv": 8396,
      "manız": 8397,
      "miting": 8398,
      "kâr": 8399,
      "kripto": 8400,
      "anlamı": 8401,
      "bankacılık": 8402,
      "cuları": 8403,
      "katal": 8404,
      "ufak": 8405,
      "posta": 8406,
      "kararına": 8407,
      "programda": 8408,
      "ngc": 8409,
      "ikat": 8410,
      "şeffaf": 8411,
      "tedbirler": 8412,
      "esince": 8413,
      "sovyetler": 8414,
      "t24": 8415,
      "müzakere": 8416,
      "namazı": 8417,
      "i̇hbar": 8418,
      "yağışı": 8419,
      "pahalı": 8420,
      "durumlarda": 8421,
      "üstelik": 8422,
      "gelmiştir": 8423,
      "neticesinde": 8424,
      "tunus": 8425,
      "yedek": 8426,
      "jack": 8427,
      "adaylar": 8428,
      "ls": 8429,
      "ahmed": 8430,
      "programına": 8431,
      "ardı": 8432,
      "aksiyon": 8433,
      "hij": 8434,
      "teşebb": 8435,
      "dom": 8436,
      "soft": 8437,
      "cesaret": 8438,
      "düzelt": 8439,
      "müyor": 8440,
      "yakınlarında": 8441,
      "sekreter": 8442,
      "otop": 8443,
      "çarşı": 8444,
      "isabet": 8445,
      "dönemlerde": 8446,
      "i̇zm": 8447,
      "ağız": 8448,
      "bulgu": 8449,
      "kenan": 8450,
      "i̇la": 8451,
      "tehlike": 8452,
      "1967": 8453,
      "parta": 8454,
      "kasta": 8455,
      "galip": 8456,
      "tabanca": 8457,
      "çü": 8458,
      "1971": 8459,
      "şarkıları": 8460,
      "yaptırı": 8461,
      "listesinde": 8462,
      "duyduğu": 8463,
      "irti": 8464,
      "gazetecilere": 8465,
      "oldum": 8466,
      "vladimir": 8467,
      "yasası": 8468,
      "thy": 8469,
      "değişen": 8470,
      "finlandiya": 8471,
      "ayakkabı": 8472,
      "dt": 8473,
      "kalması": 8474,
      "akl": 8475,
      "emizde": 8476,
      "sahasında": 8477,
      "seçimler": 8478,
      "avrupalı": 8479,
      "konsolos": 8480,
      "sipar": 8481,
      "yürütü": 8482,
      "times": 8483,
      "pic": 8484,
      "tüfek": 8485,
      "gerekse": 8486,
      "zeme": 8487,
      "asist": 8488,
      "araçların": 8489,
      "medeniyet": 8490,
      "sorumlusu": 8491,
      "şehrinde": 8492,
      "beslen": 8493,
      "atmak": 8494,
      "bulmak": 8495,
      "askerlik": 8496,
      "şüphelinin": 8497,
      "sistemini": 8498,
      "nuri": 8499,
      "milletimizin": 8500,
      "lanmasının": 8501,
      "ihraca": 8502,
      "duruşmada": 8503,
      "istatistik": 8504,
      "hatt": 8505,
      "albümleri": 8506,
      "yolunu": 8507,
      "söyler": 8508,
      "ifadelerine": 8509,
      "----------------": 8510,
      "şev": 8511,
      "kadınlara": 8512,
      "rüş": 8513,
      "üreten": 8514,
      "elli": 8515,
      "katılma": 8516,
      "kit": 8517,
      "köp": 8518,
      "eurovision": 8519,
      "devir": 8520,
      "danışmanı": 8521,
      "robot": 8522,
      "landalı": 8523,
      "sanatçısı": 8524,
      "1968": 8525,
      "yaka": 8526,
      "sergi": 8527,
      "uru": 8528,
      "görevlileri": 8529,
      "lanmaya": 8530,
      "onunla": 8531,
      "kurumları": 8532,
      "wal": 8533,
      "ayına": 8534,
      "mi̇l": 8535,
      "youtube": 8536,
      "gitar": 8537,
      "önlemek": 8538,
      "önemi": 8539,
      "ki̇m": 8540,
      "ailesine": 8541,
      "ürünlerin": 8542,
      "kuvvetli": 8543,
      "işletme": 8544,
      "izleyen": 8545,
      "seyre": 8546,
      "niz": 8547,
      "hatırlatı": 8548,
      "gelece": 8549,
      "albay": 8550,
      "düşünüyoruz": 8551,
      "kaliteli": 8552,
      "ulur": 8553,
      "altun": 8554,
      "personeli": 8555,
      "fuar": 8556,
      "çeyre": 8557,
      "kasaba": 8558,
      "kanlı": 8559,
      "projeleri": 8560,
      "geçmek": 8561,
      "ularak": 8562,
      "bizzat": 8563,
      "hire": 8564,
      "feda": 8565,
      "tre": 8566,
      "cezaev": 8567,
      "olmaları": 8568,
      "okuma": 8569,
      "saldırının": 8570,
      "bok": 8571,
      "yardımı": 8572,
      "macer": 8573,
      "kaleme": 8574,
      "unvan": 8575,
      "tunç": 8576,
      "atöly": 8577,
      "era": 8578,
      "köyün": 8579,
      "verileri": 8580,
      "malzeme": 8581,
      "başbakanlık": 8582,
      "kamuoyuna": 8583,
      "kaçtı": 8584,
      "mızla": 8585,
      "kamet": 8586,
      "ther": 8587,
      "muay": 8588,
      "tarihlerinde": 8589,
      "imparator": 8590,
      "özlem": 8591,
      "global": 8592,
      "çoban": 8593,
      "diy": 8594,
      "gösterir": 8595,
      "ürünü": 8596,
      "suretiyle": 8597,
      "uygulamaları": 8598,
      "kula": 8599,
      "fonu": 8600,
      "sağanak": 8601,
      "uri": 8602,
      "örgütünün": 8603,
      "kurma": 8604,
      "sürülen": 8605,
      "alkış": 8606,
      "rahi": 8607,
      "eğilim": 8608,
      "olabilecek": 8609,
      "survi": 8610,
      "sömür": 8611,
      "lıdır": 8612,
      "aman": 8613,
      "hakkari": 8614,
      "bağdat": 8615,
      "müşteri": 8616,
      "ölçek": 8617,
      "açıklayan": 8618,
      "bilmektedir": 8619,
      "kütahya": 8620,
      "peygam": 8621,
      "desteğiyle": 8622,
      "bilme": 8623,
      "ihtimali": 8624,
      "besin": 8625,
      "cas": 8626,
      "dergisi": 8627,
      "minibüs": 8628,
      "kararları": 8629,
      "izledi": 8630,
      "bs": 8631,
      "dünyası": 8632,
      "beste": 8633,
      "oğra": 8634,
      "hariç": 8635,
      "atmosfer": 8636,
      "dinamik": 8637,
      "açılı": 8638,
      "kodu": 8639,
      "ciye": 8640,
      "sistemine": 8641,
      "istemedi": 8642,
      "pp": 8643,
      "row": 8644,
      "stadı": 8645,
      "değilim": 8646,
      "becer": 8647,
      "çalışırken": 8648,
      "taksim": 8649,
      "ilişkilerin": 8650,
      "deri": 8651,
      "finale": 8652,
      "romanya": 8653,
      "erzin": 8654,
      "etrafında": 8655,
      "tayı": 8656,
      "afyonkara": 8657,
      "suika": 8658,
      "sahası": 8659,
      "mid": 8660,
      "anton": 8661,
      "rakib": 8662,
      "çektiği": 8663,
      "yanıtladı": 8664,
      "sinyal": 8665,
      "tev": 8666,
      "lanmasını": 8667,
      "pis": 8668,
      "amatör": 8669,
      "tıcı": 8670,
      "antrenör": 8671,
      "gelebilir": 8672,
      "parayı": 8673,
      "dönümü": 8674,
      "olduğunda": 8675,
      "stri": 8676,
      "başarılar": 8677,
      "lanmıştı": 8678,
      "şarj": 8679,
      "kongresi": 8680,
      "sunan": 8681,
      "ğiniz": 8682,
      "ordusunun": 8683,
      "göstermek": 8684,
      "i̇şçi": 8685,
      "anah": 8686,
      "sö": 8687,
      "alınmış": 8688,
      "alper": 8689,
      "tahran": 8690,
      "emeyecek": 8691,
      "süm": 8692,
      "şarkısı": 8693,
      "i̇hra": 8694,
      "doğr": 8695,
      "imam": 8696,
      "ülkelerden": 8697,
      "şım": 8698,
      "joe": 8699,
      "1000": 8700,
      "çıkmak": 8701,
      "pyd": 8702,
      "bölgelerinde": 8703,
      "değerlendirdi": 8704,
      "ân": 8705,
      "örneği": 8706,
      "eğe": 8707,
      "kriter": 8708,
      "sırasıyla": 8709,
      "bağımsızlık": 8710,
      "labilecek": 8711,
      "pin": 8712,
      "komünist": 8713,
      "tos": 8714,
      "insanlık": 8715,
      "bizden": 8716,
      "ilave": 8717,
      "1969": 8718,
      "görünüm": 8719,
      "göm": 8720,
      "yaptım": 8721,
      "dilekç": 8722,
      "böcek": 8723,
      "okullar": 8724,
      "abi": 8725,
      "caz": 8726,
      "faydalan": 8727,
      "cus": 8728,
      "plaj": 8729,
      "finansman": 8730,
      "ceae": 8731,
      "sonradan": 8732,
      "dows": 8733,
      "kavg": 8734,
      "kısmını": 8735,
      "haberde": 8736,
      "numara": 8737,
      "kanalı": 8738,
      "eskiden": 8739,
      "kaçın": 8740,
      "torun": 8741,
      "dalga": 8742,
      "hara": 8743,
      "maddeleri": 8744,
      "tavsiy": 8745,
      "kardeşler": 8746,
      "zim": 8747,
      "gösterilen": 8748,
      "babam": 8749,
      "vurgulayarak": 8750,
      "kastamonu": 8751,
      "yüze": 8752,
      "sayede": 8753,
      "belediyespor": 8754,
      "oyla": 8755,
      "topladı": 8756,
      "füze": 8757,
      "tesisleri": 8758,
      "dinin": 8759,
      "duruşma": 8760,
      "gözyaş": 8761,
      "siber": 8762,
      "binin": 8763,
      "unç": 8764,
      "atış": 8765,
      "charles": 8766,
      "konuları": 8767,
      "ileceği": 8768,
      "ulacak": 8769,
      "hint": 8770,
      "soruları": 8771,
      "ediyorlar": 8772,
      "si̇n": 8773,
      "ülkemize": 8774,
      "katılacak": 8775,
      "kazandığı": 8776,
      "gerçeği": 8777,
      "batman": 8778,
      "köl": 8779,
      "tamamlanan": 8780,
      "mars": 8781,
      "coşkun": 8782,
      "dilik": 8783,
      "show": 8784,
      "hatip": 8785,
      "kilisesi": 8786,
      "cla": 8787,
      "keşif": 8788,
      "tech": 8789,
      "malıyız": 8790,
      "şikayetçi": 8791,
      "alışkan": 8792,
      "ebiliyor": 8793,
      "koltuk": 8794,
      "denem": 8795,
      "münih": 8796,
      "belirledi": 8797,
      "adliye": 8798,
      "doktora": 8799,
      "bilirler": 8800,
      "sabır": 8801,
      "padi": 8802,
      "oynanacak": 8803,
      "elikle": 8804,
      "ülüğ": 8805,
      "adlandırılan": 8806,
      "dondur": 8807,
      "ibar": 8808,
      "selahattin": 8809,
      "husus": 8810,
      "kender": 8811,
      "pre": 8812,
      "topar": 8813,
      "binali": 8814,
      "dırdı": 8815,
      "katılmak": 8816,
      "dine": 8817,
      "derhal": 8818,
      "toplantıya": 8819,
      "alanlarında": 8820,
      "survivor": 8821,
      "oruç": 8822,
      "edilmektedir": 8823,
      "oluşturmak": 8824,
      "manav": 8825,
      "başlamıştır": 8826,
      "cinsidir": 8827,
      "başarıyla": 8828,
      "sporcular": 8829,
      "körfez": 8830,
      "olmanın": 8831,
      "olunca": 8832,
      "tiş": 8833,
      "çim": 8834,
      "!”": 8835,
      "gazı": 8836,
      "bahs": 8837,
      "taydı": 8838,
      "barajı": 8839,
      "izni": 8840,
      "nal": 8841,
      "koyun": 8842,
      "yalım": 8843,
      "yayımlandı": 8844,
      "bastı": 8845,
      "sürdüğü": 8846,
      "masız": 8847,
      "çizgi": 8848,
      "köyleri": 8849,
      "meral": 8850,
      "nereye": 8851,
      "gerektiğine": 8852,
      "açıklamasını": 8853,
      "takımının": 8854,
      "emiyor": 8855,
      "havuz": 8856,
      "beyoğlu": 8857,
      "geçtiğini": 8858,
      "sizler": 8859,
      "yatırımcı": 8860,
      "depremin": 8861,
      "üreticiler": 8862,
      "musa": 8863,
      "oni": 8864,
      "koşu": 8865,
      "semt": 8866,
      "yaşamak": 8867,
      "kuzeyinde": 8868,
      "stat": 8869,
      "saldırıları": 8870,
      "serisi": 8871,
      "sorunların": 8872,
      "geleceğini": 8873,
      "öldürüldü": 8874,
      "geleceğe": 8875,
      "rüt": 8876,
      "tm": 8877,
      "yarattığı": 8878,
      "yolo": 8879,
      "iii": 8880,
      "bulaş": 8881,
      "parlak": 8882,
      "leyerek": 8883,
      "sül": 8884,
      "gidece": 8885,
      "gelişen": 8886,
      "ressam": 8887,
      "kendimi": 8888,
      "güvenilir": 8889,
      "okulda": 8890,
      "omo": 8891,
      "finalde": 8892,
      "asay": 8893,
      "bizde": 8894,
      "yapmıştı": 8895,
      "sahaya": 8896,
      "senaryo": 8897,
      "hazırda": 8898,
      "doğur": 8899,
      "göstererek": 8900,
      "yalar": 8901,
      "resmen": 8902,
      "chen": 8903,
      "rahatsızlık": 8904,
      "fabri": 8905,
      "partilerin": 8906,
      "tüz": 8907,
      "linik": 8908,
      "sınavı": 8909,
      "afrin": 8910,
      "kaptan": 8911,
      "bursaspor": 8912,
      "aki": 8913,
      "anam": 8914,
      "madal": 8915,
      "roket": 8916,
      "zırh": 8917,
      "kulübün": 8918,
      "geli": 8919,
      "aydır": 8920,
      "geliştirilen": 8921,
      "çizen": 8922,
      "lie": 8923,
      "i̇skender": 8924,
      "törenine": 8925,
      "ithalat": 8926,
      "i̇zmi̇r": 8927,
      "cezaevinde": 8928,
      "yazarları": 8929,
      "duygusal": 8930,
      "venez": 8931,
      "liğindeki": 8932,
      "dönüştü": 8933,
      "öldürülen": 8934,
      "gayrim": 8935,
      "rakibi": 8936,
      "i̇nşaat": 8937,
      "single": 8938,
      "oranının": 8939,
      "fahrettin": 8940,
      "sad": 8941,
      "azın": 8942,
      "önemine": 8943,
      "ebu": 8944,
      "adem": 8945,
      "cezayir": 8946,
      "mm": 8947,
      "imha": 8948,
      "miz": 8949,
      "kardeşim": 8950,
      "bala": 8951,
      "yeterince": 8952,
      "li̇k": 8953,
      "emizin": 8954,
      "adamları": 8955,
      "görüldüğü": 8956,
      "korona": 8957,
      "biber": 8958,
      "hızı": 8959,
      "sova": 8960,
      "sırp": 8961,
      "sürüldü": 8962,
      "yetişkin": 8963,
      "virüsün": 8964,
      "turiz": 8965,
      "suikast": 8966,
      "beraberlik": 8967,
      "ayeti": 8968,
      "beyazlı": 8969,
      "yazan": 8970,
      "görüşmede": 8971,
      "yapılmıştır": 8972,
      "paylaşımda": 8973,
      "konsey": 8974,
      "takıma": 8975,
      "uyla": 8976,
      "koşulları": 8977,
      "diyet": 8978,
      "kurtu": 8979,
      "büyükelçisi": 8980,
      "ispor": 8981,
      "konuşuyor": 8982,
      "harekâ": 8983,
      "ihmal": 8984,
      "geçirilen": 8985,
      "maked": 8986,
      "tunceli": 8987,
      "banın": 8988,
      "beşinci": 8989,
      "cezaevine": 8990,
      "avukatları": 8991,
      "grand": 8992,
      "nitelikli": 8993,
      "sorusu": 8994,
      "nehir": 8995,
      "esk": 8996,
      "evleri": 8997,
      "solunum": 8998,
      "dv": 8999,
      "aşamasında": 9000,
      "chris": 9001,
      "dedik": 9002,
      "orkes": 9003,
      "eğlence": 9004,
      "flor": 9005,
      "puanla": 9006,
      "istikamet": 9007,
      "büyüy": 9008,
      "geliştirmek": 9009,
      "şehirde": 9010,
      "türki̇ye": 9011,
      "oğlunun": 9012,
      "vücud": 9013,
      "sanal": 9014,
      "karışık": 9015,
      "emr": 9016,
      "topluluğu": 9017,
      "veriliyor": 9018,
      "çektir": 9019,
      "hırsız": 9020,
      ",(": 9021,
      "ileceğini": 9022,
      "koruyucu": 9023,
      "kep": 9024,
      "sözler": 9025,
      "ory": 9026,
      "idare": 9027,
      "telekom": 9028,
      "müze": 9029,
      "vergisi": 9030,
      "atörü": 9031,
      "ertesi": 9032,
      "metrekare": 9033,
      "çaplı": 9034,
      "otik": 9035,
      "dursun": 9036,
      "yönetiminde": 9037,
      "kraliyet": 9038,
      "umuzu": 9039,
      "diğinin": 9040,
      "aksi": 9041,
      "für": 9042,
      "hastalığın": 9043,
      "laf": 9044,
      "sea": 9045,
      "wei": 9046,
      "kaplan": 9047,
      "peygamber": 9048,
      "masum": 9049,
      "92": 9050,
      "fikri": 9051,
      "korkmaz": 9052,
      "tescil": 9053,
      "kadem": 9054,
      "erzincan": 9055,
      "performansı": 9056,
      "keli": 9057,
      "onlarla": 9058,
      "ülkelerinin": 9059,
      "işlev": 9060,
      "cd": 9061,
      "mutfa": 9062,
      "black": 9063,
      "ling": 9064,
      "hone": 9065,
      "sahneye": 9066,
      "hijyen": 9067,
      "çıkarmak": 9068,
      "şeye": 9069,
      "ağırlıklı": 9070,
      "başlat": 9071,
      "dediler": 9072,
      "inen": 9073,
      "gayet": 9074,
      "gerekmektedir": 9075,
      "kapattı": 9076,
      "kasten": 9077,
      "kalmadı": 9078,
      "bulunma": 9079,
      "kanaat": 9080,
      "oyuncunun": 9081,
      "aileler": 9082,
      "öldüğü": 9083,
      "değerlendiren": 9084,
      "öncü": 9085,
      "karabağ": 9086,
      "bağışıklık": 9087,
      "ötürü": 9088,
      "ikamet": 9089,
      "calan": 9090,
      "sara": 9091,
      "düzce": 9092,
      "ünc": 9093,
      "ilerinde": 9094,
      "deş": 9095,
      "görevinden": 9096,
      "tril": 9097,
      "eyaleti": 9098,
      "müeb": 9099,
      "zede": 9100,
      "iftar": 9101,
      "kazanç": 9102,
      "aldıklarını": 9103,
      "hikmet": 9104,
      "yaşadığını": 9105,
      "yüklü": 9106,
      "anlamında": 9107,
      "rant": 9108,
      "yolunun": 9109,
      "tarzı": 9110,
      "aşık": 9111,
      "müebbet": 9112,
      "tahr": 9113,
      "şahit": 9114,
      "dou": 9115,
      "ero": 9116,
      "aldım": 9117,
      "f2f2": 9118,
      "dönük": 9119,
      "mutfak": 9120,
      "darp": 9121,
      "yüzüne": 9122,
      "ösym": 9123,
      "nadir": 9124,
      "meliyiz": 9125,
      "layın": 9126,
      "birimleri": 9127,
      "güzer": 9128,
      "döner": 9129,
      "hazırlanıyor": 9130,
      "seferber": 9131,
      "edici": 9132,
      "iyel": 9133,
      "96": 9134,
      "veriyoruz": 9135,
      "çorum": 9136,
      "çocuklarının": 9137,
      "97": 9138,
      "haftanın": 9139,
      "yöneticileri": 9140,
      "mükem": 9141,
      "iyetini": 9142,
      "sarf": 9143,
      "muhteş": 9144,
      "iktidara": 9145,
      "dinde": 9146,
      "verildiği": 9147,
      "loj": 9148,
      "başkanımız": 9149,
      "tikleri": 9150,
      "bill": 9151,
      "fındık": 9152,
      "kosova": 9153,
      "doku": 9154,
      "bingöl": 9155,
      "hain": 9156,
      "açlık": 9157,
      "melerine": 9158,
      "93": 9159,
      "muhteşem": 9160,
      "yaşanıyor": 9161,
      "wol": 9162,
      "askerler": 9163,
      "akciğer": 9164,
      "etmesini": 9165,
      "fuarı": 9166,
      "ihbarı": 9167,
      "zamana": 9168,
      "lami": 9169,
      "piyade": 9170,
      "nijer": 9171,
      "kaçını": 9172,
      "çözümü": 9173,
      "giderken": 9174,
      "mücadelenin": 9175,
      "geçirmek": 9176,
      "dizileri": 9177,
      "konunun": 9178,
      "sürecine": 9179,
      "i̇skoç": 9180,
      "sebze": 9181,
      "hayvancılık": 9182,
      "yin": 9183,
      "faydalı": 9184,
      "değiliz": 9185,
      "gönderdiği": 9186,
      "kapsayan": 9187,
      "bilinir": 9188,
      "thomas": 9189,
      "ülkelerine": 9190,
      "çalışanı": 9191,
      "bayer": 9192,
      "hz": 9193,
      "vok": 9194,
      "yangını": 9195,
      "press": 9196,
      "olanların": 9197,
      "zamanla": 9198,
      "kole": 9199,
      "hati": 9200,
      "mahalledir": 9201,
      "yaklaştı": 9202,
      "istenen": 9203,
      "bedeli": 9204,
      "örgütüne": 9205,
      "aslı": 9206,
      "kendin": 9207,
      "detaylı": 9208,
      "merkezleri": 9209,
      "soykırım": 9210,
      "forvet": 9211,
      "isparta": 9212,
      "şin": 9213,
      "gemisi": 9214,
      "coin": 9215,
      "atandı": 9216,
      "mensubu": 9217,
      "rap": 9218,
      "zihin": 9219,
      "eylemi": 9220,
      "kapanı": 9221,
      "askıya": 9222,
      "marşı": 9223,
      "demirel": 9224,
      "|}": 9225,
      "weet": 9226,
      "1965": 9227,
      "ende": 9228,
      "liberal": 9229,
      "olayların": 9230,
      "miktarı": 9231,
      "brit": 9232,
      "anlaşmaz": 9233,
      "sektörünün": 9234,
      "eu": 9235,
      "filistinli": 9236,
      "saint": 9237,
      "!..": 9238,
      "meteoroloji": 9239,
      "evler": 9240,
      "mesele": 9241,
      "hukuka": 9242,
      "çekici": 9243,
      "verdikleri": 9244,
      "i̇ktidar": 9245,
      "kendisinden": 9246,
      "i̇statistik": 9247,
      "cast": 9248,
      "graf": 9249,
      "asi": 9250,
      "fatur": 9251,
      "idor": 9252,
      "lüğüne": 9253,
      "haftası": 9254,
      "mükemmel": 9255,
      "türkç": 9256,
      "düzenleyen": 9257,
      "well": 9258,
      "olmasa": 9259,
      "kültürü": 9260,
      "dani": 9261,
      "hepimizin": 9262,
      "ifadeler": 9263,
      "west": 9264,
      "cenin": 9265,
      "kazanmak": 9266,
      "verdiğimiz": 9267,
      "dalık": 9268,
      "başa": 9269,
      "toto": 9270,
      "kazakistan": 9271,
      "gözük": 9272,
      "zeka": 9273,
      "bakıldığında": 9274,
      "ulaşmak": 9275,
      "temen": 9276,
      "başkanlığında": 9277,
      "sez": 9278,
      "hatırlattı": 9279,
      "%|": 9280,
      "yaşıyoruz": 9281,
      "tesisi": 9282,
      "karabük": 9283,
      "üretici": 9284,
      "karmaşık": 9285,
      "tarla": 9286,
      "saatleri": 9287,
      "i̇nan": 9288,
      "dükkan": 9289,
      "esin": 9290,
      "biliniyor": 9291,
      "uyoruz": 9292,
      "mayacağı": 9293,
      "1964": 9294,
      "mecbur": 9295,
      "cho": 9296,
      "faş": 9297,
      "kandil": 9298,
      "osunu": 9299,
      "alek": 9300,
      "üssü": 9301,
      "iphone": 9302,
      "tokyo": 9303,
      "kilise": 9304,
      "hamil": 9305,
      "tıpkı": 9306,
      "deres": 9307,
      "trav": 9308,
      "yürüttüğü": 9309,
      "ilgisi": 9310,
      "çalışır": 9311,
      "yaşadıkları": 9312,
      "asa": 9313,
      "gerekçe": 9314,
      "angeles": 9315,
      "şüpheliler": 9316,
      "britanya": 9317,
      "1966": 9318,
      "eyiz": 9319,
      "anılan": 9320,
      "atom": 9321,
      "aşısı": 9322,
      "teşebbüs": 9323,
      "edeceği": 9324,
      "windows": 9325,
      "yöntemi": 9326,
      "tlar": 9327,
      "enter": 9328,
      "akşa": 9329,
      "tarihsel": 9330,
      "etkiler": 9331,
      "defalarca": 9332,
      "artvin": 9333,
      "duyurusunda": 9334,
      "isterim": 9335,
      "kayak": 9336,
      "yılındaki": 9337,
      "boğaziçi": 9338,
      "kariyerine": 9339,
      "teknolojik": 9340,
      "microsoft": 9341,
      "tatbi": 9342,
      "yerler": 9343,
      "bilimler": 9344,
      "oylama": 9345,
      "oğrafi": 9346,
      "sedat": 9347,
      "yardımıyla": 9348,
      "konferansı": 9349,
      "sürü": 9350,
      "şafak": 9351,
      "akşamı": 9352,
      "emeklilik": 9353,
      "mevlüt": 9354,
      "yaşadıklarını": 9355,
      "kısaca": 9356,
      "birine": 9357,
      "işti": 9358,
      "olaya": 9359,
      "harita": 9360,
      "kurumlar": 9361,
      "kararıyla": 9362,
      "öcalan": 9363,
      "katolik": 9364,
      "gözet": 9365,
      "izasyon": 9366,
      "büro": 9367,
      "tuna": 9368,
      "ell": 9369,
      "polisler": 9370,
      "bölgesindeki": 9371,
      "arapça": 9372,
      "kimya": 9373,
      "özgün": 9374,
      "örgütleri": 9375,
      "iktidarın": 9376,
      "isbn": 9377,
      "perde": 9378,
      "verilere": 9379,
      "ayrılık": 9380,
      "amadı": 9381,
      "bakanlığın": 9382,
      "bacak": 9383,
      "seçimde": 9384,
      "burdur": 9385,
      "fonksiyon": 9386,
      "üyelik": 9387,
      "dizisinde": 9388,
      "savunu": 9389,
      "nihat": 9390,
      "bulunmuştu": 9391,
      "biliyorsunuz": 9392,
      "aileleri": 9393,
      "taşıdı": 9394,
      "veter": 9395,
      "1961": 9396,
      "kızılay": 9397,
      "kategorisinde": 9398,
      "destekleyen": 9399,
      "paylaşan": 9400,
      "elini": 9401,
      "lanıp": 9402,
      "çilik": 9403,
      "yıkım": 9404,
      "bulunarak": 9405,
      "phi": 9406,
      "trib": 9407,
      "boru": 9408,
      "nba": 9409,
      "aldığımız": 9410,
      "artırmak": 9411,
      "anlamlı": 9412,
      "törene": 9413,
      "what": 9414,
      "atina": 9415,
      "ros": 9416,
      "ücreti": 9417,
      "asayiş": 9418,
      "kilogram": 9419,
      "ceylan": 9420,
      "ction": 9421,
      "kıyasla": 9422,
      "duruyor": 9423,
      "üskü": 9424,
      "kolları": 9425,
      "çeviren": 9426,
      "inize": 9427,
      "kıta": 9428,
      "başlama": 9429,
      "uzatı": 9430,
      "koridor": 9431,
      "korkunç": 9432,
      "masi": 9433,
      "seçimlerin": 9434,
      "nitekim": 9435,
      "burs": 9436,
      "aktaş": 9437,
      "bozul": 9438,
      "hapse": 9439,
      "yıllarca": 9440,
      "önündeki": 9441,
      "gözü": 9442,
      "kullanıyor": 9443,
      "figür": 9444,
      "tamamlayan": 9445,
      "olduğum": 9446,
      "yarısında": 9447,
      "genetik": 9448,
      "riskli": 9449,
      "gördüğünü": 9450,
      "adında": 9451,
      "cağının": 9452,
      "trilyon": 9453,
      "döneme": 9454,
      "ekiplerine": 9455,
      "edilirken": 9456,
      "edilmesini": 9457,
      "tesp": 9458,
      "yürüm": 9459,
      "tabak": 9460,
      "bilmiyorum": 9461,
      "bi̇n": 9462,
      "serkan": 9463,
      "yazıcı": 9464,
      "coğrafi": 9465,
      "masaya": 9466,
      "130": 9467,
      "işkence": 9468,
      "masraf": 9469,
      "programları": 9470,
      "ibadet": 9471,
      "odaklı": 9472,
      "ödülünü": 9473,
      "hastaların": 9474,
      "garanti": 9475,
      "halkına": 9476,
      "geçecek": 9477,
      "dokunulmaz": 9478,
      "duydu": 9479,
      "varlığını": 9480,
      "yurttaş": 9481,
      "**": 9482,
      "ihracatı": 9483,
      "açik": 9484,
      "açıkladığı": 9485,
      "yazarlar": 9486,
      "menderes": 9487,
      "usa": 9488,
      "savaşa": 9489,
      "istendi": 9490,
      "şampiyonluğu": 9491,
      "töreninde": 9492,
      "spa": 9493,
      "gürül": 9494,
      "buğday": 9495,
      "musunuz": 9496,
      "kronik": 9497,
      "yakalama": 9498,
      "saati": 9499,
      "eceğim": 9500,
      "biyo": 9501,
      "tuval": 9502,
      "takvim": 9503,
      "stok": 9504,
      "toplama": 9505,
      "kazandırı": 9506,
      "gerçekleştiren": 9507,
      "olama": 9508,
      "denilen": 9509,
      "sha": 9510,
      "borcu": 9511,
      "mezarlığı": 9512,
      "yalova": 9513,
      "olmakla": 9514,
      "ai̇h": 9515,
      "i̇stihbarat": 9516,
      "gelmişti": 9517,
      "komuta": 9518,
      "uyumlu": 9519,
      "eyüp": 9520,
      "nüfusun": 9521,
      "balıkçı": 9522,
      "üzüm": 9523,
      "gla": 9524,
      "kuy": 9525,
      "restoran": 9526,
      "tüken": 9527,
      "afyonkarahisar": 9528,
      "beton": 9529,
      "yumurta": 9530,
      "jüri": 9531,
      "aba": 9532,
      "havay": 9533,
      "verilmiştir": 9534,
      "seviyesine": 9535,
      "hası": 9536,
      "laboratuvar": 9537,
      "ilmez": 9538,
      "larsa": 9539,
      "alakalı": 9540,
      "kullanır": 9541,
      "yaprak": 9542,
      "yönlü": 9543,
      "etkinliği": 9544,
      "sıradan": 9545,
      "çevrim": 9546,
      "kesint": 9547,
      "oluşur": 9548,
      "yolculuğ": 9549,
      "hanedan": 9550,
      "şarkılar": 9551,
      "hayvanların": 9552,
      "kerem": 9553,
      "melek": 9554,
      "unes": 9555,
      "marmar": 9556,
      "lanacağı": 9557,
      "251": 9558,
      "bayraktar": 9559,
      "alim": 9560,
      "lemesi": 9561,
      "ox": 9562,
      "richard": 9563,
      "infaz": 9564,
      "mutabakat": 9565,
      "içme": 9566,
      "kayıtlı": 9567,
      "ebilmek": 9568,
      "olaydan": 9569,
      "müşteriler": 9570,
      "aşan": 9571,
      "farkındalık": 9572,
      "kaliforni": 9573,
      "cur": 9574,
      "şimdiden": 9575,
      "deme": 9576,
      "sanıklar": 9577,
      "varyan": 9578,
      "ektif": 9579,
      "meniz": 9580,
      "soruşturması": 9581,
      "kısmen": 9582,
      "larınız": 9583,
      "vatandaşlarımız": 9584,
      "geçmesi": 9585,
      "adamın": 9586,
      "üyü": 9587,
      "dolay": 9588,
      "komş": 9589,
      "buçuk": 9590,
      "kolom": 9591,
      "orkestra": 9592,
      "tünel": 9593,
      "türkler": 9594,
      "getirilmesi": 9595,
      "öncelikli": 9596,
      "sevgili": 9597,
      "futbolcudur": 9598,
      "enkaz": 9599,
      "hassasiyet": 9600,
      "cansız": 9601,
      "1945": 9602,
      "sendro": 9603,
      "saatlik": 9604,
      "brek": 9605,
[...]
